#version: 0.2
e n</w>
e r
i n
t h
c h
e n
e r</w>
a n
u n
t i
e s
e i
a r
th e</w>
d i
o r
o n</w>
o n
l i
e s</w>
s t
c h</w>
a l
r o
e l
i s
i n</w>
r e
s i
w i
a u
d er</w>
i s</w>
a t
e in
t o</w>
o f</w>
an d</w>
e d</w>
o u
o m
a s</w>
di e</w>
un d</w>
d en</w>
in g</w>
r a
a t</w>
r i
s ch
a n</w>
t e</w>
a ti
b e
g e
a s
o r</w>
d e
u r
un g</w>
t en</w>
T h
a b
g en</w>
i e</w>
i t
o l
v er
u s
a l</w>
m en
t er
l e
l e</w>
p o
i t</w>
t e
v e</w>
g e</w>
t s</w>
n e
f ü
p ro
d er
n o
l y</w>
a c
a m
h r
ch t</w>
n i
is t</w>
s e
d e</w>
v i
ch en</w>
z u</w>
f or</w>
l o
s p
q u
c on
ar e</w>
f f
Th e</w>
r es
ati on</w>
w er
f or
th at</w>
ti on</w>
en t
om m
i l
t h</w>
v on</w>
ein e</w>
fü r</w>
c e</w>
b e</w>
t z
h i
s e</w>
S ie</w>
s u
m a
h a
l a
ei n</w>
o p
en t</w>
e m
ou r</w>
e c
z u
men t</w>
ro p
g en
t a
ch e</w>
u rop
au f</w>
o u</w>
i e
di es
d a
b er
ei t</w>
er e</w>
s t</w>
l l</w>
b er</w>
V er
e m</w>
g i
th is</w>
d as</w>
m it</w>
t er</w>
el l
a r</w>
d es</w>
D ie</w>
i m
g es
wi th</w>
u l
un gen</w>
on s</w>
n en</w>
E urop
e x
c om
t r
h o
li ch</w>
p or
s o</w>
e h
y ou</w>
c i
no t</w>
s en</w>
I n
in d</w>
ni cht</w>
d u
l d</w>
f i
c k
wer den</w>
A n
c o
w or
wi r
u m</w>
ha ve</w>
w e</w>
al l</w>
m o
r ei
a d
er i
an d
w ei
k e</w>
wi ll</w>
a h
si on</w>
wi r</w>
t u
i m</w>
de m</w>
a f
a g
b es
t ra
a po
w e
ä n
s h
apo s</w>
p ar
ou ld</w>
at e</w>
ti m
g h
w h
o t</w>
s er
e d
un g
r u
w as</w>
as s</w>
si ch</w>
t o
b y</w>
s ind</w>
t y</w>
R e
b u
a p
W i
m e
al l
d en
h ab
e b
omm is
au ch</w>
P ro
H o
g t</w>
z i
m en</w>
al s</w>
d ass</w>
A u
a li
a ch
a ch</w>
i ch</w>
ati on
s o
S ch
u m
D i
qu ot</w>
U n
te l</w>
c an</w>
wir d</w>
is chen</w>
ro m</w>
h as</w>
au s
S t
ö n
t ed</w>
er s</w>
P ar
B e
u t
I n</w>
p l
f in
ung s
g u
f rom</w>
ou t</w>
h al
o o
u r</w>
ab le</w>
W e</w>
E n
2 0
D as</w>
ein en</w>
li e
an t</w>
in g
ü ber</w>
s ol
an n</w>
l ei
p er
w en
ur e</w>
th er</w>
a hr
for m
h at</w>
v er</w>
ti on
t en
l u
ge b
es s</w>
m us
on e</w>
k e
i r
es e</w>
er t</w>
d o
t s
hab en</w>
al so</w>
in ter
I ch</w>
s a
au s</w>
ommis sion</w>
y our</w>
b ei
ü r
k ön
ein er</w>
Th is</w>
p e
u s</w>
g ra
h r</w>
E r
t ri
d s</w>
w hi
po li
g an
Wi r</w>
d ent</w>
ou r
i li
g r
A r
an y</w>
sch af
H er
er en</w>
al ly</w>
v or
E in
m ö
g li
a m</w>
es t
s el
be i</w>
m e</w>
ä r
or e</w>
st en</w>
r ä
a k
i g
l en</w>
ver y</w>
I t</w>
A us
whi ch</w>
re c
e u
h en</w>
w el
te t</w>
e an</w>
men ts</w>
k t</w>
r an
ti ons</w>
l in
g el
j e
por t</w>
e l</w>
kön nen</w>
w a
s ti
20 0
s en
wi e</w>
at ed</w>
a ge</w>
es t</w>
au f
Europ ean</w>
e t
o der</w>
c k</w>
v o
it y</w>
gh t</w>
ch te</w>
A l
e p
com p
d ur
s sen</w>
st ell
ch ti
k ing</w>
g ro
si e</w>
ch t
m er</w>
st a
er n</w>
f t</w>
w ar
zu r</w>
f ol
E s</w>
un d
c u
U ni
A b
m in
un s</w>
po s
m ore</w>
M it
e y</w>
F ra
D er</w>
w ur
c al</w>
du c
k en</w>
ü n
it s</w>
as t</w>
o h
d ar
M a
w ould</w>
el y</w>
en d</w>
ti ve</w>
ati ons</w>
sch en</w>
o ff
t ing</w>
c es</w>
is che</w>
y st
m ar
k eit</w>
S p
dies e</w>
0 0</w>
co un
z ei
at es</w>
er ung</w>
V or
ein em</w>
e t</w>
p res
m ü
b r
as e</w>
es s
be en</w>
Uni on</w>
Ho tel</w>
li chen</w>
der n</w>
sh ould</w>
un ter
mus t</w>
at en</w>
d o</w>
tz t</w>
k ann</w>
n e</w>
c re
n ation
p p
b le
b t</w>
li che</w>
o b
t ei
p ri
f u
an ce</w>
t el
e ar
m it
g er</w>
poli ti
ü ber
u p</w>
P res
st r
hr e</w>
e v
c y</w>
En t
omm en</w>
por t
b o
M r</w>
i el
d es
an der
m i
b le</w>
f er
ou s</w>
a v
ti es</w>
g er
a d</w>
n ach</w>
st e</w>
p u
fü hr
ar y</w>
dies er</w>
no ch</w>
ch er</w>
d ing</w>
n ur</w>
ne u
ei r</w>
l an
t re
ne h
G es
no w</w>
k s</w>
da y</w>
ö r
m u
e g
p r
f en</w>
t w
f re
ec t</w>
eh r</w>
ac c
zu m</w>
mü ssen</w>
un ser
th eir</w>
rä si
h in
w s</w>
li ke</w>
E U</w>
t ro
Pres i
Un ter
di s
g h</w>
ab out</w>
am e</w>
K on
bu t</w>
i c
b en</w>
w n</w>
f ac
t ung</w>
v or</w>
is i
t ä
ges ch
h eit</w>
se hr</w>
m an</w>
v ol
th ere</w>
Europ ä
o ther</w>
s om
G r
ei ten</w>
im mer</w>
m p
h er
Her r</w>
C ommission</w>
tim e</w>
ch er
an n
s on
tz en</w>
b en
s ein</w>
k on
un s
or t</w>
h e</w>
b li
or d
B er
P räsi
c lu
K ommission</w>
f e
g o
ne w</w>
ü ck
gra m
c omm
ar i
ä l
Presi dent</w>
st ri
B eri
r el
l ä
as s
h nen</w>
em ber</w>
or i
y s</w>
dur ch</w>
k l
for e</w>
ing s</w>
In ter
ge h
tim m
on ly</w>
en ce</w>
th ese</w>
qu i
p re
F or
t ur
ti v
ch n
wur de</w>
be t
schaf t</w>
B u
1 9
w ar</w>
ar d</w>
vi e
en s
de t</w>
d ed</w>
m on
w is
P o
st ru
al e</w>
g ung</w>
ch ten</w>
wor k</w>
oo d</w>
si on
m an
e ff
b i
pro duc
st eh
s yst
al le</w>
C o
dies em</w>
el t</w>
ab er</w>
ri t
m ehr</w>
in form
p le
Z u
fi r
n ah
ec i
n o</w>
w ä
tr an
in i
l ung</w>
wei ter
sch e</w>
J ahr
sol l
su p
im port
v el
ne t</w>
st at
r is
in n
t es</w>
ac e</w>
th ey</w>
B es
g re
wi ck
an k</w>
ex p
m s</w>
us t</w>
t n
ci al</w>
st ü
wa y</w>
th er
ge m
G e
ch an
Au f
k ommen</w>
sp e
Par la
o m</w>
ar e
com e</w>
da ß</w>
ber ei
c tion</w>
v ed</w>
li a
on g</w>
con t
ne ed</w>
k te</w>
1 0</w>
men t
d ung</w>
M e
gi bt</w>
f ahr
ol o
wh at</w>
res p
l and</w>
wen n</w>
er n
in e</w>
di es</w>
mö chte</w>
ges t
el le</w>
ho tel</w>
h ere</w>
neh men</w>
h and
S ta
ser vi
i c</w>
f ra
h el
ation en</w>
f un
ili ty</w>
M ar
m y</w>
wi chti
le g
a i
po si
m any</w>
Europ e</w>
an t
op le</w>
M en
h er</w>
S o
ent r
fu l</w>
us e</w>
v es</w>
ar bei
er g
st e
di ff
hal ten</w>
hi er</w>
l au
al en</w>
g es</w>
re port</w>
wi th
en s</w>
lie ß
a il
us am
b ie
su b
Y ou</w>
ati ve</w>
si ble</w>
lia ment</w>
c ri
sch ie
d r
re gi
I hnen</w>
de vel
mo st</w>
an s</w>
wer e</w>
o ch</w>
la r</w>
ein es</w>
h e
Di ese</w>
import ant</w>
on der
U m
b a
ra l</w>
am p
tz ung</w>
or s</w>
th ing</w>
pe ople</w>
Par liament</w>
c le
as sen</w>
nation al</w>
g lich</w>
po in
i f</w>
b ar
i st
mus s</w>
Präsi dent</w>
pro c
vi el
S u
f e</w>
th o
li ch
ge t</w>
B ei
uns ere</w>
l ar
u e</w>
a ff
S i
geb en</w>
sp eci
m at
pro ble
f o
k eine</w>
Th ere</w>
er k
ti gen</w>
L i
h ei
C on
em p
un der
ti g</w>
C h
Re gi
re g
z w
op er
c ation</w>
au se</w>
ta ke</w>
b ar</w>
c ul
st ar
g lei
we ver</w>
ma ke</w>
m is
b is</w>
ell en</w>
e con
in to</w>
g keit</w>
e ment</w>
Mit gli
inform ation</w>
I hre</w>
z en</w>
el l</w>
st än
sti tu
ag a
fin den</w>
hal b</w>
th an</w>
D e
devel op
hr en</w>
som e</w>
M o
un i
Ü ber
st er</w>
con c
f ri
qu es
dies es</w>
r on
pro vi
Beri cht</w>
stell en</w>
v en
I f</w>
n is
w er</w>
i l</w>
wel l</w>
ro u
fir st</w>
n u
v en</w>
ap p
Q u
for m</w>
de ut
k tion
t t
In form
si te</w>
l t</w>
sch ließ
en den</w>
usam men
e urop
Th at</w>
N o
in s</w>
c c
Pro ble
gro ß
en n</w>
par ti
at eg
di rec
v ing</w>
c an
j o
z e</w>
for der
e fore</w>
lin e</w>
ho w</w>
P er
R i
at ing</w>
Europä ischen</w>
th em</w>
ag re
tri es</w>
ali ty</w>
M ember</w>
pu bli
or y</w>
re d</w>
s ch</w>
k o
pro pos
b eit</w>
hr er</w>
St ates</w>
g ood</w>
at z</w>
europ ä
i ge</w>
un den</w>
r ü
p a
s ame</w>
ac k
ac k</w>
ie l</w>
sp re
en n
sup port</w>
Mitgli ed
is su
il li
coun tries</w>
eb en</w>
t or</w>
de c
Co un
tra g</w>
tä t</w>
syst em</w>
ur es</w>
N e
n ach
z ah
T a
d a</w>
k om
p h
i hre</w>
se e</w>
ri ght</w>
c ol
ro om</w>
Parla ment</w>
dies en</w>
i de
x t</w>
o ver</w>
en de</w>
eu te</w>
wh o</w>
w oh
vo m</w>
st and
wi e
j ust</w>
un ter</w>
be g
n at
Pro du
Europ a</w>
tr ä
mar ke
av ail
y p
econ om
W enn</w>
ä ch
s er</w>
wh en</w>
b in
tw o</w>
ra ti
u p
ci l</w>
in clu
d am
gh ts</w>
F ü
l er</w>
O r
S er
om s</w>
ma de</w>
in di
c lo
ear s</w>
su ch</w>
I m</w>
l es</w>
Ent wick
F or</w>
Coun cil</w>
E x
lo o
D es
re ad
Ges ch
G er
ein g</w>
hab e</w>
y e
ein f
resp on
w ür
S tr
el e
n um
olo g
ß er
ge gen</w>
d at
st s</w>
zw ischen</w>
Mitglied sta
pl ace</w>
bes onder
y ears</w>
h t</w>
ö ff
diff er
S e
l us
pro gram
Ar bei
m al</w>
unser er</w>
ä u
ah r</w>
j ed
Ber ei
v is
F in
it ä
H au
at er</w>
t schaf
wir k
ac t</w>
we en</w>
pos sible</w>
un kt</w>
t ure</w>
n ung</w>
c ur
Vor sch
s ed</w>
k eiten</w>
gli ch
ö s
g a
all s</w>
de b
i d</w>
w al
en ts</w>
poli cy</w>
sch ei
as ed</w>
ap pro
bet ween</w>
in k</w>
ther efore</w>
am en</w>
t om
c our
fin an
N ach
w ant</w>
A m
p er</w>
g ab
ma y</w>
W ei
j ec
Di es
ter n</w>
ent ly</w>
z eu
jed och</w>
avail able</w>
E in</w>
lo w</w>
br au
ti ge</w>
in u
f f</w>
an i
en d
tion al</w>
b re
o k
p la
vie w</w>
f ten</w>
Mitgliedsta aten</w>
2 0</w>
ch ar
tr y</w>
m ich</w>
be wer
y ing</w>
j ect</w>
f ur
s ho
wor ld</w>
Di es</w>
si ve</w>
wei se</w>
w n
L än
Fra u</w>
for t
f t
M on
li c
me di
all en</w>
Ä n
p f
a st
l än
s hi
or gan
en ti
or der</w>
k tion</w>
comp le
si tu
Z eit</w>
Z usammen
s es</w>
Wi r
er rei
ver n
h is</w>
d ann</w>
wh ere</w>
ei g
v el</w>
Bu t</w>
cu st
D at
ander en</w>
an ge
T e
f ind</w>
ge ment</w>
us ed</w>
z ie
Än der
en g
it te</w>
con si
u tion</w>
c ause</w>
A s</w>
wur den</w>
er te</w>
p en
se hen</w>
are a</w>
lo b
do es</w>
s ur
th rou
par t</w>
w är
ex c
r en
B il
den en</w>
ei te</w>
ha d</w>
ff en</w>
c li
K o
A ll</w>
i ce</w>
neu e</w>
d an
c ar
ro oms</w>
b eing</w>
r au
c er
Fra ge</w>
en th
ter s</w>
men d
af ter</w>
il l
W e
s k
te chn
soll ten</w>
19 9
em s</w>
steh en</w>
t ly</w>
ta in</w>
co m</w>
ne c
unter stü
soll te</w>
den ti
ck en</w>
u tz
res s</w>
s m
g s</w>
ti eren</w>
mu ch</w>
read y</w>
sta y</w>
T ei
in st
C omm
g ar
nah men</w>
de mo
un ity</w>
isi on</w>
S o</w>
ä tz
ß en</w>
gem ein
f ul
ye ar</w>
ne ed
gest ell
k t
an g</w>
geh t</w>
us in
aus ge
ä f
el s</w>
O ur</w>
h ol
l ast</w>
B o
ch ts</w>
bes ch
l l
th en</w>
si g
f ast</w>
k un
ta in
we i</w>
c or
w ol
S it
ti c
K om
o wn</w>
S yst
2 4</w>
ar ly</w>
poin t</w>
la ge</w>
ou se</w>
cust om
st and</w>
sch n
ungs an
R o
h eute</w>
Europä ische</w>
m m
be d
W ie</w>
ommis sion
vie ws</w>
Ein e</w>
ev en</w>
Inform ationen</w>
k now</w>
bes te
res ul
W hat</w>
w ing</w>
p i
a ir
wa ys</w>
3 0</w>
fi ed</w>
v al
to o</w>
berei ts</w>
fahr en</w>
be lie
ag es</w>
H i
ch ts
Fü r</w>
5 0</w>
c a</w>
Po li
fre e</w>
l assen</w>
is e</w>
n t</w>
om e</w>
can not</w>
Men schen</w>
tho se</w>
G en
ä h
h um
el n</w>
en en</w>
s or
ei gen
200 9</w>
le gen</w>
W eb
ant wor
marke t</w>
t ungen</w>
f es
lie gt</w>
M ö
gel e
gre at</w>
Pro gram
si s</w>
tran s
f tw
a u</w>
B ür
M it</w>
in v
in cre
sp ar
ftw are</w>
deb ate</w>
gan z</w>
G ro
servi ce</w>
L ei
K ol
el d</w>
G eb
ge hen</w>
h ö
p s</w>
ö ß
fin det</w>
sel f</w>
c ould</w>
ten s</w>
gen er
b il
1 2</w>
sp iel
je tzt</w>
g ri
pro te
ou gh</w>
tion en</w>
sel b
z wei</w>
differ ent</w>
sp ra
s timm
k ed</w>
g o</w>
b ility</w>
be cause</w>
s c
L o
am p</w>
d ra
bie tet</w>
b ri
ig n
wä hr
s eine</w>
es en</w>
vo te</w>
le tz
al o
per s
ge w
dam it</w>
p age</w>
pr in
J ahr</w>
Her r
W or
Ho wever</w>
st ra
h ar
p ra
ä hr
ma chen</w>
T o
th ink</w>
ver schie
sti ll</w>
ab ility</w>
v e
qu ality</w>
cle ar</w>
R ei
Ma ß
gen d</w>
par t
st an
ander e</w>
politi cal</w>
cour se</w>
in st</w>
publi c</w>
ch es</w>
r e</w>
ti c</w>
P ri
al t</w>
tel s</w>
l ü
chan ge</w>
l at
Si cher
in du
z eit</w>
Th ey</w>
ci p
i gen</w>
es ts</w>
di g</w>
c ent
de l</w>
num ber</w>
f il
s h</w>
i h
te e</w>
Jahr en</w>
in gen</w>
z ur
G em
aga inst</w>
D a
Ri cht
M i
se t</w>
viel e</w>
R es
woh l</w>
in ce</w>
si de</w>
develop ment</w>
usin ess</w>
k es</w>
vi du
führ t</w>
bu il
with out</w>
al ready</w>
si ons</w>
h än
cur r
re e</w>
n is</w>
throu gh</w>
ful ly</w>
ut ure</w>
g rei
e f
oh ne</w>
neu en</w>
f am
T ra
R at</w>
st u
inter national</w>
en z</w>
la g</w>
ou t
0 00</w>
k omm
Th em
econom ic</w>
politi k</w>
vi el</w>
with in</w>
c t</w>
Z ei
G ä
A d
ques tion</w>
Z immer</w>
ber s</w>
bo th</w>
Gr und
re as
op e</w>
un der</w>
ge gen
c ed</w>
so wie</w>
Un d</w>
st er
issu e</w>
ver y
1 5</w>
ti ert</w>
som e
belie ve</w>
f rei
m er
at ely</w>
ou s
ges e
gu t</w>
f uture</w>
ut es</w>
ri ghts</w>
ver fü
proble m</w>
unser en</w>
c ated</w>
d re
mö glich</w>
bes t</w>
C ommission
gestell t</w>
bes ser
a b</w>
produc ts</w>
conc ern
Ver fü
dur ch
ein ige</w>
hi gh</w>
kl är
l ong</w>
servi ces</w>
z us
gen ommen</w>
si cht</w>
b oo
fi c
vi ron
europä ischen</w>
dat a</w>
wä h
re qu
p t</w>
off ers</w>
su cc
D ur
wie der</w>
Bes ch
G u
er ten</w>
f le
oper ation</w>
b in</w>
n te</w>
B ed
F ran
ö l
n er</w>
se c
P rei
steh t</w>
mi r</w>
st en
in nen</w>
on en</w>
B ar
K in
inter nation
b al
me as
to day</w>
be fore</w>
c ase</w>
indi vidu
z ep
et was</w>
C hin
k er</w>
C om
au r
b el
ai r</w>
f alls</w>
W as</w>
öff ent
ch ter
coun try</w>
sa y</w>
eb en
z wei
t al
k ten</w>
Th ese</w>
c us
posi tion</w>
f as
hi st
ali tät</w>
l ungen</w>
stru c
ma in</w>
as si
ar ds</w>
acc ep
b ur
it ed</w>
Commission er</w>
off er</w>
s atz</w>
per son
ali si
ommis s
g lob
sch on</w>
V iel
Mö glich
s s</w>
vi ce</w>
k ur
con su
t yp
situ ation</w>
K ommiss
di tion</w>
führ en</w>
ch ni
ma cht</w>
Fin an
ment al</w>
ter n
T o</w>
B oo
res t
be k
da für</w>
at te</w>
com pe
Entwick lung</w>
m ei
Gem ein
nis se</w>
lei st
W el
l er
L e
c ity</w>
proc ess</w>
te m
hi gh
wol len</w>
I hr</w>
da zu</w>
gr öß
N i
St and
k ti
1 1</w>
L age</w>
exp eri
res ol
kun ft</w>
g ed</w>
ol d</w>
F ir
ru pp
t schaft</w>
Unter nehmen</w>
e very</w>
W elt</w>
D is
in stitu
re qui
i g</w>
der s</w>
in ten
si mp
Sta d
hel p</w>
L u
pu t</w>
d y</w>
li cher</w>
T ran
aur ant</w>
ur o</w>
c ap
W hen</w>
al le
ra p
and s</w>
ges am
M an
er halten</w>
wir tschaf
en z
ür lich</w>
mit tel
al ten</w>
Berei ch</w>
T er
ig n</w>
pri v
R us
emp lo
mö gli
is ch</w>
l ess</w>
lo ssen</w>
i ci
bie ten</w>
en viron
ch il
Au ch</w>
go vern
än der
wh y</w>
im pro
ti al</w>
An d</w>
f er</w>
sa gen</w>
stell ung</w>
m eine</w>
b ro
A ber</w>
Ar beit</w>
si cher
nu n</w>
da m</w>
p ur
H in
ah l</w>
m or
S eite</w>
Per son
el ec
einf ach</w>
itä t</w>
Proble m</w>
d ru
ha pp
en st
Inter net</w>
er fol
i hrer</w>
con tro
Be i</w>
ho wever</w>
c l
U S
L ös
ent wick
e very
o l</w>
reg ul
en erg
D ar
ach ie
no v
la gen</w>
de u
gan g</w>
ri chti
Fra gen</w>
z el
ar beit</w>
selb st</w>
mö chten</w>
in s
k no
n ing</w>
O n
f äl
ri ty</w>
rec ei
s ing</w>
w in
stell t</w>
shi p</w>
s am
le vel</w>
ta il
o s</w>
i ly</w>
war d</w>
in te
N at
t t</w>
Hi er</w>
K li
b lei
h in</w>
i en</w>
ne xt</w>
s ere</w>
ch en
tu n</w>
d ings</w>
propos al</w>
H and
b ack</w>
eff ec
e ach</w>
b usiness</w>
app li
f eh
s af
as k</w>
it al</w>
W ar
Poli ti
S a
trä ge</w>
t liche</w>
v ari
Ab stimm
be gr
w es
al ways</w>
pres ent
comm it
Änder ungsan
st o
se cu
t wen
is l
par tn
aga in</w>
gi ve</w>
se tzung</w>
Maß nahmen</w>
nah me</w>
zei ch
ti vi
tra gen</w>
ta ken</w>
fac t</w>
O n</w>
sa id</w>
nec ess
t sch
im ple
amp le</w>
tr au
20 10</w>
Au f</w>
de m
re m</w>
ti g
we b
wor den</w>
Al le</w>
sm all</w>
fur ther</w>
A t</w>
so cial</w>
ver si
dis cus
me ans</w>
h äl
bu d
d ate</w>
ec k</w>
te xt</w>
t lichen</w>
sp ort</w>
N u
Pro je
l ungs
ac tion</w>
J e
Verfü gung</w>
D em
a gement</w>
V i
son dern</w>
de fin
wichti g</w>
c ra
em bers</w>
tu ral</w>
need s</w>
B en
U hr</w>
un de</w>
eh en</w>
ke y</w>
at s
spra che</w>
da ys</w>
in ing</w>
y n
al lo
F un
x i
qu e</w>
wn lo
ver wen
N or
y ment</w>
au tom
l ed</w>
is h
ge t
c ally</w>
ma j
dar auf</w>
I hrer</w>
acc ess</w>
sch en
D eb
E r</w>
i hr</w>
au th
f ar</w>
o ver
b itte</w>
h ope</w>
proble ms</w>
es sen
a mend
hum an</w>
pres ent</w>
custom ers</w>
zei gt</w>
ne t
arbei ten</w>
B a
s eri
di re
Herr n</w>
s ei
wis sen</w>
wür de</w>
fe w</w>
is m</w>
ti z
a de</w>
W in
Unter stü
F re
se tzen</w>
k ün
de li
F rei
di g
m ati
F o
sh all</w>
por ts</w>
s ure</w>
fi c</w>
Am eri
comp any</w>
olo gi
M in
ili ties</w>
P le
th ree</w>
sch ri
or en</w>
g ent
st af
p rä
it h</w>
p unkt</w>
P l
gen den</w>
coun t</w>
Be deut
dur ing</w>
200 8</w>
provi de</w>
m a</w>
R u
t lich</w>
staf f</w>
loo k</w>
necess ary</w>
spe zi
T re
or ity</w>
energ y</w>
I hren</w>
K ar
sch ein
S tu
ak fast</w>
w o</w>
Jahr e</w>
spre chen</w>
lu g
G o
con di
d ly</w>
se con
d lich</w>
geh ör
at e
U r
E U
Bedeut ung</w>
D o
sol u
o b</w>
besonder e</w>
pr ü
is cher</w>
pro du
comm on</w>
d ungen</w>
i eren</w>
ar an
war en</w>
Ple ase</w>
ord nung</w>
M u
Me di
S tra
finan cial</w>
is h</w>
P al
i ert</w>
ag t</w>
an ts</w>
entr e</w>
Unterstü tzung</w>
I s
ad op
e k</w>
ar o
z ü
ff e</w>
ex ample</w>
op p
ol e</w>
for t</w>
gese tzt</w>
De ut
bes timm
R ah
g ar</w>
L and</w>
si bility</w>
gab e</w>
are as</w>
as es</w>
ein mal</w>
mu ß</w>
wor t</w>
br ingen</w>
n or
Arbei ts
F all</w>
ke l</w>
lar ge</w>
N o</w>
z ed</w>
R est
g lau
lich keit</w>
Hau sh
p eri
st är
vol l
O p
lo s</w>
ann t</w>
S te
spre ch
our s</w>
A f
fol lo
gra tion</w>
agre ement</w>
H il
lo cation</w>
J u
Chin a</w>
D aten</w>
hei ts
di d</w>
ge f
k an
ktion en</w>
dr en</w>
wär e</w>
all er</w>
K ri
col le
rü h
ell ent</w>
bet ter</w>
tu r</w>
i a</w>
d el
k ein</w>
ad v
lä s
m ul
Them a</w>
Er geb
pro mis
en ces</w>
L and
Vorsch lag</w>
leg al</w>
a k</w>
in de
cont in
da her</w>
Abstimm ung</w>
k a</w>
ig er</w>
lin ie</w>
ul es</w>
W ith</w>
cu lar</w>
En erg
op en</w>
so zi
ver b
An t
s einer</w>
es sen</w>
ol l
weiter e</w>
beste ht</w>
T i
ad d
i hren</w>
li ck</w>
ch tet</w>
z un
Aus sprache</w>
et t
Län der</w>
G re
w ach
Syst em</w>
al y
se l</w>
p ack
us ing</w>
on line</w>
ut z</w>
ä hi
y er</w>
m b
Par tn
en nen</w>
ri cht
an s
olog y</w>
s se</w>
op port
gesch lossen</w>
secu rity</w>
Ar t</w>
Pro z
re ally</w>
h eiten</w>
en e</w>
Ver ein
n ten</w>
d one</w>
ie t</w>
Sp iel
N ach</w>
f li
dre i</w>
en jo
sol l</w>
ci tiz
m ä
meas ures</w>
ti l</w>
bei m</w>
illi on</w>
K unden</w>
do ch</w>
e qui
n äch
pr o</w>
P a
mat ter</w>
wei ter</w>
B el
at ten
k tiv
all es</w>
st re
g s
speci al</w>
P or
ous ly</w>
da bei</w>
t al</w>
gen de</w>
dar f</w>
groß e</w>
c ti
gen heit</w>
tro l
di tional</w>
me hr
uns er</w>
fes sion
Zusammen arbeit</w>
leg isl
ak tu
Un sere</w>
tim es</w>
min ist
t able</w>
s eit</w>
tri bu
sa m</w>
lus s</w>
ff t</w>
res er
men te</w>
ob jec
f lo
si c</w>
B eh
om en</w>
Tei l</w>
e p</w>
2 5</w>
s tim
M ein
fu ll</w>
ch o
chter stat
parti cular</w>
consi der
f te</w>
t ors</w>
sp or
L a
compe ti
Dies es</w>
ent lich</w>
b ased</w>
M r
mo der
komm t</w>
Des halb</w>
Proble me</w>
li fe</w>
por te
alle m</w>
Ar ti
al th</w>
u ation</w>
ass ung</w>
v öl
se qu
ver sion</w>
Z iel</w>
k ri
ci es</w>
Re chts
lo cated</w>
i ma
co operation</w>
t te</w>
s on</w>
gro up</w>
er forder
Ho tels</w>
str y</w>
te chni
B est
i zi
ab li
be tri
ear ch</w>
th ank</w>
li st</w>
curr ent</w>
er sten</w>
s ince</w>
wor king</w>
ß t</w>
r y</w>
aff en</w>
d ri
al er</w>
es se</w>
W oh
se ver
ic ul
W o
Gesch äf
An wen
citiz ens</w>
T ur
wor d</w>
gab en</w>
ß e</w>
wirk lich</w>
w are</w>
f est
200 7</w>
str ateg
wel come</w>
ma il</w>
Um wel
re views</w>
W er
tr u
chil dren</w>
n ess</w>
diff icul
Ta g</w>
mit ted</w>
Kommiss ar</w>
glei ch
ti gt</w>
Ho w</w>
er ungs
go ing</w>
fra ge</w>
EU R</w>
t sp
wis h</w>
U m</w>
Ent schei
y ed</w>
ex tre
t ten</w>
ent schei
organ is
be l</w>
aro und</w>
us er</w>
hand elt</w>
ra tion</w>
h ear
syst ems</w>
D ank</w>
ation s
ap pe
G i
Gä ste
g ing</w>
d ge</w>
E uro</w>
h au
ili t
tre ten</w>
ens ure</w>
Hau p
secon d</w>
1 00</w>
H ouse</w>
exc ellent</w>
c ou
su m
unterstü tzen</w>
ßer dem</w>
tz e</w>
F ol
si cht
Dies er</w>
Beri chterstat
some thing</w>
war ds</w>
Aus sch
Parla ments</w>
issu es</w>
T ex
ec ted</w>
Z iel
in vol
mat eri
k re
gi ven</w>
be come</w>
le a
brau chen</w>
r in
ess es</w>
Men schen
d ür
ris e</w>
autom ati
re al</w>
rap porte
B i
stat t</w>
den n</w>
f all</w>
el s
ai d</w>
ge ther</w>
ie ty</w>
x im
1 24</w>
star t</w>
k auf
is ti
e a
f av
sp iel</w>
ing ungen</w>
f an
g eri
E ben
E u
b l
di gen</w>
ein zi
all er
Zu kunft</w>
tei l</w>
h il
z o
si chti
ge führt</w>
F ri
m erk
Ser vice</w>
su pp
cont act</w>
at s</w>
su chen</w>
comp ani
P u
an other</w>
rit te</w>
lie gen</w>
L eb
da von</w>
j u
sa ge</w>
Mr s</w>
Boo king</w>
ent fer
F am
as y</w>
il t</w>
do wn</w>
nat ürlich</w>
so ftware</w>
gen en</w>
Re cht</w>
M or
no twen
Län dern</w>
Bür ger</w>
program me</w>
den ce</w>
R ol
pl ac
tur n</w>
errei chen</w>
wei l</w>
Sicher heit</w>
pra cti
fer ence</w>
resul t</w>
bewer tungen</w>
Stad t</w>
en ing</w>
d ou
ques tions</w>
m us</w>
A n</w>
O b
L ie
ran ge</w>
p as
F ahr
com es</w>
Gäste bewertungen</w>
hän gi
s y
f a
S k
an zu
fi zi
for ward</w>
w ed</w>
d u</w>
1 3</w>
ini ti
prote ction</w>
in f
ing le</w>
zie h
1 4</w>
t ungs
letz ten</w>
L in
ir d</w>
e i</w>
unser em</w>
clo se</w>
ar t</w>
at ten</w>
geb o
str eng
tt le</w>
web site</w>
do cu
h ä
politi schen</w>
p ho
part ment</w>
g ress</w>
ke hr
im p
wh e
all ed</w>
Kol legen</w>
wi eri
U S</w>
Ent schließ
h an
produc tion</w>
experi ence</w>
at t
a z
F lug
resol ution</w>
est abli
re co
mo dern</w>
li n</w>
er ste</w>
1 8</w>
our ces</w>
si a</w>
kön nte</w>
com ing</w>
I ra
F rüh
F u
ü h
ta ins</w>
b au
lei ch
P unkt</w>
in nov
bre akfast</w>
c entre</w>
f ung</w>
Al s</w>
w ün
th ough</w>
zur ück
wh ole</w>
fü l
N eu
la w</w>
gu te</w>
wi de</w>
M illi
dire kt</w>
begr ü
führ ung</w>
fort able</w>
j a</w>
to gether</w>
c ris
Möglich keit</w>
contin ue</w>
mon ey</w>
W ett
O ne</w>
dar über</w>
pri ce</w>
l as
So ftware</w>
b an
ör der
ma in
m einer</w>
at or</w>
inn er
währ end</w>
g ern</w>
th em
c el
man agement</w>
pro fession
cul tural</w>
lan gu
ple ase</w>
ven tion</w>
w eit</w>
op tim
L an
ä mp
4 0</w>
E le
w an
un ic
ei cht</w>
u al</w>
H e</w>
Wir tschaf
fo und</w>
We g</w>
stri bu
lo t</w>
con tribu
do ws</w>
L is
g ilt</w>
be findet</w>
Arti kel</w>
Haush al
Ho st
li ght</w>
ir e</w>
c tions</w>
ment ation</w>
Web site</w>
K re
an y
Or gan
in t</w>
1 6</w>
tra de</w>
Gro up</w>
ent er</w>
condi tions</w>
le ben</w>
ba sis</w>
s einen</w>
o d</w>
gu aran
i es</w>
A p
produc t</w>
denti n</w>
groß en</w>
O ff
t es
S el
th ings</w>
M ini
ko sten
Produ kte</w>
to p</w>
in es</w>
W h
b lo
gele gt</w>
ar ch
wel che</w>
wnlo ad</w>
G rupp
fi le</w>
gr und</w>
Geschäf ts
poin ts</w>
glei ch</w>
ex ten
Politi k</w>
Z wei
cont inu
th s</w>
be au
entr um</w>
t z</w>
ta li
k ra
f y</w>
w ahr
st ance</w>
ac count</w>
Gr ün
u es</w>
po wer</w>
ori ties</w>
speci fic</w>
r än
besonder s</w>
tu ally</w>
bud get</w>
sel ves</w>
eigen en</w>
rit t</w>
rapporte ur</w>
indu stri
viel en</w>
ro le</w>
en zen</w>
co sts</w>
h ör
P e
l a</w>
fe at
F rau
gr und
us e
contro l</w>
re chte</w>
Sp ra
S eiten</w>
sever al</w>
ex ist
Di enst
Rah men</w>
te x
m el
schaf ten</w>
li g
le t</w>
indu stry</w>
d on</w>
zei gen</w>
k m</w>
al es</w>
Fam ili
priv ate</w>
f ähi
gen u
zu g</w>
b ung</w>
En de</w>
ma king</w>
ell er</w>
ta ge</w>
tiv es</w>
di o</w>
qui te</w>
ab ly</w>
is mus</w>
ä m
m es</w>
Wei se</w>
regi on
verschie den
pres s</w>
Program m</w>
Sit uation</w>
ter ms</w>
o th
or ig
be deu
Wett bewer
ge ord
ben ö
ges agt</w>
li g</w>
B itte</w>
person al</w>
pro ject</w>
agre e</w>
at h</w>
e k
go ti
sch er</w>
cer tain</w>
ent sprech
J un
Kin der</w>
e asy</w>
bur g</w>
ver sch
dec ision</w>
A t
US A</w>
B al
Lös ung</w>
so li
gu e</w>
europä ische</w>
ie der
li ttle</w>
Rol le</w>
n ame</w>
h and</w>
in gt</w>
t a</w>
tail s</w>
B ri
compani es</w>
saf e
l s</w>
n ed</w>
gr at
Ma dam</w>
s ingle</w>
fac e</w>
Mein ung</w>
w ater</w>
vi a</w>
en cy</w>
cul arly</w>
P la
verschie denen</w>
des ign
ho li
P ra
ab o
a in</w>
lä ge</w>
är e</w>
n al</w>
er st</w>
I h
B r
us ti
t or
mo di
er war
sp ec
resp ect</w>
Präsi dentin</w>
t ting</w>
a gen
ne goti
In v
regi on</w>
Bei spiel</w>
pla y</w>
p ul
z immer</w>
hel p
ab hängi
W es
ges timm
In stitu
di sp
Un ited</w>
Th er
st ate</w>
ver stän
pers ön
jec ts</w>
V ol
ni fic
we gen</w>
isi ons</w>
Dat en
Sch lus
val ue</w>
fri end
rit ten</w>
ord in
i denti
dür fen</w>
entfer nt</w>
r or
si eh
fra gen</w>
eben falls</w>
per f
follo wing</w>
e ver</w>
vol l</w>
Richt linie</w>
vari ous</w>
sub ject</w>
politi sche</w>
lo s
e ts</w>
un kte</w>
Haup t
Ver antwor
o ff</w>
o ften</w>
mä ß
lich es</w>
ol s</w>
it self</w>
t ter</w>
Gr und</w>
f ar
li eren</w>
parti cularly</w>
sh ed</w>
le ft</w>
is ed</w>
v ely</w>
inclu ding</w>
g lie
o d
Fra ktion</w>
K un
c s</w>
inner halb</w>
ni chts</w>
a way</w>
Af ter</w>
amend ments</w>
ein zel
Bes u
ta g</w>
ell schaft</w>
gu est</w>
cris is</w>
whi le</w>
le ar
den cy</w>
mo sp
de f
th ird</w>
Comm it
con fi
l on
wei sen</w>
cre ate</w>
proc ed
direc tive</w>
Te chn
maj or</w>
ge l</w>
G ra
zie hen</w>
individu al</w>
D ah
at y</w>
oo l</w>
R ück
Finan z
k ar
bli ck</w>
zah l
6 0</w>
f ood</w>
her vor
unter schie
posi tive</w>
l ab
Ben utz
w omen</w>
Er fol
inv est
ro ss</w>
er ungen</w>
200 0</w>
Ger many</w>
s amen</w>
po se</w>
itä ten</w>
ätz e</w>
es sion</w>
ation al</w>
ni ght</w>
Re gel
all en
pro mo
i z
sec tor</w>
Dem ok
ne ten</w>
pl an
er ing</w>
Ih rem</w>
con clu
eff ici
S pe
glob al</w>
lo cal</w>
er mögli
si cher</w>
n ei
k einen</w>
me tho
Ger man</w>
alo g</w>
Commit tee</w>
Comm unity</w>
In di
re com
Dah er</w>
en ter
e di
qu ali
fi cation</w>
d lichen</w>
ver besser
gestimm t</w>
Au s</w>
in a</w>
tu al</w>
K ur
ch ung</w>
to s</w>
li gen</w>
G ar
b ed</w>
op ini
sol ution</w>
adv an
des sen</w>
tran sport</w>
ben ef
es p
he alth</w>
ti gung</w>
Ch ar
part ments</w>
reas on</w>
w th</w>
schließ lich</w>
us s</w>
je der</w>
ur y</w>
res earch</w>
k rati
bei den</w>
L A
ro w</w>
Frau en</w>
z er
i hnen</w>
whe ther</w>
H aus</w>
y o
su ff
k u
tei l
b or
hin aus</w>
de al</w>
I m
m il
i te</w>
g sten</w>
re li
v ision</w>
ori es</w>
R om
appro ach</w>
r ules</w>
Wei ter
w ri
glau be</w>
in stru
m om
wie der
Regi erung</w>
Hil fe</w>
at z
Z ah
D am
finan zi
l and
des ign</w>
h ang</w>
lä u
t ation</w>
Sta aten</w>
Ver sion</w>
A fri
Gen er
se tz
geb ra
em e</w>
ac i
ri cht</w>
H ere</w>
ins besondere</w>
l ing</w>
an der</w>
z usammen
fam ily</w>
ou th</w>
D u
en te</w>
forder ungen</w>
hal te</w>
Ver brau
g in
pro chen</w>
enjo y</w>
fre u
W ähr
dr ück
en ds</w>
ck s</w>
g än
fav our</w>
me et
Str ateg
dan ken</w>
ab ili
ver s</w>
ad ing</w>
wor k
c ted</w>
m ers</w>
clo sed</w>
m illion</w>
at tra
vo ted</w>
sub mitted</w>
L et</w>
comple te</w>
con tra
Mit tel
an ti
ck t</w>
fle xi
fre und
resul ts</w>
friend ly</w>
tur es</w>
D ok
der zeit</w>
Leb ens
In du
S ol
po ol</w>
ati ven</w>
en ten</w>
ge geben</w>
er zi
com fortable</w>
Demok rati
Win dows</w>
gener al</w>
hal f</w>
un til</w>
wor ks</w>
wer de</w>
re cht</w>
on n
on ce</w>
y et</w>
propos als</w>
requi re
Su b
reg ard</w>
Deut sch
c ing</w>
ell eicht</w>
environ ment</w>
w o
tr a</w>
man u
Qu alität</w>
e ments</w>
A ir
au m</w>
ge macht</w>
sh ort</w>
t ar
N amen</w>
le ast</w>
so wohl</w>
da r</w>
Rest aurant</w>
respon sibility</w>
ger e
ges t</w>
unterstü tzt</w>
ma kes</w>
For sch
difficul t</w>
fi eld</w>
1 7</w>
1 9</w>
am es</w>
ran ts</w>
pro gress</w>
Th ank</w>
tei len</w>
je den</w>
N ä
sch i
th e
f el
tion ed</w>
tran spar
D och</w>
B an
requi red</w>
re duc
an ges
Ne w</w>
to wn</w>
berei ch</w>
E mp
parti cip
in tro
cre di
i an</w>
En gli
techn ology</w>
c all</w>
1 8
min utes</w>
Er fahr
comm unic
fun ktion
internation alen</w>
gegen über</w>
bes ten</w>
F eh
emplo yment</w>
s ation</w>
Eu ro
h ome</w>
si tes</w>
ar s</w>
f ang</w>
en ed</w>
wen iger</w>
T V</w>
rest aurant</w>
der en</w>
Me hr
stand ards</w>
kom men
tei le</w>
in o</w>
v ement</w>
f ron
o un
in ed</w>
tivi ties</w>
cer tain
arbei tet</w>
ho ffe</w>
k ol
um fas
Ste u
pre par
sion en</w>
ste p</w>
wichti ge</w>
gu i
ch eck</w>
pro per
Person en</w>
zah l</w>
opport unity</w>
tr ei
so ci
M an</w>
ter m</w>
t an
Sch ul
Mit tel</w>
ak zep
b rei
esp eci
pl es</w>
Be tri
er a</w>
Dok u
p ass
schn ell</w>
stän dig</w>
Sit z
re ali
ter min
Ab geord
k ul
S ep
en ough</w>
simp ly</w>
gen d
gr ün
mei sten</w>
Pro to
cra cy</w>
2 1</w>
200 6</w>
h atte</w>
ar d
Mit arbei
F e
i cal</w>
gen au</w>
tr on
sig nific
kom ple
änder t</w>
dru ck</w>
especi ally</w>
w le
sicht lich</w>
ch ern</w>
sen d</w>
F il
atten tion</w>
c rati
gro wth</w>
beau ti
Dienst leist
lan g</w>
b s
sp ä
ea si
gro und</w>
0 0
u te</w>
K ü
re gel
J an
prin cip
c o</w>
lin ks</w>
tei lung</w>
au rants</w>
ati ves</w>
buil ding</w>
M inu
ide al</w>
rel a
z ent
loo king</w>
B em
to wards</w>
zun eh
rei chen</w>
sch rei
ad s</w>
P ol
an st
an im
F ar
to ber</w>
provi des</w>
Pri v
bin dung</w>
Ant wort</w>
b ank</w>
gehör t</w>
b ili
Fran k
provi ded</w>
wor ds</w>
de ci
I N
beg inn
betri fft</w>
adop ted</w>
äch lich</w>
k ind</w>
d ungs
per form
cul ture</w>
G leich
requ est</w>
need ed</w>
reco g
M embers</w>
ec ts</w>
A s
me work</w>
B au
mit tel</w>
V on</w>
or ding</w>
Z us
ac tivities</w>
h ouse</w>
as p
pl an</w>
d ort</w>
inter est</w>
bedeu tet</w>
hal t</w>
ag o</w>
blei ben</w>
K ul
st or
fort un
incre ase</w>
al tung</w>
lan g
dar an</w>
Lei st
appli cation</w>
Ges und
ben u
up s</w>
ö h
ver k
i chte</w>
p rec
ver s
ch s</w>
cor rec
on a</w>
ta king</w>
ch allen
Indu stri
T E
Europ as</w>
p ic
For tsch
p tion</w>
chan ges</w>
C as
sol che</w>
M y</w>
Regi on</w>
tem ber</w>
safe ty</w>
mm t</w>
W ann</w>
No v
effec tive</w>
stru k
ma ch
t our
F i
zus ätz
govern ment</w>
mö glich
M at
ho st
k lar</w>
s how</w>
Wirtschaf ts
F is
Er klär
gent le
legisl ation</w>
I ni
an aly
un ver
Zei t
v al</w>
spe ak
p rei
d ent
t on</w>
di stribu
succ ess
Sep tember</w>
d est
pro jects</w>
o cc
ti schen</w>
ba u</w>
add ress</w>
P i
opini on</w>
po ten
import ance</w>
ein zu
Tre aty</w>
s le
te te</w>
geb ung</w>
l auf
sp r
J av
D a</w>
ih n</w>
solu tions</w>
gebra cht</w>
est ing</w>
om e
Zusammen hang</w>
Un ser</w>
es ti
pers on</w>
L eben</w>
extre m
direc tly</w>
c ard</w>
Ver hand
mo d
C ar
gentle men</w>
ück sichti
bes ser</w>
er klär
aller dings</w>
res ources</w>
ach ten</w>
k or
Ini ti
e qu
S h
el ess</w>
Kon ta
nach ten</w>
ni mmt</w>
gest at
gu ests</w>
institu tions</w>
I tali
ad dition</w>
Dam it</w>
H ei
äch st</w>
geb ot</w>
alisi erung</w>
In st
so c
sup por
gra m</w>
l ö
Prei s</w>
ac tiv
all ation</w>
erfol grei
s ci
bes t
b is
A c
C or
Energ ie
st y
ein igen</w>
ge wi
T O</w>
w a</w>
W il
Deutsch land</w>
r a</w>
orig in
Au ßerdem</w>
lü s
inclu de</w>
concern ed</w>
Verantwor tung</w>
ü l
ne te</w>
ne ver</w>
D en
so gar</w>
am oun
sch t</w>
cri pt</w>
beauti ful</w>
weiter hin</w>
bo dy</w>
vi l
aus sch
C O
e ch
di en
fun da
appro pri
ü ck</w>
it ing</w>
sen den</w>
r ate</w>
c ar</w>
ant ly</w>
ad t</w>
B ro
ec u
di gkeit</w>
pp ed</w>
wer t</w>
extrem ely</w>
auf ge
app lic
t in
h en
lon ger</w>
Schlus sel
li ve</w>
lei sten</w>
bar en</w>
curr ently</w>
ah n
inter es
recei ve</w>
Mit glie
Str u
cont ent</w>
pro z
form s</w>
sch ön
c at
nu tzen</w>
n ü
be w
S or
d au
Milli onen</w>
k li
nation alen</w>
k us
ou ght</w>
essen tial</w>
än dern</w>
fac ilities</w>
cle arly</w>
Nach fol
vis it</w>
sol len</w>
al low</w>
ex clu
f ris
econom y</w>
con tains</w>
ei en</w>
ger ne</w>
succ ess</w>
l ück
eig n</w>
c alled</w>
or ts</w>
our ce</w>
ans wer</w>
h eb
strateg y</w>
st et</w>
m ember</w>
kün f
Or t</w>
Wor ld</w>
näch sten</w>
mo ve</w>
zei tig</w>
ein ge
kno wn</w>
on es</w>
fe el</w>
d i</w>
2 2</w>
D ec
ar ti
Sch utz</w>
ag ri
fü h
on ds</w>
Ber lin</w>
ke t</w>
8 0</w>
achie ve</w>
crati c</w>
princip le</w>
t est</w>
zei chn
Eben e</w>
F rom</w>
Vorsch läge</w>
d liche</w>
p hi
gro ups</w>
mi ght</w>
d om
Z im
sch ö
Ge gen
schein t</w>
Organ is
G ol
usam men</w>
cou ra
ein ander</w>
sp i
Ko sten</w>
pri ces</w>
ni ce</w>
e hr
fü r
des halb</w>
verwen det</w>
K l
op s</w>
Sel b
An sicht</w>
k enn
öffent lichen</w>
Is ra
D ru
m ate</w>
m embers</w>
Dur ch</w>
Richt ung</w>
ß en
A m</w>
D an
te am</w>
hi m</w>
ge währ
as ser
abo ve</w>
Nä he</w>
st ation</w>
W is
und ing</w>
re present
y ers</w>
k ung</w>
Jan u
A k
rei ch
C an
ar ri
n on</w>
Sch i
di ge</w>
D o</w>
lan ge</w>
über nachten</w>
tei lt</w>
fil es</w>
K or
char ac
ke ep</w>
accep t</w>
every thing</w>
z a</w>
200 4</w>
So zi
W ach
ber eit</w>
Bil d</w>
verschieden e</w>
p ages</w>
ad ditional</w>
require ments</w>
notwen dig</w>
sp ru
ra ther</w>
re du
Entwick lungs
ti v</w>
con nec
Möglich keiten</w>
R a
er le
I de
bu s</w>
I S
verfü gt</w>
n a
sch wieri
ro ad</w>
re ad</w>
wer s</w>
st off
demo krati
ch oo
cle an</w>
T ür
e duc
techni cal</w>
A spe
um s</w>
se par
m ilit
In stru
200 5</w>
ger ade</w>
langu age</w>
stü ck</w>
respon sible</w>
schaf ts
stand ard</w>
peri od</w>
E i
Er weiter
Sch ritt</w>
c us</w>
S eit</w>
K ap
v ation</w>
co st</w>
e g</w>
Dur ch
enth alt</w>
K omm
i r</w>
en der</w>
fol gen</w>
inclu ded</w>
c op
den ke</w>
Mu si
b are</w>
so on</w>
Änderungsan trag</w>
erforder lich</w>
S ome</w>
mul ti
zeich net</w>
u ral</w>
rel ated</w>
Sicher heits
rel e
c are</w>
all gem
modi fied</w>
m ing</w>
häl t</w>
No w</w>
I T</w>
ev ents</w>
l ands</w>
H e
hi er
acc omm
mar kt</w>
wen ig</w>
deut lich</w>
st ed</w>
For m</w>
2 3</w>
S ü
tra ining</w>
A R
ges ehen</w>
b it
Strateg ie</w>
tre ffen</w>
h under
sh ar
Her aus
c al
sch affen</w>
zü glich</w>
bi g</w>
Haushal ts
t ory</w>
ate gi
um e</w>
z äh
Erfol g</w>
o w</w>
tr ue</w>
Demokrati e</w>
hel fen</w>
nat ure</w>
ke y
Deb atte</w>
si ert</w>
oth ers</w>
je wei
c le</w>
st ens</w>
fortun ately</w>
vi ous</w>
Minu ten</w>
z eh
de pen
M al
S y
lo se</w>
ma xim
ru hi
olog ie</w>
D E</w>
c ateg
aus zu
v ent</w>
ne l</w>
Nachfol gend</w>
prü fen</w>
Ver besser
for ce</w>
manu fac
Ges e
Li ste</w>
ti gkeit</w>
Rus sia</w>
at er
B re
Z um</w>
pf li
vi ol
z entr
w ahl</w>
h on
ac tive</w>
seri ous</w>
S ti
o k</w>
Änderungsan träge</w>
Nov ember</w>
verstän dlich</w>
pa y</w>
f l
s wi
Z u</w>
p at
li eb
au ßer
comp u
b on</w>
k it
M är
re fer
fra mework</w>
concern s</w>
demo cracy</w>
er neu
blei bt</w>
hr es</w>
errei cht</w>
in ge</w>
lin es</w>
Inter esse</w>
typ e</w>
si b
an ks</w>
under stand</w>
gre ater</w>
S al
zah len</w>
am bi
Inter national</w>
ie ßen</w>
h eu
K ra
wir tschaft</w>
boo k</w>
ei ther</w>
ne ar</w>
ig ung</w>
inter net</w>
environ mental</w>
re ma
gemein same</w>
t st
pro gram</w>
se tzt</w>
mo un
H a
tri tt</w>
Ther efore</w>
S to
spiel en</w>
fre ed
su sta
e th
z usammen</w>
Ziel e</w>
schri ft
V ide
propos ed</w>
F ur
ff et</w>
dar in</w>
wür den</w>
be finden</w>
c ame</w>
b s</w>
ass er</w>
dr in
custom er</w>
Ver trag</w>
N a
trol le</w>
grat ul
no thing</w>
certain ly</w>
Dis kus
völ k
V or</w>
ab les</w>
clu b</w>
W ort</w>
m em
n it
re ach
20 0</w>
br ing</w>
ing ly</w>
verfü g
E C
ri chten</w>
s po
t ely</w>
Wir tschaft</w>
fam ili
G eld</w>
h ours</w>
Wach st
m ind</w>
men d</w>
a de
Mar kt</w>
ä d
ati s
str ong</w>
incre as
us ers</w>
ci r
19 8
lo g
soc iety</w>
tw eit</w>
tz u
m ern</w>
neh mer</w>
ho ch
Berichterstat ter</w>
ri ch</w>
du e</w>
bar keit</w>
perf ect</w>
di tion
wle dge</w>
t ent</w>
alo gue</w>
Um setzung</w>
vor gesch
do ing</w>
Gro ß
Ur lau
men tioned</w>
poli cies</w>
richti g</w>
or d</w>
ge ts</w>
Zu gang</w>
stand ing</w>
con ven
Ergeb nis</w>
hö ch
fol gt</w>
f ern</w>
se a</w>
we b</w>
Viel en</w>
mon ths</w>
Po si
O f</w>
d ates</w>
uni ties</w>
mon it
li ert</w>
Y our</w>
n s</w>
intro duc
Bed ingungen</w>
cli ck</w>
U p
k tor</w>
5 00</w>
ha ving</w>
p ast</w>
st ly</w>
cent ral</w>
Tei l
vi ces</w>
An gele
h u
D rit
n er
her r
ber ücksichti
bal d</w>
reas ons</w>
h of</w>
sp ace</w>
Al l
Ta ges
ru n</w>
ke i</w>
z war</w>
meet ing</w>
it z
la den</w>
ad minist
aus gestat
j usti
H ar
cht ung</w>
competi tion</w>
sh are</w>
par ties</w>
pl atz</w>
str on
E N</w>
et wa</w>
Rus s
E R
re cht
ktion s
ver ed</w>
f our</w>
m es
Ö ff
ih m</w>
invol ved</w>
Be zieh
ma ß
tn is</w>
bek annt</w>
im medi
rei che</w>
co de</w>
A pri
F eri
we ek</w>
k o</w>
am ong</w>
inter nal</w>
C ol
G eri
li mit
G el
Ma il</w>
o ft</w>
nat ural</w>
imple men
ris k</w>
ex pres
Dar über</w>
c ases</w>
Ver fahren</w>
J ap
zo gen</w>
a den</w>
Ein zel
äl t</w>
ger ä
be kommen</w>
wei ß</w>
hist ori
K enn
r o</w>
in e
kon kre
Besch äf
wi ll
K amp
rel ev
re p
to tal</w>
On line</w>
be tra
su g
K an
I s</w>
den ts</w>
enth alten</w>
cher weise</w>
co ver</w>
än de</w>
1 0
ple as
ti sche</w>
er fül
Re chn
be ach</w>
W ah
holi day</w>
help ful</w>
stim men</w>
mb H</w>
P rin
li es</w>
de tails</w>
po pul
cent er</w>
Arbei tsp
S in
ep tion</w>
h ard</w>
Apri l</w>
e f</w>
o wn
des cri
ün sti
T ro
In te
ann ten</w>
je dem</w>
struc ture</w>
zi ert</w>
partn er</w>
qui ck
Auf gabe</w>
p an
am e
mit t
ung s</w>
ta kes</w>
cre ated</w>
tra g
Gesch ichte</w>
s ha
C A
Wh y</w>
ur en</w>
vi er</w>
con gratul
me chan
mar k
C u
impro ve</w>
fü n
und ed</w>
hist ory</w>
pos ed</w>
G mbH</w>
ti cal</w>
Ges ellschaft</w>
uni que</w>
k ämp
F ern
ats ächlich</w>
l d
pr is
An frage</w>
wel tweit</w>
comple tely</w>
i er
c are
f air</w>
rau m</w>
appropri ate</w>
St ate</w>
negoti ations</w>
g ame</w>
S econ
re form</w>
Kli ma
ent sp
I I</w>
man ag
7 0</w>
ver antwor
flo or</w>
C lick</w>
W hi
app ly</w>
Mo d
eff izi
Presi dency</w>
b ra
choo se</w>
e den</w>
ai l</w>
simp le</w>
mom ent</w>
ex am
net work</w>
Al so</w>
off en
ga b</w>
Mitarbei ter</w>
h y
äu ßer
accomm od
bo ard</w>
g le</w>
d d
Rei he</w>
consi der</w>
entwick elt</w>
vi de
B y</w>
Stru k
Re chte</w>
R ates</w>
Kol leg
materi al</w>
entschei den
K at
P unkte</w>
re main</w>
gen e</w>
b ack
sam keit</w>
la dies</w>
E A
ha ps</w>
x ed</w>
versi ty</w>
do wnload</w>
s eite</w>
T at
f al
ev ent</w>
reg ar
ide a</w>
ab led</w>
b z
sch ä
te m</w>
au t</w>
se en</w>
sho wn</w>
Anwen dung</w>
wäh len</w>
P rä
Engli sh</w>
Bür ger
develop ed</w>
B ra
a th
c en</w>
marke ts</w>
con f
min im
2 7</w>
ta il</w>
v ar
demo cratic</w>
Partn er</w>
ir es</w>
stan den</w>
s ab
glei chen</w>
Fin ally</w>
yn am
1 4
se ar
kön nten</w>
eff orts</w>
schließ en</w>
Menschen rechte</w>
m einen</w>
p ment</w>
ih rem</w>
inde pen
T ri
proced ure</w>
je de</w>
weiter en</w>
internation ale</w>
hear t</w>
pe ace</w>
disp la
c tive</w>
tim men</w>
me an
regul ation</w>
cli mate</w>
J o
imple mentation</w>
funda mental</w>
fre i</w>
ch ed</w>
rec ent</w>
y a</w>
no te</w>
me et</w>
o c
Lös ungen</w>
vi c
D u</w>
en ess</w>
al tern
enth ält</w>
wirk ungen</w>
We b</w>
v o</w>
te ten</w>
we der</w>
H an
Deb ian</w>
vi elleicht</w>
ba th
Wel t
cho ice</w>
ne ction</w>
gel ei
feat ures</w>
An gebot</w>
ap er</w>
S am
Proto kol
F äl
mar k</w>
p on
car ri
e li
Z w
B lick</w>
s atis
den ken</w>
Di en
einzel nen</w>
St ell
Inform ation</w>
sen de</w>
f ail
s an
bz w</w>
t ou
gesam ten</w>
s einem</w>
ac tually</w>
Gemein schaft</w>
M is
Z i
fer enz</w>
equi pped</w>
N ur</w>
ac y</w>
verb unden</w>
hum an
H ol
al most</w>
ab solu
ist an</w>
Kli cken</w>
ob s</w>
up on</w>
bel ow</w>
A G</w>
M any</w>
E l
char ge</w>
com bin
mehr ere</w>
cri min
Go vern
ac tions</w>
ran k
ima ge</w>
den ten</w>
richt ung</w>
design ed</w>
fun den</w>
v a</w>
Inv esti
amoun t</w>
E S
ali tä
hal tung</w>
geri chtet</w>
L inu
P re
to gra
am eri
auth orities</w>
Ser ver</w>
z lich</w>
er ed</w>
pack age</w>
us es</w>
L assen</w>
benö tigen</w>
Verhand lungen</w>
Pl atz</w>
ati v</w>
gen eh
ser ver</w>
si ze</w>
fin al</w>
Benutz er</w>
li ber
yo ung</w>
inn en
ck ing</w>
eff ect</w>
j e</w>
su cht</w>
par ts</w>
Sp ei
them selves</w>
tic s</w>
wri ting</w>
oo ds</w>
so ft</w>
quick ly</w>
S ince</w>
freed om</w>
gemein samen</w>
st in
L a</w>
ment ary</w>
To day</w>
gh out</w>
zur ück</w>
verwen den</w>
öff net</w>
out side</w>
ad ded</w>
Verein ig
Entschließ ung</w>
unter nehmen</w>
Dienstleist ungen</w>
wen den</w>
program m</w>
exist ing</w>
ex tra</w>
situ ated</w>
ver fahren</w>
uni k
ex per
Änder ungen</w>
con nection</w>
is ches</w>
stell ungen</w>
Da bei</w>
wirtschaf tlichen</w>
Be zug</w>
inter ests</w>
gem ä
r ates</w>
ra se</w>
direc t</w>
s ent</w>
er sch
Com pu
F l
ff e
re ach</w>
sh e</w>
j en
Bar cel
sur ro
recei ved</w>
Aus wahl</w>
Entschei dung</w>
ra ce</w>
ec tion</w>
Geb iet</w>
Tex t</w>
hand eln</w>
C D</w>
rei ch</w>
A mend
kl einen</w>
ne g
Ar ch
schn it
U N
o p</w>
har mon
Tur key</w>
guaran tee</w>
ber i
L on
mittel n</w>
hist or
C hi
200 3</w>
A ktiv
tain ed</w>
V is
al ong</w>
Au stri
et c</w>
susta in
k lu
C lu
develop ing</w>
l ack</w>
Par k
sear ch</w>
wer k</w>
Par k</w>
A cc
a partment</w>
re f
st verständlich</w>
f lä
Fir st</w>
Ab kommen</w>
speci ali
tic le</w>
ta x</w>
re fle
Ver wal
Grund lage</w>
ber u
allo ws</w>
su it
communic ation</w>
ge eig
gli chen</w>
unser es</w>
ck e</w>
Be völk
wis e</w>
läs st</w>
or ing</w>
Ge f
sta at
gri ff</w>
Institu tionen</w>
forder t</w>
wichti gen</w>
Proje kt</w>
tion s
region al</w>
g rupp
ologi cal</w>
de termin
Gu est</w>
Spe zi
ad a</w>
hä tte</w>
profession al</w>
F est
O c
ill a</w>
par king</w>
200 1</w>
R A
w and
er hö
dou ble</w>
Di rec
T our
en or
T age</w>
ver ein
stat t
hel d</w>
con fir
con stitu
trä gt</w>
s weise</w>
g l
p ol
ho tels</w>
äu fi
Linu x</w>
Ergeb nisse</w>
tre at
promis e</w>
in en</w>
Tür kei</w>
fo cus</w>
dan ke</w>
par k</w>
c ru
or row</w>
sch ul
a ware</w>
F örder
K rise</w>
ta x
ges p
f ish
ad d</w>
P C</w>
Sozi al
min i
vol le</w>
Protokol l</w>
Pri or
le ad</w>
War um</w>
an a</w>
ep t</w>
Nat ürlich</w>
Mitglie der</w>
ari an</w>
mis sion</w>
en lar
W ieder
Erweiter ung</w>
b our
g keiten</w>
ic s</w>
neh men
Program me</w>
äm lich</w>
p ati
Per son</w>
trans l
m als</w>
en coura
verfü gen</w>
bu ffet</w>
kl eine</w>
D inge</w>
M eine</w>
schließ end</w>
pra kti
Herr en</w>
every one</w>
partn ers</w>
amend ment</w>
wün schen</w>
Sch la
fun ds</w>
invest ment</w>
e ch</w>
me an</w>
einf a
key word</w>
ati sti
K op
un ge</w>
ell ing</w>
re ports</w>
for eign</w>
ber g</w>
b ad</w>
sto p</w>
mu sic</w>
kehr s
Z ur</w>
lin ien</w>
ph rase</w>
se i</w>
inv es
n ämlich</w>
enti re</w>
initi ative</w>
B ar</w>
ne w
conc ern</w>
arbei tung</w>
r ing
Bei trag</w>
air s</w>
ci vi
Früh stück</w>
for dern</w>
Z entrum</w>
eigen e</w>
wei s</w>
ne u</w>
T ele
consu l
C our
2 8</w>
gan ze</w>
Finan zi
success ful</w>
bei spiel
Grupp e</w>
Res er
r und</w>
es i
völ lig</w>
val ues</w>
un a</w>
an gem
Woh n
Aus wirkungen</w>
k er
ari a</w>
Ver bindung</w>
m al
fi ve</w>
signific ant</w>
R O
Pu bli
inte gr
sieh t</w>
ear ly</w>
mor gen</w>
l ater</w>
li k
Arbei t
v in
oo m</w>
läs si
D ann</w>
da p
M al</w>
do or</w>
sch le
C H
M ob
wes ent
t on
jo b</w>
h atten</w>
Ver k
S cript</w>
throu ghout</w>
sch luss</w>
vor zu
auf genommen</w>
zwei te</w>
educ ation</w>
as ked</w>
Fran ce</w>
at mosp
ver ti
dar um</w>
Gä ste</w>
exp en
li gh
E ra
B lo
de mon
H eute</w>
S an
fol low</w>
Des ign</w>
wichti gsten</w>
aus es</w>
Por tu
spe ak</w>
achie ved</w>
Jahr hunder
M A
ermögli cht</w>
for men</w>
gan gen</w>
Umwel t
easi ly</w>
ba sic</w>
h äre</w>
Ne tz
P lan
li ving</w>
tro ffen</w>
ep s</w>
gesam t</w>
bes u
r un
lin k</w>
er lau
w under
Sp iel</w>
a di
Ver anst
9 0</w>
at ory</w>
li cht</w>
g ust</w>
S ie
compu ter</w>
Ver f
G lob
am era</w>
kno wledge</w>
G ele
se ems</w>
D amen</w>
Wo che</w>
gegen wär
d ro
d aten</w>
te mp
d est</w>
In nov
c amp
me t</w>
tom orrow</w>
Ad res
Par is</w>
dec isions</w>
an ten</w>
Prei se</w>
g ei
gu ten</w>
fron t</w>
Sch wei
g nisse</w>
ak tivi
sho ws</w>
bed ingungen</w>
E N
R isi
R ed</w>
applic ations</w>
wel t
inn er</w>
A gen
it em</w>
origin al</w>
Ein satz</w>
e b</w>
st ei
perform ance</w>
commit tee</w>
com b
Te am</w>
eb ru
je des</w>
res t</w>
dent schaft</w>
sch ü
no ti
lu x
I S</w>
gen au
G ri
P at
j obs</w>
co ordin
inclu des</w>
an z</w>
sa che</w>
practi ce</w>
colle ag
B innen
t op
ie ten</w>
vo tes</w>
3 5</w>
pur ch
Barcel ona</w>
ac ross</w>
D ol
s cre
ges sen</w>
c la
H af
wen dung</w>
maj ority</w>
ren ch</w>
l en
U kra
a vo
sen se</w>
I P</w>
Partn er
regi ons</w>
at ors</w>
z one</w>
B us
l te</w>
pl ann
N et
schri ften</w>
Ver trau
B ank</w>
vi r
Au gust</w>
d on
lat est</w>
Off ice</w>
ah n</w>
direc tion</w>
F ebru
vor sch
On ly</w>
gram mati
rei bung</w>
con stru
Isra el</w>
wal k</w>
accep table</w>
ste ad</w>
Ho tel
Beh ör
aff ung</w>
op tion</w>
wis sen
rema ins</w>
St re
ge funden</w>
p e</w>
li ge</w>
ver bin
em and</w>
be h
eri es</w>
über zeu
st a</w>
In n
gemein sam</w>
Russ land</w>
ter ror
happ y</w>
Verbrau cher</w>
st ück
Ein ige</w>
accommod ation</w>
bil dung</w>
Viel e</w>
m y
th us</w>
ur ch</w>
Ameri ca</w>
ni en</w>
gese tz
w ser</w>
per at
str ategi
to ok</w>
gan zen</w>
St at
zuneh men</w>
inter ess
W ahl</w>
medi a</w>
mes sage</w>
buil t</w>
hei ßt</w>
limit ed</w>
3 00</w>
P an
Berei chen</w>
ein deu
Bezieh ungen</w>
P h
er wäh
n ie</w>
z ation</w>
acc ording</w>
ple ased</w>
M ic
dis ku
ange zeigt</w>
mo del</w>
tn is
fähi gkeit</w>
Sitz ung</w>
P lat
s mo
am s</w>
benef it</w>
b it</w>
So li
su per
t ol
S omm
St abili
m einem</w>
equi pment</w>
b ein
si ch
ra ble</w>
2 6</w>
ver ur
sta g</w>
Am ster
inst al
Feri en
e uro</w>
Kon trolle</w>
an gebo
st age</w>
Kolleg innen</w>
2 9</w>
gehör en</w>
A pp
Ein f
z er</w>
Abgeord neten</w>
e y
R at
res tri
N utz
Lu x
we ch
d or
z es</w>
Bes timm
kon nte</w>
th re
con text</w>
W ert</w>
f est</w>
inte gri
di ent</w>
F rench</w>
comm unity</w>
M as
Them en</w>
I st</w>
di enen</w>
wirtschaf tliche</w>
st ing</w>
rel ations</w>
Feh ler</w>
schrift lich</w>
un ds</w>
p le</w>
er heb
be deut
in dem</w>
tern al</w>
sty le</w>
c ro
tiv ely</w>
ar in</w>
Ma y</w>
le ading</w>
groß er</w>
H ö
hin zu
opp el
gan genen</w>
f assen</w>
län der</w>
P f
s s
ch tens</w>
Lis bon</w>
Ho ch
un abhängi
li er</w>
cent ury</w>
pri ority</w>
b a</w>
f s
s m</w>
re mo
St unden</w>
vi ously</w>
200 2</w>
st able</w>
stan ces</w>
R ec
ho ben</w>
ma p</w>
lo k
con sequ
Sp ain</w>
be züglich</w>
ges prochen</w>
h äufi
Si te</w>
regar ding</w>
g te</w>
si tting</w>
gra phi
eben so</w>
en able</w>
sp räsi
Fis cher
der ung</w>
Person al</w>
gar an
In de
ür f
gef ähr
Flug ha
bes tä
u ally</w>
ge ändert</w>
se ction</w>
W al
T im
ther more</w>
comm er
C ent
gli che</w>
fun ction</w>
inter esting</w>
K ö
j our
off i
Era chtens</w>
dem and</w>
atmosp here</w>
nach hal
Nat ur
Mat eri
4 5</w>
Al ler
er c
Jav a
mat ters</w>
m ein</w>
sor gen</w>
guaran te
Spra che</w>
M use
it ali
C re
Kre di
äußer st</w>
gi eren</w>
ko sten</w>
W erk
w at
concern ing</w>
lei cht</w>
3 1</w>
D el
imp act</w>
emplo ye
sozi alen</w>
devel op</w>
on d</w>
re turn</w>
For mu
N A
be lieb
ck et</w>
Lon don</w>
v ent
objec tives</w>
objec tive</w>
tur en</w>
chan ged</w>
Bil der</w>
proc ess
c y
credi t</w>
qu o
Li ber
e chti
vi g
W asser
cor por
lei der</w>
st ates</w>
kli cken</w>
ac ks</w>
hol d</w>
c ts</w>
manufac tur
Um gebung</w>
m as
ani en</w>
F er
Lis sab
S lo
Tran spar
tra vel</w>
g ül
ausgestat tet</w>
a im</w>
b an</w>
s atz
Be wer
le tzt</w>
ach es</w>
grund le
B ur
agre ements</w>
suff ici
Zwei tens</w>
di glich</w>
er st
I r
program mes</w>
e over</w>
sho p</w>
Erfahr ung</w>
Fortsch ritte</w>
conf lic
c tion
wichti ger</w>
erk enn
innov ative</w>
Java Script</w>
el li
ani a</w>
poten tial</w>
jo int</w>
Kar te</w>
S A
Th e
s ag
ander er</w>
c as
tra ditional</w>
h es</w>
M y
par ty</w>
cap ital</w>
verbesser n</w>
län dern</w>
ti n</w>
beste hen</w>
m ous</w>
o se</w>
kar te</w>
ri ften</w>
Proz ess</w>
hervor ra
Ira n</w>
f rü
vel s</w>
Geb äu
incre ased</w>
Wettbewer bs
relev ant</w>
respon se</w>
we g</w>
begrü ße</w>
Ver pfli
Tran s
Jun e</w>
am a</w>
constru ction</w>
conven i
g ste</w>
f ran
kur z</w>
ren o
suppor ted</w>
Gese tz
inte gration</w>
lan gen</w>
e ks</w>
Auf merk
sk i</w>
men ten</w>
ung sp
mäß ig</w>
comple x</w>
f ör
ab zu
com ments</w>
f it
S wi
Kommiss arin</w>
an genommen</w>
Mic ro
Nu tzung</w>
pre ci
Ch an
wi l
ab sol
lea ve</w>
Kü che</w>
Mar kt
requ ires</w>
hau p
freu en</w>
Regi onen</w>
beispiel sweise</w>
Au ff
Dat eien</w>
di alogue</w>
kl ar
m ed</w>
D en</w>
air port</w>
Min utes</w>
Au ßen
Forsch ung</w>
off ice</w>
sch es</w>
nis sen</w>
defin i
h or
u ri
fi ght</w>
Ar e</w>
Wes tern</w>
beginn ing</w>
agri cultural</w>
n ö
y our
as soci
ori en</w>
Unter nehmen
Steu er
g st</w>
se tt
F le
erwar ten</w>
c ell
Zeit punkt</w>
Th en</w>
G eh
pre vious</w>
inde ed</w>
richt ungen</w>
Man agement</w>
ob lig
gesam te</w>
in ation</w>
st ers</w>
An zahl</w>
Dat ei</w>
Erklär ung</w>
plac es</w>
prepar ed</w>
gen ießen</w>
Nu n</w>
sug ges
vor schriften</w>
Au tom
199 9</w>
Aufmerk samkeit</w>
H and</w>
com par
opp ing</w>
k s
on y
Amster dam</w>
sti c</w>
establi shed</w>
tei li
enlar gement</w>
W er</w>
pho to</w>
typ es</w>
Sa che</w>
Ameri can</w>
g ünsti
C li
kul tur
po pu
bis her</w>
verfüg bar</w>
to ol</w>
E R</w>
a im
re a
high er</w>
ri st
so fort</w>
An fang</w>
Soli dar
ver stehen</w>
reach ed</w>
congratul ate</w>
richti ge</w>
treat ment</w>
dd le</w>
effici ent</w>
sum mer</w>
bau en</w>
zi eren</w>
ne ws</w>
high ly</w>
E ach</w>
g res
le diglich</w>
Sch ließ
sol chen</w>
Secon dly</w>
Bevölk erung</w>
Ges am
sub si
Ukra ine</w>
C op
Verbesser ung</w>
O k
erfol gt</w>
opport unities</w>
il s</w>
sicher heit</w>
ü bri
Cour t</w>
discus sion</w>
si mil
requ ire</w>
consu mers</w>
Ne w
F ach
Gele genheit</w>
fol genden</w>
bal ance</w>
et te</w>
comp re
agre ed</w>
st errei
au ber
distribu tion</w>
Ge wal
Wis sen
Oc tober</w>
S an</w>
Urlau b</w>
O ber
D V
M ore</w>
si an</w>
ali sation</w>
Me tho
ati c</w>
ob en</w>
gi ves</w>
stat ement</w>
add res
m in</w>
ver hin
möglich keiten</w>
d ynam
Bei fall</w>
inf lu
a y</w>
m m</w>
Fur thermore</w>
h ed</w>
auf grund</w>
g al</w>
Vor aus
Tages ordnung</w>
C ity</w>
D ev
Jap an</w>
H al
a partments</w>
qu iet</w>
entwick eln</w>
kauf en</w>
T ab
com promise</w>
pro v
er gi
ter ran
el en</w>
benu tzt</w>
T u
stra tion</w>
Lissab on</w>
ob ser
pa yment</w>
l esen</w>
ro r</w>
sib ilities</w>
fün f</w>
ch ter</w>
Ko so
aktu ellen</w>
Aller dings</w>
di gung</w>
k ann
Best ell
Arbeitsp lä
Ma i</w>
P H
Ver tra
f eld</w>
zu fri
Di alog</w>
geh end</w>
tra dition
zi p</w>
Ver wendung</w>
rest aurants</w>
ver suchen</w>
x is</w>
setz ungen</w>
in c
wei s
pl ause</w>
Aktiv itäten</w>
asp ects</w>
saf e</w>
present ed</w>
human it
Vereinig ten</w>
St elle</w>
Bil d
Govern ment</w>
k ei
t ask</w>
beh ind</w>
k ein
star k</w>
O R
tel l</w>
sustain able</w>
fi g
Da zu</w>
Je tzt</w>
gel ten</w>
reli gi
organ isi
agen da</w>
M ul
au ßerdem</w>
comp li
host els</w>
lear n</w>
Do wnload</w>
ti ger</w>
si eren</w>
mo bi
N ieder
zun ächst</w>
ter ien</w>
an o</w>
ap poin
commit ment</w>
ag er</w>
compre hen
or ed</w>
Un fortunately</w>
brau cht</w>
Famili e</w>
O S</w>
1 7
E ing
H am
sch utz
Entschließ ungsan
zahl reiche</w>
so und</w>
emp feh
th anks</w>
An forderungen</w>
su l
Ger ä
ri eren</w>
B ü
Se e</w>
Komm unik
besch äf
Proje kte</w>
lar ger</w>
dra w</w>
vide o</w>
op tions</w>
get an</w>
in tel
Behör den</w>
do w</w>
tal k</w>
z ös
W asser</w>
Fü hr
us s
allo wed</w>
bo x</w>
ac ity</w>
organ iz
materi als</w>
Öff ent
An der
docu ment</w>
work ers</w>
ri eben</w>
la g
B ul
R oom</w>
ast rop
einzi ge</w>
Mitgli ed</w>
popul ation</w>
le gi
9 1</w>
uns ch</w>
ler nen</w>
Aus druck</w>
spru ch</w>
char ged</w>
mo bili
vo ting</w>
S t</w>
Jahr es</w>
Umwel t</w>
er y</w>
t le</w>
ar gu
au en</w>
tra ff
sh or
ch ec
pl ant</w>
zie ht</w>
z z
er weiter
le vels</w>
pres ents</w>
Bem erk
on nen</w>
re chts
P D
C an</w>
hör en</w>
Au to
br ingt</w>
Str and</w>
Initi ative</w>
V o
verk ehr</w>
recog ni
b ase</w>
cu t</w>
ur g
ut ely</w>
var iety</w>
ele k
N ot</w>
qu is</w>
ve hi
Host els
spezi f
ra di
ausge zeich
arch it
Hostels club</w>
an te</w>
fi k
t i</w>
ver stär
star ted</w>
bath room</w>
re pe
ho he</w>
exp ect</w>
Angele genheit</w>
k ür
de p
ti k</w>
äh n
pres i
V ie
g ot</w>
men u</w>
go es</w>
g oods</w>
ci ples</w>
gr enz
Nat ur</w>
Verein bar
F ak
plac ed</w>
s ource</w>
gemä ß</w>
St ar
be ds</w>
äh ri
P rü
Gi pf
M E
f it</w>
immedi ately</w>
t atsächlich</w>
ent al</w>
Grün den</w>
Sp an
e mail</w>
ter ia</w>
Fri ed
ch ert</w>
Beh and
e vi
your self</w>
sle tter</w>
Cent ral</w>
vis it
eig entlich</w>
W ahr
Posi tion</w>
our selves</w>
f allen</w>
Ver tre
Hin blick</w>
Diskus sion</w>
S um
se tting</w>
kon zent
Lei der</w>
H inter
Wel che</w>
Musi k</w>
G oo
geb aut</w>
19 7
th ern</w>
sec ure</w>
sei ts</w>
U N</w>
all ing</w>
auf zu
supp ly</w>
bew us
bes te</w>
te u
L auf
W äh
Z un
an no
gel ö
Sch lüs
g ol
ameri kan
employe es</w>
Transpar enz</w>
Amend ment</w>
M il
Kom promis
Förder ung</w>
T ä
alisi ert</w>
Bal k
S on
Te chni
Ei gen
N r</w>
ir gend
p li
Ver ordnung</w>
lie f
f ru
w ritten</w>
er ster</w>
Koso vo</w>
w ho
Flugha fen</w>
I C
tiv eness</w>
Mini ster</w>
ro ati
an geneh
T A
de cken</w>
ter in</w>
sieh e</w>
er inn
sch utz</w>
be halten</w>
jen igen</w>
a men
m eines</w>
ann er</w>
E ven</w>
Kon zep
v ali
be half</w>
K oh
m bo
automati sch</w>
Wettbewer b</w>
t ary</w>
re ques
j ähri
Ma sch
S we
ish ed</w>
Produ kt</w>
Clu b</w>
use ful</w>
rela x
be handelt</w>
correc t</w>
G ed
ti sh</w>
wis s</w>
Ter ror
Kul tur</w>
ologi es</w>
proper ty</w>
challen ge</w>
M än
z t</w>
erk ennen</w>
us ses</w>
docu ments</w>
b ru
carri ed</w>
Stand punkt</w>
fü gen</w>
mar ks</w>
tem por
B usiness</w>
S en
Ver y</w>
im pres
Ni cht</w>
B on
comp on
th y</w>
bed ingt</w>
s si
neh m
Mar k
Jun i</w>
indepen dent</w>
mobi le</w>
ck ets</w>
stell er</w>
consu mer</w>
bestimm te</w>
h aus</w>
fri ends</w>
Wachst um</w>
st ung</w>
nu clear</w>
milit ary</w>
ver se</w>
ateg orien</w>
Qu es
Ser vices</w>
ill s</w>
prin ciples</w>
zeu ge</w>
At mosp
I hres</w>
men sion</w>
Aussch uss</w>
pa ar</w>
Auf enthalt</w>
sci enti
s ätze</w>
Dur ing</w>
rec ently</w>
B ad</w>
sozi ale</w>
soli dar
co vered</w>
Energ ie</w>
categ ories</w>
f air
mi gration</w>
Ge or
sel ection</w>
S outh</w>
No twen
Frank reich</w>
st eps</w>
con ference</w>
ld wide</w>
s ent
V en
ex ternal</w>
ex change</w>
c les</w>
hau pt</w>
0 1</w>
par lia
sm us</w>
Entschei dungen</w>
g ten</w>
ro und</w>
all ein</w>
g as</w>
ar ran
Afri ca</w>
för dern</w>
rei fen</w>
O ri
consider ed</w>
s lo
Me er</w>
y l
9 3</w>
ten den</w>
pre vent</w>
ex hi
exp la
frei en</w>
Mor eover</w>
Er stens</w>
öh n
wi der
popu lar</w>
Inte gration</w>
f is
en ding</w>
gr ö
S onn
w onder
si tz</w>
An aly
cli ents</w>
di stance</w>
B as
Al tern
be tre
Gesund heit</w>
i chts</w>
R ed
inst allation</w>
syst em
w r
Ver änder
K rank
p ass</w>
tiv en</w>
D S</w>
al one</w>
da ily</w>
fam ous</w>
em is
reser vation</w>
ass ess
h om
Kamp f</w>
ins gesamt</w>
pres sure</w>
spi ri
be vor</w>
as tic</w>
transpar ency</w>
M ad
M S</w>
redu ce</w>
F alls</w>
u ß</w>
interes ted</w>
Z ahl</w>
pe ten
Air port</w>
dat ab
sam m
wur f</w>
stat us</w>
W TO</w>
pr ise</w>
maß nahmen</w>
R ess
n am
größ te</w>
gel an
au lt</w>
In halt</w>
pro b
re ality</w>
e tzen</w>
ver th
Kon fli
cap acity</w>
gleich zeitig</w>
uni on</w>
beste h
ver gessen</w>
er ous</w>
verth eless</w>
einzi gar
zeh n</w>
ur s</w>
lö sen</w>
l ös
1 6
An gebo
äu ß
3 2</w>
S Q
n ommen</w>
spä ter</w>
simil ar</w>
wi d
cru cial</w>
I mp
to ols</w>
1 5
al ing</w>
Vorsch riften</w>
any thing</w>
forder ung</w>
qu ar
sh ops</w>
Mar ch</w>
Industri e</w>
r ely</w>
trä gen</w>
E ast</w>
acc ord
prote ct</w>
effec ts</w>
I ts</w>
V illa</w>
S ho
di schen</w>
pro fi
ck er</w>
regul ations</w>
Ü ber</w>
me tr
s cri
ac ts</w>
R aum</w>
K u
ther wise</w>
automati cally</w>
challen ges</w>
er zeu
f unding</w>
pl ätze</w>
hu ge</w>
ti sch</w>
fol ge</w>
recog nis
se x
hin sichtlich</w>
Kun den
our cen</w>
govern ments</w>
ver standen</w>
ho hen</w>
prü ft</w>
aci ous</w>
legisl ative</w>
Ver kehrs
genu g</w>
ev al
fas st</w>
pur pose</w>
Atmosp häre</w>
An satz</w>
avail ability</w>
s ession</w>
ph y
ra sse</w>
Ap plause</w>
con st
per fe
war um</w>
ill ed</w>
Dec ember</w>
spe ed</w>
gel eg
pi te</w>
begrü ßen</w>
Ein w
f onds</w>
produc ed</w>
über haupt</w>
Regi erungen</w>
ein hei
einf ach
ermögli chen</w>
r ing</w>
ex ac
eb s
proc e
sion s
Stand ard</w>
on i
fin e</w>
absol utely</w>
ac coun
Fir ma</w>
Rest aurants</w>
Micro soft</w>
vor lie
ide as</w>
P S</w>
f än
re ch
ander s</w>
wan ted</w>
Her zen</w>
Inter essen</w>
erfolgrei ch</w>
L E
ur ing</w>
Bed ürf
R au
Regel n</w>
increas ing</w>
lo ss</w>
ge worden</w>
S im
g ers</w>
du le</w>
Vertrau en</w>
l ten</w>
er stellt</w>
Tat sache</w>
per haps</w>
li m
pos sibility</w>
instru ment</w>
Janu ary</w>
Spiel er</w>
Tele f
Gr enzen</w>
Hin sicht</w>
mor ning</w>
A ra
h eben</w>
b all</w>
Syst ems</w>
eh er</w>
durch geführt</w>
K ir
fi gu
Compu ter</w>
p aid</w>
St äd
fre qu
Währ end</w>
K ern
k in
com fort</w>
Formu lar</w>
C enter</w>
m ann</w>
zu stellen</w>
nei gh
t oren</w>
L es
produ ce</w>
k tieren</w>
bu tt
Hand els
promo te</w>
h ou
h ung</w>
s yn
inten si
Fun ktion</w>
st ability</w>
con duc
rou ght</w>
los sen
Adres se</w>
A S
w w
re gu
wr ong</w>
bestimm ten</w>
Goo gle</w>
Zim mer
Kö ni
F ree</w>
V al
buil d</w>
B ec
kon trol
happ en</w>
k rä
Re form</w>
organis ation</w>
Kredi t
I tal
f alt</w>
mm ing</w>
Ju ly</w>
M om
kti v</w>
partn er
nation ale</w>
high est</w>
tail ed</w>
b ig
Han del</w>
K a
pl at
Produ ktion</w>
ww w</w>
deci ded</w>
s ou
S ehr</w>
n ungen</w>
si x</w>
ge wäh
altern ative</w>
po wer
De z
letz te</w>
assi stance</w>
Inform ations
op h
ein gesch
wor ldwide</w>
l auf</w>
tra in</w>
commer cial</w>
är en</w>
ord ini
Über nach
funktion iert</w>
zus etzen</w>
A partments</w>
en heit</w>
ima ges</w>
F lü
h ne</w>
tri t
prä sen
contribu tion</w>
c a
en se</w>
voll ständig</w>
l an</w>
al te</w>
zwei ten</w>
ver trau
ne ben</w>
T at</w>
c r
f s</w>
gen der</w>
pla yer</w>
tes ten</w>
k i
i zed</w>
som it</w>
B est</w>
ve ments</w>
Ital y</w>
m ess
beg in</w>
ver öffent
ru le</w>
Ein führung</w>
I M
f res
Bu ch
o ber
A gr
ten en</w>
sor g
establi sh
ma g
zeu g</w>
p un
ei l</w>
gew öhn
D or
b order</w>
Zu dem</w>
k ennen</w>
le ge</w>
lich keiten</w>
implemen ted</w>
Gewal t</w>
stand s</w>
Ok tober</w>
st adt</w>
zei t
Organis ation</w>
sp an
Mo st</w>
lauf en</w>
C hr
ein gesetzt</w>
po st
je derzeit</w>
activ ity</w>
SQ L</w>
c um
Notwen digkeit</w>
be antwor
ap preci
pos es</w>
maxim um</w>
er seits</w>
min ute</w>
C a
Emp feh
n ä
ell es</w>
Präsi dentschaft</w>
Dev el
Über ein
cht ungen</w>
Portu gal</w>
s ales</w>
las h</w>
wieder hol
chil d</w>
pl om
benef its</w>
ter race</w>
P ap
ver ty</w>
Beri chts</w>
l y
der t</w>
bed au
tal king</w>
g la
ab en</w>
mach ine</w>
oper ating</w>
ren e
Su p
Lie fer
solidar ity</w>
A L
appli es</w>
B lu
P ho
tz dem</w>
ver gangenen</w>
Sch wieri
an ge</w>
St är
ätz lich</w>
ul ation</w>
gesch ü
eff ort</w>
suffici ent</w>
C amp
o il</w>
Fol gen</w>
schie den</w>
sel y</w>
tain ing</w>
Host els</w>
Z entr
ge m</w>
rel ation
Mehr heit</w>
Sch affung</w>
timm ung</w>
spr ün
Wir k
Web seite</w>
practi cal</w>
ati v
ch em
Sp anien</w>
h as
un ch</w>
Inst allation</w>
LA N</w>
spor ts</w>
zu letzt</w>
we eks</w>
cl ass</w>
drück lich</w>
J ust</w>
vol len</w>
ann te</w>
gh t
Dez ember</w>
mo tion</w>
cri teria</w>
is on</w>
fahr t</w>
persön lichen</w>
aus reich
jo y</w>
Investi tionen</w>
S oll
Be kämp
Bes onder
A ff
off ered</w>
stri ct</w>
M L</w>
Lu ft
Grupp en</w>
wissen schaf
Devel op
ho ch</w>
appe ar</w>
mar quis</w>
Af gh
S ter
ste ts</w>
proc esses</w>
ari es</w>
schein lich</w>
Rat spräsi
G est
S il
eff e
zei ten</w>
Gef ahr</w>
über prüfen</w>
Produ kt
bit ten</w>
dri ve</w>
p al
it es</w>
ologi en</w>
ra ised</w>
Fo to</w>
erneu t</w>
re view</w>
effici ency</w>
D oppel
i k</w>
lar gest</w>
se ts</w>
accep ted</w>
Bri tish</w>
Austri a</w>
er fahren</w>
Rah men
Inde ed</w>
kon nten</w>
G al
gen annten</w>
g barkeit</w>
ni ed
In sel</w>
isi erung</w>
Schließ lich</w>
grö ßer
d ated</w>
s us
anno un
E very</w>
inter pre
bi o
gen s</w>
gro wing</w>
neu es</w>
read ing</w>
Gesund heits
c e
Früh stück
comprehen sive</w>
neu er</w>
S ecu
Co sta</w>
Bekämp fung</w>
u t</w>
is land</w>
advan tage</w>
O N</w>
Ta gen</w>
suit able</w>
dec lar
benu tzen</w>
G ei
rei b
sel n</w>
ch em</w>
si tz
sel ect</w>
ver age</w>
trans fer</w>
ele ments</w>
Fäl len</w>
ph one</w>
integr ated</w>
g nis</w>
größ ten</w>
f örder
em o
industri al</w>
h our</w>
gre at
grei fen</w>
t licher</w>
Priv at
z en
wi esen</w>
con ver
en ced</w>
aktu elle</w>
flä che</w>
ade qu
b rought</w>
un bedingt</w>
be mü
langu ages</w>
di gt</w>
st eu
ein gehen</w>
ges ell
en det</w>
publi k</w>
Gemein schafts
pleas ant</w>
berücksichti gt</w>
Bestimm ungen</w>
E ig
ag ing</w>
Un ter</w>
hin ter</w>
p assi
G eg
no on</w>
gar den</w>
separ ate</w>
nied ri
ch e
be qu
Konta kt</w>
sag te</w>
Agr ar
beg innen</w>
minim um</w>
Wo chen</w>
O per
th in
dou bt</w>
erwar tet</w>
sp acious</w>
E rei
be für
Ber at
appli ed</w>
metho d</w>
ün f
fäl lt</w>
W ill
al tet</w>
se as
sel s</w>
conc ept</w>
entsprech enden</w>
ver m
reas on
dra ft</w>
l ate</w>
zü gi
charac ter
sch ool</w>
t ter
jewei ligen</w>
proced ures</w>
demon str
b ür
dam age</w>
elec tions</w>
Y or
kosten los</w>
D om
st atisti
le gt</w>
aus schließlich</w>
l ess
ch ing</w>
ge o
men tion</w>
i le</w>
verantwor tlich</w>
O pf
le ben
entschei den</w>
H um
e a</w>
colleag ues</w>
J oh
en ster</w>
de ten</w>
sh opping</w>
gr an
pla yers</w>
Bul g
Je der</w>
syst eme</w>
y ond</w>
con struc
wen ige</w>
Qu alitä
zusätz liche</w>
Veranst al
ru s</w>
ein gerichtet</w>
fi el
stän digen</w>
Com p
cur ren
eindeu tig</w>
st ar</w>
Or d
g ames</w>
ne y</w>
et ary</w>
Bre akfast</w>
pur su
Land wirtschaft</w>
n a</w>
pers ons</w>
cl assi
instru ments</w>
gewähr leisten</w>
war m</w>
star ting</w>
gew ün
Frei heit</w>
off izi
Kra ft</w>
b y
Wi th
tei en</w>
schön e</w>
W erte</w>
de tailed</w>
über nehmen</w>
schö nen</w>
M et
R O</w>
Su ch</w>
199 8</w>
ha f
cre ation</w>
seri es</w>
Bel gi
sup ports</w>
d nis</w>
ktiv en</w>
b ahn
ne ar
Bu d
J a</w>
Lan des</w>
Heraus forderungen</w>
Lin ie</w>
mu t</w>
si gkeit</w>
a der</w>
ge wis
f lu
Stu di
Aspe kte</w>
viol ence</w>
H el
ver pf
cer ti
S S</w>
as se</w>
Berei che</w>
R E
qu are</w>
Mär z</w>
rele ase</w>
civi l</w>
ho ffen</w>
es ten</w>
A C
elec tri
nor m
H y
lo c
elec tron
F el
H ung
ad verti
terran ean</w>
el ten</w>
Si cht</w>
en a</w>
be darf</w>
akzep tieren</w>
T it
c ent</w>
rei se</w>
tar get</w>
exac tly</w>
deci de</w>
kei ts
Ver gan
S E</w>
s in
S at
ti ges</w>
ro s</w>
Ba de
häufi g</w>
T ag
da durch</w>
Con vention</w>
Vol ks
Sch u
t au
at temp
genu tzt</w>
Den noch</w>
el se</w>
Zun ächst</w>
po st</w>
erlau bt</w>
le y</w>
n or</w>
ep h
shi ps</w>
D I
On ce</w>
ell a</w>
off en</w>
Unter su
Bem üh
selb stverständlich</w>
ent ed</w>
fur nis
ma sch
Ba sis</w>
wor ten</w>
com ment</w>
form at</w>
sel ected</w>
B ahn
wer k
W unsch</w>
per man
recom mend
g ungen</w>
Gr and</w>
equ al</w>
in fra
T r
sub stan
P L</w>
consequ ences</w>
P ass
ter rit
ev ening</w>
bal an
gi c</w>
fiel ds</w>
th ought</w>
un mittel
tran spor
feat ure</w>
entsprech end</w>
Erfahr ungen</w>
Ob je
prob ably</w>
ul i</w>
pri mar
europä ischer</w>
fan gen</w>
erle i</w>
Vide o</w>
D enn</w>
Re g
ges ellschaft</w>
ti li
ver treten</w>
proz ess</w>
j ün
Nu tzen</w>
k i</w>
besch rän
ß er</w>
au er</w>
Änder ung</w>
offi cial</w>
rei cht</w>
Syst em
wer te</w>
L eute</w>
N ation
R el
rel ation</w>
boo king</w>
Wi der
Lin ks</w>
po verty</w>
T or
resp ec
I rel
verpf lich
si erung</w>
sen si
Rechts vorschriften</w>
f ant
end lich</w>
Inter ne
W ell
wal king</w>
Cas ino</w>
ri ffen</w>
ab ge
wir ken</w>
Irel and</w>
mo vement</w>
m t</w>
Janu ar</w>
avo id</w>
le b
S tim
zu dem</w>
stän dige</w>
visit ors</w>
En ergi
Frank fur
c aus
li ves</w>
war ten</w>
Besu ch</w>
schrei ben</w>
po or</w>
fi xed</w>
ba si
techn ischen</w>
Fir stly</w>
innov ation</w>
flexi ble</w>
und es
w in</w>
Sch ritte</w>
tim ate</w>
ev ent
fran zös
k a
er ter</w>
ar ge</w>
au di
P en
de te</w>
Weiter e</w>
Kin der
3 7</w>
C al
go al</w>
hear d</w>
impro ved</w>
erfül len</w>
Agen da</w>
her aus
drin gend</w>
s al
publi shed</w>
In n</w>
öffent liche</w>
val u
Erklär ungen</w>
si l
ad ul
do m</w>
bu ch</w>
stim me</w>
tig ungs
moder nen</w>
Berichterstat terin</w>
ch ance</w>
lo ve</w>
bek ämp
Bemüh ungen</w>
st es</w>
car ry</w>
For m
mon th</w>
ve au</w>
th ous
deli very</w>
analy sis</w>
indi c
su b</w>
Kap it
ut ting</w>
C l
b illion</w>
gew esen</w>
Verfü gbarkeit</w>
datab ase</w>
K ör
Sp a
PD F</w>
re chts</w>
le gung</w>
ver l
In halte</w>
ra t</w>
des tens</w>
nah e</w>
Jahr es
r ück
s inn
ri es</w>
do wnlo
sa ying</w>
Gener al</w>
T em
Vergan genheit</w>
lo st</w>
E is
t abled</w>
k at
car ds</w>
Dru ck</w>
PH P</w>
cir cum
Auf gaben</w>
dec or
t ac
bei tragen</w>
aff t</w>
Medi terranean</w>
her unter
recom mend</w>
Solidar ität</w>
prov isions</w>
v isi
il ome
ali en</w>
199 7</w>
K ommission
ser ved</w>
w ine</w>
S wiss</w>
fan grei
confi dence</w>
Pra xis</w>
trit ts
r ent</w>
wahr scheinlich</w>
bes sere</w>
Auff assung</w>
sa ve</w>
tur ned</w>
lang fris
Sin ne</w>
lief ert</w>
t our</w>
v ital</w>
or ie</w>
el e</w>
Öffent lichkeit</w>
fu n</w>
terror ism</w>
p assen</w>
par te
oper ate</w>
Span ish</w>
men sch
su ite</w>
ch s
Afgh an
b usin
j ähr
ar tige</w>
hä tten</w>
kann st</w>
t ations</w>
ge kommen</w>
k rise</w>
ad ed</w>
Ma cht</w>
richti gen</w>
exp ected</w>
For t
discus sed</w>
metho ds</w>
ch mal</w>
ti tu
S P
en gen</w>
Mon aten</w>
ber echti
ex press</w>
Gebäu de</w>
W a
c ting</w>
ur sprün
gel t</w>
yp e</w>
tempor ary</w>
Co de</w>
Fun ktionen</w>
Li z
frei e</w>
erwäh nt</w>
occ a
tz er
Pre mi
bei de</w>
Su che</w>
as h
ab ri
administ ra
Vor teile</w>
run ning</w>
is ing</w>
und ation</w>
ster ed</w>
Behand lung</w>
ex ist</w>
Er zeu
monit oring</w>
ic ally</w>
Pa ke
Arbeitsplä tze</w>
Beschäf tigung</w>
k ers</w>
wa ste</w>
scre en</w>
Ges prä
num erous</w>
P ak
k aum</w>
ver wal
ga gement</w>
mean ing
H ause</w>
S onder
gen heiten</w>
dis crimin
begr enz
Heraus forderung</w>
schnit t</w>
en ha
F a
k tive</w>
sp richt</w>
ex tra
f el</w>
se chs</w>
J uli</w>
steh enden</w>
cre ating</w>
zus timmen</w>
1 50</w>
G N
o de</w>
erfol gen</w>
Yor k</w>
rec eption</w>
glei che</w>
Wah l
M ün
wor th</w>
Pro c
Sch wer
Fre u
läu ft</w>
DV D</w>
f la
wor ked</w>
pri orities</w>
arri val</w>
appro ved</w>
ge mü
prote cted</w>
0 9</w>
sch wer
sp ei
c ross</w>
ak tiv</w>
techn ologies</w>
industri e</w>
N ational</w>
v an</w>
sch wer</w>
han den</w>
entsprech ende</w>
P as
cli ent</w>
vorgesch la
u tions</w>
Nor th</w>
get ting</w>
dig ital</w>
Geschäfts ordnung</w>
Ques tion</w>
Ho ff
b ab
di sa
Hi er
dem ands</w>
um b
A gent
se ktor</w>
cri tic
C ap
wach sen
re ference</w>
res i
Wel come</w>
swi mming</w>
pl ans</w>
Boo k</w>
I D</w>
V ari
b ran
conflic t</w>
K ün
institu tion
Techn ologie</w>
ou rable</w>
Gesch ä
ame ter</w>
G et</w>
es ter
on t</w>
ci a</w>
Fle xi
L ab
can di
Op en</w>
in stead</w>
Woh l
Ress ourcen</w>
da gegen</w>
Re public</w>
Pro duc
ge ments</w>
jo in</w>
medi um</w>
Fischer ei
Reser vi
ter en</w>
um fangrei
ed s</w>
bu y</w>
ci ties</w>
gesch ehen</w>
butt on</w>
be yond</w>
ad vis
Sp eci
spiel e</w>
sp ann
acc es
Nach bar
gi ving</w>
a dap
st ä
far mers</w>
Somm er</w>
y right</w>
reg ards</w>
leist et</w>
benö tigt</w>
pic tures</w>
M P
ti ous</w>
Finanzi erung</w>
phy si
zei chen</w>
berei t
Rei se
kur z
geeig net</w>
lo sigkeit</w>
nor mal</w>
P un
di se
min destens</w>
Muse um</w>
fin ally</w>
sig n</w>
0 7</w>
o o</w>
st elle</w>
En g
fish ing</w>
vor handen</w>
he ar</w>
stu dy</w>
Itali en</w>
in i</w>
ta bel</w>
Ver b
speci fic
fil m</w>
some times</w>
Y et</w>
zu künf
di ar
g yp
An trag</w>
transpar ent</w>
K ann</w>
stat tung</w>
sch o
so bald</w>
Be gin
W ün
exp lo
lo sen</w>
fun ctions</w>
S he</w>
ori enti
ti er
vil lage</w>
histori c</w>
di c
Frühstück s
Produ kten</w>
öß e</w>
sp rü
Selb st
Ber u
E ff
z ung</w>
erzi elt</w>
bewus st</w>
provi ding</w>
pic ture</w>
esi on</w>
H ig
mus e
empfeh len</w>
Ar ticle</w>
zeichn ung</w>
ü b
En joy</w>
verbesser t</w>
zah lt</w>
A N
D e</w>
sc ope</w>
Begin n</w>
Schwieri gkeiten</w>
w ants</w>
be achten</w>
Kon ferenz</w>
verpflich tet</w>
gra de</w>
0 8</w>
Ab schließend</w>
Bil dung</w>
aktivi eren</w>
dru ck
ga in</w>
Bür gern</w>
M einer</w>
aff ected</w>
n ungs
program s</w>
C le
un ten</w>
Ch rist
re in
19 6
wei st</w>
nat ür
tnis se</w>
Ch ance</w>
dig keiten</w>
ag ed</w>
F lu
discus s</w>
ander es</w>
struk tur</w>
w inn
it ems</w>
imple ment</w>
Best and
R ats
Ö sterrei
bre chen</w>
ann ual</w>
S E
Sp a</w>
wonder ful</w>
W est</w>
tr ust</w>
vor gelegt</w>
Ein richtung</w>
lab our</w>
l le</w>
us ually</w>
appe ar
v ac
si chten</w>
Itali an</w>
heu tigen</w>
op ened</w>
gewi esen</w>
histori cal</w>
wün sche</w>
pp ing</w>
f r
sa chen</w>
stat ements</w>
s la
gesch affen</w>
schü tzen</w>
M and
al though</w>
tro ff
lau b
lik ely</w>
ver sucht</w>
ac e
re gre
grat u
gi ert</w>
Fri eden</w>
er o</w>
vi er
Ter min
7 5</w>
W ol
zeich nen</w>
st ress</w>
ser ve</w>
Sta ats
bil den</w>
Bel ar
Zus timmung</w>
Bar ro
prei s</w>
inst all</w>
Bec ause</w>
b ahn</w>
influ ence</w>
Afghan istan</w>
M er
di e
V oll
i erung</w>
u lar</w>
ex erc
Präsi denten</w>
entr y</w>
organis ations</w>
ch erung</w>
M ehr</w>
neg ative</w>
K am
demokrati schen</w>
el te</w>
de gre
fre ue</w>
fun ction
T I
lo wer</w>
B undes
näch ste</w>
erklär t</w>
ie te</w>
gra ph
Hig h</w>
pro per</w>
Bo th</w>
T ou
k ü
g utes</w>
si vely</w>
institu tional</w>
Schla f
Haush alt</w>
C entre</w>
Bürger innen</w>
A no
n ali
di sche</w>
acc ession</w>
Menschen rechts
Swi tzer
Priv ate</w>
ger ungen</w>
sor gung</w>
c alls</w>
U R
ser v
trau m</w>
In s
s un
st ör
tiv al</w>
inst alled</w>
bestimm t</w>
An y</w>
get ary</w>
s li
ra vel</w>
Kom fort</w>
F es
is ine</w>
pro je
respon d</w>
tem perat
gelö st</w>
E very
e e</w>
um gesetzt</w>
Beri chte</w>
Re formen</w>
anges prochen</w>
s agt</w>
fü gt</w>
Syst eme</w>
sc ap
Hö he</w>
ver lässi
er häl
Uni versi
Ide e</w>
differ ence</w>
Wi kit
E con
camp a
el ement</w>
Stad t
Pal est
ta ges</w>
Wi chti
cra ft</w>
gere cht</w>
mehr eren</w>
develop ments</w>
überzeu gt</w>
Re publik</w>
ep ing</w>
moder ne</w>
außer halb</w>
re forms</w>
Kun st
U se</w>
entsp richt</w>
en gli
re fer</w>
cle an
Switzer land</w>
K al
se h
wa it</w>
S eh
Wikit ravel</w>
ge öffnet</w>
cri tical</w>
di stin
streng th
exten sive</w>
Verf assung</w>
Arch it
traff ic</w>
exp ec
streng ungen</w>
plann ing</w>
care fully</w>
he ad</w>
commit ted</w>
un er
Men ge</w>
stoff e</w>
erfül lt</w>
pl u
Ex per
Ru le</w>
Frankfur t</w>
ch a
is es</w>
as ks</w>
Au to</w>
Par teien</w>
nü tz
curren cy</w>
r at
Con ference</w>
Be we
Econ om
f oo
allgem einen</w>
ent y</w>
bar er</w>
over all</w>
happ ened</w>
x es</w>
Ano ther</w>
on s
Ar mut</w>
bili tät</w>
Instru ment</w>
B l
techn ische</w>
4 00</w>
L eg
ri d</w>
em als</w>
tu ell</w>
stre et</w>
gerä um
Sup port</w>
C ha
wes entlich</w>
th af
ver mei
S ign
bet t</w>
M ag
ge troffen</w>
be came</w>
strategi c</w>
zufri eden</w>
S I
bi tion</w>
sig ned</w>
fol gende</w>
bi a</w>
R en
be hör
ha ft</w>
ta r</w>
zi g</w>
inform ieren</w>
Wah len</w>
H u
H ä
ele gan
pack ages</w>
Rom a</w>
li en</w>
he al
berei tet</w>
Qu ar
z ö
ho t</w>
B rü
t ch</w>
Al b
rit an
circum stances</w>
Ver häl
off ering</w>
ra li
kon ta
W here</w>
f ish</w>
Re ak
der ungen</w>
to t
kl are</w>
emp has
exc ep
Na cht</w>
b ir
er stellen</w>
kl ein
0 5</w>
sicher lich</w>
win dow</w>
main ly</w>
unterschie dliche</w>
g a</w>
trei ben</w>
ol der</w>
zi pi
verhin dern</w>
s äm
process ing</w>
P ati
ru ption</w>
Min der
unterschie dlichen</w>
initi atives</w>
up date</w>
t ari
Stim me</w>
p aper</w>
ver folgen</w>
zentr ale</w>
ko stet</w>
i or</w>
ü hr
busin esses</w>
m and
te i</w>
reduc tion</w>
vorgesch lagen</w>
un acceptable</w>
Stabili tät</w>
N ationen</w>
e ad</w>
vi ll
tr ying</w>
Vi elleicht</w>
D ro
k am</w>
fäl le</w>
Eig ent
w ell
sel ben</w>
be zieh
eg ation</w>
5 5</w>
is ation</w>
be ein
gre en</w>
schwieri g</w>
Gesam t
clo sely</w>
archit ec
minist er</w>
T sch
gele gen</w>
li mit</w>
lu ß</w>
enth al
T un
an lage</w>
Wor te</w>
F ähi
fil l</w>
adop t</w>
Kri terien</w>
ru fen</w>
Develop ment</w>
Spra chen</w>
C z
Ne vertheless</w>
V öl
form er</w>
erg än
pas sen
Opf er</w>
St art</w>
erk annt</w>
pas st</w>
Gleich zeitig</w>
ment ar
cla im
B is</w>
z in
St and</w>
win ter</w>
elek tron
r aten</w>
de ckt</w>
An strengungen</w>
konkre te</w>
con ten
aus ch</w>
sho wer</w>
Terror ismus</w>
regu lar</w>
re presents</w>
No te</w>
Anwen dungen</w>
Qualitä ts
tei lig
Pa ket</w>
lab or
cu isine</w>
größ ere</w>
del ines</w>
ver ab
colle ction</w>
Binnen markt</w>
H T
D re
sc ale</w>
Chin ese</w>
des er
S port</w>
m är
confi gu
Jahrhunder t</w>
qu es</w>
gestell ten</w>
spiel t</w>
Vereinbar ung</w>
anzu zeigen</w>
hoch wer
regi stri
ausge wäh
b lu
Besch reibung</w>
M ei
ter e</w>
c ast
il legal</w>
arch i
Forsch ungs
Entschließungsan trag</w>
Kri eg</w>
famili es</w>
absolu t</w>
besu chen</w>
Schwei z</w>
20 11</w>
Zei chen</w>
as su
enti rely</w>
scienti fic</w>
b es</w>
reduc ed</w>
speak ing</w>
angem essen
inform ed</w>
Th ose</w>
hän gt</w>
for get</w>
av ing</w>
S af
den s</w>
per spec
tä glich</w>
bour g</w>
k ts</w>
Al li
tion ing</w>
regi stered</w>
adequ ate</w>
defin ed</w>
vali d</w>
con tex
wol lte</w>
M ac
Milli ar
berücksichti gen</w>
L I
d t</w>
s ources</w>
stär ker</w>
Aspe kt</w>
inves tig
g in</w>
li erung</w>
Ver tei
ck ed</w>
Con stitu
ge zeigt</w>
Gre at</w>
b ü
de ath</w>
Besu cher</w>
G ast
b on
es ter</w>
de tail</w>
pho togra
Febru ary</w>
p ath</w>
Inv est
wei t
stän den</w>
unterstü tze</w>
meas ure</w>
bro wser</w>
glau ben</w>
e ma
for ces</w>
asp ect</w>
3 3</w>
tran si
199 6</w>
A partment</w>
k ap
ing er</w>
c amera</w>
discus sions</w>
L e</w>
k ategorien</w>
un employment</w>
regi ster</w>
eingesch rän
An gaben</w>
fres h</w>
di vi
Re zep
is ely</w>
consi st
li sten</w>
pa y
N eben</w>
eu ch</w>
angebo ten</w>
ati vely</w>
anim als</w>
h op
gesch ie
P au
et z</w>
f ei
Fo tos</w>
establi sh</w>
T en
re jec
kit chen</w>
proper ly</w>
Gri e
wei ten</w>
contribu te</w>
B ran
t y
Pla yer</w>
Ferien woh
j ahr
der zei
ast ern</w>
Übernach tung</w>
An fragen</w>
zu führen</w>
Par ti
competi tive</w>
Ira q</w>
D er
4 8</w>
O N
verein bar
conclu sion</w>
displa y</w>
De tails</w>
Betri ebs
e ce</w>
Sal z
grupp e</w>
f ts
prin t</w>
v ations</w>
relation ship</w>
increas ingly</w>
Gipf el</w>
i de</w>
ach tet</w>
Innov ation</w>
V il
tel eph
öff nen</w>
gen ü
vo ice</w>
stu di
Op tion</w>
j ahr</w>
D A
G ood</w>
H ome</w>
zahl reichen</w>
contra ct</w>
S ur
f a</w>
vol ution</w>
Des ign
Proz ent</w>
Veränder ungen</w>
co h
Bi o
Ar gu
Ch eck</w>
ch i
F ron
U K</w>
un e</w>
geri ch
Di stribu
n ess
Pe ople</w>
ra il
be ha
ex pl
under standing</w>
entwick lung</w>
ex tent</w>
gew innen</w>
G aran
Ex c
justi ce</w>
en g</w>
F R</w>
t ori
main tain</w>
S port
i d
u n</w>
partner ship</w>
b ritan
Res ort</w>
Prior ität</w>
kor re
s ale</w>
besonder en</w>
i ze</w>
ent schieden</w>
num bers</w>
easi er</w>
größer es</w>
tra v
auf merk
M ex
sp ie
in side</w>
en ze</w>
Rus sian</w>
Wil l</w>
Kenn tnis</w>
gewün sch
ff er</w>
Ab sch
compon ents</w>
Belar us</w>
re member</w>
gel n</w>
Me er
er r
aus führ
fin de</w>
seri ously</w>
tra ck</w>
ig keit</w>
mem ber
ec ken</w>
pe ace
For um</w>
agri culture</w>
stu dents</w>
Struk tur
di plom
be ziehen</w>
adv ance</w>
moun tain</w>
por ted</w>
M us
w ood</w>
3 6</w>
gen cy</w>
Regi erungs
20 20</w>
Sto ck
thin king</w>
L ast</w>
ci ans</w>
St ellen</w>
pur poses</w>
komple tt</w>
profi tieren</w>
H altung</w>
purch ase</w>
T y
Sch ri
pl us</w>
wis hes</w>
M el
vol ler</w>
k ungen</w>
ab kommen</w>
col or</w>
Al though</w>
sp end</w>
Publi c</w>
gelan gen</w>
ens wür
Mon ate</w>
histor ischen</w>
enha gen</w>
Z er
encoura ge</w>
Er n
kom pli
supp li
near by</w>
contro ll
l ern</w>
tim s</w>
Re fer
St ation</w>
b illi
n ern</w>
Ta ke</w>
g ly</w>
at ur</w>
el eg
ber üh
gui de</w>
i hres</w>
ad ju
ther ap
inten ded</w>
sh e
alisi eren</w>
fizi erung</w>
will kommen</w>
D ad
wa iting</w>
consider able</w>
veröffent licht</w>
umb n
S ei
mu si
co ffe
ep age</w>
a cht</w>
b and</w>
administ ration</w>
C oo
N E
con vin
ant i</w>
Organis ationen</w>
E l</w>
s at
ur s
H om
L ink</w>
Ab en
Groß britan
Verwal tung</w>
d ol
cl ari
accord ance</w>
sch ung</w>
rec ord</w>
Über wach
Stand ards</w>
ge tragen</w>
Au gen</w>
grün det</w>
er scheint</w>
min dest</w>
cre te</w>
c in
Zwei fel</w>
Techn ologien</w>
Direc tive</w>
Angebo te</w>
reason able</w>
3 4</w>
ten de</w>
compe ten
jewei ls</w>
0 6</w>
kommen den</w>
F lash</w>
J usti
Mit teilung</w>
Ter rasse</w>
introduc ed</w>
titu de</w>
gan gs
0 2</w>
Sch utz
oc cu
erkenn ung</w>
zu mindest</w>
freu t</w>
prec isely</w>
Br us
rela x</w>
Dad urch</w>
Ele k
satis fac
se mb
pla ying</w>
expres sed</w>
gro ß</w>
bor ders</w>
I ma
wis chen
garan tiert</w>
we ek
ung sh
whi te</w>
Su per
vern ünf
isti schen</w>
du m</w>
An nahme</w>
u men</w>
se em</w>
lin ked</w>
stän de</w>
s au
Er wachsen
NA TO</w>
E m
deut schen</w>
finan cing</w>
tour ist</w>
geschü tzt</w>
attra ctive</w>
3 D</w>
be coming</w>
flexi bility</w>
Famili en</w>
Be fore</w>
gener ation</w>
ausreich end</w>
erforder t</w>
S un
Bei m</w>
Kom pon
Verpfli chtungen</w>
Th us</w>
sti eg</w>
her zlich</w>
li cherweise</w>
appe ars</w>
Char ak
presi dency</w>
Secu rity</w>
S ou
wer ke</w>
füh l</w>
n y</w>
N um
l am
is tic</w>
Produ ktions
electron ic</w>
effec tively</w>
mbo l</w>
Barro so</w>
eleg ant</w>
t ests</w>
de ck
Gre ece</w>
Garan ti
S yn
Vor berei
cri me</w>
op ening</w>
geschie ht</w>
er leben</w>
konzent rieren</w>
Sta at</w>
sur ance</w>
Fl or
emis sions</w>
sch lä
men s</w>
En gagement</w>
Er d
holi days</w>
Im mobili
New sletter</w>
connec ted</w>
F und</w>
Ber g
bor n</w>
C i
L it
Bu chung</w>
Hin weis</w>
In fra
schö n</w>
sch u
tri p</w>
gui delines</w>
rep ly</w>
Ab end</w>
corpor ate</w>
Zentr al
ester day</w>
A kti
kon tex
M ein</w>
ro b
des i
consider ation</w>
sec tors</w>
Ju gend
th umbn
zah lung</w>
erg reifen</w>
Pl an</w>
vic tims</w>
C am
af ter
glob alen</w>
kauf s
administra tive</w>
st ab
olog ischen</w>
mach ines</w>
Prior itäten</w>
Lux em
c ore</w>
moder n
transl ation</w>
troff enen</w>
9 9</w>
I denti
P fli
a vi
gen ce</w>
seas on</w>
Rats vor
wor tern</w>
Doku ment</w>
gesp ei
p il
Cz ech</w>
Re gel</w>
manag ed</w>
s ü
Wis sen</w>
Tim e</w>
IS O</w>
ris ks</w>
lü sse</w>
lea ders</w>
coh esion</w>
re chten</w>
re present</w>
lich ung</w>
ly mp
ge ber</w>
Ver s
sa ys</w>
erzi elen</w>
F A
ten d</w>
coffe e</w>
spe ech</w>
Ged an
teleph one</w>
fac ing</w>
Am bi
en falls</w>
Mar ke
Mo der
einfa che</w>
D ra
li a</w>
marke ting</w>
cour ses</w>
recom men
Leist ungen</w>
cal cul
lux uri
Kün st
at ure</w>
Ein richtungen</w>
ear lier</w>
tro ll
sto ck</w>
pass word</w>
gu ter</w>
Unter kategorien</w>
kauf t</w>
po wers</w>
geb enen</w>
führ ungen</w>
ban ks</w>
Abgeord nete</w>
conveni ent</w>
ex ter
Viel falt</w>
N ame</w>
tst adt</w>
furnis hed</w>
P lu
be we
pris es</w>
erhäl tlich</w>
führ ten</w>
durch aus</w>
0 3</w>
e ans</w>
su s</w>
wei te</w>
k en
Gre en</w>
Pol and</w>
Ver stän
An spruch</w>
Fu ß</w>
Gar ten</w>
pa in
Ap parte
Indi a</w>
Grie chen
rei sen</w>
mp tion</w>
mal er
Arbeit nehmer</w>
A gre
experi enced</w>
meaning fully</w>
Fe der
Cu st
ony mous</w>
lie fer
Lei t
B or
em er
aus drücklich</w>
Mom ent</w>
Aff airs</w>
S M
T au
posi tions</w>
spezi elle</w>
nö tig</w>
sch w
Bed ar
E S</w>
fest gelegt</w>
refer red</w>
ó n</w>
th i
Par ty</w>
fo unded</w>
my self</w>
tr o</w>
sub scri
struc tural</w>
freund lich</w>
die jenigen</w>
con tain</w>
su che</w>
ru p
wri te</w>
beginn t</w>
y al</w>
zäh len</w>
Ori gin
mel den</w>
al d</w>
for ced</w>
Konzep t</w>
power ful</w>
caus ed</w>
contex tually</w>
es tic</w>
posi tiv</w>
Di re
Bo ard</w>
grupp en</w>
grammati cally</w>
eng ine
persön lich</w>
Wettbewerbs fähigkeit</w>
kontex tuell</w>
Stu dio</w>
Schlussel wortern</w>
grammati sch</w>
G ent
vi ert</w>
par ag
Schlussel wort</w>
Schlussel phrase</w>
ar ticle</w>
st am
bes itz
ben ach
ah ead</w>
Ira k</w>
be comes</w>
lo ad</w>
br ing
weiter er</w>
assess ment</w>
Fol ge</w>
Chr isti
x e</w>
Ide en</w>
O ut
pho tos</w>
coordin ation</w>
c en
w ent</w>
A sia</w>
B ru
zwei fel
Unter kunft</w>
Sk i
Fu ß
ge halten</w>
Ver bin
Einf luss</w>
bequ em</w>
w indi
bu chen</w>
inter face</w>
sch lagen</w>
meet ings</w>
M ess
ch ungen</w>
and a</w>
H is</w>
ein ger
mit ten</w>
le h
pl ants</w>
Arbei ten</w>
Grün de</w>
exclu sive</w>
um s
bro ad</w>
sp unkt</w>
ent eil</w>
wel ches</w>
im possible</w>
schi ed</w>
Mod ell</w>
F it
st ein</w>
T wo</w>
ho od</w>
s eiten</w>
Gr öße</w>
Regi on
disku tieren</w>
di tions</w>
is tics</w>
at or
fri ed
cel eb
vermei den</w>
ni e
simp li
H än
N ahr
We ge</w>
Kul tur
F ac
G an
R ules</w>
ern s
f ro
olog ische</w>
Y es</w>
succ e
te ach
Sta r</w>
E mis
W LAN</w>
un k
co s
pla yed</w>
a war
tu red</w>
dan ger
Man ager</w>
ein schließlich</w>
An ti
end or
bre ak
differ ences</w>
impro vement</w>
O lymp
con crete</w>
comp ati
any one</w>
k ö
il fe</w>
milit är
f ying</w>
Aussch uß</w>
L ag
emp ha
199 5</w>
bud getary</w>
beg lück
tro tz</w>
W o</w>
w on</w>
Inter net
mögli chen</w>
Eben so</w>
ter t</w>
Großbritan nien</w>
thumbn ail</w>
pos sibilities</w>
rel ating</w>
Initi ativen</w>
zäh lt</w>
Wäh len</w>
A ktion
M c
n ames</w>
Pres s</w>
Drit t
geb iet</w>
dis h</w>
los oph
d ele
regi me</w>
H auses</w>
t inu
ac tual</w>
in es
An erkennung</w>
Aussch usses</w>
reli able</w>
Kompromis s</w>
T H
p unkte</w>
di enst
vo c
kein erlei</w>
Re de</w>
follo wed</w>
gesch rieben</w>
Kommunik ation</w>
O sten</w>
an spru
regi stration</w>
O hne</w>
Ab schluss</w>
viel fäl
besteh enden</w>
Prei s
m as</w>
ad vice</w>
P hi
an ischen</w>
st ausch</w>
al ter</w>
con dition</w>
mögli cherweise</w>
infra structure</w>
wär en</w>
dra wn</w>
stär ken</w>
Sü d
betre ff
sta aten</w>
Leist ungs
W ein
be t</w>
Ri ghts</w>
spar tn
dra mati
streng then</w>
Geg enteil</w>
sch li
Kl ein
Stell ung
su m</w>
Z eiten</w>
se eing</w>
groß es</w>
expen sive</w>
S ant
qu anti
ali st</w>
Res i
Bedürf nisse</w>
la ws</w>
lat er
li sted</w>
gel aden</w>
N ord
m anner</w>
du ty</w>
Instru mente</w>
tot ally</w>
h inter
speak er</w>
di versity</w>
Kon z
au ßer</w>
pres er
ab geschlossen</w>
ke pt</w>
gesch ä
C at
l eng
kon om
acces sible</w>
All gem
urg ent</w>
Uni versity</w>
politi cs</w>
sta ke</w>
fo li
fizi ert</w>
finanzi elle</w>
So cial</w>
Österrei ch</w>
Medi en</w>
kri mini
sum mit</w>
c entr
ti e
Ir land</w>
län ger</w>
relax ing</w>
re den</w>
sp it
Brus sels</w>
Geor gi
N ah
vorlie genden</w>
be teili
i ten</w>
comple ted</w>
bil ater
Daten bank</w>
land scap
Jav a</w>
exam ples</w>
Milliar den</w>
S eine</w>
Tei le</w>
struc tures</w>
br and</w>
Kin dern</w>
erinn ern</w>
discrimin ation</w>
über all</w>
particip ation</w>
gelei stet</w>
möglich st</w>
priv aten</w>
mögli che</w>
hil fen</w>
ec k
medi cal</w>
ex plan
charac ter</w>
inform iert</w>
f rüh
ri chtet</w>
be zo
servi ert</w>
fel low</w>
ecu tive</w>
S om
ti ef
T ari
w ah
in ts</w>
at ta
pri or</w>
Zah len</w>
9 5</w>
M ol
erhö hen</w>
Au di
Entwick lungen</w>
sorg fäl
F alle</w>
Sch ön
tic les</w>
wer t
Se ktor</w>
appro xim
Kar ten</w>
sch rän
Vi er
P ool</w>
Me ter</w>
absolu te</w>
D s</w>
st ated</w>
bre ak</w>
Verbrau cher
C er
Au gen
Regel ung</w>
tou ch</w>
N ice</w>
ver sions</w>
br ary</w>
S em
ri gh
ber t</w>
f and</w>
mit einander</w>
frei heit</w>
Je des</w>
3 8</w>
Ak tu
S til</w>
ing dom</w>
a h</w>
da cht</w>
danger ous</w>
K no
ä stin
sch ir
conten ts</w>
K er
Sch we
politi scher</w>
Har mon
back ground</w>
ci ous</w>
sh es</w>
spezi ell</w>
def ault</w>
gelei tet</w>
3 9</w>
Bu cht</w>
competi tiveness</w>
ea p</w>
C ard</w>
tro l</w>
kommen s</w>
F r
kon ferenz</w>
b ul
zu gän
stron gly</w>
vor hand
nat ur
Wir d</w>
exper ts</w>
6 5</w>
9 8</w>
star ke</w>
notwen digen</w>
pro por
s a</w>
ch eap</w>
we ak
hin weisen</w>
grund s
Mittel me
Fortsch ritt</w>
ti s</w>
t asks</w>
Mad rid</w>
T O
de aling</w>
hand s</w>
persön liche</w>
balan ced</w>
Fun ktion
de di
De fin
stär k
dor f</w>
Palest ini
Vertre ter</w>
es day</w>
k op
Po ker</w>
Pol en</w>
f lü
w all</w>
Po st
ven ts</w>
itali en
A le
pe l</w>
tä u
Kom peten
Zw eck</w>
Seh enswür
ar a</w>
St unde</w>
sc en
beri cht</w>
Su ch
gener ally</w>
h und
z entrum</w>
ge wal
Ho li
chan ging</w>
buil dings</w>
E L
g n
Al les</w>
emp f
beg an</w>
Gent oo</w>
er hält</w>
en ken</w>
di a</w>
out come</w>
in form</w>
pp er</w>
Tran sport</w>
Mi ddle</w>
prü fung</w>
cho sen</w>
ob wohl</w>
F enster</w>
er e
Gol f</w>
gewähr leistet</w>
u fen</w>
ver lassen</w>
Pl en
perf ec
rele ased</w>
qu alität</w>
ell s</w>
gest alten</w>
dig it
Aus bildung</w>
har d
G lück
and ing</w>
ass ungs
rap h</w>
4 2</w>
f all
ab ilities</w>
st ak
ge fordert</w>
pre fer
Land wir
qui ck</w>
car s</w>
mod els</w>
rei s</w>
Re alität</w>
wa gen</w>
ander em</w>
klu sive</w>
pro to
ob o
de ep
k ro
wir kt</w>
bet ten</w>
mel dung</w>
o therwise</w>
ag no
Dien ste</w>
Febru ar</w>
P ro</w>
ru ral</w>
Un abhängi
fig ures</w>
un fortunately</w>
fra gt</w>
difficul ties</w>
si des</w>
Sor ge</w>
im migration</w>
Di g
Ant worten</w>
inten ance</w>
tol er
s sel</w>
Re cht
br auch</w>
ori z
Kun st</w>
L at
Bestell ung</w>
bil d</w>
w est
w ann</w>
ver ring
il leg
Afri ka</w>
Sin n</w>
tä tig</w>
fe el
Fil m</w>
metr es</w>
Th eir</w>
hou ses</w>
ein verstanden</w>
ab gel
Her steller</w>
Durch führung</w>
Blo g</w>
A K
A ir</w>
p ie
For derung</w>
Viel zahl</w>
l ation</w>
am ing</w>
Rei se</w>
anim al</w>
CO 2</w>
categ ory</w>
wei ght</w>
so fern</w>
Partner schaft</w>
gan g
Proble men</w>
Tran spor
instal liert</w>
Bei tritts
parlia mentary</w>
erns thaf
r uss
tr enn
Leist ung</w>
Hinter grund</w>
u si
ch mals</w>
tra ding</w>
Währ ungs
bet onen</w>
aufmerk sam</w>
führ te</w>
introduc tion</w>
C he
Bo tschaft</w>
sig n
ent stehen</w>
Al p
län g
offen sichtlich</w>
Park plätze</w>
rene w
M ach
lo g</w>
du ce</w>
Famili en
m ation</w>
er ror</w>
de ta
fac ilit
füh len</w>
Pro te
wichti gste</w>
Program ms</w>
Agre ement</w>
H or
or ca</w>
wen igen</w>
Will kommen</w>
in struc
ga ve</w>
leist ungen</w>
Dru ck
Kat astrop
Flexi bilität</w>
En ter
represent atives</w>
Rechn ung</w>
ent lichen</w>
rä ume</w>
nit ure</w>
ra ise</w>
wel cher</w>
Sk ype</w>
stor age</w>
R ou
ob ach
degre e</w>
An merk
sor gt</w>
a verage</w>
ri ert</w>
ac king</w>
vor gesehen</w>
tru ly</w>
Vol k</w>
My SQL</w>
c ement</w>
ra h
le ment</w>
Inn en
E st
li ghts</w>
ut ter
sequ ently</w>
shar ed</w>
amerikan ischen</w>
bal con
il l</w>
V ir
ch ron
de vice</w>
Arbeits losigkeit</w>
Europ eans</w>
pen sion</w>
perman ent</w>
ver folgt</w>
le c
hal tet</w>
enn a</w>
ausge wo
Pal ace</w>
Bro wser</w>
re fu
be trägt</w>
Fis ch
il ing</w>
Unter schie
web sites</w>
Sehenswür digkeiten</w>
N ein</w>
f low</w>
po l</w>
happ ens</w>
Je de</w>
vehi cles</w>
C af
R ä
Th anks</w>
pro sp
Au stra
Se a</w>
Ele mente</w>
pass ed</w>
regel mäßig</w>
O st
mar ked</w>
Str ei
finanzi ellen</w>
who se</w>
v ul
an ces</w>
el a</w>
ri ch
big gest</w>
K ön
Z y
ac ci
Arch i
ge zogen</w>
fi l</w>
Stra ße</w>
optim al</w>
thre at</w>
Ein igung</w>
ass es</w>
Schlüs sel
member ship</w>
Ven e
Form at</w>
tiv ity</w>
sci ence</w>
B us</w>
E ffe
tr än
her gestellt</w>
4 9</w>
ch ines
oper ations</w>
ö ri
St or
continu es</w>
erklär en</w>
ex is
dis pos
Regi stri
combin ation</w>
th or
ris h</w>
kon stru
Doku mente</w>
Selb stverständlich</w>
Fi re
weiter es</w>
Per haps</w>
bed room</w>
verb rei
ordin ary</w>
suppor ting</w>
us ual</w>
Bedar f</w>
E L</w>
er ie</w>
konta ktieren</w>
ens wert</w>
So ft
brei te</w>
M O
f ers</w>
ander ung</w>
posi te</w>
elec tion</w>
ambi tious</w>
berüh m
O ther</w>
R um
ä tzen</w>
stimm t</w>
Wh o</w>
D r</w>
we ap
schaf t
einfa chen</w>
Techni k</w>
mi gr
O pen
führ er</w>
nu tz
lear ning</w>
Ver tri
cop y</w>
sch auen</w>
Mit te</w>
br ings</w>
spiri t</w>
geleg ten</w>
B A
sa w</w>
F inn
ver tre
man age</w>
betra chtet</w>
H aben</w>
tra dition</w>
F onds</w>
it ely</w>
ver lei
voll kommen</w>
tour ism</w>
gegen sei
Zim mern</w>
0 4</w>
l as</w>
en han
can cell
teil weise</w>
K ür
ü hren</w>
Lo g
Deut sche</w>
kar ten</w>
Gr unde</w>
komm e</w>
v an
Veranstal tungen</w>
M un
gri ffe</w>
betra chten</w>
const antly</w>
ein setzen</w>
sensi tive</w>
k unden</w>
att le</w>
Gel d
gen annt</w>
do wn
Stand ard
C ur
w est</w>
den noch</w>
mem ory</w>
guarante es</w>
I rish</w>
t to
ti ally</w>
ge gründet</w>
bie ter</w>
beha vi
bl ack</w>
s ort</w>
il lu
tr ary</w>
geh öri
peace ful</w>
Schri ft
Coo k
K ind</w>
V A
d inner</w>
wichti ges</w>
Angele genheiten</w>
respec tive</w>
w and</w>
W et
bli oth
Drit tens</w>
statt finden</w>
ro man
Mini ster
C ho
t old</w>
priv acy</w>
comb at</w>
ali sm</w>
Bemerk ungen</w>
E M
Far ben</w>
Ne ther
humanit arian</w>
adverti sing</w>
T our</w>
Aus gaben</w>
Les ung</w>
w oo
su n</w>
l o</w>
ch bar</w>
fül len</w>
anges ichts</w>
pro pose</w>
Her z
k top</w>
isti sche</w>
chti gen</w>
impro ving</w>
specific ally</w>
S ar
Gi bt</w>
c m</w>
net works</w>
Ver gleich</w>
Er hol
Mon at</w>
garan tieren</w>
teilig ten</w>
l ass</w>
us h</w>
Aus sicht</w>
über ra
fac tor</w>
loo ks</w>
Metho de</w>
c er</w>
über schrei
typ ical</w>
At lan
Netz werk</w>
b ath</w>
Ver sch
Bei tritt</w>
Whi le</w>
C roati
P E</w>
ob ject</w>
Mi o</w>
Betri eb</w>
Griechen land</w>
F la
S ind</w>
ob viously</w>
cor respon
erhö ht</w>
verl oren</w>
Bestand teil</w>
A sy
D em</w>
addres sed</w>
comp la
ph ase</w>
continu ed</w>
great est</w>
W ar</w>
f und</w>
be ar</w>
la un
star ten</w>
ber ech
sol cher</w>
Regel ungen</w>
O r</w>
R I
success fully</w>
Glob alisierung</w>
B is
kra ft
S D
monit or</w>
appoin ted</w>
m ly</w>
st ory</w>
ha fte</w>
Da für</w>
Stat us</w>
Analy se</w>
ter i
gel assen</w>
bri ef</w>
u ten</w>
Lebens mittel
Prin zip</w>
perfec tly</w>
bar s</w>
akzep tiert</w>
V om</w>
z ing</w>
en ables</w>
depen ds</w>
be glei
a ther</w>
besch lossen</w>
Hum an</w>
i ces</w>
ti se</w>
advan tages</w>
Acc ording</w>
fish eries</w>
le hnen</w>
Par tei</w>
di um</w>
al ty</w>
For derungen</w>
K ingdom</w>
gra f
Ent wurf</w>
US D</w>
umfas sende</w>
ber eiten</w>
conc entr
immedi ate</w>
en des</w>
particip ate</w>
1 st</w>
b as
p ap
ser s</w>
acc ess
rou te</w>
bro ad
ans wers</w>
edi ted</w>
b at
st ro
ari ly</w>
unabhängi g</w>
a i</w>
meas u
Ob wohl</w>
fal sch</w>
Tä tigkeit</w>
besitz t</w>
Th ir
M es
er enden</w>
ec ke</w>
poli ce</w>
comp ens
19 5
Up date</w>
8 00</w>
Z ü
si zed</w>
disku tiert</w>
Pak istan</w>
D onn
te dly</w>
lok alen</w>
i er</w>
i ght</w>
si chern</w>
ver an
noti ce</w>
reques ts</w>
4 4</w>
bin ding</w>
Des wegen</w>
demokrati sche</w>
Nether lands</w>
W ür
zeu gen</w>
We ch
unter schei
1 2
ei st
fir m</w>
agen cies</w>
advan ced</w>
übri gen</w>
6 4</w>
resol utions</w>
Währ ung</w>
m ün
ein geführt</w>
tain ment</w>
dest ro
enor mous</w>
w ind</w>
ak t</w>
ob vious</w>
ern st</w>
Ko ordini
boo ks</w>
m 2</w>
co ok
eu er</w>
kün fte</w>
as king</w>
ac qu
zi em
Bei spiele</w>
eli min
m ac
n ennen</w>
Mul ti
Sho p</w>
K rä
L am
ob tain</w>
ateg orie</w>
umfas st</w>
an bieten</w>
ma ßen</w>
gra du
Gemein samen</w>
S hi
k tes</w>
p es</w>
Le tz
Verstän dnis</w>
fli ght</w>
st ore</w>
ti ckets</w>
de bt</w>
ho st</w>
Er war
deli ver</w>
hil ft</w>
re ment</w>
er ende</w>
der ed</w>
intro duce</w>
aim s</w>
perspec tive</w>
A do
wel chen</w>
höch ste</w>
sett ings</w>
sk ills</w>
f illed</w>
in surance</w>
Tra dition</w>
Ster ne</w>
passi ert</w>
ma intenance</w>
Re li
einf lus
leist ung</w>
vill a</w>
ed ing</w>
appreci ate</w>
pp e</w>
gegenwär tig</w>
lim its</w>
dispos al</w>
ide ale</w>
gewi cht</w>
Verwal tungs
approxim ately</w>
be auf
F I
displa yed</w>
thous ands</w>
de vices</w>
Al tstadt</w>
enter prises</w>
pres ence</w>
Europä er</w>
go als</w>
Wor ten</w>
fe e</w>
evi dence</w>
st abili
Ar ten</w>
sel l</w>
ill ing</w>
Beschäf tigungs
re d
lei ten</w>
Do es</w>
hon ourable</w>
T A</w>
k bar</w>
Kon fer
fac es</w>
Ne ws</w>
T est</w>
be haup
ma g</w>
Dat a</w>
exerc ise</w>
K lar
it ation</w>
Me chan
end gül
exten ded</w>
Richt linien</w>
Stad tz
Win ter</w>
O der</w>
om men
li c</w>
Jahr zeh
spezi ellen</w>
Ado be</w>
6 00</w>
me ters</w>
consu mption</w>
mechan is
bestä tigt</w>
vol un
spra ch
dom estic</w>
ut ter</w>
Mo du
M au
ha ften</w>
di r</w>
tic ally</w>
guarante ed</w>
Distribu tion</w>
en er</w>
ab len</w>
mo de</w>
fir e</w>
pie ce</w>
a des</w>
tri fft</w>
li eben</w>
ser ves</w>
lie fern</w>
funktion ieren</w>
ge gangen</w>
Di mension</w>
Ges i
dom in
J e</w>
gegenwär tigen</w>
or ders</w>
si mul
pro vision</w>
dis cover</w>
un ge
no chmals</w>
surro unding</w>
wel t</w>
fail ed</w>
ic o</w>
Frühstücks buffet</w>
ali zation</w>
Gr enz
contro ls</w>
quali fied</w>
W ell</w>
convin ced</w>
as ing</w>
hel ps</w>
Bewer tung</w>
ver i
tre ated</w>
Nutz er</w>
Ein stellungen</w>
rel ativ</w>
Proc ed
e ß</w>
s eines</w>
mittel t</w>
Kri tik</w>
pleas ure</w>
ti cket</w>
tur ns</w>
US B</w>
La dies</w>
own ed</w>
fail ure</w>
righ tly</w>
W ould</w>
Ge wi
Engli sch</w>
auth ority</w>
r es</w>
An liegen</w>
descri bed</w>
gen e
up dated</w>
Städ te</w>
Köni grei
plat form</w>
ver ändert</w>
consi sts</w>
kun fts
t esting</w>
Ab satz</w>
o th</w>
ti erung</w>
le ts</w>
Pro fession
tt able</w>
kur ze</w>
blo g</w>
expla in</w>
or am
Ro oms</w>
Poli cy</w>
bein haltet</w>
oo k</w>
Po st</w>
beteili gt</w>
R am
res ort</w>
ju d
s sen
me l</w>
Kommission s
clo ser</w>
stimm ung</w>
Dis krimini
Fre unde</w>
alitä ten</w>
ex port</w>
lie be</w>
y esterday</w>
be zogen</w>
mo ving</w>
son st</w>
Proje kt
Ch am
Erei gnisse</w>
S O
f elt</w>
lei tung</w>
coun ter
Ru he</w>
ate ful</w>
be hoben</w>
defini tion</w>
f rau
ent sprechen</w>
ent weder</w>
lux ury</w>
st ood</w>
tr e</w>
mi ddle</w>
rea gieren</w>
de posi
conclu sions</w>
S ach
f assung</w>
besch reibung</w>
Fre m
tu t</w>
ev ision</w>
hin gewiesen</w>
eng ine</w>
ar ticles</w>
ed ed</w>
außer ord
exhi bition</w>
B ab
le m</w>
ack no
sig nal</w>
agen cy</w>
Kan di
cri ption</w>
genu ine</w>
Pla za</w>
Teil nehmer</w>
si en</w>
Archit ek
Su ite</w>
grei f
con trary</w>
abhängi g</w>
Dol lar</w>
wan del</w>
gratu lieren</w>
Defin i
h ing</w>
ziem lich</w>
ex ec
recommen ded</w>
re move</w>
g ä
ver sorgung</w>
ent ran
kl ass
zusätz lich</w>
U l
Gä sten</w>
tar gets</w>
lös ung</w>
Kredit karte</w>
li t</w>
ein ig
sur face</w>
D ort</w>
Be ach</w>
Mär kte</w>
s outh</w>
ü nen</w>
defin itely</w>
dien st</w>
es si
li ste</w>
con dem
nei ther</w>
Tur k
Indi en</w>
A b</w>
se he</w>
Agent ur</w>
Medi a</w>
architec ture</w>
Bes i
ing ton</w>
fer tigt</w>
Unterschie de</w>
st ol
ges und
M ann</w>
in come</w>
Pres se
Con trol</w>
sol ve</w>
haup ts
fant astic</w>
4 1</w>
wo bei</w>
Kom bin
interes siert</w>
Empfeh lungen</w>
sp ent</w>
Mo un
gespei chert</w>
A ktionen</w>
ö k
wi der</w>
se cre
la p
En d
quali t
As soci
Unternehmen s
Brü ssel</w>
res ist
medi c
sk i
beschäf tigt</w>
reques ted</w>
K aff
we tt
gef ä
u tili
di mension</w>
de te
eh m
ke eping</w>
schaf tlichen</w>
fe ar</w>
Bed enken</w>
Holi day</w>
form ed</w>
Eff izi
ver lieren</w>
man chmal</w>
Aus führungen</w>
techni k</w>
Bahn hof</w>
w äl
rei ben</w>
multi ple</w>
gewäh lt</w>
zu verlässi
gr ateful</w>
gro unds</w>
fac tors</w>
brei ten</w>
be hand
fes tzu
elec ted</w>
vers al</w>
Voraus setzungen</w>
Flü cht
di sch
ver häl
comp lic
dan ach</w>
ästin ens
Ein k
H on
t ment</w>
lo ts</w>
vehi cle</w>
p ed</w>
ta ste</w>
out standing</w>
glob ale</w>
sto ff</w>
dedi cated</w>
be wahr
schn eller</w>
plann ed</w>
Swe den</w>
Sonn en
Rezep tion</w>
Stellung nahme</w>
4 6</w>
s sel
t aus
bek ann
kno ws</w>
attra ctions</w>
d den</w>
An rei
lan gt</w>
Ges ell
inst antly</w>
particip ants</w>
Bemerk ung</w>
4 7</w>
li sh</w>
Spra ch
eval u
for um</w>
Her stellung</w>
Zu stell
Vi enna</w>
Um fang</w>
er tes</w>
wen det</w>
quali fizi
ehr te</w>
decor ated</w>
N och</w>
Vor teil</w>
Econom ic</w>
T atsächlich</w>
be troffen</w>
tri ed</w>
mü s
he av
feh lt</w>
nie der
Proced ure</w>
ini tial</w>
some one</w>
happ ening</w>
iel t</w>
Materi al</w>
samm lung</w>
mon etary</w>
fähi g</w>
adul ts</w>
Sch engen</w>
Mitgliedsta at</w>
Hi gh
Grund satz</w>
Dar um</w>
kra ft</w>
implemen ting</w>
Nieder lan
be handeln</w>
fin ance</w>
wesent lichen</w>
lo vely</w>
Risi ko</w>
muse um</w>
stu dies</w>
Wir kung</w>
sk in</w>
Web sites</w>
Reservi erung</w>
d eine</w>
pay ments</w>
Überwach ung</w>
w on
Zei traum</w>
D ep
fest stellen</w>
Mis s
B M
G B</w>
res pe
Tro tz</w>
Telef on</w>
rejec ted</w>
M I
ein iger</w>
ge g
ut ch</w>
internation aler</w>
ktiv ität</w>
staat lichen</w>
recommend ations</w>
E di
N G
Ein haltung</w>
K ris
es te</w>
present ation</w>
ate ver</w>
blo ck</w>
EA DS</w>
le ads</w>
An lage</w>
gh ted</w>
auth or
aller y</w>
Lie be</w>
ni a</w>
op posite</w>
di ty</w>
em erg
Ge trän
läs s
stron om
Nahr ungs
ni ghts</w>
Sit u
e chte</w>
Auf nahme</w>
äu fer</w>
speak ers</w>
A chtung</w>
Li ve</w>
Wor k
deli vered</w>
G ran
H aus
al ar
woh ner</w>
Unternehmen s</w>
P C
ni emals</w>
st one</w>
Tre ffen</w>
Bade zimmer</w>
W an
b us
Re f</w>
Konta kt
graphi c</w>
gla d</w>
Z wischen
f are</w>
mit tag</w>
def ence</w>
Fried ens
S timm
akzep tabel</w>
g g
En viron
allgem eine</w>
Struk tur</w>
ar ten</w>
be fassen</w>
Re gu
Gen ehm
Mob ili
nation aler</w>
vorgeschla genen</w>
consist ent</w>
9 7</w>
ö konom
en dum</w>
Sch ü
Res earch</w>
sicher zustellen</w>
einzel ne</w>
gen des</w>
eh ema
Stra ßen
Sam m
Ham burg</w>
Ambi ente</w>
v ated</w>
ni emand</w>
bes it
up dates</w>
di shes</w>
li e</w>
Fir men</w>
Ha ve</w>
Risi ken</w>
or er</w>
be wegen</w>
ff s</w>
Bus h</w>
he ad
hol en</w>
Nation al
si chts
Po ten
discus sing</w>
säm tliche</w>
Soft war
T E</w>
Sch nit
man i
sequ ent</w>
prakti sch</w>
r ying</w>
ati n</w>
spre ad</w>
Des pite</w>
N ations</w>
m ischen</w>
y e</w>
be zieht</w>
op position</w>
S L</w>
S ec
des pite</w>
expen di
Gesetz gebung</w>
Sant a</w>
2 5
s n
de alt</w>
tr um</w>
Ko sten
Haushal tsp
v es
impro vements</w>
expec tations</w>
on to</w>
Politi ker</w>
Constitu tion</w>
G as
Th urs
W inter
c auses</w>
ar di
ur ge</w>
pro u
bo dies</w>
Zu griff</w>
er er</w>
ent sch
Be tra
practi ces</w>
conclu de</w>
ge arbeitet</w>
dar aus</w>
With out</w>
O ver</w>
U ser</w>
über nommen</w>
Kol lege</w>
Verpfli chtung</w>
Voraus setzung</w>
in hab
es tim
An lagen</w>
be aches</w>
off ici
Unter schied</w>
Spiel e</w>
r t</w>
Cor por
Speci al</w>
lich em</w>
campa ign</w>
f ach</w>
d rei
n d</w>
bi en</w>
j emand</w>
Ab schnitt</w>
kt oren</w>
Neu e</w>
Pf lan
Wün sche</w>
M ü
e be</w>
Op tim
beantwor ten</w>
c au
p sy
ro l</w>
no ise</w>
Ein druck</w>
col labor
Diskus sionen</w>
interess ante</w>
t ours</w>
ä den</w>
at lan
ri sten</w>
semb ly</w>
g one</w>
di ch</w>
vor aus
wach st
prei se</w>
enti t
eigen es</w>
Kra ft
valu able</w>
Thir dly</w>
P s</w>
ten e</w>
Ch il
orig in</w>
Pun kten</w>
se min
Ein stellung</w>
stei gen</w>
Zah lungs
Far b
Um ständen</w>
lic ense</w>
las se</w>
safe gu
parag raph</w>
Ver öffent
K unde</w>
d ritte</w>
un it</w>
ap par
Min dest
ju di
regel n</w>
2 50</w>
4 3</w>
unter bro
we gs</w>
gel ungen</w>
Kom ple
inten sive</w>
organis ed</w>
GN U</w>
c tor</w>
z y</w>
in ci
An onymous</w>
fic ations</w>
Koh ä
Cust om
V e
au ff
co l</w>
fur niture</w>
tig keiten</w>
se e
w ö
Kon tin
econom ies</w>
respon sibilities</w>
inst ance</w>
schä tzen</w>
n ation</w>
ech ischen</w>
instal lieren</w>
k einer</w>
po t</w>
Fäl le</w>
regre t</w>
con ci
organiz ation</w>
E d
an g
la ke</w>
P T</w>
or al</w>
ex t</w>
Ban ken</w>
zugän glich</w>
errei chbar</w>
vor an
refu ge
p h</w>
en ga
Zi vil
rail way</w>
c alling</w>
be hin
ing s
tro tzdem</w>
han del</w>
é s</w>
coun ter</w>
pr e</w>
Ges etz</w>
Gen ießen</w>
H äl
Z wei</w>
k n
Op tionen</w>
erforder lichen</w>
schi cken</w>
k ern</w>
ac es</w>
Fern er</w>
Dien st</w>
ra y</w>
exist s</w>
eval uation</w>
ro o
Er hö
Zu stän
zer stör
deta illi
wett bewer
K i
R oh
t to</w>
sch we
sen sus</w>
tel ef
führ enden</w>
ra d</w>
ver kehr
se ek</w>
An ges
Geb ieten</w>
Ni veau</w>
Mor gen</w>
Plat t
at o</w>
geb il
mer ely</w>
sicher stellen</w>
Pass wort</w>
H ist
S c
K ategorie</w>
lä gen</w>
Auf grund</w>
ven ue</w>
Verbesser ungen</w>
T P</w>
be zahlen</w>
über tragen</w>
deut sche</w>
construc tive</w>
Thurs day</w>
er öffnet</w>
medi zin
bru ch</w>
balcon y</w>
Fra ktionen</w>
größ eren</w>
compati ble</w>
H ard
Aus stattung</w>
Inst all
1 20</w>
T an
richt linie</w>
dau er
Vertra gs</w>
In stead</w>
ear n</w>
berei che</w>
del ay</w>
Ord nung</w>
haupts ächlich</w>
J our
w esen</w>
str ö
Tra de</w>
Rum ä
G old</w>
satis fied</w>
f en
ro krati
sp ending</w>
Über prüfung</w>
correc tly</w>
gl ass</w>
top ic</w>
c on</w>
as yl
em an
zu vor</w>
Pu er
h a</w>
pro file</w>
der ship</w>
freund liche</w>
gran ted</w>
sp a</w>
Pro di</w>
St atisti
Tei len</w>
alle l</w>
Red ner</w>
candi date</w>
D A</w>
Li cht</w>
A par
lau tet</w>
G A
S ome
tru th</w>
Far be</w>
un able</w>
ab sichti
Auf bau</w>
aussch uss</w>
zeichn is</w>
Austri an</w>
eh nt</w>
Kon figu
bli n</w>
region alen</w>
Pati enten</w>
Stadtz entrum</w>
h l</w>
de ad
Mitglied s
situ ations</w>
Ti ere</w>
Verein ten</w>
ruhi g</w>
Klima wandel</w>
ersch einen</w>
Schlaf zimmer</w>
Str ategi
V I
sol e</w>
ließ en</w>
Pe ti
asyl um</w>
Nach richten</w>
bed rooms</w>
consul tation</w>
nachhal tige</w>
Eis en
se ven</w>
bu re
mö gen</w>
indepen dence</w>
P rop
ver tei
reali sti
Prü fung</w>
F i</w>
on ia</w>
For men</w>
weis ung</w>
Altern ative</w>
nä her</w>
heal thy</w>
Croati a</w>
de ep</w>
vi te</w>
strateg ie</w>
Gol f
mess ages</w>
Berat ung</w>
B ör
ver ing</w>
Ver mitt
dar stellt</w>
ger ufen</w>
ic a</w>
sam er</w>
D es</w>
moun tains</w>
lü ck</w>
civi li
teili gung</w>
e ar</w>
l es
ge fügt</w>
Be dien
h es
dou b
f i</w>
w om
dest ination</w>
combin ed</w>
la gs</w>
An teil</w>
pre p
govern mental</w>
D on
E ssen</w>
zent ral</w>
Soll ten</w>
Freu de</w>
HT ML</w>
sau ber</w>
aff ect</w>
Metho den</w>
gol f</w>
Tem perat
C ast
D P</w>
hän gen</w>
crimin al</w>
B e</w>
ei m
wat ch</w>
D utch</w>
S V</w>
ir y</w>
Kri eg
Rom ania</w>
krä fte</w>
Häl fte</w>
cht es</w>
inf o</w>
s quare</w>
st ations</w>
Aus land</w>
wor fen</w>
Stär kung</w>
announ ced</w>
f ts</w>
de als</w>
den e</w>
tel evision</w>
bil det</w>
Fun da
B ack
S imp
p assung</w>
en ge</w>
al t
sm aller</w>
entscheiden d</w>
0 er</w>
L im
s es
li ter
es n</w>
or g</w>
tra gs</w>
zeu g
K amera</w>
Erwar tungen</w>
on y</w>
li sts</w>
ent liche</w>
Maß e</w>
regul arly</w>
Eigen schaften</w>
al a</w>
por ting</w>
ci ent</w>
politi sch</w>
bri ef
Pra kti
Wieder auf
photogra ph
bes or
zi erung</w>
Ma il
Bu g
produc ers</w>
N O
fac ts</w>
high light</w>
Ele ment</w>
beau ty</w>
be einflus
Ex peri
vir tu
compar ed</w>
Reli gi
d ining</w>
Ro yal</w>
verab schie
h l
ü hr</w>
Sch n
commit ments</w>
d ler</w>
ein ander
spra chen</w>
Besonder s</w>
vul ner
V it
gesch i
Ex pl
institu tion</w>
ausgezeich nete</w>
competen ce</w>
Koordini erung</w>
ens uring</w>
sy mp
neigh bour
r uns</w>
fo ot</w>
cour t</w>
objec ts</w>
sha pe</w>
determin ed</w>
associ ated</w>
configu ration</w>
unter nommen</w>
Hoff nung</w>
ak tive</w>
dr ink</w>
foli o</w>
Ma c</w>
peri o
D ou
L O
stu ff</w>
aim ed</w>
F lo
ver dient</w>
neu esten</w>
remo ved</w>
steh ende</w>
beg riffen</w>
schn ell
ec kt</w>
fin ished</w>
No tes</w>
besser en</w>
L ast
Mittel n</w>
dau ert</w>
Stre et</w>
substan tial</w>
Spa ß</w>
ord nungs
beg onnen</w>
achie ving</w>
kultur ellen</w>
dynam ic</w>
Aktion sp
ho l</w>
we ather</w>
recogni tion</w>
mei st</w>
Du blin</w>
ausgezeich neten</w>
se g
regel mäß
attemp t</w>
Unabhängi gkeit</w>
ü ben</w>
di strict</w>
Da y</w>
spezif ische</w>
To des
dri ving</w>
Bi blioth
j ur
Sub ject</w>
Kör per</w>
Diskrimini erung</w>
prep are</w>
dar stellen</w>
schn elle</w>
Donn er
di st
tig ten</w>
verstär kt</w>
jähr lich</w>
A I
mom ent
sprü che</w>
claim s</w>
R ome</w>
est ate</w>
host el</w>
I V</w>
S and
d ance</w>
y es</w>
char ges</w>
leng th</w>
B ou
ve get
abgel ehnt</w>
un anim
zu erst</w>
199 4</w>
Ni cht
gef allen</w>
Pake te</w>
Web seiten</w>
Wo chen
Gese tze</w>
G lei
de par
ass ist</w>
person ally</w>
Masch inen</w>
Comp any</w>
B la
a y
ir s</w>
gri ffen</w>
Fo undation</w>
gewis se</w>
E mail</w>
gen ie
Sta ff</w>
teu er</w>
Effizi enz</w>
S li
ad ds</w>
tra gs
gh ting</w>
aus län
mit tels</w>
Charak ter</w>
F ind</w>
r ental</w>
ed back</w>
nach dem</w>
individu als</w>
läu fi
reno vated</w>
n un
ück e</w>
Pri me</w>
Zer ti
N L</w>
e quality</w>
Per spe
vorsch lag</w>
frü her</w>
Vorberei tung</w>
co vers</w>
mo tor
Bed ro
Verhäl tnis</w>
li sten
ri ver</w>
ma ster</w>
bo ot</w>
Tro tzdem</w>
establish ment</w>
Cook ies</w>
gi cal</w>
expendi ture</w>
be endet</w>
gel y</w>
kl einer</w>
govern ance</w>
ts eite</w>
desi red</w>
S A</w>
Ver sionen</w>
Donner stag</w>
c ei
t ür
rap id</w>
Schlus s
sol d</w>
cre ates</w>
wä ch
lea der</w>
stor ed</w>
Wahr heit</w>
G ü
T est
tz ei
Proble ms</w>
Woh nung</w>
windi gkeit</w>
k ilome
con sensus</w>
av es</w>
Zu stand</w>
inten d</w>
Anges ichts</w>
al ter
der artige</w>
resol ved</w>
einzi gen</w>
sat elli
p ing</w>
ma li
Geri chte</w>
sorgfäl tig</w>
gi r
J ed
K auf
S ci
f ak
er o
Bo s
cou ple</w>
mini str
do esn</w>
herr scht</w>
L ob
emplo yed</w>
continu ing</w>
mechan ism</w>
wesent liche</w>
resol ve</w>
reser ve</w>
Führ ung</w>
9 6</w>
K yo
con tained</w>
ment ally</w>
signific antly</w>
T al
pe ti
pri vi
iz ation</w>
n ischen</w>
p ac
Swe dish</w>
a sts</w>
or e
Nach richt</w>
Mittel punkt</w>
in vite</w>
pl ying</w>
Ba y</w>
c ast</w>
ta gen</w>
sh of</w>
pp en</w>
Ph ase</w>
h eri
ini ert</w>
docu mentation</w>
genau so</w>
Schwe den</w>
de fic
wa chen</w>
erneu er
San ktionen</w>
sugges tions</w>
fis cal</w>
ali smus</w>
over view</w>
produ ktion</w>
Go d</w>
E G</w>
re ck
angem essen</w>
feel ing</w>
tre u
leist ungs
enter ed</w>
Glob al</w>
präsen tiert</w>
B li
E C</w>
li ability</w>
gen er</w>
Umwel tsch
Schlüs sel</w>
gesell schaften</w>
eri a</w>
neh mer
erheb lich</w>
t rop
Be teiligung</w>
pre vention</w>
invest ments</w>
event u
Gedan ken</w>
ne arly</w>
Ob ama</w>
exper tise</w>
0 s</w>
ff er
num mer</w>
zipi en</w>
Ex press</w>
exclu sively</w>
accoun ts</w>
weap ons</w>
prou d</w>
n ar
ar en</w>
di ger</w>
län e</w>
Maß nahme</w>
exten d</w>
repe at</w>
Sum mit</w>
E ar
op posed</w>
comm and</w>
tal ks</w>
kin ds</w>
expres sion</w>
hervorra gende</w>
K e
Entwick l
M ilit
di o
sch war
ges tern</w>
ig keiten</w>
Ge fühl</w>
star ken</w>
1 000</w>
K roati
M E</w>
ent decken</w>
Ver halten</w>
condi tioning</w>
Ti er
Veranst altung</w>
Reak tion</w>
P lä
th eit</w>
at titude</w>
M ak
bo at</w>
nah e
Mo tor
experi ences</w>
adop tion</w>
natur ally</w>
L ev
c tional</w>
Kon sequ
Bei de</w>
proce ed</w>
landscap e</w>
n on
hi m
individu elle</w>
an wes
ori al</w>
Des cription</w>
maler weise</w>
F lä
be absichti
Teil nahme</w>
sel be</w>
dar unter</w>
Eng land</w>
emphas ise</w>
er as</w>
des ire</w>
Kat alog</w>
F ei
sinn voll</w>
t est
co ast</w>
Kon troll
Christi an</w>
Turk ish</w>
Kyo to</w>
zu folge</w>
lin ge</w>
posi tiven</w>
amp i
dec isi
reco very</w>
ey e</w>
gest altet</w>
Associ ation</w>
B O
g as
w an</w>
in si
ver langen</w>
ke hren</w>
Bei hilfen</w>
Kli ma</w>
drück en</w>
W are</w>
An passung</w>
sup er</w>
manag er</w>
Bild schir
li ked</w>
ent gegen
grund lage</w>
manufactur ing</w>
r ats</w>
pre fer</w>
stra ße</w>
P aper</w>
r i</w>
s we
Aus gang
unter st
gesch lossen
Qu ality</w>
forder e</w>
recognis e</w>
Ratsvor sitz</w>
He alth</w>
C ul
zusätz lichen</w>
disa ster</w>
M esse</w>
T isch</w>
and ed</w>
Be obach
Finan cial</w>
Mitglie dern</w>
bure au
hab t</w>
sa una</w>
über prüft</w>
oblig ations</w>
1 3
re ject</w>
gesp ielt</w>
Bei träge</w>
Vie w</w>
E I
ber aten</w>
Prü f
visi ble</w>
we g
Ch em
Ameri ka</w>
reduc ing</w>
san ctions</w>
manufactur ers</w>
scho ols</w>
beglück wünschen</w>
Mun ich</w>
a gen</w>
be ob
ma r</w>
bi ke</w>
ste el</w>
tax es</w>
zweifel los</w>
C ro
An sch
ess or</w>
Verk ehr</w>
8 5</w>
direc tory</w>
befür wor
C I
M all
th an
her aus</w>
promo tion</w>
Sub si
fig ure</w>
Kombin ation</w>
M B</w>
k oh
p el
ra sch</w>
vor genommen</w>
ari en</w>
exp an
Land schaft</w>
streng th</w>
reali stic</w>
Kor ea</w>
gen i
produ kte</w>
who m</w>
gefä hr</w>
ber ge</w>
ali sed</w>
Is land</w>
herunter laden</w>
W ur
an erkannt</w>
tro u
Gesch m
sug gest</w>
aktivi ert</w>
Materi alien</w>
Fes tival</w>
H O
fas hi
suit es</w>
C O</w>
I l
L eu
wer ed</w>
sur vi
primar ily</w>
J ac
des k</w>
hand ling</w>
beru f
O li
star ts</w>
La ke</w>
na vig
physi cal</w>
bri tischen</w>
auth enti
temperat ure</w>
mo dule</w>
m o</w>
out put</w>
tex ts</w>
konkre ten</w>
religi ous</w>
erweiter t</w>
sp ür
neh mern</w>
colleag ue</w>
S co
k as</w>
wer ten</w>
pl enty</w>
Betri fft</w>
intel li
kü mm
Be tten</w>
Liber alisierung</w>
L esen</w>
g lück
ö se</w>
critic ism</w>
b our</w>
ge prüft</w>
ali sten</w>
bedeu ten</w>
Ph one</w>
kein es
Lo unge</w>
Gener ation</w>
Män ner</w>
vac ation</w>
acc ur
Über setz
dise ase</w>
Landwir te</w>
E li
ro ll
multi later
Vertra gs
ver bo
region ale</w>
equ ally</w>
Ar gent
ari o</w>
Dem o
c af
th ers</w>
di verse</w>
lea dership</w>
Afri can</w>
i erte</w>
lau t</w>
unterschie d
klu si
Infra struktur</w>
be treffen</w>
gen ommen
fi f
col our</w>
Königrei ch</w>
M em
P ic
an geht</w>
la id</w>
ange geben</w>
To p</w>
cl ing</w>
hinzu fügen</w>
f abri
r en</w>
pl ate</w>
ev ol
War en</w>
Benutz er
lo unge</w>
inter vention</w>
kön nt</w>
beg ann</w>
appro val</w>
ati schen</w>
win den</w>
refle ct</w>
entit led</w>
in ary</w>
zei ge</w>
oll s</w>
B ahn</w>
T S</w>
t ty</w>
au dio</w>
be trä
wer fen</w>
ho spit
Ma ke</w>
individu ell</w>
att ack</w>
eingeschrän kt</w>
d ank</w>
fo cus
renew able</w>
men ted</w>
gi gen</w>
199 2</w>
ausge führt</w>
Hol z
cla im</w>
grundle gende</w>
b un
si eben</w>
Er leb
prei s
poten zi
Schu le</w>
ein gerich
pro ved</w>
Vor sitz
Änderungsan trägen</w>
gef örder
jour ney</w>
perfe kt</w>
ver st
par la
tä ten</w>
oblig ation</w>
statisti cs</w>
cos y</w>
ver langt</w>
In nen</w>
und ings</w>
depen ding</w>
lei chter
stell ungs
jün gsten</w>
p utting</w>
t an</w>
ra il</w>
hö h
hö her</w>
schön sten</w>
pol lu
A 4</w>
r auch</w>
Kon to</w>
ish ing</w>
fi es</w>
fol gerungen</w>
Soll te</w>
y le</w>
an nen</w>
Be griff</w>
Men ü</w>
bar ri
Agrar politik</w>
An bieter</w>
Zus atz
künf tig</w>
pro of</w>
recht lichen</w>
ton om
blu e</w>
y out</w>
politi cians</w>
pre vent
Ferienwoh nung</w>
7 00</w>
n ations</w>
Mar ket</w>
defin e</w>
depen dent</w>
sib ly</w>
primar y</w>
P A
un less</w>
199 0</w>
care ful</w>
E astern</w>
an ische</w>
sch afft</w>
steh e</w>
cap able</w>
zuneh men
Joh n</w>
C E</w>
t ball</w>
vor ange
Hand eln</w>
Publi k
O b</w>
j unge</w>
mo ved</w>
eri ode</w>
rel atively</w>
Lo cation</w>
arran gements</w>
ri a</w>
pro ve</w>
um welt
out door</w>
confir m</w>
G az
inform ationen</w>
he ber
Balk on</w>
const ant</w>
disch arge</w>
A tom
lei den</w>
ens es</w>
loo d</w>
incre ases</w>
Ander e</w>
bemü ht</w>
Allgem einen</w>
m illi
form ul
determin e</w>
fäl len</w>
require ment</w>
Sh ould</w>
Verk auf</w>
Universi tät</w>
dec ades</w>
reser vations</w>
it age</w>
Un der</w>
ehr gei
Bra zi
Sch war
bri dge</w>
frequ ently</w>
i k
über nimmt</w>
rü stung</w>
deli ghted</w>
hard ware</w>
in spi
dam als</w>
lus s
Lu ft</w>
fäl lig</w>
EC U</w>
W ander
er fahr
re mind</w>
ein s</w>
proble mati
schle cht</w>
Alli ance</w>
empha sis</w>
M ens
R ad
wor se</w>
mar kt
confir mation</w>
mas sive</w>
f ail</w>
al p
kt ors</w>
fest gestellt</w>
An gst</w>
prä z
Mein ungs
spezif ischen</w>
Tit el</w>
t as</w>
con temporary</w>
Prei sen</w>
spo ke</w>
controll ed</w>
K M
Bewe gung</w>
ut tle</w>
Ben u
Sor gen</w>
Hom epage</w>
or ds</w>
sti l
loo ked</w>
dat en
ta gs</w>
dies el
Sch aden</w>
do ors</w>
nor th</w>
Musi k
smo king</w>
mär kte</w>
Marke ting</w>
tto m</w>
x en</w>
identi ty</w>
ruhi gen</w>
Whi te</w>
wech sel
französ ischen</w>
s or</w>
s auber
Ent la
M eines</w>
li brary</w>
re marks</w>
hö here</w>
O m
T ie
W C</w>
So ci
surro undings</w>
B I
ges i
ger ing
Haupt stadt</w>
represent ed</w>
Besu chen</w>
best ellen</w>
connec tions</w>
di men
le tter</w>
rec ord
fu el</w>
Hil fs
be zeichnet</w>
20 13</w>
col d</w>
Gre ek</w>
bestä tigen</w>
A ction</w>
k am
th in</w>
fl at</w>
ame ters</w>
Park platz</w>
Über setzung</w>
komm erzi
appe al</w>
own er</w>
mark tes</w>
tinu ier
him self</w>
st ac
Sch luss</w>
St ro
surro unded</w>
F ast</w>
L atin</w>
Ein kaufs
auf nehmen</w>
exten sion</w>
H ü
T ai
i erten</w>
t act</w>
re place</w>
new sletter</w>
einfach er</w>
schlä gt</w>
ti tle</w>
confir med</w>
mas sage</w>
sex u
Architek tur</w>
be u
Nach frage</w>
Kompon enten</w>
Defini tion</w>
f ach
te es</w>
hol ds</w>
Daten schutz
Vide os</w>
derzei tigen</w>
besit zen</w>
sen s</w>
bur den</w>
pati ents</w>
er läu
ab gestimmt</w>
tu m
inter ven
tre at</w>
Anwen dungs
ri es
qu ellen</w>
Go tt</w>
Energ y</w>
promo ting</w>
in er</w>
tim ately</w>
cont acts</w>
poin ted</w>
pla ys</w>
extre me</w>
Zus ätzlich</w>
Pfli cht</w>
z y
pro fit</w>
mu tual</w>
Bu ch</w>
mat ch</w>
ligh tly</w>
Lauf e</w>
beantwor tet</w>
Palestini an</w>
struk tu
Jahrhunder ts</w>
spartn er</w>
d an</w>
deb ates</w>
schwieri gen</w>
O therwise</w>
g an</w>
z ell
er geben</w>
ch ap
aus geschlossen</w>
sa v
enjo yed</w>
Exper ten</w>
Mens ch</w>
P O
n de</w>
tu p</w>
Ge win
leg ungen</w>
ko ordini
Fu ll</w>
certain ty</w>
berech net</w>
me t
Si cherung</w>
Hin der
automati c</w>
bon us</w>
D I</w>
y be</w>
ho her</w>
ari um</w>
exc e
Kir che</w>
vorhand enen</w>
in spec
bes ei
coun ts</w>
Mitglied schaft</w>
extre m</w>
distribu ted</w>
Wil len</w>
histor ische</w>
z in</w>
th ly</w>
for est</w>
tur ning</w>
dru gs</w>
entscheiden de</w>
Leit linien</w>
ti le</w>
Ver fahr
ag ne</w>
Whi ch</w>
jähri ge</w>
after noon</w>
Subsi diar
b ly</w>
h oriz
an nehmen</w>
ein ig</w>
vi eren</w>
ed ge</w>
Wi k
proper ties</w>
Fest pl
divi ded</w>
5 1</w>
S quare</w>
Re port</w>
dis k</w>
Bes or
stri c
geh ens
ar i</w>
Ent fer
mis s
Über zeu
inten tion</w>
win dows</w>
promis es</w>
rapporte urs</w>
äuß ern</w>
beträ cht
lin ed</w>
main tained</w>
Gerä te</w>
instruc tions</w>
K r
us w</w>
pl en
Secon d</w>
loc ations</w>
H at</w>
un its</w>
pro gres
Mi cha
cop yright</w>
außer gewöhn
K ab
V ision</w>
ag ue</w>
auth or</w>
Wer bung</w>
Schwer punkt</w>
S m
organis ationen</w>
Du sche</w>
Mün chen</w>
Erhol ung</w>
E dition</w>
is ol
cre ative</w>
will ing</w>
descri ption</w>
Aus gabe</w>
bet ont</w>
teil nehmen</w>
wieder um</w>
verm ie
Aben dessen</w>
S T
ar ing</w>
Th rou
and elt</w>
199 3</w>
stoff en</w>
Di alo
lei sure</w>
dr än
schri ft</w>
Agen cy</w>
sus pen
masch inen</w>
Rel a
en ni
führ ende</w>
publi c
techn ological</w>
in zwischen</w>
ob stac
Hand el
conduc t</w>
Genehm igung</w>
e en</w>
per form</w>
j ungen</w>
li ation</w>
ge trenn
ser n</w>
St ein
gro w</w>
eig net</w>
War en
nü p
Som it</w>
p m</w>
w asser
le t
ta g
Ver träge</w>
Sp ann
enn ung</w>
zuneh mend</w>
sich erung</w>
VA T</w>
E gyp
schaf tliche</w>
ist s</w>
Per s
Industri e
nam ely</w>
zu lassen</w>
comm unities</w>
credi bility</w>
occu p
k ings</w>
Sch ad
Indi vidu
applic able</w>
frau d</w>
tä ts
ment are</w>
Wirk lichkeit</w>
Enter prise</w>
Wi en</w>
Au th
bo ttom</w>
speci ally</w>
spr ing</w>
ü r</w>
er ör
eh men</w>
kon tinuier
äu men</w>
produ ziert</w>
arti sts</w>
Cop enhagen</w>
ti que</w>
be vorzu
ber n</w>
einger eicht</w>
ver ändern</w>
ran k</w>
El tern</w>
a si
in klusive</w>
ra pi
CH F</w>
Ins besondere</w>
E ur
V an</w>
m i</w>
lei sch</w>
feh l
Do wnlo
Jap an
Strategi en</w>
5 2</w>
I mm
geb unden</w>
Mar tin</w>
dro p</w>
M erc
be troffenen</w>
M ah
un gefähr</w>
co her
fin ding</w>
Ex ecutive</w>
complic ated</w>
un möglich</w>
ati sche</w>
vis u
Sat ur
ä r</w>
Gesch en
Sa una</w>
defin iert</w>
hervor heben</w>
Garanti e</w>
Cham ber</w>
G anz</w>
mi d</w>
Dies en</w>
Autom ob
t ab
zu kommen</w>
par ents</w>
ung ser
exist ence</w>
kl ein</w>
Ro tary</w>
G lück</w>
fe ed</w>
wirtschaf ts
spann ung</w>
dic t
Plu s</w>
S ad
Cli ent</w>
impres sive</w>
Telef on
Zimmer beschreibung</w>
b ish
la h</w>
do ku
relax ation</w>
A ni
in d
ck er
Re de
Er de</w>
Proje kten</w>
argu ment</w>
g erung</w>
ne ter</w>
Kon trol
sub mit</w>
wirk sam</w>
char ming</w>
län dlichen</w>
quo te</w>
Puer to</w>
ung er</w>
Bu dap
laub wür
mo bility</w>
kultur elle</w>
Bulg aria</w>
C H</w>
Sch o
geb oren</w>
go sla
ba siert</w>
letz ungen</w>
Sa int</w>
weis ungen</w>
engine ering</w>
P ort</w>
f an</w>
en ded</w>
kon trolle</w>
Mall orca</w>
Grund sätze</w>
voll ständige</w>
dien ste</w>
Selb st</w>
G U
ar ms</w>
gi g</w>
antwor ten</w>
Mi r</w>
eth eless</w>
tür k
un for
ge k
Ver pack
shi pping</w>
Gu ide</w>
cast le</w>
brief ly</w>
D ie
fe der
individu ellen</w>
bel on
entscheiden der</w>
Ausgang spunkt</w>
f its</w>
begrü ßt</w>
occ ur</w>
P ack
g ert</w>
mo du
fli ghts</w>
Harmon isierung</w>
Rumä nien</w>
w asser</w>
par allel</w>
Fri day</w>
kämp fen</w>
ey es</w>
Cop yright</w>
Sem in
Stell ung</w>
di alog</w>
Be t
V ic
d ritten</w>
gan gs</w>
Feh ler
Erhö hung</w>
R SS</w>
T yp
dan ger</w>
kri ti
Kap az
excep tional</w>
unterbro chen</w>
j ene</w>
er mu
aus gesprochen</w>
cht shof</w>
anspru chs
f ting</w>
sen sible</w>
Tour ismus</w>
recognis ed</w>
less ons</w>
m ass</w>
yst em</w>
Geb iete</w>
bemü hen</w>
transpor tation</w>
ver kehrs
Re al</w>
ini en</w>
fri end</w>
ange passt</w>
spar en</w>
fa vor
Klima anlage</w>
kür zlich</w>
am m
min e</w>
Wer den</w>
erfolgrei che</w>
geförder t</w>
ther e
enth usi
zur ei
Kapit el</w>
an cient</w>
is chem</w>
ra dio</w>
form u
Bes itz
kan ischen</w>
Gei st</w>
berechti gt</w>
en de
con soli
per cent</w>
arri ve</w>
organisi ert</w>
grenz überschrei
rä ger</w>
prin ting</w>
Grund rechte</w>
industri es</w>
Untersu chung</w>
entran ce</w>
zu g
Ver g
ben e
ch urch</w>
et ing</w>
go s</w>
sig ns</w>
amoun ts</w>
gewünsch ten</w>
Re form
Strateg y</w>
activ ely</w>
an lagen</w>
um zusetzen</w>
Su iten</w>
exc iting</w>
kompli zi
L as</w>
T ool</w>
v it
Spei cher
U p</w>
st opp
re turned</w>
wh ol
Pra gue</w>
jour nali
classi c</w>
vol ume</w>
ass ure</w>
begr ün
inc en
Gest altung</w>
ver kaufen</w>
Geb ur
Bri tain</w>
see king</w>
w ater
ch ain</w>
kl assi
Li ke</w>
kom b
Fir men
Pe ter</w>
größ er</w>
Kur s</w>
I R
al em</w>
te a</w>
dan kbar</w>
Leb ens</w>
zusammen arbeiten</w>
beauf trag
parla mentar
B at
p en</w>
ver bringen</w>
zufri ed
satelli te</w>
fer tig</w>
fahr er</w>
Sel ect</w>
m essen</w>
sub stances</w>
welt weiten</w>
Verbin dungen</w>
ab road</w>
Er kenn
vis iting</w>
own ers</w>
wiederhol en</w>
tre aty</w>
lob by</w>
reser ved</w>
tes te</w>
enter tainment</w>
Entwicklungs länder</w>
D on</w>
g age</w>
al b
A P
F ein
R ent
fac ed</w>
fil ter</w>
Steu ern</w>
O ld</w>
w inner</w>
re ve
sh ing</w>
trans fer
fru it</w>
jähri gen</w>
Meer es
k lin
an sprechen</w>
Qu ali
Ger ade</w>
Gegen satz</w>
compli ance</w>
G ames</w>
h it</w>
ö sen</w>
ei ght</w>
vor stellen</w>
kom peten
some what</w>
Partn ern</w>
fa ster</w>
umfas senden</w>
mitt l
S au
tra gung</w>
Geb rauch</w>
laun ched</w>
H im
as h</w>
är m
contribu tions</w>
represent ative</w>
höch sten</w>
noti fied</w>
Salz burg</w>
Erwachsen e</w>
grunds ätzlich</w>
ver anst
ma ß</w>
aff airs</w>
prec ise</w>
entsp annen</w>
associ ation</w>
migr ants</w>
D res
di ction</w>
au sh
sch einen</w>
em ed</w>
ist a</w>
direc tives</w>
Dan ke</w>
außerord entlich</w>
N ext</w>
In seln</w>
Li fe</w>
under stood</w>
famili ar</w>
legi tim
geb rau
zw an
suff ering</w>
g or
le bt</w>
ges eh
chn ung</w>
Br enn
passen gers</w>
bring ing</w>
K ilome
k ör
ti zen</w>
Re ad</w>
lin gu
Vor gehen</w>
tn ess</w>
hil fe</w>
prepar ation</w>
B ir
C E
L ou
zentr alen</w>
wachst um</w>
X P</w>
b ungen</w>
g al
ha m</w>
fi cial</w>
ke tte</w>
exc ept</w>
air craft</w>
graphi cal</w>
Gesprä che</w>
G ali
suppli ers</w>
heav y</w>
be ten</w>
inter ior</w>
Sit z</w>
frei wil
durch führen</w>
dri ver</w>
Amend ments</w>
fit ness</w>
refuge es</w>
h aus
t ables</w>
st eig
ver halten</w>
ens ures</w>
Tra ining</w>
tru g</w>
occ ur
Regierungs konferenz</w>
N ero</w>
T ru
m ale</w>
sol ches</w>
tri eben</w>
off enen</w>
top ics</w>
Micha el</w>
em a</w>
ass ungen</w>
Dor f</w>
H öh
ma ga
ges s
chti gkeit</w>
Justi ce</w>
W he
res um
Un gleich
ul ed</w>
St ück</w>
stra ight</w>
Euro pol</w>
offi ces</w>
Empfeh lung</w>
der ing</w>
indi cated</w>
help ed</w>
restri ctions</w>
5 4</w>
ou l
wel chem</w>
Ratspräsi dentschaft</w>
mand ate</w>
stol z</w>
depar ture</w>
n den</w>
An kunft</w>
pre mi
lar gely</w>
ph en
Bil dungs
don es
cy cle</w>
spei chern</w>
bereit gestellt</w>
nutz bar</w>
5 3</w>
S P</w>
pro mp
gen annte</w>
identi al</w>
Bra si
m ung</w>
Ver brechen</w>
geb en
star s</w>
conc ep
wach sen</w>
A li
W aff
hi elt</w>
Par ameter</w>
help ing</w>
drin ks</w>
tradition ellen</w>
anwes end</w>
G lau
m ut
so ver
Ma ß</w>
umfas sen
assu me</w>
sch lag</w>
ci pl
zi p
ev a</w>
del a
adv ent
bew äl
organisi eren</w>
W ein</w>
ati es</w>
ge fragt</w>
ali zed</w>
nah m</w>
speci fied</w>
Char ter</w>
Plan ung</w>
sich ere</w>
ac ting</w>
ie ties</w>
fi ghting</w>
mo tiv
att acks</w>
subsi diar
Kön nen</w>
hes it
P lug
R est</w>
ch ann
am on
Re du
nah me
stim ul
hil frei
Somm er
Well ness</w>
Budap est</w>
n om
Chan cen</w>
t liches</w>
cas h</w>
erg riffen</w>
trans atlan
dom ain</w>
heu tige</w>
Geri chts
subsidiar ity</w>
G laubwür
W ed
g ungs
de partment</w>
Su ites</w>
Lan g
With in</w>
O K</w>
t un
be an
we alth</w>
supp le
Dienstleist ungs
M ie
bes timmen</w>
W est
lat ter</w>
them e</w>
Net z</w>
begrenz t</w>
Produc t</w>
Kroati en</w>
E F
at oren</w>
ver teilt</w>
ver kauft</w>
zu gleich</w>
comp ly</w>
kurz em</w>
Feder al</w>
wel coming</w>
ob je
eg o
Lie f
Vorsch lägen</w>
Bo den</w>
unterschie dlich</w>
Stock hol
f ted</w>
Fur ther</w>
impres sion</w>
S how</w>
in ations</w>
wes halb</w>
B au</w>
v ie</w>
dau er</w>
Entwicklungs ländern</w>
vor heri
ven tionen</w>
vide os</w>
Kohä sions
An y
tra de
je tz
provi der</w>
Tex te</w>
verhin dert</w>
ur a</w>
schließ t</w>
Stra f
Is lam
reser ves</w>
Haf tung</w>
S ob
ber gen</w>
pres sion</w>
gew inn
SA P</w>
Anmerk ungen</w>
A v
K DE</w>
Z ur
í a</w>
Sch on</w>
woh l
justi fied</w>
N ehmen</w>
ver änder
An griff</w>
to b
woh nen</w>
Ak te
b ing</w>
li ft</w>
Sch wi
dis abled</w>
lar s</w>
stu dio</w>
Überein kommen</w>
strength ening</w>
fo c
rema ining</w>
deposi t</w>
ar tigen</w>
ben utz
G eben</w>
se at</w>
hand le</w>
sei tens</w>
wün sch
mean ing</w>
grundle genden</w>
ME Ps</w>
7 2</w>
k al
col um
spra ch</w>
heb ung</w>
KM U</w>
Gr enze</w>
person nel</w>
kosten frei</w>
Mus li
a da
Kon sul
Um gang</w>
bro w
Gra n</w>
aussch usses</w>
Haf en</w>
bekämp fen</w>
v ey</w>
An sichten</w>
vie wed</w>
ro ot</w>
ach tung</w>
mi c</w>
wn s</w>
Nor men</w>
flü ge</w>
A qu
b ag
ver dienen</w>
mo tions</w>
ign ori
addres ses</w>
empf oh
A gri
Aus nahme</w>
min uten</w>
Se ver
bek annten</w>
erlau ben</w>
G B
l unch</w>
t ack
re k
fin ish</w>
Ab sicht</w>
kün st
Ale x
F on
R ein
is ch
for th
kl eines</w>
Da vi
identi fy</w>
lang sam</w>
Verhand lungs
err ors</w>
C y
Mon day</w>
Spei sen</w>
compens ation</w>
A 5</w>
e x</w>
au ßen</w>
ver trag</w>
ali sti
Gen au</w>
Le hr
Kri min
spo ken</w>
Zi ffer</w>
strategi es</w>
Außen politik</w>
Fähi gkeit</w>
Auf trag</w>
he ating</w>
Host el</w>
unver gess
Nah en</w>
psy ch
J es
K auf</w>
oh n</w>
Ge währ
No s</w>
tes ted</w>
unver züglich</w>
satisfac tion</w>
Ü bri
Be au
Poli sh</w>
del egation</w>
best ell
z auber
Con sequently</w>
sk y</w>
Son ne</w>
T ar
ho ff
Vor lage</w>
vir tual</w>
beschäf tigen</w>
G a
g nissen</w>
z im
mi stak
rel ess</w>
Auf enthal
re m
ange l</w>
deli cious</w>
SM Es</w>
Glaubwür digkeit</w>
fra me</w>
Fo togra
mul ti</w>
Asy l
D ue</w>
z it</w>
fe es</w>
dep end</w>
Luxem bourg</w>
A ktion</w>
Ab hängi
Fre unden</w>
Liz enz</w>
I F
K eine</w>
om as</w>
as selbe</w>
Kom mentare</w>
S par
for d</w>
gr ös
vor her</w>
kon figu
ste urop
Dat ei
Por t
dür fte</w>
Pu tin</w>
foc used</w>
in corpor
di tionen</w>
Un gar
follo ws</w>
wle d
F eu
r ein</w>
Aus stellung</w>
man gel
Nach dem</w>
dra wing</w>
allo wing</w>
hier bei</w>
Mob il
bahn hof</w>
ri ed</w>
Sch w
sa ved</w>
fo undation</w>
kur zen</w>
bedau er
Reg ulation</w>
ges u
acc o</w>
invol ve</w>
certi fic
genü gend</w>
Fit ness
tack le</w>
T ol
t wi
er wä
ell ers</w>
form ular</w>
dri vers</w>
Hal b
F as
r ori
Be weis</w>
tei ligen</w>
ko st
Stand or
korre kt</w>
V ista</w>
in ser
ch ers</w>
ent wurf</w>
gh ter</w>
col ours</w>
won der</w>
fo x</w>
si st
la y</w>
mis sing</w>
kom fort
Geschäf te</w>
optim ale</w>
sch au
lau b</w>
Ele c
sty lish</w>
phi losoph
wei le</w>
me ant</w>
h all</w>
ur ban</w>
ma x</w>
ob tained</w>
vol u
Gener al
Führ ungs
w alls</w>
ö sterrei
di d
our th</w>
invol vement</w>
interess ant</w>
Pau l</w>
mechanis ms</w>
der i
lie genden</w>
ori ented</w>
decisi ve</w>
L ö
T aus
f ein
än den</w>
Sp i
Vi a</w>
connec t</w>
übri gens</w>
Fak toren</w>
unmittel bar</w>
ursprün glichen</w>
wettbewer bs
f em
pack aging</w>
vorlie gende</w>
präsen tieren</w>
territ ory</w>
ge teilt</w>
tur ing</w>
Ser vic
spo t</w>
argu ments</w>
be zug</w>
Bal tic</w>
dition ally</w>
k y</w>
al li
men ts
rä umen</w>
flo ors</w>
zi elt</w>
geh ende</w>
Beh in
Mob ile</w>
h n
i ties</w>
no w
su r</w>
Ver such</w>
so weit</w>
form ation</w>
vor bereitet</w>
Lebens mittel</w>
ath ed
Emis sionen</w>
I II</w>
In fo
me at</w>
aus sprechen</w>
itä ts
staat liche</w>
week end</w>
Wech sel
K lasse</w>
gi ble</w>
besch rieben</w>
effec tiveness</w>
sei en</w>
verschieden er</w>
brei tung</w>
Besi des</w>
g mati
mo stly</w>
ad o
viel mehr</w>
compon ent</w>
Chil dren</w>
l atz</w>
di agno
ab stimmen</w>
gesch m
s cript</w>
up grade</w>
har dly</w>
Pla ya</w>
hier zu</w>
Del egation</w>
äuß ert</w>
rah men</w>
Gewi cht</w>
Best ä
Wissen schaft</w>
s lightly</w>
ge pf
Sch ei
wirk lichen</w>
nachhal tigen</w>
am az
vor legen</w>
auf en</w>
mar i
dis cipl
vis ited</w>
Ko operation</w>
wol lten</w>
bab we</w>
Künst ler</w>
T emp
c able</w>
d y
dis covered</w>
zurück zu
Fähi gkeiten</w>
B SE</w>
ra in</w>
gr enzen</w>
gener ated</w>
Pho to
wissenschaf tlichen</w>
effe ktiv</w>
a stri
mit glie
Ber ücksichti
Vide o
behör den</w>
D ynam
pro hi
function ality</w>
D ri
la m</w>
ell ed</w>
sel ten</w>
wä s
Struk turen</w>
erheb liche</w>
Sign al</w>
succe ed</w>
compe tent</w>
Ra dio</w>
institution ellen</w>
no ted</w>
issu ed</w>
Sob ald</w>
e at</w>
sch wei
ni c</w>
Ein schrän
sam es</w>
Sat elli
N or</w>
wh atever</w>
kon zep
S et</w>
Fra mework</w>
ste chn
speci es</w>
dig ungs
Vereinbar ungen</w>
S ein</w>
at ures</w>
Sch ne
Ge gend</w>
199 1</w>
Up dates</w>
M aria</w>
we ar</w>
spre che</w>
mor al</w>
invol ves</w>
expl ore</w>
5 6</w>
ac compani
Wi reless</w>
hei m</w>
Wes ten</w>
parlia ments</w>
appear ed</w>
Expl orer</w>
a side</w>
Ma astri
groß zügi
hol ding</w>
commit tees</w>
Eu ch</w>
subsi dies</w>
einzigar tige</w>
phen om
F eld</w>
O S
O ver
Plen um</w>
w us
or ama</w>
Re volution</w>
oper ators</w>
Program men</w>
prote cting</w>
Lo cated</w>
Stu die</w>
fän ger</w>
Registri erung</w>
Platt form</w>
t ance</w>
Mar ke</w>
kti ver</w>
masch ine</w>
c ans</w>
f ing</w>
Al ter</w>
notwen dige</w>
Mini sters</w>
Techn ology</w>
I N</w>
Ö l
Qu i
Sü den</w>
Verf assungs
klar en</w>
m ir
den k
mus ste</w>
Spiel en</w>
ati k</w>
bed ro
kor ri
liber alisation</w>
occa sion</w>
BM W</w>
Geschm ack</w>
gehens weise</w>
ec es</w>
mer ken</w>
Mitarbei tern</w>
künf tigen</w>
b om
k el
hab er</w>
min ority</w>
bezieh ung</w>
conci liation</w>
at em
gen eri
Bar s</w>
C it
W affen</w>
an o
or a</w>
mar t</w>
besch le
To ols</w>
electri city</w>
B ed</w>
d al
exp lic
angemessen e</w>
P PE</w>
e chten</w>
er ung
on ed</w>
on al</w>
al co
la w
contin ent</w>
ker nel</w>
Gerä t</w>
Konfli kt</w>
Au stausch</w>
ob li
beschrän kt</w>
L as
t ent
ein gestellt</w>
te ams</w>
Un ser
vor bei</w>
Vorsch lags</w>
Deut sch</w>
supp lier</w>
wid ely</w>
function ing</w>
Exc ellent</w>
verabschie det</w>
Lief erung</w>
T el
e z</w>
z ine</w>
isi te</w>
Kur z
Zustell betten</w>
Environ ment</w>
M ill
c utting</w>
ru b
me tal</w>
Au ge</w>
fun ctional</w>
dre am</w>
win es</w>
dem anding</w>
Prä sent
In ner
hal ten
tion ally</w>
Er st</w>
Po wer
Über blick</w>
exper t</w>
suspen ded</w>
es sive</w>
In fl
pe kt</w>
Wer k</w>
fav ou
Kü ste</w>
allgem ein</w>
conflic ts</w>
cr yp
bish eri
ge dacht</w>
stell te</w>
recommend ation</w>
Er gän
Po wer</w>
Nach hal
Mex ico</w>
endor se</w>
Cho ose</w>
lo yment</w>
tr end</w>
ru f</w>
effizi ent</w>
natür lichen</w>
5 9</w>
it z</w>
Aus führung</w>
Mi kro
ban ken</w>
Konta kte</w>
Bör se</w>
k g</w>
ab sta
wei len</w>
arri ved</w>
leben s
correspon ding</w>
ah nen</w>
edi a</w>
W at
ge kenn
ak tiven</w>
durch zuführen</w>
D ä
i Phone</w>
s low</w>
re ds</w>
pre viously</w>
sur ely</w>
cor ner</w>
Schi ff
Veröffent lichung</w>
amon gst</w>
C yp
I B
ri sts</w>
For eign</w>
gew onnen</w>
zus ehen</w>
Minu te</w>
Mi ch
reich hal
Sun day</w>
P L
fac tory</w>
geh ol
ern t</w>
stron ger</w>
Transpor t
gh ly</w>
Pro vin
viel er</w>
lic ations</w>
gebo ten</w>
Gleich gewicht</w>
198 9</w>
chec ked</w>
la sting</w>
tr es</w>
Di ffer
verb un
prec ed
Fel der</w>
centr es</w>
Überzeu gung</w>
L au
le u
dies bezüglich</w>
individu ally</w>
opini ons</w>
avo i
Slo v
mo tor</w>
par ameters</w>
20 12</w>
Ar z
bau t</w>
Bezieh ung</w>
sou thern</w>
Wed n
K ein</w>
ex klusi
every day</w>
blo ck
il ed</w>
sicht bar</w>
organiz ations</w>
Jour nali
nahe zu</w>
ent steht</w>
ex por
sa cht</w>
def end</w>
invest ors</w>
ti erten</w>
ro ads</w>
wel com
erzeu gt</w>
te en</w>
zi er
Weiter en</w>
dise ases</w>
adju st
Besor gnis</w>
h ast</w>
sp aces</w>
ten dlich</w>
s q
in n</w>
An schluss</w>
den den</w>
chan nel</w>
5 8</w>
B ased</w>
k ali
on going</w>
Zu g</w>
oper ational</w>
Se e
Res ul
every body</w>
kehr t</w>
spec tac
Struktur fonds</w>
Cyp rus</w>
welcom ed</w>
8 6</w>
l ler</w>
vis ed</w>
thre at
d einer</w>
tei lungen</w>
dis count</w>
Ban k
Fischer ei</w>
kat astrop
Fire fox</w>
un be
eh ol
vor geseh
great ly</w>
character istics</w>
ehrgei zi
st res
An dre
manufactur er</w>
best and</w>
comb ating</w>
pr en
mod ules</w>
erle bt</w>
verur sacht</w>
conduc ted</w>
Berücksichti gung</w>
di ed</w>
ent lang</w>
Be fu
per n</w>
lä ßt</w>
communic ations</w>
gestat tet</w>
new ly</w>
traff i
g old</w>
v on
en h
pi ck</w>
einge halten</w>
bat ter
A sien</w>
k amp
ß te</w>
auf zunehmen</w>
Ameri kan
secon ds</w>
reach ing</w>
mensch lichen</w>
Völ ker</w>
z za</w>
bo und</w>
des to</w>
Prin zipien</w>
E ri
ent standen</w>
resp ected</w>
sor ry</w>
Bür o</w>
mor ali
verfüg baren</w>
integri ert</w>
en for
Pro f
Gu te</w>
Fre und
kri min
D ritte</w>
M ari
f tung</w>
di t</w>
el er
sch la
ge ttable</w>
jo ined</w>
hier für</w>
in en
sch ed
ent täu
ben e</w>
Mar ina</w>
Frei tag</w>
Eink lang</w>
c am
is o
me als</w>
Un s</w>
14 9</w>
Der zeit</w>
Brazi l</w>
aussch uß</w>
nütz lich</w>
facilit ate</w>
Konsequ enzen</w>
tz ten</w>
Unter künfte</w>
ph ar
ler weile</w>
Katastrop he</w>
D ach
W ritten</w>
su it</w>
Ma in</w>
Kon sens</w>
mis s</w>
tzu gang</w>
remo te</w>
appoin tment</w>
Tag ung</w>
emer gency</w>
Jed och</w>
rapi dly</w>
er leich
gesch nit
cle ar
dra w
LA F</w>
Wedn esday</w>
f es</w>
k ter</w>
n ers</w>
ra w</w>
ter s
00 1</w>
L ic
c el</w>
si erte</w>
Th ail
ung st
tig te</w>
reno viert</w>
amerikan ische</w>
Konfer enz
C ri
S D</w>
Über legungen</w>
Ex tre
Stra ß
A g
Tran sa
regul atory</w>
lok ale</w>
Dou ble</w>
B ol
S earch</w>
re ported</w>
In dones
An lass</w>
vis a</w>
stre ben</w>
komple tte</w>
P in
ti erte</w>
vor aus</w>
produc ing</w>
wirtschaf tlicher</w>
gerä t</w>
Geschä ft</w>
accur ate</w>
g y
m l</w>
m ie
en ever</w>
Be treu
Con tact</w>
überzeu gen</w>
R an
ni er</w>
proble me</w>
Ni ch
Stu denten</w>
Untersu chungen</w>
Profession al</w>
den de</w>
son sti
nun mehr</w>
erleich tern</w>
5 7</w>
tzu tage</w>
S ource</w>
s and
t d</w>
glob alisation</w>
struk tur
shar ing</w>
Mal ta</w>
milli ons</w>
Pers ön
Stockhol m</w>
R und
lo ck</w>
Ent spannung</w>
fer ner</w>
Stra ßen</w>
sy mbol</w>
ac ted</w>
Ver zö
fi x</w>
Ein en</w>
exc eption</w>
Nor di
Dan ach</w>
Wal d
B lack</w>
T rau
g ine</w>
chti ge</w>
äl teren</w>
prä gt</w>
rech tzei
Entla stung</w>
M erk
sch e
zu fügen</w>
do s</w>
Vor der
Mar ken</w>
De tail</w>
Can ada</w>
recht liche</w>
kurz fris
z ei</w>
or ation</w>
per mitted</w>
beg eist
necess arily</w>
B y
G ep
b st</w>
b ele
c tors</w>
Ver schie
mi stake</w>
Regi me</w>
Besch lüsse</w>
zü ge</w>
Rechts grundlage</w>
ge plant</w>
Proz esse</w>
redu ziert</w>
ühr t</w>
Satur day</w>
V IS</w>
p um
en kt</w>
inde x</w>
ans wered</w>
cat alogue</w>
Mex i
Bedro hung</w>
alb um</w>
chann els</w>
wer tung</w>
Re ader</w>
fer tigen</w>
vis ual</w>
Tra g
slo w
unfor gettable</w>
f ur</w>
le aves</w>
des tru
Mon it
sicher ungs
Rechn ungs
Mod elle</w>
Stor ni
Hard ware</w>
W i</w>
lie f</w>
cli cking</w>
sy mbo
charac ters</w>
occa sions</w>
A sh
ein bezogen</w>
be währ
it i</w>
Re chts</w>
um ini
So l</w>
zw ungen</w>
organ ized</w>
fizi eren</w>
ähn liche</w>
sa ving</w>
kur ren
high ligh
gän ge</w>
Kop f</w>
establish ing</w>
6 8</w>
h nt</w>
be danken</w>
off ene</w>
näch ster</w>
Stru c
accompani ed</w>
Maastri cht</w>
k on</w>
produc tive</w>
vis ory</w>
sprech end</w>
promis ed</w>
sich eren</w>
il er</w>
Er inn
chti g</w>
lä dt</w>
uni versal</w>
Gu ests</w>
gül tig</w>
record ed</w>
K üh
R h
R em
drück t</w>
Ratspräsi dent</w>
Kapit al
ar ischen</w>
am tier
her z
techn ologie</w>
tan e
Doku mentation</w>
inhab it
m ur
ein richtungen</w>
emp fangen</w>
pi eces</w>
dire kten</w>
ein ma
ris ing</w>
Entschei dungs
IN G</w>
shor t
exis tiert</w>
an schließen</w>
rel ates</w>
Um feld</w>
pla y
consider ably</w>
lig ent</w>
aufge fordert</w>
beein druck
j ac
wir eless</w>
ad o</w>
wel fare</w>
gel esen</w>
tre es</w>
stre ets</w>
Acc ess</w>
Masch ine</w>
benach richti
Ä r
ra n</w>
ser vers</w>
nam ed</w>
declar ed</w>
k amen</w>
bei zu
lich sten</w>
Institu tion</w>
Air bus</w>
bi an</w>
fes tival</w>
urg ently</w>
behavi our</w>
2 7
be ur
pro ven</w>
An gel
every where</w>
Fre e
gerä te</w>
Tab elle</w>
nehm lichkeiten</w>
G o</w>
ra tions</w>
Sch äden</w>
ori um</w>
coura ge</w>
Sever al</w>
E Z
F ood</w>
ex it</w>
gesch afft</w>
inves tieren</w>
adap ted</w>
awar eness</w>
I deal</w>
S timmen</w>
an zeigen</w>
sp on
we ak</w>
pu ts</w>
tt gar
wirk ung</w>
spä t</w>
verbin den</w>
Num mer</w>
Milit är
F rü
j un
ge beten</w>
res ource</w>
zu lässi
Ser ie</w>
Stu ttgar
perform ed</w>
Geh eim
besteh ende</w>
lös ungen</w>
Doppel zimmer</w>
winn ing</w>
läss lich</w>
v ary</w>
st äd
provi ders</w>
schn ei
sum mar
Krank heiten</w>
resum ed</w>
vi erte</w>
su gar</w>
co operate</w>
gesch o
he at</w>
n ische</w>
ver hand
mi x</w>
Medi en
Stra s
Institu te</w>
declar ation</w>
unterschei den</w>
d ating</w>
t ats
in put</w>
pre tty</w>
Po int</w>
dr ing
Hin weise</w>
Hei mat
Sy mbol</w>
schu le</w>
8 8</w>
er fordern</w>
den z</w>
ori ent
Program m
Pen sion</w>
Region al
S ingle</w>
Au dio</w>
mi cro
ic ars</w>
isi ert</w>
inv est</w>
ech ische</w>
clean ing</w>
Mobili tät</w>
G ast</w>
L er
li an</w>
be kommt</w>
Sch ool</w>
Ma ster</w>
tho tel</w>
any where</w>
signific ance</w>
Cl assi
Gesell schaften</w>
hesit ate</w>
D auer</w>
it able</w>
wel comes</w>
soli d</w>
Belgi um</w>
Wik icars</w>
ch st
komm unik
aktu alisiert</w>
An la
Mö chten</w>
hear ing</w>
Zah lung</w>
Mittelme er
N eben
m ouse</w>
to i
Be trag</w>
vor her
Ma j
design s</w>
contra st</w>
sle ep</w>
verantwor tungs
amen ities</w>
demonstr ate</w>
behand lung</w>
Ear th</w>
Whe ther</w>
de cre
it a</w>
pro spec
der te</w>
qu iry</w>
Custom er</w>
R ü
W omen</w>
prin ted</w>
betri eben</w>
contra cts</w>
deser ves</w>
Kontrol len</w>
m uni
s ach
un sten</w>
Ber lin
durch schnit
Cas a</w>
App lik
Poten zi
österrei ch
eu ros</w>
sta un
Lo s</w>
Sa chen</w>
bür ger
benachrichti gt</w>
er setzt</w>
el i</w>
re form
sp a
um in
angeneh m</w>
Krank heit</w>
förder t</w>
verbo ten</w>
Japan ese</w>
tob acco</w>
B and</w>
auf re
port al</w>
Kre u
Überein stimmung</w>
beob achten</w>
ab sur
ad or</w>
Im mer</w>
erfolgrei chen</w>
I G
ei ra</w>
ran g</w>
hei ßen</w>
kur s</w>
Mu t</w>
glau b
ameri ka</w>
3 0
neu tra
son sten</w>
Bulg arien</w>
m än
ö der
ag ra
hand els
Char ta</w>
mod ell</w>
Moder n
tats äch
y outh</w>
eb enen</w>
sub stance</w>
Per form
Mon tag</w>
h lt</w>
re main
Qu o
ous ing</w>
dire kte</w>
Fran c
supp lies</w>
far m</w>
freund lichen</w>
Bran che</w>
betreff enden</w>
Sm all</w>
Be glei
Every thing</w>
wom an</w>
P ack</w>
neh me</w>
Inter nationalen</w>
person en
redu zieren</w>
Tai wan</w>
s co
de x</w>
sho wing</w>
Wirtschaf ts</w>
care er</w>
interpre tation</w>
K ategorien</w>
R ele
ati ver</w>
fac ility</w>
Sto ck</w>
Vie tn
Hung ary</w>
Apparte ments</w>
dar gestellt</w>
gestell te</w>
trans actions</w>
Balk ans</w>
Corpor ate</w>
pollu tion</w>
D ü
T el</w>
ro utes</w>
Mit tw
clu bs</w>
Na vig
prakti sche</w>
Net work</w>
ver gleich
Schul en</w>
span nen</w>
behör de</w>
cook ies</w>
t at</w>
u pper</w>
sch eme</w>
ent re
la unch</w>
Ver zeichnis</w>
sol ely</w>
Ma xim
bi eren</w>
Wei ß
ange wand
Verb ot</w>
volun tary</w>
Kilome ter</w>
J er
en dar</w>
re min
identi fied</w>
swi tch</w>
bezieh ungen</w>
5 0
S TE
s ac
ap p</w>
ach ing</w>
trei ber</w>
Ander erseits</w>
perfe kte</w>
G DP</w>
si t</w>
Ziel en</w>
inf lation</w>
shar es</w>
umfangrei che</w>
Kaff ee</w>
Schluss folgerungen</w>
höh eren</w>
D E
T or</w>
al ed</w>
op les</w>
ed ly</w>
Con su
propos es</w>
Rau m
System en</w>
L td</w>
h ü
is s
tu s</w>
mi d
Fin land</w>
techni ques</w>
ri de</w>
ci tizen</w>
schä tzung</w>
fair ly</w>
C r
wes tern</w>
Sol che</w>
Zw ecke</w>
UN O</w>
offizi ellen</w>
Z oll
a g</w>
la yer</w>
um geben</w>
är kt</w>
Thail and</w>
ver zi
öffent lich</w>
kosten lose</w>
tradition elle</w>
Kommunik ations
Minder heiten</w>
amaz ing</w>
im por
Mo z
bil dungs
wiederhol t</w>
Ima ge</w>
r d</w>
be zahlt</w>
be teiligen</w>
groß em</w>
cust oms</w>
bed ded</w>
Off en
tou rists</w>
g allery</w>
n one</w>
ell o</w>
lin ken</w>
Vor stellung</w>
rit t
suff er</w>
K ern</w>
as ti
gi ge</w>
difficul ty</w>
hinzu gefügt</w>
Studi en</w>
Well ness
1 60</w>
si zes</w>
ec ting</w>
incre di
Ad minist
enst adt</w>
Every one</w>
Resi dence</w>
M angel</w>
P act</w>
T ages</w>
An meldung</w>
tim et
vor nehmen</w>
str ing</w>
ausge zeichnet</w>
Arbeitsplä tzen</w>
system en</w>
Christ mas</w>
wer ben</w>
In tel
par ks</w>
tri ps</w>
over come</w>
fis her
Ins gesamt</w>
d ation</w>
w u
re placed</w>
Bo ot</w>
To d</w>
Pa y
fül lung</w>
profession als</w>
Pap ier</w>
west lichen</w>
verring ern</w>
chines ischen</w>
concentr ate</w>
verkehr s</w>
A V
P r
Con sul
ausge geben</w>
ähr t</w>
Arbeits markt</w>
confi denti
Geri chtshof</w>
intel lec
Einw anderung</w>
Bud get</w>
bekämp fung</w>
Immobili en
Identi tät</w>
C ir
O s</w>
p ure</w>
im port</w>
zi ele</w>
gr ant</w>
Gemein same</w>
Abstimm ungs
finanzi ert</w>
explan ation</w>
horiz on
ehol ders</w>
an gebracht</w>
über ein</w>
car bon</w>
Program mi
eben e</w>
Pl ace</w>
Bel ast
Fak tor</w>
S ing
Gesch windigkeit</w>
14 2</w>
Wohl stand</w>
früh eren</w>
Tari fa</w>
E hr
M ed
v ast</w>
ck s
lu ß
Gra d</w>
inhabit ants</w>
t um</w>
re ci
In c</w>
spe k
resul ting</w>
vorgeschla gene</w>
fro h</w>
expan sion</w>
sav ings</w>
ti ere</w>
on g
ra id</w>
aus gesetzt</w>
lie ber</w>
ef s</w>
gei sti
Automob il
g am
w ahr</w>
ou b
Con tent</w>
Le gi
Imp le
H aving</w>
U sing</w>
f ly</w>
Er stellung</w>
Wei h
cor ruption</w>
R EA
T om
f ans</w>
ti ll</w>
ati cally</w>
co ol</w>
Vor haben</w>
tax ation</w>
wah l
Frem den
l len</w>
z ungen</w>
pe oples</w>
gener ate</w>
colle ctive</w>
s man</w>
en abled</w>
fol der</w>
Win d
Aussch ü
Zah l
Schwei zer</w>
Dro gen
tri al</w>
sen ding</w>
auf treten</w>
man ual</w>
Ti ckets</w>
Y o
be arbeiten</w>
ha ir</w>
Fra gest
politi cally</w>
nor malerweise</w>
proz esses</w>
pati ent</w>
bilater al</w>
forth coming</w>
M A</w>
ver mitteln</w>
port folio</w>
har m
hä user</w>
consul ting</w>
6 6</w>
unter liegen</w>
tain er</w>
Pal ma</w>
cas ino</w>
dep th</w>
B lin
h em</w>
in begriffen</w>
form al</w>
Nor thern</w>
Mu sic</w>
Wer de</w>
Euro zone</w>
lüs sel
li qui
Ver einfach
Veränder ung</w>
em bar
da fri
Er wä
fra g
umfas send</w>
Can on</w>
bedeut ende</w>
span ischen</w>
Sli des
Mittw och</w>
ri te</w>
ho ws</w>
gar age</w>
recei ving</w>
Ö l</w>
lo wing</w>
me al</w>
ris es</w>
Ex p
dat eien</w>
Nor den</w>
net z</w>
Schrift liche</w>
B C</w>
K as
M ann
R ab
S T</w>
T rop
T ests</w>
zu ständigen</w>
Fo to
bis lang</w>
satz es</w>
krä f
institution elle</w>
Haushaltsp lan</w>
Ungar n</w>
C o</w>
H U</w>
ô tel</w>
th ir
un ruhi
men tali
con fer
vor ran
rec y
lan s</w>
ima gine</w>
Städ ten</w>
Geschä ft
L ad
ã o</w>
zi r
bri tische</w>
effizi enz</w>
exam ine</w>
rech nen</w>
Brasi lien</w>
Stuttgar t</w>
tr y
Gesch le
offici als</w>
st eigen
ab and
for es
tar ge
Proto k
st au
ah me</w>
Be am
constitu tion</w>
H ong</w>
di vision</w>
le aving</w>
cl asses</w>
aktu ell</w>
plen ary</w>
F al
c ab
er end</w>
ar m</w>
it ze</w>
gu n</w>
je gliche</w>
ausge hen</w>
stra fe</w>
Doku menten</w>
einge gangen</w>
angeneh men</w>
suppli ed</w>
Dig ital</w>
F ischer</w>
kom fortable</w>
lab elling</w>
nü gen</w>
Gegen stand</w>
genau e</w>
verur teilt</w>
process ed</w>
verstär ken</w>
Beru fs
entsch lossen</w>
k einem</w>
l ust</w>
Pro ject</w>
gr o</w>
und oub
Stand ort</w>
vari ed</w>
Medi ka
grenz ung</w>
Krank en
zügi gkeit</w>
T C</w>
st em</w>
gro sse</w>
Fahr zeuge</w>
weit gehend</w>
collabor ation</w>
Fragest unde</w>
gel tenden</w>
tre e</w>
viel es</w>
Ob viously</w>
arti st</w>
Entschließungsan träge</w>
neigh b
ö st
ver stehe</w>
eri al</w>
um setzen</w>
inter nen</w>
appro x</w>
Gar den</w>
exclu ded</w>
Einzel heiten</w>
wissenschaf tliche</w>
secre t</w>
k ehr</w>
l ying</w>
on ic</w>
Ver ring
Fun ds</w>
Mehr wer
Ham as</w>
Wochen ende</w>
b right</w>
ent gegen</w>
co ast
col ors</w>
Wor t
Chin as</w>
distin gu
Arz nei
e ken</w>
ber au
eri en</w>
cu ts</w>
boo ked</w>
Hand els</w>
leich ter</w>
R ati
h am
Ä gyp
Be teiligten</w>
ten nis</w>
gin e
regar ded</w>
ausgewäh lt</w>
Ver kehr
ir ing</w>
gar dens</w>
har t</w>
vorsch läge</w>
H O</w>
ro te</w>
af ri
Poli zei</w>
Person al
Biblioth ek</w>
traffi cking</w>
F ru
Y ear</w>
un zurei
hr t</w>
bes i
öff nung</w>
tru c
fa x</w>
Zah lungen</w>
indic ate</w>
verlei hen</w>
estim ated</w>
aus wählen</w>
cre ature</w>
fu sion</w>
Ac count</w>
Ara b</w>
pal ästinens
zukünf tige</w>
a ward</w>
ver fol
auf bauen</w>
über aus</w>
abo li
recht lich</w>
fashi on</w>
erwä hnen</w>
P op
ch air</w>
la bel</w>
sta yed</w>
man che</w>
ange gebenen</w>
Grün dung</w>
conveni ence</w>
Mark tes</w>
Eigent um</w>
ra cy</w>
con sent</w>
con taining</w>
Pro vi
Ein heit</w>
her vor</w>
stan z</w>
bur ger</w>
energ ie</w>
Col le
appear ance</w>
vulner able</w>
struktu ri
Stras bourg</w>
T own</w>
Un der
nach zu
Ern ähr
subscri be</w>
empfoh len</w>
E vents</w>
ar ab
ex ports</w>
An nehmlichkeiten</w>
Sp itz
Men sch
bl ing</w>
compu ters</w>
hervorra genden</w>
L T</w>
S kri
k tiert</w>
Ab kommens</w>
Kon g</w>
val ent</w>
Investi tions
flu g</w>
thous and</w>
Gaz a</w>
Ein es</w>
continu ous</w>
she et</w>
st un
ol a</w>
ter ri
tra ge
En gine
propos ing</w>
Hau t</w>
sec tions</w>
refer endum</w>
Throu gh</w>
L E</w>
er freut</w>
beg ins</w>
Am ts
sur prise</w>
Wer be
quar ter</w>
tr ends</w>
ück en</w>
educ ational</w>
Portu gu
luxuri ous</w>
P fle
W ash
ge äußert</w>
Kon stru
bel ast
speciali st</w>
Val en
ch am
or dered</w>
ung alo
geb iete</w>
sel ber</w>
hin gegen</w>
At tra
Wirtschafts wachstum</w>
harmon isation</w>
zukünf tigen</w>
proje kte</w>
Vertei digung</w>
FA Q</w>
st ern</w>
um gehend</w>
conclu ded</w>
effizi ente</w>
bath rooms</w>
G ir
P A</w>
h ungen</w>
eg al</w>
kom p
Gem ü
Ur sachen</w>
gewähr t</w>
Mas sen
kontrol lieren</w>
beschrän ken</w>
Last ly</w>
i x</w>
de fi
grün den</w>
lauf enden</w>
beschle uni
f ourth</w>
k raten</w>
tion ary</w>
min orities</w>
ste chni
colle cted</w>
prepar ing</w>
restri cted</w>
quar ters</w>
pursu e</w>
Liz enz
transi tion</w>
Dres den</w>
D O
k ir
pa ying</w>
Ko ordin
Fahr t</w>
Gra fi
pat ent</w>
einzigar tigen</w>
C P</w>
K le
b ad
im posed</w>
we ge</w>
Ent decken</w>
sub jects</w>
ful fil</w>
wirtschaf tlich</w>
allo cated</w>
wesent licher</w>
strength ened</w>
dele te</w>
R unde</w>
e ast</w>
g ere</w>
in os</w>
ge liefert</w>
zu ständig</w>
Rei sen</w>
Vis it</w>
bu g</w>
war tet</w>
mit teilen</w>
Besch rän
Dis cover</w>
versi chern</w>
reli ability</w>
sex ual</w>
hund red</w>
ver wand
ges tri
Se kunden</w>
adul t</w>
berühm ten</w>
G O</w>
si erten</w>
sol ange</w>
Spezi alitäten</w>
stei gt</w>
d é
o tive</w>
ab e</w>
ex act</w>
Anwen der</w>
Phi li
gan z
räsi dent</w>
stan de</w>
entwick elten</w>
Ti bet</w>
plac ement</w>
Ha ar
Wider spruch</w>
G las
ni veau</w>
besonder er</w>
vari able</w>
blo cks</w>
elektron ischen</w>
ackno wled
kümm ern</w>
0 3
W ant</w>
v a
ch ende</w>
be treiben</w>
Ser bia</w>
Wei l</w>
Kor ruption</w>
Eing ang</w>
C ra
s ätzen</w>
verk auf</w>
künf tige</w>
sustain ability</w>
Trans fer</w>
ungsp eriode</w>
downlo aded</w>
hospit ality</w>
D ass</w>
as sum
Kon text</w>
Inter essen
B ö
se where</w>
lo go</w>
par ameter</w>
fir ms</w>
fir mly</w>
dienst leistungen</w>
concep ts</w>
enh ance</w>
Struc tural</w>
T R
ro ll</w>
ma kers</w>
Vor sitz</w>
französ ische</w>
d oppel
un ited</w>
di ert</w>
ul timately</w>
Ri ver</w>
kom pati
strateg ische</w>
Kor rek
hochwer tige</w>
besor gt</w>
undoub tedly</w>
pro xim
sh uttle</w>
ing re
mil k</w>
pan el</w>
ähn lich</w>
chem ical</w>
N on
si ght</w>
Eben en</w>
reali se</w>
beru ht</w>
offizi elle</w>
hilfrei ch</w>
B rei
x el</w>
ke t
electri c</w>
z eln</w>
vi erung</w>
auf gebaut</w>
Bu il
bar es</w>
Min im
Br and
Hei m
trav elling</w>
wah len</w>
2 4
b ann
x y</w>
te ch</w>
em en</w>
mo ther</w>
ut ation</w>
proble m
einhei tlichen</w>
mag nific
Belgi en</w>
norm ally</w>
langfris tige</w>
Argu mente</w>
resist ance</w>
1 00
H all</w>
r ö
t less</w>
Al geri
ernsthaf t</w>
Egyp t</w>
GB P</w>
M ur
S ha
er ity</w>
an e</w>
den kt</w>
so unds</w>
kon fron
berei chen</w>
appro ve</w>
Ad d</w>
colle ct</w>
sichti g</w>
fün f
super vision</w>
ch at</w>
si m
ho fs</w>
dar k</w>
aff ects</w>
los ses</w>
vil le</w>
Vereinig te</w>
Aktionsp lan</w>
bei getragen</w>
arbei tungs
Dar stellung</w>
Stär ke</w>
K en
b lood</w>
s now</w>
di n</w>
her itage</w>
Res pekt</w>
Den ken</w>
well ness</w>
italien ischen</w>
b attle</w>
al ties</w>
Th ree</w>
mus sten</w>
vor anzu
Ur spr
wat ers</w>
metr o</w>
C S</w>
D ring
d res
lo aded</w>
dar y</w>
tax i</w>
Dol om
bab y</w>
D R</w>
P läne</w>
en on</w>
ban king</w>
mensch liche</w>
leh nung</w>
Kompeten z</w>
ti ps</w>
eb o
Ein beziehung</w>
pos ing</w>
dat ei</w>
profession elle</w>
Lan gu
refer ences</w>
Energi en</w>
resi dence</w>
behaup ten</w>
K now</w>
S har
j o</w>
co vering</w>
da d</w>
ke ys</w>
val ley</w>
flo ws</w>
lüs si
extra ordinary</w>
hund reds</w>
wen ig
wa cht</w>
politi sches</w>
comm un
nehm bar</w>
Kür ze</w>
D al
effici ently</w>
hervorra gend</w>
demonstr ated</w>
Perspe ktive</w>
defic it</w>
l are</w>
ne vertheless</w>
geb lich</w>
Ter ms</w>
Pla y
wech seln</w>
Wan del</w>
S z
p ts</w>
ü bt</w>
ini eren</w>
sup posed</w>
oper ates</w>
cust om</w>
letz ter</w>
Fern seh
Kop enhagen</w>
Freu en</w>
Kris en
Mehrwer tst
Portugu ese</w>
R om</w>
W ord
b o</w>
op ens</w>
ag gres
lei dung</w>
uni or</w>
jed enfalls</w>
tst elle</w>
Dritt ländern</w>
Situ ationen</w>
Ler nen</w>
B lan
Ein wohner</w>
Entwick ler</w>
Res ol
consider ing</w>
enter prise</w>
Wissen schaft
Blu e</w>
spectac ular</w>
ear th</w>
kri eg</w>
Sk i</w>
metho den</w>
constitu tional</w>
Samm lung</w>
ga ined</w>
Dem oc
fest legen</w>
lear ned</w>
UR L</w>
Zentral bank</w>
ski ing</w>
gebil det</w>
A mon
wor st</w>
inv ited</w>
Proz esses</w>
förder ung</w>
Wün schen</w>
gewünsch te</w>
X ML</w>
c lar
Ver breitung</w>
ck en
par tly</w>
cher maßen</w>
produc tivity</w>
So wohl</w>
selb st
bestimm ungen</w>
rele ases</w>
pan oram
Geh minuten</w>
Pas sa
cancell ed</w>
did n</w>
Democ rats</w>
er setzen</w>
In f
terror ist</w>
Zü rich</w>
e ase</w>
po or
Sch au
aus gerichtet</w>
Qu elle</w>
Ger echti
bud sman</w>
main taining</w>
verbin det</w>
unabhängi ge</w>
t ö
us age</w>
führ ungs
Rechn er</w>
Sam stag</w>
encoura ging</w>
passen ger</w>
Y u
ti ver</w>
ar ise</w>
wor thy</w>
ben den</w>
ref res
Slo ven
Tou risten</w>
prosp erity</w>
6 3</w>
res truc
sol ved</w>
pra c
Dem on
invol ving</w>
contribu ted</w>
Some times</w>
wer ken</w>
pl ates</w>
dec lare</w>
Tra in
fül lt</w>
anges ehen</w>
accord ingly</w>
mari time</w>
EZ B</w>
6 7</w>
in akzeptabel</w>
ver g
Des ktop</w>
geeig nete</w>
clari fy</w>
ada pt</w>
P ur
ex ecu
No t
Ex ist
cho ices</w>
Kolleg in</w>
determin ation</w>
expla ined</w>
MP 3</w>
Krä fte</w>
P R
for tabel</w>
wa days</w>
pos sibly</w>
her zustellen</w>
uni versi
erst klassi
Erzeu gnisse</w>
emerg ing</w>
K ing</w>
on ing</w>
st an</w>
me ets</w>
ger ing</w>
isi eren</w>
Interne tzugang</w>
Modu l</w>
ehema ligen</w>
Festpl atte</w>
C Ds</w>
ur laub</w>
ab sen
leg ally</w>
isl ands</w>
struk turen</w>
presi dent</w>
Nachbar n</w>
gesi chert</w>
Slides hows</w>
Verring erung</w>
A re
m assi
Berei ts</w>
Dat um</w>
condi tioned</w>
philosoph y</w>
O s
g nis
si ghts</w>
sch alten</w>
vi li
coun try
fu er</w>
Pres se</w>
samm eln</w>
tac kl
st ag
re vision</w>
au er
br e</w>
produc es</w>
Ger ne</w>
Deut schen</w>
the at
P ul
ati sch</w>
ma chte</w>
rei chung</w>
ad voc
gest ärkt</w>
fas cin
norm alen</w>
Davi d</w>
6 2</w>
E ch
tu i
pr ised</w>
Is lam</w>
russ ischen</w>
W F</w>
no ver</w>
form ats</w>
Te ams</w>
hervor ge
kontrol liert</w>
kompli ziert</w>
unterst reichen</w>
emp ty</w>
tor al</w>
b ic
i gt</w>
an wen
el sewhere</w>
re action</w>
In clu
gra tions
program ming</w>
L A</w>
er gibt</w>
in hal
pro fit
Ein er</w>
gest ar
feh len</w>
Finanz krise</w>
eth nic</w>
Spezi al
chec ks</w>
Vers and
G au
W all
is mus
vor behalten</w>
Mo dule</w>
Ur heber
negoti ating</w>
Vertei digungs
spie gelt</w>
Origin al</w>
Schwi mm
s cor
in ess</w>
ar ding</w>
ab use</w>
Un til</w>
Auf sichts
pen alty</w>
derzei tige</w>
ministr ator</w>
obli ged</w>
P y
a part</w>
p ä
r are</w>
er leichter
co ol
ag a</w>
Werk zeug</w>
Eisen bahn
wäch st</w>
jetz igen</w>
g ate</w>
k eln</w>
ro of</w>
po ker</w>
gli cher</w>
unter sucht</w>
des ktop</w>
fe edback</w>
mon u
Sto ffe</w>
Hung arian</w>
deep ly</w>
perio ds</w>
den d</w>
geh enden</w>
judi cial</w>
B IP</w>
no tes</w>
bu cht</w>
fo und
gere gelt</w>
Augen blick</w>
an gebot</w>
be geg
ex cur
eri or</w>
Be arbeitung</w>
Men ü
accep tance</w>
hil fs
Sitz ungsperiode</w>
Posi tionen</w>
refle cted</w>
b ou
z ed
th ou
is tic
eu ro
abili tät</w>
lö schen</w>
erweiter n</w>
Joh ann
konfron tiert</w>
ra d
zi el
Sch wä
tä glichen</w>
Auf trags
up gra
ange wendet</w>
fil ms</w>
sto cks</w>
minist ers</w>
Tex t
kenn t</w>
schwieri ge</w>
Prote ction</w>
Zivil gesellschaft</w>
Erleb nis</w>
personen bezo
W ie
er stre
develop ers</w>
Wer ke</w>
ruhi ge</w>
Stabili tä
N I
b all
un to</w>
as y
all zu</w>
voll ständigen</w>
stre am</w>
E asy</w>
h tt
ge zwungen</w>
for schung</w>
far ming</w>
log in</w>
legi timate</w>
Premi um</w>
natür liche</w>
B ut
T op
sti ck</w>
pp s</w>
Stell en
in ev
Ho hen</w>
wirk same</w>
gar ten</w>
auth ori
sett lement</w>
A pa
C F
S I</w>
s elling</w>
re mark
ge wissen</w>
geb äu
dis cre
ange kün
vereinbar t</w>
geschi ckt</w>
h ousing</w>
no tic
dr y</w>
Su per</w>
direc ted</w>
Wachst ums
Bas el</w>
Apparte ment</w>
3 50</w>
L U
W äl
Z ul
p p</w>
ter ing</w>
hi p</w>
ungs verfahren</w>
ak ing</w>
EC B</w>
Benu tzung</w>
o ve</w>
sp häre</w>
go tten</w>
Bürger beauftrag
erkenn t</w>
Gerechti gkeit</w>
x i</w>
be vor
wä hren</w>
dat um</w>
Ameri cans</w>
recogni zed</w>
archi ve</w>
th es
en cing</w>
un stable</w>
on ien</w>
ac cu
An n
comp res
günsti ge</w>
9 2</w>
M eg
war ning</w>
Ge fahren</w>
prä sent
La den</w>
Fam ily</w>
ek tive</w>
Obje kte</w>
Agent uren</w>
Bestä tigung</w>
Gep ä
r ent
r ating</w>
ck y</w>
Ex change</w>
program ms</w>
entfer nen</w>
kosten losen</w>
Atlan tic</w>
navig ation</w>
Wash ington</w>
magnific ent</w>
f lich</w>
z o</w>
ge plan
ge fasst</w>
Vor aussch
Sta at
Län ge</w>
confi g
enor me</w>
Innov ationen</w>
awar ded</w>
th row</w>
du mp
flexi bel</w>
ref ers</w>
new sp
Sonn tag</w>
Ferienwoh nungen</w>
exter nen</w>
S n
ar range</w>
se ats</w>
ger ü
strateg ischen</w>
coordin ated</w>
Oper a</w>
T aten</w>
k üh
au stausch</w>
ni eren</w>
lo ser</w>
Sa ison</w>
comb ine</w>
humanit äre</w>
Bü rokrati
amen do</w>
nieder län
A part</w>
B ä
E vent</w>
S ig
f ährt</w>
er re
ex zell
me e</w>
Ho he</w>
bel ong</w>
Gi ven</w>
besu cht</w>
konzent riert</w>
Bud gets</w>
Wichti g</w>
W ör
Z ut
se arch
ed ings</w>
min i</w>
ben de</w>
besch rei
letz tlich</w>
Por tal</w>
intellec tual</w>
E G
S cre
V el
be hält</w>
con s</w>
zu gr
tra cks</w>
Sch loss</w>
hel l</w>
bel an
Mis sion</w>
Inn enstadt</w>
obstac les</w>
ci an</w>
gesch ichte</w>
Beri chten</w>
Berei t
Geb ühren</w>
Grupp en
speciali sts</w>
deser ve</w>
militär ische</w>
mitglie der</w>
T ür</w>
ver n</w>
le v
ho hem</w>
fre m
nach drücklich</w>
internation ally</w>
nor thern</w>
therap y</w>
Georgi a</w>
S ä
o s
r ung</w>
is er</w>
at a</w>
te x</w>
im ports</w>
geb ene</w>
str en
gener ations</w>
Rom an</w>
Zw ischen</w>
flä chen</w>
constitu te</w>
subsi di
Caf é</w>
J ack
be enden</w>
der e</w>
An zeige</w>
Se ktoren</w>
Natur ally</w>
einhei tliche</w>
hou se
Rä ume</w>
M B
e c</w>
u zz
ber at
Über gangs
Politi ken</w>
Steu erung</w>
kli mati
refle cts</w>
ver ehrte</w>
sur prised</w>
Comm unic
tribu te</w>
fa ther</w>
adi se</w>
Finn land</w>
vertei digen</w>
Lev el</w>
Protok olls</w>
E D
I L
th u
th ilfe</w>
be zü
tim edia</w>
fu els</w>
Gr ünen</w>
ste am</w>
kom fortabel</w>
bew u
R and
d ges</w>
f illing</w>
er in</w>
kon sequent</w>
zer ti
dau ern</w>
wunder schönen</w>
amen ded</w>
Vereinfach ung</w>
th ro
ro ck</w>
Sch alt
Ber e
Über sicht</w>
ga p</w>
Besch luss</w>
Fil ter</w>
P fer
t ings</w>
es cap
tz te</w>
wie gend</w>
schn ellen</w>
high lights</w>
Saf e
N ap
a ge
an schließend</w>
ex emp
feh l</w>
conclu des</w>
hom es</w>
Audi tors</w>
zug unsten</w>
twi ce</w>
C ould</w>
L ook</w>
r ently</w>
an statt</w>
lo gical</w>
mo vie</w>
ari ties</w>
car te</w>
alle y</w>
Nor d</w>
the ore
proz esse</w>
maxim al</w>
satisfac tory</w>
Experi ence</w>
Th omas</w>
co des</w>
ten tion</w>
gr enze</w>
schön es</w>
Balk an</w>
langfris tig</w>
registri eren</w>
8 2</w>
A ward</w>
ab sor
Ver le
wa ve</w>
erinn ert</w>
C up</w>
S eg
y o</w>
Ä u
ge kehrt</w>
Ent spannen</w>
hin zu</w>
genommen en</w>
en cryp
po ols</w>
An reise</w>
fre ely</w>
Kon kurren
spezi alisiert</w>
ban k
satis fy</w>
H us
oper ator</w>
rupp en</w>
inten tions</w>
verstän d
Arbeitsp latz</w>
elek tr
erzeu gen</w>
steu ern</w>
beein trä
Umweltsch utz</w>
rechtzei tig</w>
D N
L ok
t ories</w>
ch end</w>
ti ef</w>
ver bindung</w>
la yout</w>
bud gets</w>
Deb atten</w>
Isra eli</w>
intel ligent</w>
stric tly</w>
entre pren
W är
be merk
ni cht
Be für
Ab lehnung</w>
des wegen</w>
bur gh</w>
Ni emand</w>
produ zieren</w>
pas sende</w>
Sub mitted</w>
wech s
Wet ter</w>
e astern</w>
k la
er hol
ent deckt</w>
enn ess</w>
cour ts</w>
Lei p
Feh l
mitt lung</w>
einig es</w>
hoff entlich</w>
gestar tet</w>
en em
as en</w>
for ests</w>
rei ter
ut most</w>
sti ll
Co ck
Ad ri
Wirtschafts krise</w>
Fr ist</w>
Gali le
bewäl tigen</w>
umini um</w>
2 3
A U
T on
un fair</w>
st sein</w>
den i
sc ene</w>
Hand lungs
plan en</w>
Gol d
muse ums</w>
remain ed</w>
h len</w>
o g
Au tos</w>
ten e
geb ieten</w>
sa h</w>
sta ys</w>
Ko oper
bek annte</w>
Neu es</w>
verwal tung</w>
Sco t
E duc
P hän
Finanzi erungs
uri es</w>
R ap
b ol
ä fen</w>
la ges</w>
Qu ellen</w>
barri ers</w>
C ome</w>
f on
t dem</w>
ed y</w>
Fol lowing</w>
Vier tel</w>
Di am
Con gress</w>
under ground</w>
Tra vel</w>
Schul z</w>
religi on</w>
advis e</w>
campa ign
enhan ced</w>
läufi g</w>
Om budsman</w>
p ush</w>
un necessary</w>
per mission</w>
ass ur
organ ic</w>
Geschen k</w>
Perform ance</w>
H of</w>
H ence</w>
S C
as sets</w>
ap plying</w>
Te am
eigen er</w>
günsti gen</w>
Cle arly</w>
investig ation</w>
Wür de</w>
Prakti ken</w>
Vietn am</w>
bes e
sol ar</w>
unter zeichnet</w>
fle et</w>
gui ded</w>
rea giert</w>
illu str
highligh ted</w>
t lichkeit</w>
an hand</w>
all eng
ali sts</w>
sta at</w>
Me tro</w>
bil d
lat t</w>
ld n</w>
b les</w>
m ein
be unruhi
Komm un
Sim il
g gle</w>
ti ment</w>
af raid</w>
Krimin alität</w>
verhand lungen</w>
über lassen</w>
ord nungen</w>
uni versity</w>
Bo den
Ergeb nissen</w>
Män nern</w>
B in
Gener ationen</w>
Lat ein
AK VIS</w>
absen ce</w>
l assung</w>
an sehen</w>
Sch reiben</w>
mit gli
geh andelt</w>
sever e</w>
App le</w>
moment an</w>
z te</w>
di ents</w>
sp er
ger aten</w>
tre ff
Parla ments
fan den</w>
cal endar</w>
wech sel</w>
Camp ing
H eu
Z eu
to wns</w>
Regi ster</w>
Gen eva</w>
Fran zös
sto ßen</w>
Compu ter
F O
w ör
tra vel
Be kann
klär ung</w>
Lu f
Sy mb
pris on
fik ation</w>
enthal tenen</w>
Tau ch
NG Os</w>
f lug
ver fahr
im pose</w>
ru fe</w>
ali ties</w>
publi cation</w>
ster ben</w>
Fest legung</w>
hom epage</w>
qualit ativ</w>
Redu zierung</w>
2 nd</w>
ein stim
bo ts</w>
inst all
bein gs</w>
Z one</w>
g lo
t tes</w>
de ad</w>
im migrants</w>
Nach t
Com ple
Frei zügigkeit</w>
herr sch
gefähr lich</w>
Softwar e
phenom enon</w>
e dition</w>
x ing</w>
ar bit
ar ray</w>
ent ries</w>
im m
Er satz
pra gmati
Do cu
Ju gen
Kul turen</w>
Mär kten</w>
Gest atten</w>
destro yed</w>
Zustän digkeit</w>
Gu t</w>
Wes entlichen</w>
soc ieties</w>
beri chten</w>
Tu esday</w>
ergän zt</w>
G ang</w>
n i</w>
er stat
ro lle</w>
vi l</w>
Di kt
hal t
rel ative</w>
Gemein de</w>
foo tball</w>
D rei
F I</w>
ra ising</w>
Her bst</w>
gro ssen</w>
continu ously</w>
Den k
cal m</w>
graphi cs</w>
Ord ner</w>
graph y</w>
AI DS</w>
is ra
ge prägt</w>
de fe
ur teilung</w>
ver öffentlichen</w>
letz tendlich</w>
Man che</w>
environ mentally</w>
The ater</w>
angeneh me</w>
St ability</w>
pre v
europä isches</w>
d opp
an gen</w>
ver steht</w>
än e</w>
oper ated</w>
Gol den</w>
Klar heit</w>
L ord</w>
zu zu
An sprüche</w>
bed ing
To gether</w>
mel dungen</w>
compar ison</w>
exec ution</w>
Straß burg</w>
country side</w>
S TA
d ul
an i</w>
ro ut
dies bezü
Vor gehensweise</w>
Sicher hei
Is lands</w>
plan et</w>
enter ing</w>
Hol z</w>
Bur ma</w>
arran ged</w>
Valen cia</w>
N I</w>
er staun
tra ditions</w>
gra d</w>
So und</w>
Abstimm ungen</w>
mil es</w>
Energie effizienz</w>
tin y</w>
Bon us</w>
atta ched</w>
Bis her</w>
verhäl tnis</w>
transfer red</w>
6 9</w>
n ut
wirtschaf ten</w>
defin ieren</w>
fän gt</w>
roman tic</w>
belan gt</w>
Ver lust</w>
comp act</w>
Land es
Haupt bahnhof</w>
od ation</w>
Potenzi al</w>
0 4
c lau
s i</w>
in sp
lo ses</w>
Si er
lossen heit</w>
chap ter</w>
ange hen</w>
Konfli kte</w>
isra eli
j ap
st unde</w>
Flä che</w>
Voraussch au</w>
D C</w>
D ritten</w>
ab or
sta ying</w>
str o</w>
del eg
sugges ted</w>
Sad dam</w>
N ig
ven tion
Mi ß
Ni kon</w>
candi dates</w>
Austra lia</w>
bus y</w>
Übri gen</w>
7 1</w>
A th
P M</w>
W eg
d rop
reg ungen</w>
Proble mati
staat lichkeit</w>
Bedürf nissen</w>
Obje kt</w>
proto col</w>
Cur rently</w>
medic ine</w>
S L
el det</w>
Ver arbeitung</w>
wirk liche</w>
fort setzen</w>
Geb ühr</w>
Commission ers</w>
dru g</w>
Fre und</w>
Geor ge</w>
Niederlan de</w>
hervorge hoben</w>
y ard</w>
ol l</w>
Ver halten
pl astic</w>
gest altung</w>
aff ord
Regi erung
manufac ture</w>
Kan ada</w>
Leg al</w>
Ker nel</w>
Kandi daten</w>
Todes strafe</w>
alco hol</w>
Apa che</w>
Bereit stellung</w>
a c</w>
gra tis</w>
bo ards</w>
arbei ts
oper ative</w>
Or te</w>
Str and
Fun ktions
Dre i</w>
gehöri gen</w>
geschm ack
L oo
inter ne</w>
Er st
cu e</w>
inclu sion</w>
Kü sten
zentr en</w>
treat ments</w>
bewahr en</w>
M ar</w>
W en
k illed</w>
m outh</w>
Her z</w>
Ent sch
pre chen</w>
fas z
SD L</w>
Kohäsions politik</w>
b la
e ches</w>
ch alleng
si tzen</w>
du ties</w>
Inter nationale</w>
Ch ampi
glei chermaßen</w>
beeinflus sen</w>
1 10</w>
7 7</w>
W ind</w>
An weisungen</w>
geb au
Mo dern</w>
ft mals</w>
car rying</w>
encoura ged</w>
vorsch lagen</w>
unabhängi gen</w>
proce edings</w>
H under
n ine</w>
gen es</w>
Sp ie
Organ e</w>
represent ation</w>
gegenwär tige</w>
auff or
privi leg
con sci
son g</w>
fähi ge</w>
Br un
transl ated</w>
Fer r
Ober fläche</w>
Flücht linge</w>
Befu gnisse</w>
Erinn erung</w>
T reib
e e
ra c
geb nisse</w>
fun ktion</w>
mis sions</w>
col lap
Mr d</w>
frü h</w>
Ven ice</w>
gemü tliche</w>
Abhängi gkeit</w>
e ure</w>
w as
ne tz
gro wn</w>
fir stly</w>
evi dent</w>
vertrau en</w>
Simp ly</w>
w je
gi ft</w>
ag ent
fin ed</w>
geb lieben</w>
pres sing</w>
man chen</w>
ph ones</w>
Berichterstat ters</w>
shor tly</w>
Völ ker
Justi z</w>
Niederlan den</w>
Kontin ent</w>
6 1</w>
in k
an belangt</w>
im men
Aus maß</w>
acc eler
can cer</w>
Mon tene
Politi k
adop ting</w>
Fil m
Jugend her
Betreu ung</w>
li s</w>
An regungen</w>
Di plom
tro ck
ail s</w>
De f
wür dig</w>
pf lan
rep air</w>
gewäh lten</w>
Stro m
d or</w>
j unk
us ern</w>
Mon etary</w>
analy se</w>
Zy pern</w>
Jahrzeh nten</w>
Vorder grund</w>
hi king</w>
cent uries</w>
Kur z</w>
disa sters</w>
geni essen</w>
M äd
leg te</w>
Ri o</w>
Bil dern</w>
gele genen</w>
zwei ter</w>
Man chmal</w>
atten d</w>
Zeit plan</w>
Groß teil</w>
fal sche</w>
Risi ko
Mark en
Bildschir m</w>
N ic
n ity</w>
vi c</w>
vor ge
clo ck</w>
sur pris
Auto bahn</w>
geleg te</w>
clar ity</w>
H els
re volution</w>
ur gency</w>
gi es
profession ellen</w>
Wohn ungen</w>
acci dent</w>
simul tane
Waff en
Rele ase</w>
timet able</w>
ö tz
fü ll
um gehen</w>
Por to</w>
hon est</w>
CA D</w>
geneh mi
certi fied</w>
clau se</w>
8 9</w>
G ut
M aga
M utter
g eren</w>
t u</w>
ä st
po sted</w>
vi et</w>
For mul
Con tin
mitt lerweile</w>
Jo se
Wohn zimmer</w>
Fort setzung</w>
L y
st ages</w>
ein gebracht</w>
ul en</w>
erk unden</w>
War craft</w>
bein halten</w>
mistak es</w>
targe ted</w>
ver weisen</w>
par liament</w>
über greif
mi en</w>
vol les</w>
big ger</w>
Lob by</w>
Nachhal tigkeit</w>
op tional</w>
tra ined</w>
Re par
Aus blick</w>
he ading</w>
exc essive</w>
klär t</w>
Binnen marktes</w>
angebo te</w>
recogni ze</w>
überra scht</w>
strö m</w>
k es
ru pt</w>
demo kraten</w>
Gef än
Leg isl
Cast le</w>
S C</w>
è s</w>
be fasst</w>
wa ff
Su dan</w>
speci fy</w>
gekenn zeichnet</w>
angewand t</w>
di eren</w>
di ges</w>
ter ed</w>
auf s</w>
Vor stellungen</w>
mi le</w>
ic on</w>
trei bt</w>
Pi az
C lose</w>
G as</w>
ß ten</w>
di ver
imp lications</w>
Geri cht</w>
obser ved</w>
Argu ment</w>
trou ble</w>
E T
V an
er es</w>
ac compli
ap s</w>
Parla mente</w>
uni form</w>
entwick elte</w>
sorg ungs
steu er
gemü tlichen</w>
bisheri gen</w>
Provin z</w>
C ali
o v
su red</w>
et ten</w>
mi g</w>
Inform ation
Ad ditionally</w>
tour na
Buch ungs
Entwickl ungsh
confer ences</w>
htt p</w>
t ü
z enten</w>
sch reck
An dal
ass ess</w>
Or der</w>
stra sse</w>
achie vement</w>
gesetz ten</w>
Schön heit</w>
absur d</w>
r ul
vi es</w>
ir re
Ein kommen</w>
eff ektive</w>
Zu verlässi
Ro bert</w>
cat ch</w>
befür worten</w>
wö hnen</w>
S U
a e
ch ester</w>
res ear
co ck
lie ß</w>
So viet</w>
Gel der</w>
Ed in
ou d</w>
vor liegen</w>
nec essi
Stre cke</w>
Inde x</w>
suffici ently</w>
geräum t</w>
advent ure</w>
u xe</w>
as sembly</w>
gel ingt</w>
cri mes</w>
Rei hen
Fern sehen</w>
Lux us</w>
exis tieren</w>
Statisti ken</w>
L ern
b ited</w>
s oph
an passen</w>
so eben</w>
Be vor</w>
ir ischen</w>
Vor be
amp s</w>
wal d</w>
sozi aler</w>
Steu er</w>
Mas sage</w>
passi eren</w>
ende av
G A</w>
s ung</w>
s ory</w>
au tonom
Off enheit</w>
wahr en</w>
Geträn ke</w>
bedauer lich</w>
O LAF</w>
d s
di erung</w>
ge währen</w>
ol dest</w>
su ited</w>
gel ernt</w>
wes enheit</w>
Mill enni
Galile o</w>
A sian</w>
V E</w>
ol o</w>
no body</w>
con vi
organ ise</w>
fes ten</w>
Dar in</w>
Ru bri
liber al</w>
Bl ack
ses sions</w>
kör per
ingre dients</w>
f enster</w>
di stor
op enness</w>
Ber g</w>
ste te</w>
besonder es</w>
Spe k
schrift liche</w>
Zerti fik
E T</w>
h i</w>
m ass
lo se
Er füllung</w>
rä f
ergän zen</w>
K äufer</w>
N et</w>
b ought</w>
c rop
m ere</w>
m ische</w>
li ger</w>
re porting</w>
hi dden</w>
ec ological</w>
ig es</w>
ör ung</w>
Ther ap
Schi ffe</w>
Sec re
W A
un ab
be er</w>
pe t</w>
fe wer</w>
bi tions</w>
eng ines</w>
rest ore</w>
effizi enter</w>
gewöhn lich</w>
Invest oren</w>
Phi losoph
L en
an wenden</w>
or es</w>
re construction</w>
Ver heu
zi elen</w>
son gs</w>
Ge winn
Gen au
größ ter</w>
ima gin
fa ith</w>
Emp fang</w>
Fak ten</w>
coher ent</w>
E v
c as</w>
Er k
dr au
Werk zeuge</w>
Bü cher</w>
bür ger</w>
unmittel barer</w>
stam mt</w>
Amerikan er</w>
sched uled</w>
Leip zig</w>
G PS</w>
k reis</w>
ter a</w>
tw in</w>
dru cken</w>
Fo cus</w>
versch är
Urlau bs
gesetz lichen</w>
syn chron
avi ation</w>
prefer red</w>
C ab
Z e
p us
sch em</w>
Be achtung</w>
Op position</w>
zusammen zu
Kap ital</w>
maxim ale</w>
Sti ftung</w>
Prä sen
speciali zed</w>
prakti schen</w>
Nutz ungs
Män gel</w>
Ty p</w>
Flor enz</w>
tum n</w>
Dü ssel
d asselbe</w>
v able</w>
techn isch</w>
intensi v</w>
Währungs union</w>
zerstör t</w>
eman den</w>
problem los</w>
v ous</w>
z e
es o</w>
st y</w>
mit zu
kl asse</w>
Fahr zeug</w>
communic ate</w>
kap az
Hinder nisse</w>
prospec ts</w>
li ved</w>
el and</w>
ein geleitet</w>
sch em
sch mer
consider ations</w>
Weiter hin</w>
tax pa
günsti g</w>
Funktion alität</w>
Regu lierung</w>
Spitz en
L ul
ä ischen</w>
ti scher</w>
at on</w>
se x</w>
chti gt</w>
lan ger</w>
Ber ge</w>
aff ord</w>
mer kt</w>
Ter min</w>
welt weite</w>
Altern ativen</w>
ativ ity</w>
panoram ic</w>
men ade</w>
aus ser
pri ze</w>
Zu rich</w>
spre chen
Te ch</w>
trans mission</w>
verwen deten</w>
aktu alisieren</w>
Wer t
Cat al
T rin
un eingeschränkt</w>
bewer ten</w>
entscheiden den</w>
altern atives</w>
ursprün glich</w>
Wichti gkeit</w>
Agri culture</w>
D ingen</w>
l li
ou ts</w>
ent es</w>
fer n
ment ari
Comm er
pur ely</w>
ins ist</w>
Verheu gen</w>
I T
Z ent
s and</w>
et abli
Mo tor</w>
Nach mittag</w>
ani an</w>
rest ored</w>
anti cip
cell s</w>
T rei
V ice</w>
c lin
on e
Ver teilung</w>
gr ü
Bu ffet</w>
Li thu
Ser bien</w>
sho wed</w>
wün scht</w>
edi t</w>
Gleich stellung</w>
beglei tet</w>
Ägyp ten</w>
H en
an zunehmen</w>
Par a
ste ten</w>
Su chen</w>
dig nity</w>
Fern se
Sier ra</w>
D oh
ein zusetzen</w>
aus gaben</w>
qui red</w>
sup erior</w>
Ta ste</w>
appro aches</w>
lic ens
Sie mens</w>
Einw ander
attemp ts</w>
Konfigu ration</w>
fisher men</w>
v ince</w>
pre mis
betri eb</w>
Erfol ge</w>
Den mark</w>
konkre t</w>
Privat sphäre</w>
Luxem burg</w>
verring ert</w>
Gewähr leistung</w>
zim mern</w>
komfort ablen</w>
p end
rec re
besch ä
sor ge</w>
wo durch</w>
Kommission spräsi
Minister p
Install ations
sche dule</w>
A vi
R un
U PS</w>
V ater</w>
in mitten</w>
ta men
En ter</w>
Al low</w>
war ran
Po d</w>
Co st
dri ven</w>
Dan ish</w>
Wäh ler</w>
Ka bel</w>
dead line</w>
Slov ak
T wi
b ach</w>
t ons</w>
An pass
all eine</w>
Kon vent</w>
bek räf
18 0</w>
gefähr det</w>
Son y</w>
Archi v</w>
F assung</w>
M á
V alley</w>
ein stellen</w>
Sp ace</w>
mul tin
Drit tel</w>
ES CO</w>
Kör per
wö ch
Edin burgh</w>
9 001</w>
S ehen</w>
an ni
de lic
vor gehen</w>
län gst</w>
funktion ier
Pol y
Feri en</w>
vir tually</w>
Pan oram
schwe dischen</w>
Plug in</w>
Mexi ko</w>
dafri ka</w>
K lu
S MS</w>
s ample</w>
er teilt</w>
um zu
Her zlich</w>
shi ft</w>
alisi erten</w>
Liefer anten</w>
keines wegs</w>
F C</w>
O l
S Y
n ings</w>
ge e</w>
comp ul
bestimm ter</w>
viol ations</w>
CA P</w>
Design er</w>
Verhalten s
g ut
at t</w>
Ver lauf</w>
pa ket</w>
bin den</w>
regul ated</w>
Ru ß
anzu bieten</w>
the ory</w>
vorzu legen</w>
Region al</w>
0 2
n ör
ak tiv
Li cht
len ken</w>
telef on
E A</w>
S w
T ren
v ei
lin ess</w>
sen ken</w>
Auf preis</w>
mm ing
sha dow</w>
Hä user</w>
bewe gt</w>
stärk ere</w>
universi ties</w>
8 1</w>
C lo
L earn</w>
P RO
b eln</w>
and o</w>
wh ere
stand s
bis schen</w>
IM F</w>
sus p
c ell</w>
e ten</w>
men tar</w>
for gotten</w>
Pro fi
aus sehen</w>
Dar auf</w>
Neu igkeiten</w>
Lan z
Bro w
müs ste</w>
Inner halb</w>
C all</w>
ar ische</w>
ar my</w>
lo y
vor gestellt</w>
mon o
spe eches</w>
publi sh</w>
dec line</w>
ausgestat tete</w>
Fa x</w>
geschnit ten</w>
P atten</w>
p ack</w>
er wor
ra tion
ge führten</w>
ser ving</w>
bro ken</w>
Proje kts</w>
9 00</w>
o date</w>
r isi
di versi
ver än
se es</w>
sp here</w>
per cent
Vor red
ear ning</w>
pf ung</w>
Wor k</w>
hil l</w>
integr ate</w>
Adres sen</w>
Imp ul
Alb um</w>
Plä tze</w>
Servic e
p ed
er ei</w>
er werben</w>
sch ür
be gun</w>
No thing</w>
zur zeit</w>
Weiter entwicklung</w>
UN ESCO</w>
tie gen</w>
8 7</w>
E ti
n falls</w>
w unsch</w>
on i</w>
and t</w>
Ein satz
Aus rüstung</w>
glich keit</w>
descri be</w>
TH E</w>
getrenn t</w>
Administ ration</w>
Doh a</w>
C ou
An stieg</w>
gh äfen</w>
Pro fil</w>
the tic</w>
Tour ism</w>
constitu tes</w>
bran che</w>
Modu s</w>
safegu ard</w>
Soci alist</w>
Entfer nung</w>
E qu
P il
v is</w>
th aus</w>
se ment</w>
lin gen</w>
Qu ell
Einw ände</w>
klass ischen</w>
Dä ne
Berlin er</w>
Bürokrati e</w>
st ories</w>
le ute</w>
inte gra
gewi d
zentr aler</w>
freed oms</w>
Mand at</w>
gä ste</w>
respe ktieren</w>
Schü ler</w>
istic ated</w>
C ru
K la
c amp</w>
re tain</w>
ke p
ak te</w>
wick lung</w>
jo ining</w>
dra sti
Proz ess
moder nis
Sy ri
Masch inen
haf tet</w>
Nahrungs mittel
zugr unde</w>
Zuverlässi gkeit</w>
ne m</w>
Be achten</w>
do g</w>
rec ords</w>
trans action</w>
frei er</w>
Fahr er</w>
Vis a</w>
compla ints</w>
präz ise</w>
colum n</w>
gesu cht</w>
D eine</w>
S ul
er hielt</w>
war mly</w>
ign ore</w>
zer o</w>
conven tional</w>
pol y
Sie g</w>
quo tas</w>
militär ischen</w>
7 6</w>
K öl
ung laub
Aus sage</w>
Sta ates</w>
mm a</w>
vers ary</w>
combin es</w>
purch ased</w>
cro s
gelan gt</w>
A D
an melden</w>
tä r</w>
her stellen</w>
fe et</w>
ren owned</w>
air ports</w>
isl am
Rechts staatlichkeit</w>
Hö chst
propor tion</w>
digit alen</w>
Mie t
r ar
ra ces</w>
unter suchen</w>
ic als</w>
arbei tete</w>
gemein schaft</w>
sto ß</w>
super b</w>
LE D</w>
Gal erie</w>
Bla ir</w>
es que</w>
ni ght
sp ital</w>
ges te
Sch wan
är ten</w>
Mit entschei
lus ses</w>
komm un
As sembly</w>
cancell ation</w>
Safe ty</w>
b i</w>
h t
er teilen</w>
ri ding</w>
me ter</w>
cht fertigt</w>
pri me</w>
fu hr</w>
bo ats</w>
Bes te</w>
eng aged</w>
air lines</w>
Wirtschafts politik</w>
Dien stag</w>
Mechan ismus</w>
eventu ell</w>
muni cip
I A</w>
sch ein</w>
Th y
Al lah</w>
Ma x</w>
bro ch
Ur sache</w>
rela xed</w>
exam ined</w>
Tä tigkeiten</w>
Belgi an</w>
event ually</w>
registri ert</w>
acci dents</w>
Infl ation</w>
destru ction</w>
Hels in
S W
w ski</w>
ac tors</w>
sho t</w>
thor ou
belon gs</w>
Taus ende</w>
Non etheless</w>
Problemati k</w>
el ev
Au tor
her unter</w>
Ex port</w>
Man u
access ories</w>
verbun denen</w>
i en
it al
ac ade
Kon zent
schen ken</w>
Ba y
Pra g</w>
Daten schutz</w>
ehr lich</w>
repe ated</w>
Tr end</w>
steig ern</w>
ex o
rä u
exp and</w>
stu dent</w>
dru ckt</w>
deli ber
unver bin
rep utation</w>
smo oth</w>
kn app</w>
stechni k</w>
Helsin ki</w>
B 5</w>
r on</w>
ho tel
Di r</w>
sk a</w>
disp ute</w>
verk nüp
Invest ment</w>
Lanz aro
con vention</w>
Re gen
Vor rang</w>
Fil me</w>
Spa zier
Effe kt</w>
ackno wledge</w>
there by</w>
maga zine</w>
L ist</w>
O steurop
in adequate</w>
as ur</w>
resp ects</w>
interess anten</w>
integri erten</w>
H ör
th and
li ere</w>
re volu
ta gs
vor zunehmen</w>
So c
under taken</w>
sicher gestellt</w>
Kre ativ
fähi gen</w>
Air lines</w>
exclu sion</w>
verm ieten</w>
stam men</w>
stopp ed</w>
E s
m ieten</w>
in door</w>
ver pfli
gi k</w>
An sprech
Con nec
belie ves</w>
inten ds</w>
plac ing</w>
betre u
1 30</w>
F an
M utter</w>
po sts</w>
im mer
Aus flüge</w>
trans fers</w>
fel der</w>
Tab ak
fik ationen</w>
gebäu de</w>
Ein trag</w>
neu n</w>
ben en</w>
Auf trag
cul tures</w>
Ri ch
Ro ad</w>
hop es</w>
Origin al
Lic ense</w>
N H</w>
N on</w>
el f</w>
be arbeitet</w>
her stellung</w>
congratul ations</w>
müs sten</w>
erleichter t</w>
D ich</w>
In hal
Er forder
bli cken</w>
Produ k
eig n
mehr fach</w>
fav ourable</w>
fa ßt</w>
Bevölk erungs
vier tel</w>
Langu age</w>
Amon g</w>
er hoben</w>
st ür
Di agno
lei d</w>
conc er
enn t</w>
suff ered</w>
Pflan zen</w>
certific ate</w>
A ma
S K</w>
mu tzung</w>
demo crati
Lo go</w>
Grund lagen</w>
klär en</w>
Frei heiten</w>
Min i</w>
Haushal ts</w>
wid th</w>
wid men</w>
ght seeing</w>
A h
K au
R ob
g oo
l ers</w>
qu elle</w>
ma chten</w>
em m
Er öffnung</w>
Qu ad
Gesch i
Ti cket</w>
Vol k
fortun ate</w>
manag ing</w>
San ter</w>
fant as
pil lar</w>
b lau
g no
ein igt</w>
se tup</w>
por tu
Be tt</w>
bei behalten</w>
ga ther
gab en
gelö scht</w>
Wirk samkeit</w>
sun ny</w>
dist ur
fem ale</w>
F ans</w>
di ving</w>
is lat
ul timate</w>
über wachen</w>
Gr ö
Muse en</w>
mag ne
explan ations</w>
C P
G l
H A
er equ
it ly</w>
ag u
Con c
Comm on</w>
cir cul
thor ough</w>
Log isti
gebrau cht</w>
Ash ton</w>
A ktions
C R
L ager</w>
S äm
ri o
ge geben
ver wei
am ed</w>
geb ühren</w>
Ab out</w>
gre en
Fü hrer</w>
swi t
arran gement</w>
Journali sten</w>
7 4</w>
k le
ci ally</w>
et t</w>
sta in
tw enty</w>
Su n</w>
hei ght</w>
origin ally</w>
Fisch ler</w>
S ens
ch air
ab ot</w>
tra gt</w>
LA N
thre ats</w>
Mil ch
Premi er
dele ted</w>
remark able</w>
A 3
B ig</w>
S ports</w>
v isions</w>
ver wöhnen</w>
pro bieren</w>
tä tigen</w>
kon to</w>
Con ditions</w>
mom ents</w>
stor es</w>
dest inations</w>
Schi ff</w>
Hän dler</w>
festzu legen</w>
P um
wi ld</w>
sch m
ther mal</w>
Am t</w>
quali ties</w>
Flor ence</w>
Mes se
Him mel</w>
o di
ab geben</w>
Zu fried
Ni zza</w>
isti sch</w>
möglich keit</w>
Oper ation</w>
Elek tron
gir ls</w>
stun ning</w>
E V
R ö
gro ss</w>
Ab lauf</w>
hin weg</w>
geh ei
bri cht</w>
Ant i</w>
wach senden</w>
erst es</w>
sou l</w>
Akti en
illeg alen</w>
gewid met</w>
H D</w>
L ine</w>
R obo
e fully</w>
au l
ge be</w>
ru ms</w>
Er leben</w>
deut liche</w>
Se villa</w>
Hand y</w>
Lie bl
Cu ba</w>
Fit ness</w>
ong side</w>
E M</w>
b uses</w>
zu gestimmt</w>
gra ben</w>
Bo x</w>
Ac rob
Kamp agne</w>
less on</w>
tori al</w>
mün dlichen</w>
athed ral</w>
soph isticated</w>
a dem
er ship</w>
ch airs</w>
ou red</w>
Ver sprechen</w>
sol ch</w>
Aus einander
min or</w>
trav ellers</w>
succe eded</w>
teach ing</w>
gewinn t</w>
config ure</w>
s ought</w>
in er
an geben</w>
at edly</w>
le tte</w>
so dass</w>
wa ffen</w>
activ ated</w>
Wil d
haf ter</w>
kö st
nar row</w>
b lan
o ftmals</w>
be fri
ma ps</w>
Aus nahmen</w>
Me eting</w>
woh nt</w>
Kre atur</w>
Mehr ere</w>
grün dung</w>
Ha iti</w>
Kenn zeichnung</w>
geschä ft</w>
bureau cracy</w>
a w
in tui
sp are</w>
mo vements</w>
St ri
ev al</w>
char m</w>
Mein ungen</w>
inf rin
particip ating</w>
Schi cks
Ques tions</w>
doub ts</w>
legitim acy</w>
Glau ben</w>
G ö
R enn
z el</w>
ber ger</w>
St rom</w>
dec ade</w>
tern s</w>
Vi zep
innov ativen</w>
Rück kehr</w>
expen se</w>
Lab our</w>
woo den</w>
fascin ating</w>
K ey
d ein</w>
w unden</w>
no ck</w>
ma ybe</w>
all o</w>
her auszu
chn ungen</w>
We gen</w>
negoti ation</w>
ausgewäh lten</w>
R oll
f ter</w>
n ative</w>
re act</w>
ac com
qu est</w>
Ver sorgung</w>
ad ding</w>
vol lem</w>
diff er</w>
lich keits
Hotel zimmer</w>
Pf ei
Mittelme er</w>
realisti sch</w>
Montene gro</w>
in o
lo ading</w>
boo st</w>
dig ungen</w>
equi valent</w>
refer ring</w>
statt findet</w>
schul en</w>
schle chte</w>
consequ ence</w>
Gesetz es
Schnit tstelle</w>
GA P</w>
beabsichti gt</w>
Düssel dorf</w>
re turns</w>
sch läge</w>
te c</w>
mi xed</w>
her um</w>
kon zipi
produ kten</w>
K y
W ater</w>
h te</w>
at abot</w>
sch efs</w>
pro p
der er</w>
tel ec
conc ent
zah lungen</w>
Kom mentar</w>
separ ately</w>
Tat atabot</w>
Pat ent
plu g</w>
medic ines</w>
E p
olog ie
eig entliche</w>
größ e</w>
Proz eß</w>
Immobili en</w>
9 4</w>
f ab
f ast
un sch
tri c</w>
Religi on</w>
listen ing</w>
neutra l</w>
f lüssi
è re</w>
wor rying</w>
so ever</w>
vor gelegten</w>
So weit</w>
Ch urch</w>
modi fy</w>
Flu ghäfen</w>
detailli erte</w>
vorgeseh enen</w>
Passa gi
vi erten</w>
ent zieht</w>
lu ck</w>
wel s</w>
über wacht</w>
Mar k</w>
eng age</w>
introduc ing</w>
humanit ären</w>
dol lar</w>
Elek tro
geschlossen en</w>
Legi tim
Educ ation</w>
H ôtel</w>
P al</w>
h ase</w>
gen o
ber ührt</w>
mo tivi
Sp ä
unter brei
über winden</w>
fort gesetzt</w>
Mi gration</w>
Person en
reib ungen</w>
incen tives</w>
Däne mark</w>
Acrob at</w>
7 8</w>
c am</w>
eth ical</w>
mean time</w>
relation ships</w>
Sil ver
Georgi en</w>
bic y
S atz</w>
S anti
er heben</w>
be weisen</w>
as set</w>
auf geführt</w>
Vor aus</w>
ori a</w>
mis sed</w>
medi terran
vil lages</w>
eindeu tige</w>
K rei
h ur
k as
m elt</w>
re vised</w>
ab end</w>
tr ü
wei chen</w>
wa kei</w>
gere chte</w>
Betri ebe</w>
herr lichen</w>
Absch affung</w>
italien ische</w>
neighbour hood</w>
kilome tres</w>
favou rite</w>
Mäd chen</w>
be völk
ver w
ev en
Zusammen setzung</w>
bl ind</w>
vertrau t</w>
klein ere</w>
Sei ten
test elle</w>
Islam ic</w>
neighb ours</w>
Ar ena</w>
Bu re
opp on
techni que</w>
freund liches</w>
Wa sch
ausführ lich</w>
Wiederauf bau</w>
let ters</w>
Lanzaro te</w>
eign ty</w>
8 4</w>
b ahnen</w>
ver letzungen</w>
In ten
fi re
organ ize</w>
consu lt</w>
over looking</w>
rin zip</w>
Öff nung</w>
transl ations</w>
Gesi cht
Dialo gs</w>
Präsent ation</w>
Classi c</w>
A ri
E t
F luss</w>
T RA
ti er</w>
wi des
no t
no is
lo ved</w>
Ar c
stru ggle</w>
Ju gend</w>
Fol glich</w>
Aktu alisierung</w>
spür en</w>
1 1
ver letzt</w>
gen z</w>
Si cht
manufac tured</w>
Wol len</w>
diplom atic</w>
propor tion
Edi tor</w>
Säm tliche</w>
I ran
K A</w>
é e</w>
at ur
pre ad</w>
olog isch</w>
Pla y</w>
accomm odate</w>
ki ds</w>
betreff end</w>
EI B</w>
Imple men
C el
s car
er wiesen</w>
ex ecutive</w>
Au ßen</w>
Ab ove</w>
Zusammen halt</w>
Fri end
Chi le</w>
Spezi alisten</w>
occur red</w>
Prof essor</w>
Nich trau
Küh l
restruc turing</w>
compul sory</w>
L ap
h ause</w>
au tumn</w>
at uren</w>
Her stell
dis co
Kon ver
Mon ti</w>
gemein sames</w>
Bestimm ung</w>
einger ei
quanti ty</w>
symp ath
public ations</w>
G am
W erten</w>
h ec
s me
er öffnen</w>
re venue</w>
wi tn
Be g
Be zahlung</w>
rati fication</w>
land s
Vertra ges</w>
emo st</w>
Plen ar
Präsen z</w>
E del
F our</w>
I P
t ough</w>
x er</w>
st ops</w>
Gro wth</w>
tal ked</w>
Tre aties</w>
bl ame</w>
Ap pro
offen bar</w>
Chi c
Swi mming
Geg ner</w>
construc ted</w>
audi o
hochwer tigen</w>
Entsch lossenheit</w>
I WF</w>
T M</w>
a is</w>
g ischen</w>
m ol
Ver wenden</w>
bu ying</w>
char ak
sicher er</w>
wil li
Saf e</w>
phar mac
Slovak ia</w>
J on
d einen</w>
an er</w>
lei chte</w>
höch st</w>
Bedien ung</w>
b ella</w>
j um
for ec
op pose</w>
An träge</w>
can cel</w>
gemein schaftlichen</w>
belie f</w>
Kli ck</w>
hör t</w>
sign als</w>
roo ts</w>
favor ite</w>
ei gh
ein sei
we d
comp rises</w>
br ands</w>
Über setzungen</w>
hö r</w>
änder ungen</w>
fest gelegten</w>
bedau ere</w>
verbrei tet</w>
diesel be</w>
1 40</w>
S SL</w>
p fen</w>
li ed</w>
is men</w>
eb ook</w>
chti gungen</w>
displa ys</w>
F abri
G E</w>
T onnen</w>
en vis
ti an</w>
Über tragung</w>
Rei ch
cap abilities</w>
Bur g</w>
kontrol li
teach ers</w>
AK P</w>
Hist ory</w>
incorpor ated</w>
Spi ri
dump ing</w>
Verle tzung</w>
r l
ä le</w>
Er wer
ak s</w>
exp anded</w>
pa in</w>
Se ele</w>
bed ürf
alisi erte</w>
hinzu zufügen</w>
unterschied licher</w>
wides pread</w>
i erungs
z ar
is se</w>
ni k</w>
Char me</w>
Energie politik</w>
speciali ties</w>
nö tigen</w>
bir th</w>
condem n</w>
Schad en
zulässi g</w>
Rati fizierung</w>
A l</w>
ö l</w>
th es</w>
be ach
wh at
Aus sagen</w>
Inter governmental</w>
Bei spiel
prin zip</w>
present ing</w>
hon our</w>
höch ster</w>
angemessen en</w>
vernünf tig</w>
Má lag
i Pod</w>
t ability</w>
th res
re alisiert</w>
il st</w>
and in
to ward</w>
lu ste</w>
Co operation</w>
with draw</w>
Berei tschaft</w>
enti al</w>
mäß ige</w>
Sol utions</w>
lief erung</w>
Vermitt lungs
Gewin n</w>
Entwicklungsh ilfe</w>
d ness</w>
sch were</w>
An hör
wh ilst</w>
vor an</w>
est a</w>
direc tions</w>
Str ände</w>
ätz ungen</w>
zurück zuführen</w>
aci o</w>
flexi b
Proto col</w>
activ ate</w>
vic tory</w>
reib ungs
Vers and</w>
seg ment</w>
supple mentary</w>
von einander</w>
trage dy</w>
F li
d än
en ne</w>
an erk
li ty</w>
comple tion</w>
Änder ungs
Ter ra
Kur se</w>
contra c
As sozi
erle b
verur teilen</w>
prov ince</w>
Cul ture</w>
Inf o</w>
B S</w>
C hal
E P</w>
F an</w>
r ated</w>
li schen</w>
as signed</w>
omm unic
Re chen
Al gar
interes sieren</w>
Kompeten zen</w>
gradu ally</w>
besei tigen</w>
8 3</w>
P on
T raum</w>
g on</w>
re fur
ver sammlung</w>
ha z
and al</w>
cht est</w>
Con ver
zwei f
bedeut enden</w>
mittl eren</w>
auffor dern</w>
I bi
M s</w>
R emo
ti les</w>
sh ore</w>
Be wus
ba g</w>
nach denken</w>
Pal ästinens
zeichn ungen</w>
obser ve</w>
Interne tseite</w>
harm ful</w>
B R
E P
V iel</w>
r h
eri eren</w>
so fa</w>
ke wise</w>
pre di
gem essen</w>
Ge o
zah ler</w>
econom ically</w>
deb ating</w>
bewer tet</w>
Schul d</w>
appropri ations</w>
proz eß</w>
bra chte</w>
Ratsvor sitz
Santi ago</w>
F requ
G ül
G las</w>
L ü
z iel</w>
ri ere</w>
am i</w>
Sp itze</w>
pr erequ
Kin nock</w>
Gipf el
preser ve</w>
Anmerk ung</w>
sover eignty</w>
P ir
ab gegeben</w>
Ver kaufs
Re chten</w>
Ri ght</w>
olog ne</w>
Le hrer</w>
Ba si
tnis sen</w>
erst mals</w>
Bestell ungen</w>
Vil lage</w>
grunds ätz
befürwor tet</w>
Málag a</w>
G et
ti t
ri ft</w>
for emost</w>
St att
inter n
Me an
Comm un
verstän dnis</w>
Gar ten
schön er</w>
hor se</w>
Blu e
verfahr ens</w>
what soever</w>
E X
J ean</w>
d f</w>
gu tem</w>
über mitteln</w>
Kon gres
hand led</w>
fal se</w>
kontinuier lich</w>
percent age</w>
portu gies
G or
H alle</w>
be dienen</w>
per mit</w>
rec ording</w>
Mo sco
mä ssi
Wider stand</w>
Kapaz ität</w>
thorou ghly</w>
F leisch</w>
T ieren</w>
st rei
au x</w>
ge ous</w>
ge habt</w>
hal tungs
vor sichtig</w>
gel d</w>
zo g</w>
Engine ering</w>
F air
K it
L eben
in ely</w>
di al</w>
ge he</w>
ter rasse</w>
lo hnt</w>
ad just</w>
inter active</w>
str and</w>
moder ner</w>
komple xe</w>
pat tern</w>
appreci ated</w>
Erei gnis</w>
certi fication</w>
Krieg s
neighbour ing</w>
slow ly</w>
Zufried enheit</w>
ra ises</w>
se emed</w>
Über ra
kun den
schwieri ger</w>
RO M</w>
sag ten</w>
Philosoph ie</w>
F oo
H ea
Re al
dis appointed</w>
wär tig</w>
tail ored</w>
Sicherheits politik</w>
198 8</w>
plu gin</w>
enfor cement</w>
afford able</w>
Reihen folge</w>
Cost asur</w>
wor ry</w>
mo bil
geb ühr</w>
Sa ve</w>
Mor occ
Char les</w>
einzu führen</w>
Reser ve</w>
radi k
G ame</w>
is sen</w>
Aus wei
sub sequent</w>
person en</w>
hy po
wunder schöne</w>
vernünf tige</w>
unterschei det</w>
Info s</w>
Dynam ik</w>
Blin gee</w>
arbit r
F isch</w>
g keits
st ran
sch ritt
co decision</w>
mo ves</w>
rei cher</w>
ess ed</w>
bo und
Ac ade
expres s
neg ativen</w>
Constitu tional</w>
erläu tern</w>
7 3</w>
H ände</w>
on er</w>
ac quired</w>
gi o</w>
pl ötz
sen s
sen der</w>
Auf lösung</w>
Su peri
cris es</w>
Fe atures</w>
log istics</w>
Govern ance</w>
sugges tion</w>
Hier bei</w>
bring ung</w>
measu rement</w>
Statt dessen</w>
ch ie
for ums</w>
Ar mee</w>
Aus bau</w>
Ne u</w>
hol e</w>
gew ach
Ru f</w>
finanzi eren</w>
deck ung</w>
chines ische</w>
gesund heit</w>
Fei er
Pay Pal</w>
genehmi gt</w>
Schicks al</w>
Y ou
er arbeiten</w>
ver arbeitet</w>
com men
geb ro
vie wing</w>
Ge werk
gener ous</w>
gri ff
regel ung</w>
statt gefunden</w>
repe atedly</w>
Resol ution</w>
entrepren e
4 0
A z
A ct</w>
B ord</w>
d sch
g ori
s qu
con fron
op en
kon struk
Ta xi</w>
Erfol gs
gere chtfertigt</w>
Wachst um
sil ence</w>
campaign s</w>
E hre</w>
H IV</w>
at orium</w>
ge fühl</w>
Th ird</w>
lo gic</w>
ad di
nu tzt</w>
program men</w>
kur se</w>
Ni chts</w>
Ram bl
Downlo ads</w>
Consul ting</w>
Rubri k</w>
S äu
ti k
am t</w>
sp lit</w>
fun ktionen</w>
Per f
ga stronom
ign ored</w>
Verbrau chern</w>
heu tzutage</w>
Hel p</w>
schwer en</w>
festzu stellen</w>
Rela x</w>
Are a</w>
T amp
t one</w>
tz eit</w>
tiv als</w>
europ a
exc ell
achie vements</w>
cat alog</w>
arti stic</w>
füh lt</w>
hunder t</w>
Inte gri
belieb igen</w>
well en
elektron ische</w>
occu pi
Apar tamen
Vic tori
Nig eria</w>
L es</w>
S av
b ist</w>
g l</w>
l i</w>
an forderungen</w>
si ty</w>
Ma chen</w>
Kol le
Deutsch lands</w>
gere ch
entsp ann
Slo wakei</w>
rene wed</w>
digit ale</w>
Il lu
Akte ure</w>
Trag ö
accu racy</w>
Bure au</w>
F ok
I A
ch ens</w>
ru m
ten sion</w>
ke eps</w>
Po ker
Ti pps</w>
az z</w>
design er</w>
läu fe</w>
Sol ana</w>
termin al</w>
aufzu bauen</w>
proje kt</w>
jur is
euro zone</w>
S CH
f at</w>
p tions</w>
r é
an ony
du ration</w>
Ma ils</w>
Kon junk
he ads</w>
dam ages</w>
Ad van
Ra di
The men
consist ently</w>
dimen sions</w>
inspec tion</w>
terri ble</w>
anni versary</w>
B and
a sis</w>
to oth</w>
sa al</w>
wa ge</w>
Fi le</w>
All tag</w>
bedro ht</w>
P SE</w>
h att
un t</w>
au to
sch wä
sc ru
Ur teil</w>
Gegen wärtig</w>
fair en</w>
nut ri
F S</w>
ch ise</w>
tr in
tra t</w>
iel d</w>
gest al
conc ert</w>
Produ ktivität</w>
consi sten
üh ne</w>
Tele kommunik
Tu be</w>
electri cal</w>
rück en</w>
elimin ate</w>
jud g
Bab y
journali sts</w>
bewu ßt</w>
A gain</w>
d ying</w>
ges teu
ser ie</w>
cul tiv
parti tion</w>
eig nen</w>
Mu ch</w>
betri eb
herr schen</w>
Gran ada</w>
prevent ing</w>
Tie f
Subsidiar ität</w>
7 9</w>
F our
th care</w>
an gelegt</w>
st at</w>
si ed
ra tions
inclu sive</w>
Schul den</w>
Sy mp
manag ers</w>
exter ne</w>
An gabe</w>
lie b</w>
auf nahme</w>
19 th</w>
zw ingen</w>
Mo de</w>
pris on</w>
specific ations</w>
Finn ish</w>
peti tion</w>
Algar ve</w>
W eine</w>
is n</w>
Re vision</w>
tri g
Her berge</w>
Mon t
Pal ette</w>
füh le</w>
Aspe kten</w>
integri erte</w>
bran ch</w>
TI ON</w>
bü rokrati
proxim ity</w>
Äu ßer
k it</w>
s ein
s mart</w>
ab lehnen</w>
zu stande</w>
ho hes</w>
str eng</w>
ph a</w>
cap itali
whe el</w>
Indi an</w>
declar ations</w>
umfangrei chen</w>
vermie den</w>
Morocc o</w>
C ologne</w>
s ist</w>
be hör</w>
zu gelassen</w>
por te</w>
In genie
et a</w>
ba sieren</w>
essen tially</w>
enjo ys</w>
angebo tenen</w>
D ör
K lo
N av
S ah
Ver sicherungs
Be treiber</w>
geb nis</w>
tig keits
innov ations</w>
Tour en</w>
scienti sts</w>
mär kten</w>
Jugend liche</w>
avoi ded</w>
angekün digt</w>
M illion</w>
u um</w>
ar res
ri fi
ad mit</w>
bes tens</w>
trans lat
ous ness</w>
Fol low</w>
Sen kung</w>
elegan te</w>
NE T</w>
install ations</w>
Spazier gang</w>
konstruk tive</w>
S eri
a qu
er arbeitet</w>
en ab
re vi
ad res
är er</w>
rä um
weiter zu
assu red</w>
Süd ti
pap ers</w>
Funda mental</w>
V ar
a wa
s ing
w rote</w>
ver mittelt</w>
Inter pre
read s</w>
Besch werden</w>
cop ies</w>
Camp ing</w>
elegan ten</w>
A M</w>
ch ten
or i</w>
be cken</w>
wir ft</w>
Gemein schaft
genau er</w>
Gesi cht</w>
atem berau
enttäu scht</w>
Latein amerika</w>
express ly</w>
gori th
er freu
se m
rei sende</w>
Er neu
tro ops</w>
stän digkeit</w>
rati fied</w>
gri echischen</w>
Hän den</w>
Einschrän kungen</w>
Jugen dlichen</w>
S ohn</w>
V ER
k lear
í n</w>
es c
men ü</w>
ma iling</w>
tim ely</w>
Par t</w>
Er schein
war t</w>
bo xes</w>
get es
pas sion</w>
Mehr wert</w>
Clu bs</w>
explo itation</w>
behavi or</w>
Superi or</w>
C hat</w>
a p</w>
li cation</w>
res s
gro s
Ab fall
Kon su
metho de</w>
exhi bitions</w>
geo graphical</w>
heraus ra
üb lichen</w>
Dro gen</w>
Verfahr ens
poor est</w>
search ing</w>
K m</w>
n esses</w>
un usual</w>
ein geben</w>
fo togra
resul ted</w>
kol le
Mal ay
veröffent li
illeg ale</w>
multilater al</w>
mitgli ed</w>
E E
G I
S ection</w>
er richtet</w>
li est</w>
ge treten</w>
Sch le
um es</w>
auf gestellt</w>
min er
ün d
19 80</w>
Ge winner</w>
fo ssi
pa ths</w>
exam ination</w>
nachhal tig</w>
basi cally</w>
studi ed</w>
centr ally</w>
Storni erungen</w>
J an</w>
N either</w>
h et</w>
k rei
li vely</w>
ah e</w>
ig a</w>
exp enses</w>
viel sei
gener ell</w>
boo k
sto ck
edi tor</w>
own ership</w>
norm ale</w>
Refer endum</w>
Austra lien</w>
f loo
t ant</w>
ar ity</w>
occ urs</w>
purch asing</w>
indic ates</w>
focus es</w>
Ruß land</w>
B ag
g ü
j enen</w>
l ac
un certainty</w>
ar do</w>
sch end</w>
il ater
wh enever</w>
Zu griffe</w>
reg ard
prote ction
Tra ditionen</w>
wahr e</w>
ruhi ger</w>
Mechan ismen</w>
parlamentar ischen</w>
adjust ment</w>
Modern isierung</w>
Ibi za</w>
p our</w>
en ger</w>
li able</w>
ge wer
pro fits</w>
and al
gr ünen</w>
lan gem</w>
wirk lichung</w>
Vol kes</w>
Erweiter ungs
pat ents</w>
Russ lands</w>
radi cal</w>
Sci ence</w>
T ut
d ing
v als</w>
under stand
jo in
Kom p
bel eb
Ziel setzungen</w>
Tür en</w>
Pan orama</w>
mand atory</w>
Fron t</w>
leh nt</w>
endgül tige</w>
begrün det</w>
orient ation</w>
toi let</w>
ti l
il d</w>
In halten</w>
Er reichung</w>
fer tigung</w>
Bes ei
gest atten</w>
tes tens</w>
IN E</w>
beri chtet</w>
geeig neten</w>
langfris tigen</w>
eingerich tete</w>
Consu mer</w>
C A</w>
d ä
f eu
un ilater
ra cle</w>
Präsi dent
zieh ung</w>
Premi er</w>
Dire kt
Olymp us</w>
Ergän zung</w>
ch ungs
auf gerufen</w>
ven ues</w>
Nach druck</w>
ful filled</w>
credi ble</w>
Sou verän
mani pul
Merc ure</w>
türk ischen</w>
regard less</w>
C C</w>
p ace</w>
ie hlt</w>
automati sche</w>
verur sachen</w>
Dre h
enthusi as
b onds</w>
n amen</w>
p ers</w>
w ash
in sufficient</w>
al tungen</w>
sp len
da hin</w>
ga u</w>
depen dence</w>
fit ted</w>
she ets</w>
behaup tet</w>
inspi red</w>
gescho ss</w>
unzurei chend</w>
assur ance</w>
gerech net</w>
S zen
ch enden</w>
ex posed</w>
An hän
är m</w>
Ge fan
Dis play</w>
gebra chten</w>
prec ision</w>
cat ors</w>
relev anten</w>
bür o</w>
ursprün gliche</w>
ökonom ischen</w>
absta ined</w>
necessi ty</w>
Ansprech partner</w>
Mean while</w>
C ar</w>
L arge</w>
par adise</w>
ven tive</w>
explic itly</w>
Mosco w</w>
comm it</w>
Bo tschaf
enor m</w>
Kop f
inves tiert</w>
erwäh nten</w>
Lit er
Konfer enzen</w>
komb iniert</w>
Französ isch</w>
A M
hi re</w>
ma il
In sofern</w>
St au
deb ated</w>
Ter rori
pass ing</w>
verbin dungen</w>
AC P</w>
Mach t
uzz i</w>
Phän omen</w>
O x
ge li
Ver mö
St eig
vor n</w>
Ab teilung</w>
produc er</w>
Li brary</w>
enn is</w>
mer k</w>
recei ves</w>
enor men</w>
addres sing</w>
ssi er</w>
wert volle</w>
graf ische</w>
B rau
F TP</w>
G O
J ung
in su
res idential</w>
da vor</w>
Ber gen</w>
tur esque</w>
finan ced</w>
Kl assi
my sq
kür z
diesel ben</w>
Alex ander</w>
Mehrwertst euer</w>
found ations</w>
premis es</w>
ver ies</w>
pro fes
qu ery</w>
Ver fol
Er ste</w>
Or ten</w>
stra tions</w>
dramati c</w>
intelli gen
vorange gangenen</w>
u x</w>
ge fällt</w>
weiter gegeben</w>
under lying</w>
schließ e</w>
tem plate</w>
La w</w>
Köni g</w>
verwal ten</w>
Minder heit</w>
ök ologischen</w>
R ennen</w>
in ated</w>
ver wiesen</w>
ber ichte</w>
Ver wirklichung</w>
co o
zi vi
Al ters
ger ei
gesch nei
publi shing</w>
net te</w>
lab or</w>
Sor g
Ferien haus</w>
Öffent liche</w>
Eigent ü
musi cal</w>
empf iehlt</w>
premi um</w>
3 60</w>
C ann
R eh
S her
a ster</w>
á n</w>
th ouse</w>
arbei ter</w>
stand ardi
shi p
Pi lo
monit ored</w>
chem icals</w>
serv ative</w>
modern es</w>
erör tert</w>
thou ghts</w>
P RO</w>
p f</w>
ar med</w>
pro min
so il</w>
ess ing</w>
parti al</w>
Ro ck</w>
Da von</w>
cho se</w>
kri terien</w>
fizi te</w>
AR E</w>
Kenn tnisse</w>
Vertri eb</w>
taus end</w>
kompati bel</w>
is co</w>
be fu
der artigen</w>
ali a</w>
lei ste</w>
ts eiten</w>
sta b</w>
Sum me</w>
pal ette</w>
dela ys</w>
Beschrän kungen</w>
Piaz za</w>
o es</w>
es timate</w>
tr ennen</w>
wh er
Re present
aus üben</w>
yst al</w>
unter wegs</w>
mi ß
gesch äf
fe a
län dliche</w>
techn ischer</w>
contin ental</w>
plan e</w>
ambi tion</w>
Geri chten</w>
hy th
frü hen</w>
obser vation</w>
toler ance</w>
excur sions</w>
L CD</w>
men ge</w>
sp ite</w>
Er halt</w>
Ber n
fahr t
Ori enti
Alli anz</w>
ausführ liche</w>
bene ficial</w>
trade marks</w>
ro t
Er haltung</w>
cre ativity</w>
Bu dd
So ft</w>
stan zen</w>
kur zer</w>
auth ors</w>
ligh ting</w>
Pat ri
gewün scht</w>
Palestini ans</w>
Herz ego
Kreativ ität</w>
H er</w>
Z ins
y s
bes tra
zi cht
Di d</w>
fin dung</w>
lei sch
ron t</w>
Le hren</w>
komple x</w>
compar able</w>
downlo ads</w>
gratu liere</w>
schli mm
Vene zu
keines falls</w>
fif th</w>
dimen sion
Premier minister</w>
Z ie
sch lim
ta b</w>
tra gic</w>
zi a</w>
chti gung</w>
Unter haltung</w>
Zu cker
indi sp
geord net</w>
conver gence</w>
Mah l
Regierung schefs</w>
W all</w>
W oo
vi era</w>
zu gute</w>
bu l</w>
ing ness</w>
bo asts</w>
ger inge</w>
pa ys</w>
Ex port
consi ders</w>
Durch setzung</w>
Rechn ungsh
auslän dischen</w>
ignori ert</w>
execu ted</w>
schem es</w>
st al
ho p</w>
so for
gu es</w>
acc esses</w>
under min
Mo sk
Com fort</w>
Man hatt
Mu ster</w>
Bon n</w>
territ orial</w>
Rou te</w>
prison ers</w>
a por
p df</w>
re al
se ktors</w>
An tri
Sch auen</w>
mar king</w>
Kar ten
Sitz ungen</w>
rob ust</w>
fasz ini
F OR
L inien</w>
N er
er weisen</w>
an erkennen</w>
Ver trag
ges onder
tra ins</w>
pl er</w>
woh n
Frau en
pic turesque</w>
Direc tor</w>
erwäh nte</w>
Gesetz geb
offizi ell</w>
Volks wirtschaften</w>
zufried en
Zahl reiche</w>
P ie
ch rist
gen s
lei tungen</w>
fahr zeuge</w>
Sta y</w>
stitu tion</w>
sig ni
Verbraucher schutz</w>
Unser er</w>
Bürgerbeauftrag ten</w>
J P
T al</w>
W and
c i</w>
Par king</w>
gel ingen</w>
itä tsp
Pri ces</w>
prec au
Bou tique</w>
Yu gosla
simultane ously</w>
J ames</w>
U C
h o</w>
k an</w>
ar men</w>
se bene</w>
Aus bildungs
off ic
clo sing</w>
öl f</w>
wach sende</w>
kor ea</w>
Fort un
Gast freund
pel ine</w>
Wissenschaft ler</w>
gerü stet</w>
Besei tigung</w>
D r
de voted</w>
Ver sammlung</w>
ut ing</w>
ir ische</w>
Ein la
fre e
ba y</w>
wär ts</w>
ju dge</w>
reali ze</w>
unver zicht
wand els</w>
ves sels</w>
prohi bited</w>
dopp elt</w>
v acc
ul f</w>
En d</w>
ten der</w>
war ded</w>
Mar bella</w>
Coun try</w>
spor t
Jo int</w>
conver ted</w>
photograph s</w>
beschrei bt</w>
E ta
a sion</w>
in ery</w>
ein geladen</w>
ri gor
den a</w>
um fassen</w>
St ore</w>
ing ent</w>
Aus arbeitung</w>
Presi dents</w>
Dar fur</w>
Gre en
ehr ten</w>
radi o
künst ler
Köl n</w>
A y
B ungalo
J unior</w>
f ell</w>
l acking</w>
in quiry</w>
ti ll
ex qu
sti l</w>
Mar ok
sur vey</w>
Gre ens</w>
reser vieren</w>
Geschäfts bedingungen</w>
Grün buch</w>
beeinflus st</w>
koh är
Übersetz ungs
Abstimmungs stunde</w>
Lithu ania</w>
K lin
j i
an gle</w>
ab sch
pe ts</w>
gar anti
sc ore</w>
Mi lose
uner lässlich</w>
adju sted</w>
B A</w>
B om
p air</w>
w en</w>
rec ru
oh n
lea ther</w>
Institu t</w>
ref use</w>
nä he</w>
Universi täten</w>
Sar ko
than king</w>
begeg nen</w>
G allery</w>
en burg</w>
ar t
ver tritt</w>
Pro gram</w>
geb illi
Kon zer
Li ght</w>
Flü ge</w>
classi cal</w>
regre ttable</w>
weit aus</w>
Betra cht</w>
H ans</w>
J ob</w>
S S
V in
c at</w>
e de</w>
y ards</w>
ser vation</w>
aus wirken</w>
Ne tze</w>
indi re
Netz werk
Hum an
Tun isi
auslän dische</w>
listen ed</w>
Argent ina</w>
Simil arly</w>
es en
im pe
Re gar
über ein
lich ste</w>
win d
genu inely</w>
plan ung</w>
will ingness</w>
hy dro
visit or</w>
verzi chten</w>
Swimming pool</w>
rl pool</w>
an ten
An kün
Mit t
inform al</w>
ques tion
clo sure</w>
differ ently</w>
spec trum</w>
confi dent</w>
Abgeord neter</w>
Energie quellen</w>
CO N
Zim babwe</w>
accoun ting</w>
audi ence</w>
transi tional</w>
evalu ate</w>
cam eras</w>
Manhatt an</w>
P har
a wait</w>
au p
Con si
Poli zei
gele gene</w>
initi ally</w>
beru hi
post pon
gesell schaftlichen</w>
graf ischen</w>
feder al</w>
Besitz er</w>
einstim mig</w>
b ird</w>
e ge</w>
j k</w>
es ty</w>
de cke</w>
lo sing</w>
com position</w>
aus führen</w>
stri ke</w>
Inter face</w>
recei pt</w>
mechan ical</w>
Ausschü sse</w>
Mensch heit</w>
taxpa yers</w>
j emals</w>
l enst
Ä hn
in her
ein führen</w>
ent stand</w>
ta ste
än der</w>
Sch mer
isi tion</w>
eng ünsti
contro versi
Stu fe</w>
las sen
fal schen</w>
Einf ach</w>
Produc ts</w>
verab schieden</w>
preser ved</w>
medizin ische</w>
befürwor te</w>
Jes us</w>
Rechnungsh of</w>
H it
ge führte</w>
wer ks</w>
Ver ab
sa d</w>
ger inger</w>
Lei tung</w>
instru mente</w>
zusammen arbeit</w>
TE R
fail s</w>
cro w
Slo wen
sin cer
tau chen</w>
Mol da
Strei t
eist ungen</w>
Nordi c</w>
F RE
I stan
Sch luß
mar ine</w>
über sch
äl ter</w>
Um strukturi
To ol
govern ing</w>
Sa al</w>
Pal acio</w>
promis ing</w>
vent ure</w>
Studi os</w>
Gesprä ch</w>
Verg nügen</w>
IB M</w>
G 20</w>
f lash</w>
at tribu
de a
ec tive</w>
im per
den schaft</w>
Uni ons
pri mi
pi lot</w>
Zei tsch
Ra dis
camp ing</w>
territ ori
spie geln</w>
Bos nia</w>
rub ber</w>
splen did</w>
D op
c ely</w>
au ern</w>
po t
der ten</w>
ec ks</w>
da chte</w>
Lo dge</w>
chen e</w>
autom ation</w>
dri ves</w>
Indu stry</w>
fl ying</w>
descri bes</w>
Del uxe</w>
Secu rit
Fischerei politik</w>
Bl ut
läng erung</w>
Situ ated</w>
E specially</w>
P sy
t tern</w>
be teiligten</w>
ges to
tt i</w>
indi cators</w>
ange wiesen</w>
Kom pro
calcul ated</w>
Regu li
hi elten</w>
par a</w>
um so</w>
lei hen</w>
cu rement</w>
über mittelt</w>
Unter lagen</w>
Bau m
198 6</w>
justi fy</w>
DI N</w>
Termin al</w>
M ili
m men</w>
re tten</w>
ma gic</w>
ges tiegen</w>
St ur
Zu erst</w>
Proble m
erforder liche</w>
komple xen</w>
cat ering</w>
minim al</w>
Fl ori
oblig ator
nütz liche</w>
Betriebs system</w>
Mich el</w>
Word Press</w>
Trei ber</w>
telec ommunic
Souverän ität</w>
H ab
O EC
c ate</w>
e o
th ri
se t
ag nen</w>
pl au
unter breiten</w>
aff ili
bil der</w>
Dem o</w>
anzu passen</w>
Sol ar
Sy ria</w>
schul digen</w>
Behör de</w>
Chan ge</w>
sugges ts</w>
hom o
druck s
Bran chen</w>
palästinens ischen</w>
Tamp ere</w>
S ri</w>
e o</w>
ä um
st ur
ro se</w>
ver sehen</w>
Aus richtung</w>
Bes teu
Ex hi
mei ster</w>
kri eg
erklär e</w>
frequ ency</w>
post al</w>
Rahmen bedingungen</w>
thi op
Fernse her</w>
3 rd</w>
D ER</w>
E valu
k new</w>
di en</w>
ge kauft</w>
ed o</w>
Sch li
Ma ybe</w>
frei ght</w>
TE R</w>
198 5</w>
Plan eten</w>
schwer wie
Presse mit
Dri ve</w>
S ales</w>
d unk
der art</w>
ell i</w>
ke tten</w>
agre es</w>
ster ing</w>
Welt wirtschaft</w>
orienti erte</w>
K ey</w>
P K
Z erst
an en</w>
sch ar
ver größ
Vor gaben</w>
besch reiben</w>
Ter rit
essen ce</w>
continu ation</w>
Benutz ern
distin ction</w>
Anrei ze</w>
respe ktiert</w>
gehol fen</w>
Pfle ge</w>
Minim um</w>
J ar
r and
s ar
ro ws</w>
ra k
men tiert</w>
tu be</w>
Al ps</w>
Über gang</w>
gleich heit</w>
bor ne</w>
stück e</w>
Dom ain</w>
ernsthaf te</w>
authori zed</w>
B our
a j
f alling</w>
re alisieren</w>
te urop
con stra
mo vies</w>
sa ke</w>
br aries</w>
her bei
kom pon
ide ally</w>
har bour</w>
soli de</w>
Klima wandels</w>
Techni cal</w>
frequ ent</w>
ausreich ende</w>
steu er</w>
heal thcare</w>
Bug Tra
glück lich</w>
Radis son</w>
e ve</w>
p it
ö s</w>
ch enen</w>
der selben</w>
Re z
man s</w>
Li by
tt a</w>
up load</w>
vis its</w>
prepar ations</w>
integri ty</w>
Termin e</w>
genie ßt</w>
notic ed</w>
OEC D</w>
M ül
P V
T ok
b lin
ur er</w>
än ge</w>
äl tere</w>
Um satz</w>
Gu i
autom otive</w>
Sü dafrika</w>
Investi tion</w>
Spei cher</w>
refle ction</w>
Arbeit geber</w>
Intel li
BugTra q</w>
l ings</w>
m äh
ri ff</w>
sp lan
op ho
An bindung</w>
ür fen</w>
rel ate</w>
Fin den</w>
typ ischen</w>
Leb an
finanzi erung</w>
Bau ern</w>
ambi ence</w>
Col lege</w>
desi rable</w>
veran k
l or
m its</w>
te tes</w>
ac o</w>
se as</w>
ali ke</w>
Bes te
dr yer</w>
star kes</w>
develop s</w>
end sten</w>
grei ft</w>
kri tisch</w>
fest yle</w>
Steuer zahler</w>
chec king</w>
formu liert</w>
beur teilen</w>
H as</w>
ti gh
du al</w>
fi a</w>
stri ve</w>
struc tured</w>
[...]
