#version: 0.2
e n</w>
e r
i n
t h
c h
e n
e r</w>
a n
u n
t i
th e</w>
r e
s t
d i
o n</w>
a r
o n
l i
o r
e i
e s</w>
a l
r o
c h</w>
s i
i n</w>
e l
e s
d er</w>
i s
an d</w>
a u
o f</w>
a t
w i
e in
t o</w>
un d</w>
di e</w>
e d</w>
i s</w>
o m
a s</w>
in g</w>
r a
o u
d en</w>
r i
s ch
b e
a t</w>
d e
g e
a n</w>
a ti
a s
o r</w>
un g</w>
i t
u r
t en</w>
a l</w>
p o
t e</w>
g en</w>
a b
o l
a m
v er
u s
l e
t er
en t</w>
q u
o t</w>
l e</w>
en t
i t</w>
d er
t e
v e</w>
p ro
i e</w>
e h
a c
f ü
g e</w>
T h
l y</w>
s p
d e</w>
e c
v i
i ch
z u</w>
th at</w>
e t
ch en</w>
h i
e m
h r
f or</w>
om m
f f
v on</w>
ati on</w>
t h</w>
l o
ti on</w>
s u
qu ot</w>
c on
c e</w>
n e
is t</w>
i l
w er
s e</w>
f or
fü r</w>
ar e</w>
z u
ein e</w>
ro p
a r</w>
o p
t s</w>
m a
d es</w>
u rop
h a
g en
c i
u l
b e</w>
g i
s t</w>
m it</w>
au f</w>
ei n</w>
S t
b er
V er
a po
ei t</w>
wi th</w>
apo s</w>
d as</w>
b er</w>
e m</w>
Th e</w>
ch e</w>
E urop
i m
el l
a d
ich t</w>
ati on
e x
u t
s er
di es
l a
U n
un gen</w>
ou r</w>
d u
I n
d a
r u
s o</w>
t er</w>
ti on
c o
n o
si on</w>
f i
t a
c k
de m</w>
li ch</w>
p or
a h
c om
th is</w>
m o
s h
i m</w>
an d
w h
n en</w>
i e
l l</w>
a g
w or
a f
A n
s e
l d</w>
S ie</w>
u m</w>
as s</w>
wi r
s en</w>
o u</w>
w ei
z i
n icht</w>
al l</w>
t u
ä n
R e
b y</w>
n ot</w>
u m
wer den</w>
a p
w e</w>
r an
in d</w>
un g
g h
at e</w>
s o
er e</w>
w e
d en
ha ve</w>
d ass</w>
t ra
k e</w>
li e
p ar
al s</w>
si ch</w>
m ent</w>
w hi
g es
D ie</w>
p er
y ou</w>
ti m
re s
is chen</w>
a li
wi r</w>
h o
b u
w as</w>
ou ld</w>
wi ll</w>
a ch
m en</w>
au ch</w>
al l
ro m</w>
whi ch</w>
i r
S ch
t o
omm is
i ch</w>
t y</w>
B e
e b
in g
d o
au s
f rom</w>
m e
a ch</w>
P ro
er s</w>
ung s
P ar
t z
2 0
h ab
l u
s ind</w>
ent s</w>
ch t</w>
th er</w>
g t</w>
E n
ein er</w>
r ä
d s</w>
w en
wir d</w>
b es
l ei
A u
ü ber</w>
h al
t s
wi e</w>
ein en</w>
f in
p l
h as</w>
ur e</w>
e st
sch af
ö n
ou t</w>
i c
a hr
es s</w>
on e</w>
u r</w>
g an
ter n
s a
ab le</w>
i g
b ei
au s</w>
st en</w>
po li
i li
ge b
st ell
for m
ü r
e l</w>
A r
ommis sion</w>
s ol
I n</w>
c an</w>
v er</w>
te l</w>
o o
t en
e an</w>
B er
o der</w>
t ed</w>
i r</w>
H o
er t</w>
ou r
et z
g ra
v or
be i</w>
E r
re c
h at</w>
u s</w>
com p
e t</w>
D i
an n</w>
g u
a m</w>
eh r</w>
s ti
H er
d ent</w>
hab en</w>
w el
al so</w>
a k
li ch
an y</w>
Europ ean</w>
al ly</w>
ä r
m e</w>
d ur
t ri
20 0
us t</w>
e u
un d
A us
er en</w>
i on</w>
g r
er n</w>
s el
in e</w>
li chen</w>
g el
sch en</w>
m en
at ed</w>
it y</w>
s en
an t</w>
ti c
k ön
au f
si e</w>
m ö
l en</w>
e y</w>
j e
w a
or e</w>
si dent</w>
e p
it s</w>
tion s</w>
es e</w>
ar k
o h
p e
zu r</w>
te t</w>
g ro
m in
M it
v o
d ar
t r
gh t</w>
en d</w>
der n</w>
st a
du c
por t</w>
g er
ein em</w>
Un ion</w>
A l
D as</w>
co un
at es</w>
ation s</w>
E in
w ur
f t</w>
y st
w ar
po s
un ser
ti ve</w>
si on
ü n
y our</w>
re s</w>
d ing</w>
ver y</w>
A b
P re
f re
k ing</w>
a ge</w>
t ung</w>
o ff
er ung</w>
at en</w>
o b
m er</w>
t el
es t</w>
I ch</w>
k en</w>
is che</w>
be t
c k</w>
kön nen</w>
t ing</w>
li che</w>
c es</w>
ch n
p re
bu t</w>
k t</w>
an n
u p</w>
W e</w>
k eit</w>
m ore</w>
ar y</w>
f ol
an ce</w>
in c
V or
es s
as t</w>
F ra
ge h
st r
an der
1 9
z ei
0 0</w>
p res
b r
b o
p ri
am ent</w>
ti es</w>
ou s</w>
ch ti
v el
f er
c omm
ei r</w>
ch te</w>
v en</w>
w ould</w>
in ter
g er</w>
S p
ö r
i hr
th eir</w>
m it
s on
g h</w>
fü hr
c y</w>
g n
l an
p p
k omm
En t
ar i
M a
n ach</w>
u b
h er
s sen</w>
be en</w>
st e</w>
g re
eh en</w>
Europ ä
t ei
zu m</w>
un s</w>
Th is</w>
st ri
h in
t re
dies e</w>
I t</w>
W ir</w>
w n</w>
e g
m an</w>
dur ch</w>
E U</w>
ü ber
n ur</w>
p r
G es
f ac
o ther</w>
n e</w>
v or</w>
sp ec
M r</w>
a d</w>
as e</w>
e ar
di s
i el
v ol
K on
por t
b le</w>
i h
sh ould</w>
ne u
m p
k ann</w>
b en</w>
k l
t ro
am e</w>
d o</w>
d ed</w>
st ru
a re
g o
b t</w>
D er</w>
f en</w>
un ter
i c</w>
l in
b le
m ü
t w
k s</w>
ei ten</w>
h e</w>
si ch
en ce</w>
schaf t</w>
G r
a v
em ber</w>
dies er</w>
P rä
ac c
or d
no ch</w>
k on
C ommission</w>
f u
i st
s ec
s om
en s</w>
as s
or t</w>
w ä
E s</w>
tim e</w>
m ust</w>
m on
b i
C o
us s</w>
m u
is e</w>
G e
da ß</w>
ation al</w>
en s
sch e</w>
ü ck
da y</w>
f e
t ä
h eit</w>
er i
K ommission</w>
v es</w>
al e</w>
m ark
th ey</w>
m an
th ere</w>
l t</w>
ge m
l ä
ne w</w>
w ar</w>
P o
s yst
ci al</w>
m s</w>
no w</w>
ar d</w>
or i
n ah
g ung</w>
li ke</w>
on ly</w>
st at
wur de</w>
ol o
l ung</w>
ing s</w>
ges ch
f o
e ff
Ho tel</w>
b en
j ec
Pre sident</w>
Her r</w>
ut z
ab er</w>
in n
wi ck
c re
h e
t n
t ran
F or
l and</w>
m ents</w>
ab out</w>
al en</w>
pro duc
el t</w>
an t
wor k</w>
wen n</w>
s ein</w>
poli ti
fi r
9 3</w>
gra m
9 1</w>
y s</w>
I h
ri t
eh men</w>
im mer</w>
s ehr</w>
eh r
on g</w>
c ri
mü ssen</w>
w s</w>
in tern
ü tz
en d
le g
D e
de t</w>
al le</w>
Mit g
wa y</w>
ein es</w>
tim m
u t</w>
Au f
el y</w>
Par l
ac e</w>
qu i
ub li
sp e
v en
d ung</w>
th ese</w>
ra l</w>
an s</w>
th o
er n
Z u
J ahr
wh o</w>
b a
au se</w>
con c
f ahr
n o</w>
am p
ch an
m ehr</w>
us am
for e</w>
en den</w>
po si
ber ei
re d</w>
S o
wi th
on der
m er
i d</w>
p le
i f</w>
or s</w>
v ed</w>
ne t</w>
dies em</w>
su p
re gi
de vel
z w
a ff
re g
r e</w>
con t
ati ve</w>
op le</w>
t es</w>
Mitg lie
ser vi
mo st</w>
wei ter
M en
di es</w>
I hr
Re gi
th er
1 0</w>
ili ty</w>
oo d</w>
m any</w>
U m
pro vi
re ich
is ch
t ur
f ra
re l
komm en</w>
h and
s etz
ß en</w>
d r
Europä ischen</w>
C h
mö g
h ei
in form
m i
li ament</w>
sti tu
M o
im port
wer e</w>
r on
f e</w>
st eh
k te</w>
vi e
B es
Europ e</w>
g lei
g es</w>
un der
h er</w>
d a</w>
com e</w>
us e</w>
d es
Par liament</w>
w is
in to</w>
pro c
em ent</w>
pe ople</w>
el le</w>
su ch</w>
on om
lo c
at ing</w>
sol l
g keit</w>
op er
v ing</w>
ar bei
m y</w>
l as
wel l</w>
l au
b is</w>
ro u
i l</w>
em p
sch ie
C on
wh at</w>
ation en</w>
ä l
si ble</w>
su b
e urop
n i
p ubli
h el
Un ter
devel op
mö chte</w>
re ch
st än
u p
ri e
c tion</w>
M e
fu l</w>
in i
G er
p a
di ff
ti gen</w>
li c
do ch</w>
c ent
In ter
St ates</w>
vi el
un ter</w>
o m</w>
z en</w>
te chn
f a
tri es</w>
hal ten</w>
l ar
it e</w>
spec i
Co un
d am
th an</w>
re port</w>
usam men
st ütz
c c
m at
M ember</w>
ti g</w>
inc lu
wi chti
stell en</w>
il li
en n
be c
coun tries</w>
t or</w>
s er</w>
vo m</w>
c le
Prä sident</w>
h is</w>
wh en</w>
or y</w>
un i
s ch</w>
europ ä
ag a
an k</w>
tion en</w>
ne ed</w>
gi bt</w>
en de</w>
Mitglie d
w oh
ci l</w>
po in
Ü ber
st and
re i
ihr e</w>
fir st</w>
f un
ell en</w>
som e</w>
b re
b ie
B ei
l es</w>
l at
b ar
Coun cil</w>
so wie</w>
ec onom
a st
geb en</w>
si s</w>
si gn
di rec
z e</w>
in u
k ti
C omm
ge t</w>
ho tel</w>
s k
O r
tic al</w>
w er</w>
etz t</w>
L i
dies es</w>
c ol
sch lie
ma ke</w>
am en</w>
th em</w>
2 4</w>
we en</w>
ag re
gh ts</w>
ap p
de ut
zw ischen</w>
N o
bes onder
p h
stell t</w>
for m</w>
in s</w>
at eg
import ant</w>
th ing</w>
m ent
el l</w>
bet ween</w>
ver n
h ere</w>
f ul
i en</w>
sh o
Q u
ein g</w>
ac k</w>
st ar
den en</w>
b eit</w>
syst em</w>
en g
ta ke</w>
ali ty</w>
hal b</w>
ac k
o ver</w>
t schaf
ra ti
pro pos
j o
Ent wick
ex c
hi er</w>
l er</w>
g y</w>
bec ause</w>
Mitglied sta
r ü
e v
per i
tä t</w>
c ul
ch ten</w>
for der
ex p
pro ble
ie l</w>
wh ere</w>
b in
P er
Ar bei
s ame</w>
y p
en er
st er</w>
y e
b ar</w>
st e
i de
k o
m uss</w>
h en</w>
Ber icht</w>
n at
t ure</w>
m is
fin an
n ec
w al
i es</w>
en ti
sp on
eb en</w>
wi e
ear s</w>
en n</w>
s es</w>
sion s</w>
H au
unser e</w>
st s</w>
w ür
ge gen</w>
fi c
Parl ament</w>
k eine</w>
ma de</w>
z ah
j ust</w>
J ah
re as
inform ation</w>
on s</w>
l ine</w>
ä ch
R o
ß e</w>
y ing</w>
Ber ei
in di
c u
or gan
tw o</w>
K o
F in
x t</w>
Ih nen</w>
si den
E x
S e
t lich</w>
or der</w>
un den</w>
a il
s hi
ha d</w>
S er
k tion</w>
M on
e d
i ge</w>
ö ff
y ears</w>
Mitgliedsta aten</w>
th rou
z eu
s m
c an
s at
fin den</w>
l l
sup port</w>
r is
si ve</w>
eu te</w>
ander en</w>
Ges ch
me di
I f</w>
it ä
wor ld</w>
L än
In form
ri ght</w>
r en
is su
Pro du
p f
F re
tho se</w>
aus ge
o k
n um
M ar
re spon
l än
ä tz
steh t</w>
Europ a</w>
re ad
ul ar</w>
er te</w>
lo w</w>
s c
f ten</w>
wir k
ta in</w>
le tz
schlie ß
Pro ble
si te</w>
wä hr
wei se</w>
Z usammen
2 0</w>
we ver</w>
tion al</w>
19 9
f ri
tr y</w>
lich keit</w>
b eing</w>
k eiten</w>
tra g</w>
W ir
et s</w>
un ity</w>
ä u
r au
ti ge</w>
be g
n ung</w>
W enn</w>
pro gram
er k
om s</w>
el e
poli cy</w>
d ann</w>
ap pro
am p</w>
Vor sch
an ge
c al</w>
par tic
W ei
con si
sch ei
g s</w>
B o
u n</w>
be lie
g a
f f</w>
il l
an g</w>
en en</w>
c lo
p la
i ce</w>
m al</w>
c ar
B et
T e
at er</w>
ent ly</w>
ge ment</w>
f all
n ach
st ehen</w>
dies en</w>
ä f
g ab
nah men</w>
ma y</w>
I m</w>
dam it</w>
pl ace</w>
em s</w>
diff er
le v
par t</w>
k e
te e</w>
B u
ß er
e ven</w>
N ach
se e</w>
lo b
de ci
d at
ter s</w>
wur den</w>
si tu
ye ar</w>
de mo
vie w</w>
gem ein
G ro
e fore</w>
N e
u ri
s ur
u res</w>
Fra u</w>
c our
c er
t t
c ur
p en
us ed</w>
ro om</w>
h um
g ood</w>
w ing</w>
la ge</w>
pos sible</w>
res s</w>
st ra
s ed</w>
th en</w>
T ei
st and</w>
St a
lo o
Di ese</w>
Z eit</w>
o s</w>
are a</w>
K ol
ä h
ec t</w>
in v
h ol
st au
as ed</w>
un kt</w>
om p
B ür
Po li
ou gh</w>
jec t</w>
n is
W e
u tion</w>
G eb
d an
ch ar
publi c</w>
st an
w är
o wn</w>
es ti
ho w</w>
Her r
t ungen</w>
ac t</w>
unser er</w>
woh l</w>
gen er
g ar
ar ly</w>
s ei
ta in
qu es
comp le
S ich
ff en</w>
f ur
ä hr
Ihr e</w>
G em
bes ch
hab e</w>
f as
Un tern
R ich
i a</w>
re su
pro te
mark et</w>
a u</w>
us in
gen en</w>
li ck</w>
son dern</w>
er ten</w>
b il
de l</w>
al le
throu gh</w>
sp iel
s eine</w>
T a
Y ou</w>
le gen</w>
5 0</w>
t ly</w>
af ter</w>
ou se</w>
je doch</w>
g ri
M in
d ra
S u
Europä ische</w>
c or
in ce</w>
al u
h ar
st o
f am
in du
p er</w>
in k</w>
ci p
S yst
0 00</w>
i gen</w>
t lichen</w>
st er
poli tical</w>
sel f</w>
F ü
M ark
g ent
w n
neu e</w>
qu e</w>
et y</w>
el n</w>
p ra
econom ic</w>
A s</w>
h eute</w>
Men schen</w>
in gen</w>
h ö
k un
et t
F ran
un der</w>
ag es</w>
p s</w>
1 24</w>
s or
stän di
en z</w>
Ä n
gel e
br au
si de</w>
ic al</w>
ge gen
Th ere</w>
stau ran
a ir
c ould</w>
ommis sion
develop ment</w>
B il
3 0</w>
fahr en</w>
ri ghts</w>
s on</w>
with in</w>
stru c
tran s
R ei
w ant</w>
de b
in st</w>
W or
ö s
read y</w>
si b
st u
sel b
Jah r</w>
ter n</w>
on en</w>
ch er</w>
europä ischen</w>
tran sp
Än der
bes ser
sch n
n t</w>
el d</w>
F or</w>
berei ts</w>
we i</w>
geh en</w>
f l
be d
av ail
Pro gram
T o
L ei
per son
hi st
ou s
bu il
D at
pr in
ri ch
ß nahmen</w>
Gr und
Sich er
geh t</w>
unter stütz
aga inst</w>
i z
se t</w>
ö l
es en</w>
bo th</w>
omm en</w>
s h</w>
th re
w ol
las sen</w>
m ich</w>
ab ility</w>
coun try</w>
mu ch</w>
U S
ti k
f ind</w>
ther efore</w>
ihr er</w>
mit tel
poin t</w>
oh ne</w>
go vern
c ap
Gem ein
in s
intern ational</w>
t lin
e ti
ad t</w>
neu en</w>
g o</w>
soll te</w>
c t</w>
b ur
ber s</w>
s s</w>
for t
en th
el s</w>
t om
führ t</w>
i er
vi ron
Jahr en</w>
ge w
M ö
hi gh</w>
t liche</w>
be k
L o
en z
do es</w>
servi ce</w>
st re
ver schie
k tion
ander e</w>
v ari
R at</w>
lich er</w>
S it
la g</w>
lie gt</w>
f il
h än
Z ei
g lich</w>
L u
fre e</w>
l a</w>
politi k</w>
P ri
öff ent
k t
cont inu
R i
so ci
gr ö
f le
d ri
T ra
ti al</w>
with out</w>
qu ality</w>
it tee</w>
dur ch
ation alen</w>
z wei</w>
gan z</w>
Bes ch
cle ar</w>
ol d</w>
d re
ma chen</w>
me as
l and
Entwick lung</w>
in stitu
stell ung</w>
it ed</w>
ne e
om e</w>
ar ds</w>
servi ces</w>
Fra ge</w>
Fin an
Re ch
num ber</w>
l ast</w>
reich en</w>
gre at</w>
wir tschaf
soll ten</w>
B ar
der s</w>
all en</w>
oper ation</w>
St r
bie tet</w>
be wer
Ber ich
usin ess</w>
C hin
al o
b el
posi tion</w>
f est
is ti
k ten</w>
sti ll</w>
de m
ant wor
wa ys</w>
d ru
in nen</w>
f tw
te m
k re
l ong</w>
ou t
ftw are</w>
avail able</w>
k no
so cial</w>
1 5</w>
fac t</w>
sa y</w>
n te</w>
re qui
f ut
c ed</w>
as si
ro oms</w>
ra p
lei st
differ ent</w>
s ehen</w>
k es</w>
1 2</w>
t schaft</w>
chan ge</w>
d y</w>
ru pp
k now</w>
en e</w>
besonder e</w>
at te</w>
z us
E in</w>
c ity</w>
D ur
el ec
G o
z ur
i ci
sat z</w>
M it</w>
ent sp
l ess</w>
fin det</w>
cur r
st al
l ungen</w>
führ en</w>
shi p</w>
pres ent
g lob
g n</w>
di tion</w>
est s</w>
ul ation</w>
tu ral</w>
n er</w>
N or
ck en</w>
z wei
cu st
f ast</w>
t yp
la gen</w>
Mö g
viel e</w>
su m
conc ern
on d</w>
it al</w>
A m
vi du
am ent
D a
y n
e f
h ä
cour se</w>
li m
en viron
si cht</w>
T er
al ready</w>
wei l</w>
ra tion</w>
emp lo
belie ve</w>
be fore</w>
z ent
fut ure</w>
al t</w>
an ti
hi gh
W elt</w>
sich er
olo gi
in ten
pri v
ein f
i g</w>
n ehmen</w>
ali si
Untern ehmen</w>
to o</w>
da zu</w>
In tern
r y</w>
Di es
en st
M an
t al
fi ed</w>
ep t</w>
au th
den n</w>
wä h
m ar
b ri
f t
ut es</w>
ur o</w>
to day</w>
k ur
z eit</w>
K in
m ei
f er</w>
T re
in te
produc ts</w>
D es
ent wick
l ed</w>
B a
w o</w>
c ase</w>
j etzt</w>
wie der</w>
Th em
kl är
con tro
C ommission
Th at</w>
R ah
D em
ma in</w>
uri ty</w>
h op
l ungs
b oo
200 9</w>
ac ti
t ors</w>
lev el</w>
s einer</w>
amp le</w>
h in</w>
som e
zi eh
D o
dat a</w>
c a</w>
s ing</w>
T ran
gan g</w>
k an
En er
b al
proc ess</w>
th ink</w>
l er
co m</w>
R us
s am
can not</w>
p rä
su cc
D is
dar auf</w>
ali tät</w>
nah me</w>
L age</w>
ti z
s af
Inform ationen</w>
eff ec
v alu
e ver
vi ce</w>
grö ß
Berei ch</w>
olo g
so zi
gen ommen</w>
ar beit</w>
im m
I s
a gement</w>
k er</w>
ge stellt</w>
ful ly</w>
H in
is ch</w>
Ma ßnahmen</w>
is m</w>
se ar
p ut</w>
no v
isch er</w>
W eb
em ents</w>
indi vidu
si gn</w>
c ra
H and
A d
ein ige</w>
S a
t rä
tr au
hum an</w>
sa gen</w>
sch on</w>
off ers</w>
t wen
selb st</w>
sch en
en te</w>
p ur
p ec
fall s</w>
da für</w>
at ely</w>
ma cht</w>
a b</w>
em bers</w>
M i
F o
ommis s
ges am
n ational</w>
ad v
im pro
at e
itä t</w>
w in
Commission er</w>
Herr n</w>
situ ation</w>
re spec
eb en
1 1</w>
St ra
at s
im ple
o b</w>
ma j
m ir</w>
k a</w>
glei ch
B ut</w>
Me di
dur ing</w>
Aus sch
bes t</w>
K ommiss
si c</w>
sp ra
tra gen</w>
St and
min ist
i er</w>
k ed</w>
o ver
twen di
ch il
et er</w>
c all
ol l
in ing</w>
S o</w>
ih r</w>
pro f
sm all</w>
mög lich</w>
st är
l ü
a de</w>
finan cial</w>
f äl
am ents</w>
n is</w>
ihr en</w>
g ed</w>
bu d
vel y</w>
alle m</w>
ab li
n or
Jahr e</w>
sa id</w>
b in</w>
P al
cust om
n ing</w>
ah l</w>
vi el</w>
ver k
b ro
or en</w>
zei ch
is h</w>
gen d</w>
ver si
Ar beit</w>
issu e</w>
ach ie
deb ate</w>
me ans</w>
y ment</w>
inclu ding</w>
p i
v e
tel s</w>
m eine</w>
ex ample</w>
t sch
z el
G u
propos al</w>
app lic
m ul
S te
ex peri
ili t
U S</w>
t t</w>
war d</w>
e very</w>
pro du
A ll</w>
dis c
t sp
ques tion</w>
con di
si mp
gen den</w>
te xt</w>
fi c</w>
b it
s ince</w>
kun ft</w>
R es
wor den</w>
g ing</w>
s timm
ti g
is l
V i
S ei
th ough</w>
res ol
E ine</w>
gu t</w>
a z
b usiness</w>
m a</w>
Di es</w>
ver fü
wol len</w>
hei ts
lu g
nec ess
o l</w>
L and</w>
es sen
ar t</w>
t ru
ti k</w>
Ho wever</w>
O ur</w>
wür de</w>
unser en</w>
hel p</w>
i ly</w>
b ased</w>
leg al</w>
F ir
Ver ein
b ack</w>
or ity</w>
ten s</w>
e ach</w>
c l
Arbei ts
tu r</w>
ta ken</w>
Per son
W i
c um
W el
de u
ü h
acc ess</w>
ac tion</w>
ad op
d el
ti n</w>
de fin
L and
u al</w>
N at
ti c</w>
es sen</w>
al th</w>
st en
m or
ann t</w>
partic ular</w>
bes timm
J u
us e
Comm ittee</w>
ci tiz
off er</w>
z un
Fü r</w>
k om
ge t
al y
proble m</w>
illi on</w>
vi si
Hau sh
e k</w>
in st
ä hi
k ün
en ces</w>
par tn
b an
ig er</w>
col le
olo gy</w>
Te chn
br ingen</w>
Z immer</w>
Inter net</w>
Pro je
ili ties</w>
ar t
g ar</w>
thre e</w>
währ end</w>
et was</w>
L ös
di g
se l</w>
lich keiten</w>
setz ung</w>
ar o
f eh
sear ch</w>
De ut
lar ge</w>
comm on</w>
re qu
L e
x i
at s</w>
bie ten</w>
gi ve</w>
meas ures</w>
are as</w>
ne xt</w>
Ar t</w>
U r
ut z</w>
ac coun
Rech ts
str y</w>
al er</w>
ever y
re m</w>
aff en</w>
pres ent</w>
organ is
A ut
s si
war en</w>
Län der</w>
n un</w>
der ung</w>
di re
Un d</w>
B eh
G re
fe w</w>
ener gy</w>
stauran t</w>
ä m
spe zi
it h</w>
W ie</w>
agre ement</w>
Unter stütz
ch es</w>
f ar</w>
de li
C ent
est abli
d ings</w>
whi le</w>
ins besondere</w>
in de
M u
ß t</w>
sp re
O n</w>
loc ated</w>
necess ary</w>
provi de</w>
rec ei
1 8
ci es</w>
20 10</w>
citiz ens</w>
er fol
s ure</w>
ie t</w>
geh ör
a k</w>
Chin a</w>
z ü
por ts</w>
p as
sch ri
om en</w>
hist or
K om
k tionen</w>
ord nung</w>
ver wen
fo re
w ach
lo s</w>
al ten</w>
er halten</w>
p unkt</w>
ver b
sib ility</w>
d ungen</w>
u e</w>
us ing</w>
F un
fol lo
ens ure</w>
s eit</w>
li fe</w>
M ad
be gr
L a
s y
P or
ür lich</w>
comp any</w>
ges etzt</w>
Be d
d ge</w>
sch ein
as k</w>
Um wel
et ing</w>
n ten</w>
Änder ungs
aga in</w>
Ver fü
hi l
all er</w>
syst ems</w>
s se</w>
li cht</w>
d ate</w>
200 8</w>
k ey</w>
Parl aments</w>
Rah men</w>
op p
f und
tra di
sec urity</w>
H il
hal f</w>
g s
wh e
t ungs
n ess</w>
nis se</w>
v öl
St u
e qui
m ä
w es
2 5</w>
w o
inc reas
f an
proble ms</w>
er sten</w>
w an
ul arly</w>
vol l
Unterstütz ung</w>
fur ther</w>
sh all</w>
sch er</w>
h eiten</w>
op port
au tom
ie der
po p
arbei ten</w>
j u
ol e</w>
tro l
N amen</w>
ti eren</w>
Men schen
W in
Zusammen arbeit</w>
ass ung</w>
T ur
i eren</w>
pra c
at t
n et
d u</w>
Tei l</w>
f te</w>
comp an
ation s
mo der
vo te</w>
se qu
m m
B el
Gro up</w>
Hau p
comp eti
si a</w>
gi ven</w>
ag t</w>
Län dern</w>
G ar
B r
c ou
politi schen</w>
re al</w>
Rich tlin
ti ce</w>
si chti
lei ch
al lo
M r
bei m</w>
Ver k
z o
h ear
utz en</w>
ul es</w>
Vorsch lag</w>
V ol
in vol
setz en</w>
y er</w>
ti l</w>
D ar
A mer
ob jec
i zi
war ds</w>
wh y</w>
S k
consi der
ho wever</w>
un de</w>
t z</w>
li ght</w>
d i</w>
j a</w>
F all</w>
sol l</w>
L eb
Amer ic
de st
la w</w>
zu g</w>
be steht</w>
co operation</w>
F ol
gro up</w>
sta y</w>
ec k</w>
I N
gr und</w>
ge ther</w>
O p
D eb
z ep
con nec
do wn</w>
is h
T o</w>
con su
th e
Bür ger</w>
di d</w>
Un i
en nen</w>
ven tion</w>
O n
lo ssen</w>
am end
si tz
En g
ch o
le a
B en
führ ung</w>
tu n</w>
our s</w>
d ly</w>
St adt</w>
K ar
is m
sa m</w>
Syst em</w>
ru m</w>
gab e</w>
W ith</w>
h au
leg isl
ous ly</w>
al ways</w>
wis sen</w>
Z iel</w>
ri chti
in t</w>
der en</w>
gen de</w>
er ungs
Pro z
en ten</w>
nee ds</w>
G en
wor king</w>
Or gan
ha pp
einf ach</w>
at ten
ful l</w>
vie ws</w>
Th ey</w>
g lau
cul tural</w>
ini ti
der t</w>
den ti
An wen
s einen</w>
ap pe
W ar
mat eri
b lei
Gesch äf
dre i</w>
str ateg
Fra gen</w>
st ate</w>
dr en</w>
Un ited</w>
wichti g</w>
es sion
Be i</w>
pl an
L an
imple ment
O b
hop e</w>
d lich</w>
i ert</w>
e p</w>
produc tion</w>
f ung</w>
Prä siden
ein mal</w>
l us
F am
k m</w>
m ehr
wel che</w>
in a</w>
A t</w>
sp iel</w>
as es</w>
A f
E uro</w>
f lo
Par tn
G i
pl ac
li n</w>
gu ar
ter stat
Proble m</w>
st ance</w>
da ys</w>
par ti
ma in
o d</w>
H ouse</w>
Sei te</w>
wär e</w>
e i</w>
bet ter</w>
dar f</w>
Kol legen</w>
tei l</w>
ess es</w>
is ed</w>
Comm unity</w>
S ec
por te
letz ten</w>
1 00</w>
da bei</w>
re co
ett bewer
ir d</w>
or ts</w>
An d</w>
Ent schei
R u
indu stri
fer ence</w>
tim es</w>
T ex
M illi
be tri
US A</w>
E U
es se</w>
se ver
b au
gab en</w>
tre ten</w>
op en</w>
Wir tschaf
aro und</w>
th em
ä mp
im p
E R
1 3</w>
prote ction</w>
y ed</w>
ge führt</w>
ti ert</w>
In stitu
li ed</w>
gen heit</w>
D aten</w>
in e
200 7</w>
Re cht</w>
re chte</w>
l ing</w>
po wer</w>
ent fer
W hat</w>
de c
B i
ad d
ma king</w>
t on</w>
r än
Fra ktion</w>
to gether</w>
W oh
W er
M ein
s ing
gro ßen</w>
zei gt</w>
Be deut
p ack
gro ße</w>
r ise</w>
t an
m es</w>
ing ungen</w>
Z iel
t te</w>
program me</w>
en jo
V iel
K re
schaf ten</w>
sp ar
in es</w>
ment al</w>
ü ck</w>
w are</w>
r a</w>
g ern</w>
pl at
R ol
komm t</w>
K ri
o cc
curr ent</w>
str eng
i ma
Haush al
Sp iel
g än
our ces</w>
pr ü
ur y</w>
Mr s</w>
Au f</w>
resu l
hän gi
speci al</w>
W as</w>
ter ms</w>
s ha
un ic
or ig
for t</w>
Verfü gung</w>
h and</w>
C O
E r</w>
ab o
li g
f ör
Sicher heit</w>
Er geb
ein zi
wei ter</w>
tra de</w>
Bedeut ung</w>
de ta
E u
G ener
st ed</w>
O ff
st ä
r o</w>
regi on
200 0</w>
ex tre
Sit u
Ih r</w>
whe ther</w>
tei l
E ben
inn er
ou th</w>
ic ul
be come</w>
c o</w>
partic ularly</w>
cent re</w>
go ing</w>
en zen</w>
Th ese</w>
I ra
ori ties</w>
zur ück
Mög lichkeit</w>
4 0</w>
disc us
h r</w>
s s
man agement</w>
w ed</w>
ut er</w>
v al</w>
pro mo
h an
diff icul
ta li
l ab
ba sis</w>
an other</w>
a ir</w>
cer tain</w>
chil dren</w>
th s</w>
au ßer
tra c
1 8</w>
be l</w>
W hen</w>
comm it
schließ lich</w>
Berich terstat
at h</w>
N ach</w>
W o
ff e</w>
ig n</w>
loc ation</w>
ex pres
ran ge</w>
rap porte
m et
we b
f ähi
r or
bur g</w>
ser v
su pp
loo k</w>
Au ch</w>
0 0
mu ß</w>
hand elt</w>
no twendi
L ie
resu lt</w>
af f</w>
H e
glei ch</w>
sec ond</w>
con tri
n äch
F rau
condi tions</w>
at or</w>
gro ß
ei genen</w>
i ti
k ri
ar ch
gen e</w>
p age</w>
Sta aten</w>
er mög
rü h
F ahr
x im
d lichen</w>
t able</w>
1 4</w>
regi on</w>
6 0</w>
issu es</w>
F lug
ti gt</w>
T i
Al s</w>
al es</w>
t al</w>
ell schaft</w>
A ber</w>
all es</w>
w ater</w>
P lat
in f
Regi erung</w>
pf lich
Them a</w>
r in
all er
L is
k ra
er forder
di o</w>
E le
Ser vice</w>
Ener gi
Ger man</w>
G ra
Z ent
G ä
Kommiss ar</w>
da von</w>
w ahr
In du
R om
gre i
er ing</w>
ex ten
dar über</w>
tur n</w>
Proble me</w>
b or
z er
es pec
i fic
w eit</w>
C ar
do m</w>
we gen</w>
contro l</w>
g ress</w>
da her</w>
ge ord
com ing</w>
ich te</w>
y o
compan ies</w>
lo s
w omen</w>
ro le</w>
ff t</w>
An t
deci sion</w>
clo se</w>
K unden</w>
u te</w>
ent schei
Wei se</w>
ro ss</w>
Fam ili
so li
k ein</w>
experi ence</w>
vari ous</w>
be au
guar an
espec i
c el
A T
wi de</w>
establi sh
so wohl</w>
indu stry</w>
fi zi
sa ge</w>
ser i
wh ole</w>
sel ves</w>
ism us</w>
ex ist
b lick</w>
weiter e</w>
1 6</w>
Finan z
Poli tik</w>
Ar tik
ord in
p t</w>
Di enst
be findet</w>
he alth</w>
com es</w>
d ou
de sign
n on</w>
sec tor</w>
su chen</w>
ge l</w>
wei sen</w>
especi ally</w>
h ör
t a</w>
A R
kön nte</w>
t or
v is
mo dern</w>
Ihr er</w>
er reichen</w>
di stri
in nov
at y</w>
ir e</w>
call ed</w>
go ti
K un
re ally</w>
h atte</w>
B ri
a si
s amen</w>
loc al</w>
m einer</w>
f ar
an zu
mat ter</w>
en ter
wor k
h ang</w>
z ed</w>
besonder s</w>
J un
zi ehen</w>
entsp rech
Min ist
lie gen</w>
P ra
wor d</w>
o th
d one</w>
En de</w>
n ame</w>
ver sch
accoun t</w>
il s</w>
t ten</w>
ell ent</w>
wis h</w>
f av
l en
l uss</w>
speci fic</w>
in stru
wirk lich</w>
ing t</w>
L in
respec t</w>
priv ate</w>
m b
G rupp
C omp
le ben</w>
Bei spiel</w>
e k
de f
bud get</w>
ih nen</w>
In v
Zu kunft</w>
Richtlin ie</w>
m ati
inv est
rit te</w>
200 6</w>
d on</w>
vi sion</w>
verschie denen</w>
nat ürlich</w>
un ser</w>
Mit tel
are d</w>
do cum
ne ten</w>
unterstütz en</w>
ak tu
th ird</w>
In di
ation ale</w>
ch en
i si
c li
govern ment</w>
prof ession
gele gt</w>
po se</w>
cre ate</w>
inner halb</w>
ab hängi
ne goti
b lo
re search</w>
vi l
Haup t
fac e</w>
W ähr
ab ly</w>
entfer nt</w>
g l
A fri
A N
W ettbewer
st aff</w>
ö h
tim men</w>
B al
fe at
lan gu
f y</w>
viel en</w>
gegen über</w>
w a</w>
K li
zah l
spre chen</w>
le ase</w>
A t
inc re
finan zi
es sion</w>
n am
us er</w>
ti gung</w>
m il
re li
ak ti
fü l
For sch
Ger many</w>
R ück
Gr ün
qu ali
Rol le</w>
i k</w>
her vor
s ön
gr und
B an
so ftware</w>
mer k
star t</w>
l s</w>
z war</w>
gu e</w>
des sen</w>
sing le</w>
K ul
N utz
re duc
k rati
ell er</w>
We g</w>
Frau en</w>
intern ationalen</w>
maj or</w>
acc ep
k ul
r ate</w>
emplo yment</w>
pro ject</w>
ac i
ter m</w>
some thing</w>
and s</w>
S eiten</w>
m illion</w>
em e</w>
ab ili
o ff</w>
li st</w>
ver s
it self</w>
19 8
en cy</w>
at ten</w>
in tro
c ally</w>
t ation</w>
autom ati
sever al</w>
ra cht</w>
a way</w>
a in</w>
mö chten</w>
ta ge</w>
ori es</w>
b l
Indu stri
ali s
ei cht</w>
rapporte ur</w>
resol ution</w>
ges t</w>
ger ich
Leb ens
dru ck</w>
fo und</w>
glob al</w>
tt le</w>
um fas
bre ak
continu e</w>
F u
or ding</w>
spra che</w>
ol s</w>
st ei
är e</w>
kno wn</w>
f el
reg ard</w>
Ta g</w>
ad ing</w>
E N</w>
un tern
geb o
d ort</w>
n ich
Ihr en</w>
vi a</w>
B au
mä ß
d ür
gent le
N o</w>
europä ische</w>
ti schen</w>
u tions</w>
stimm ung</w>
I m
f ron
op en
H ei
su ff
wn lo
adv an
jec ts</w>
ati ven</w>
ta king</w>
pr o</w>
er a</w>
w th</w>
on n
to wn</w>
ti ves</w>
lich es</w>
reg ul
Ho tels</w>
ck s</w>
me work</w>
dire kt</w>
politi sche</w>
ec ted</w>
an s
le ast</w>
I tali
ver sion</w>
b s
ge währ
T V</w>
par t
gener al</w>
to p</w>
v ement</w>
on ds</w>
Dem ok
et c</w>
si schen</w>
oo l</w>
EU R</w>
J e
follo wing</w>
le t</w>
N eu
J an
den ce</w>
gentle men</w>
Ne w</w>
f all</w>
o ften</w>
an der</w>
ati ves</w>
exc ellent</w>
transp ort</w>
b ut
fam ily</w>
Re gel
n ei
an y
E mp
as y</w>
K omm
p ho
h under
gra tion</w>
il t</w>
ur ch</w>
er ste</w>
z usammen
c ing</w>
auf ge
ein zu
Artik el</w>
cri sis</w>
land s</w>
stru k
parti cip
s ci
H e</w>
i an</w>
f ood</w>
F il
bre it
So ftware</w>
r ules</w>
ben ef
cul ture</w>
d ungs
op tim
direc tive</w>
wor ks</w>
fi eld</w>
W est
I I</w>
ein zel
Geschäf ts
en der</w>
Sp ra
gr ün
Ges und
person al</w>
er st</w>
dr ück
ah n
eh men
S pe
lan g</w>
itä ten</w>
on ce</w>
b is
E C
sub ject</w>
me tho
on es</w>
re present
Ch ar
on line</w>
o d
in ed</w>
Program m</w>
tr on
fic ation</w>
H ar
pri ce</w>
l on
mon ey</w>
sich tlich</w>
H ier</w>
conc lu
environ ment</w>
Al le</w>
per form
Ver brau
ge f
di sp
t our
ver s</w>
bu tion</w>
acti vi
w le
ab sol
wel come</w>
Mit tel</w>
in o</w>
Mein ung</w>
U m</w>
er ungen</w>
to wards</w>
E N
z a</w>
tu al</w>
verschie den
w ri
li g</w>
li gen</w>
m ilit
reco gn
Ab geord
wie der
li ttle</w>
P ol
Deut sch
comm unic
e di
th ings</w>
dan ken</w>
rit ten</w>
li es</w>
1 7</w>
Sp an
Wor ld</w>
m el
fra ge</w>
K ur
E S
tic s</w>
hi m</w>
kti v
sp r
st ing</w>
aus sch
Situ ation</w>
o un
produc t</w>
p hi
un til</w>
for ward</w>
1 9</w>
Ste u
institu tions</w>
ges agt</w>
g sten</w>
S el
U hr</w>
ach t</w>
auf en</w>
stat t</w>
Zusammen hang</w>
ti gkeit</w>
T ag
tu res</w>
be deu
B oo
eff ici
R au
bei den</w>
I S
unser em</w>
U N
Lös ung</w>
techn ology</w>
ta ins</w>
a gen
F e
Mad am</w>
ma ch
P i
te x
man u
h ome</w>
200 5</w>
S ep
lä ge</w>
b z
S ü
Wirtschaf ts
an aly
agre e</w>
sp ä
Un ser
pla y</w>
I C
tei lung</w>
um s</w>
Tre aty</w>
individu al</w>
custom ers</w>
Ent schließ
Regi on</w>
F isch
ß en
ba u</w>
e ver</w>
ag o</w>
di c
M at
Is ra
de sign</w>
d om
ver besser
c rati
2 1</w>
j en
incre ase</w>
le ar
Hil fe</w>
1 7
e ch
do ws</w>
th ank</w>
gro wth</w>
Z wei
sh ort</w>
Präsiden tin</w>
mo sp
stand ards</w>
h y
as ser
Ver antwor
pre v
schaf ts
h ouse</w>
opport unity</w>
E R</w>
ra ther</w>
bz w</w>
b ung</w>
R a
up s</w>
No v
Dies es</w>
Entwick lungs
P la
re cht</w>
Organ is
Dienst leist
rit t</w>
te te</w>
pl es</w>
activi ties</w>
buil ding</w>
siden cy</w>
valu e</w>
So zi
d ent
c all</w>
an im
posi tive</w>
M ehr
Eu ro
N i
qu ite</w>
a id</w>
begr ü
C or
bar en</w>
Demok rati
wen iger</w>
Produ kte</w>
Str ateg
eh m
vol l</w>
lan g
prin cip
orig in
mit tel</w>
po ten
re icht</w>
mo d
b ed</w>
ein ge
provi ded</w>
er war
per f
sign ific
res ources</w>
er zi
Sch ul
or d</w>
t ar
s ätz
e qu
w ün
je der</w>
i denti
z immer</w>
h t</w>
St ru
H aus</w>
gen d
öffent lichen</w>
tei len</w>
unter schie
o se</w>
wor t</w>
S ol
p ic
L eben</w>
b ili
en ds</w>
pro gra
ann ten</w>
dar an</w>
er h
ge wi
on a</w>
appro ach</w>
I T</w>
D ec
g ilt</w>
A ir
F rie
el s
fi le</w>
be half</w>
sion en</w>
inter est</w>
peri od</w>
ad s</w>
St ate</w>
Des halb</w>
per sön
k ung</w>
M embers</w>
gu te</w>
1 0
In iti
200 4</w>
ho li
ges ehen</w>
f ang</w>
R ates</w>
e duc
tem ber</w>
lu b</w>
at er
A n</w>
äm lich</w>
y et</w>
ha ving</w>
K ü
g in
m om
bit te</w>
tu ally</w>
fra gen</w>
gesch lossen</w>
inclu de</w>
ck t</w>
in ion</w>
zei tig</w>
n ämlich</w>
forder ungen</w>
Er fahr
ung s</w>
er sch
Sch utz</w>
pro per
in dem</w>
Sep tember</w>
fo c
m embers</w>
A S
ah r</w>
u li
sol ution</w>
vi ol
ar ti
st y
all en
requi re
po ol</w>
berei ch</w>
sp i
Gr und</w>
la dies</w>
völ k
du e</w>
so gar</w>
v ity</w>
ar s</w>
P ak
ück sichti
ge macht</w>
Europ as</w>
mi ght</w>
beau ti
form s</w>
li sh</w>
c tions</w>
poin ts</w>
Intern ational</w>
an trag</w>
lei sten</w>
O ne</w>
fle xi
propos als</w>
b ank</w>
zei chn
le ft</w>
ex per
geb racht</w>
C an
con fi
rec omm
amend ments</w>
Kin der</w>
G leich
Z w
am ong</w>
ell eicht</w>
fort able</w>
ate gi
hin aus</w>
Milli onen</w>
aus zu
bin dung</w>
zah l</w>
wor ds</w>
et wa</w>
saf ety</w>
G ol
fra mework</w>
cont ent</w>
is se</w>
crati c</w>
ant rä
al low</w>
gu i
min utes</w>
effec tive</w>
appro pri
ri cht</w>
for ce</w>
alisi erung</w>
p at
Af ter</w>
z ö
abo ve</w>
tion ed</w>
econom y</w>
200 3</w>
F rüh
äch lich</w>
Ge gen
co sts</w>
transp ar
lä u
sch affen</w>
e asy</w>
re gel
Ber lin</w>
er klär
m ember</w>
P f
M or
ap art
di en
a th
c op
si tes</w>
gro und</w>
re ali
Bes u
D ok
ih n</w>
cra cy</w>
oth ers</w>
ständi g</w>
Haushal ts
olog ie</w>
adop ted</w>
s weise</w>
si eh
beg inn
Person en</w>
K ap
Th er
us ses</w>
eben falls</w>
C hi
sho w</w>
Ver hand
ein igen</w>
zei gen</w>
ag ri
n u
u ral</w>
Dat en
v a</w>
In stru
ih m</w>
usam men</w>
char ac
Deutsch land</w>
Unser e</w>
c lim
Dies er</w>
pro gress</w>
reas on</w>
Lei st
Jan u
exc lu
Eben e</w>
wes ent
s einem</w>
st off
F ar
ma kes</w>
Web site</w>
K l
Dur ch
demo krati
ig n
li ve</w>
de al</w>
op inion</w>
enjo y</w>
k o</w>
fund ament
st ation</w>
P unkt</w>
to ber</w>
web site</w>
bo dy</w>
ges timm
pro z
re la
ü l
an a</w>
applic ation</w>
For m</w>
st ens</w>
as sen</w>
p rec
Aus sprache</w>
W is
p ass
P e
bu s</w>
legisl ation</w>
sup por
unterstütz t</w>
St re
Uni versi
hal t</w>
ou ght</w>
arbei tet</w>
A L
tei le</w>
fav our</w>
h on
am oun
ne te</w>
J o
Sch i
pl an</w>
pro jects</w>
comple te</w>
k tor</w>
brau chen</w>
zeich net</w>
e th
ro ad</w>
h u
sich er</w>
resul ts</w>
difficul t</w>
N ä
k ind</w>
er weise</w>
M al
j e</w>
mo un
provi des</w>
Pri v
gro ups</w>
S al
stauran ts</w>
Mu si
e li
dar in</w>
respon sibility</w>
ä um
Qu alität</w>
un ver
kün f
etz en</w>
D E</w>
mul ti
f li
atten tion</w>
Zei t
poli cies</w>
eh mer</w>
concern ed</w>
cont act</w>
Er fol
is es</w>
K ra
d d
c ted</w>
ger ade</w>
T at
tra v
D ru
A C
d liche</w>
reg ar
z ung</w>
re du
glau be</w>
se a</w>
ad di
po wer
n ationalen</w>
em b
200 1</w>
z eh
W il
W h
cre di
air s</w>
hal te</w>
m ing</w>
ad dition</w>
Re staurant</w>
H a
Re chte</w>
ge geben</w>
B re
simp ly</w>
M är
beauti ful</w>
ah l
A c
B ro
kom ple
all gem
pro chen</w>
dür fen</w>
ro w</w>
Gemein schaft</w>
proc e
f rie
Ben utz
S y
le t
Jahr hunder
C ol
geb ung</w>
ques tions</w>
Sicher heits
S ub
sh e</w>
import ance</w>
Besch äf
fre e
end ly</w>
Wei ter
gr at
soci ety</w>
ch s</w>
am eri
k ar
Z us
cer tain
ad minist
cou ra
ci r
H al
b on</w>
intro duc
D a</w>
sp ru
succ ess
sol len</w>
der zeit</w>
J ap
je den</w>
nich ts</w>
li ber
y ers</w>
ide al</w>
K an
C as
bei spiel
gen au</w>
mark t</w>
A k
l ö
gre ater</w>
ih rem</w>
Ab stimmung</w>
alo g</w>
Sch lus
tra ining</w>
hel p
2 2</w>
k einen</w>
vo ted</w>
Verein ig
ter min
G el
un a</w>
zus ätz
direc tly</w>
fre und
W ach
sch i
mit t
mei sten</w>
strateg y</w>
co ver
Wir tschaft</w>
si ert</w>
environ mental</w>
b are</w>
p tion</w>
ed ure</w>
wir tschaft</w>
gehör t</w>
den ken</w>
gestimm t</w>
L a</w>
ni ght</w>
betri fft</w>
j us
me chan
z usammen</w>
f ern</w>
o k</w>
an stal
ste p</w>
8 0</w>
inter est
g ie</w>
R O
on g
Or t</w>
princip le</w>
z äh
c al
kl ar</w>
se i</w>
c s</w>
ass er</w>
al ong</w>
Wel t
weiter hin</w>
äch st</w>
C om
Dok um
tra g
b s</w>
nat ural</w>
wle dge</w>
ho ch
utz t</w>
pro mis
imm t</w>
tn is</w>
For tsch
loo king</w>
c at
y a</w>
Be zug</w>
un kte</w>
manu fac
hear t</w>
requi red</w>
ologi cal</w>
5 00</w>
K amp
tri tt</w>
wirtschaf tlichen</w>
sa che</w>
respon sible</w>
ver stän
chan ges</w>
k ämp
ne l</w>
t est</w>
200 2</w>
t in
ei g
Änderungs anträ
Gro ß
her r
a vi
T ür
zu stellen</w>
uni ties</w>
su g
extre m
B em
cent ury</w>
M inu
Di rec
Ges ellschaft</w>
D en
Bür ger
b ility</w>
setz t</w>
stand ing</w>
vi c
ko sten
Go vern
bedeu tet</w>
me eting</w>
v o</w>
our ce</w>
wichti ge</w>
cle arly</w>
ran k
fü r
Be zieh
s an
ben ö
Kol leg
Win dows</w>
19 7
break fast</w>
a il</w>
sol che</w>
des halb</w>
trol le</w>
c are</w>
re fer
auth orities</w>
p ages</w>
sch wi
fam ili
St ad
f our</w>
e asi
Ko sten</w>
k enn
stru ction</w>
n utzen</w>
techn ical</w>
fü h
ma il</w>
st eu
re st</w>
sen d</w>
h en
struc ture</w>
F ör
re mo
s wi
auf grund</w>
k us
pp ed</w>
Nov ember</w>
Zu gang</w>
am m
bes ser</w>
Au s</w>
con f
use um</w>
su sta
rec ent</w>
s po
ci vi
be sten</w>
c ar</w>
2 3</w>
st adt</w>
c r
st or
20 0</w>
pos ed</w>
ch er
tei lt</w>
te mp
S i
m ind</w>
et te</w>
da m</w>
achie ve</w>
o wn
wür den</w>
S in
mit ted</w>
us es</w>
add ress</w>
inst all
bet re
op s</w>
ch allen
deut lich</w>
ak zep
nat ure</w>
per son</w>
schn ell</w>
tic le</w>
A pri
der ungen</w>
sen den</w>
S or
Mark t</w>
ac tive</w>
m em
sta at
ad a</w>
Ges etz
H ol
ri ch</w>
F est
p an
re ly</w>
d au
B ra
d ents</w>
essen tial</w>
F i
fe el</w>
stan den</w>
I de
Menschen rechte</w>
A p
k omp
Be völk
gem ä
Strateg ie</w>
g ran
F eh
D ank</w>
n ed</w>
ris k</w>
erfol gre
wer t</w>
hal tung</w>
V on</w>
k ol
seri ous</w>
cri min
sp ort</w>
te ten</w>
sp ace</w>
d ro
mon ths</w>
Z i
lon ger</w>
stand ard</w>
E l
fac ilities</w>
am es</w>
E i
l ot</w>
ein ander</w>
sol utions</w>
Ver besser
o p</w>
bek annt</w>
Rich tung</w>
hist ory</w>
s ab
näch sten</w>
br ing</w>
zü glich</w>
p ast</w>
ti sche</w>
en ough</w>
R at
propos ed</w>
re ach
ach ten</w>
Stru k
ei ther</w>
S ti
typ e</w>
ver ein
car ri
develop ed</w>
ev ents</w>
z es</w>
Um setzung</w>
ic s</w>
Apri l</w>
rel ated</w>
curr ently</w>
i tion</w>
ne ar</w>
An sicht</w>
F ern
men te</w>
a de
intern al</w>
D u
vor gesch
inter ests</w>
trä ge</w>
oo ds</w>
direc t</w>
l an</w>
lin es</w>
gu ests</w>
Wach st
2 7</w>
fer enz</w>
nee ded</w>
co st</w>
re staurant</w>
an o</w>
ber g</w>
require ments</w>
H an
regi ons</w>
hä lt</w>
po l
langu age</w>
visi t</w>
Nä he</w>
li mit
spe ak
Mit arbei
pres s</w>
vi ces</w>
ur en</w>
f ris
er neu
Ver trag</w>
tr a</w>
par ties</w>
f is
ing ly</w>
an ts</w>
ne g
sei ts</w>
Ver fahren</w>
Fre ih
man ag
D an
mb H</w>
aller dings</w>
we der</w>
sch t</w>
pe ace</w>
P lease</w>
D rit
invol ved</w>
zent r
com bin
ta g</w>
organ iz
them selves</w>
si tion</w>
Ziel e</w>
yo ung</w>
lan ge</w>
gra ph
rau m</w>
aff ung</w>
Bed ingungen</w>
hum an
Herr en</w>
F rom</w>
beispiel sweise</w>
1 6
reg ulation</w>
fü n
be tra
wer de</w>
Anwen dung</w>
ho ffe</w>
ro und
cent ral</w>
demo cracy</w>
Sel b
te am</w>
Verantwor tung</w>
K omp
grei fen</w>
competi tion</w>
In n
se par
ges prochen</w>
com fortable</w>
wirk ungen</w>
implement ation</w>
ne ver</w>
se en</w>
c ateg
T ri
tion s
Rus sia</w>
vi ous</w>
mark ets</w>
up on</w>
gemein samen</w>
extrem ely</w>
P a
w and
an ks</w>
free dom</w>
rich tung</w>
T ro
b ra
In te
notwendi g</w>
ter ror
k u
ab les</w>
I T
st et</w>
V ide
je wei
el li
fun ktion
le b
schein t</w>
Demokrati e</w>
g rupp
D ah
Ver sion</w>
eff orts</w>
Er weiter
ig ung</w>
sch ön
ple ase</w>
net work</w>
to tal</w>
sozi alen</w>
gen u
A spe
bi g</w>
w w
c ases</w>
Vorsch läge</w>
c aus
ev ent</w>
G mbH</w>
ati s
mon it
all s</w>
ger e
hel d</w>
D am
ari an</w>
ah n</w>
s et
be w
vi elleicht</w>
L A
A s
kl einen</w>
ant ly</w>
O R
Grund lage</w>
Kli ma
str ong</w>
ber u
ch t
Geb iet</w>
c la
il ed</w>
A m</w>
o w</w>
Ver wal
Sozi al
Inter esse</w>
yn am
verwen det</w>
Rei he</w>
t ory</w>
ser ve</w>
at ory</w>
F l
ww w</w>
fri endly</w>
lo se</w>
ber ücksichti
de mon
mo di
ar ri
Gesch ichte</w>
off en
demo cratic</w>
K ön
ari a</w>
ke ep</w>
M an</w>
An gele
re lev
ru n</w>
geb ot</w>
S an
plat z</w>
Ar ch
Ih rem</w>
Dur ch</w>
Tei l
h äl
1 4
vor sch
st ly</w>
zo gen</w>
er ed</w>
in en</w>
inn en
har mon
wnlo ad</w>
ma xim
pre p
ren ch</w>
Fran ce</w>
appropri ate</w>
199 9</w>
region al</w>
er reicht</w>
materi al</w>
Mög lichkeiten</w>
Dah er</w>
C our
Arbei tsp
mu sic</w>
ac tions</w>
S h
P ubli
A G</w>
l ack</w>
a gi
sch ö
Mo d
K enn
blei ben</w>
h ard</w>
negoti ations</w>
c en</w>
cent er</w>
situ ated</w>
ge ts</w>
pa y</w>
tru e</w>
de pen
Z ah
glei chen</w>
Deb atte</w>
ver fol
su cht</w>
D amen</w>
A D
schn it
Institu tionen</w>
Off ice</w>
Ö ff
consi der</w>
inde pen
te m</w>
ges etz
boo k</w>
to s</w>
tain ed</w>
A ff
hö ch
s eh
Er klär
Inv esti
si dent
tu rel
every thing</w>
isch es</w>
al tern
develop ing</w>
ri st
St ell
cre ated</w>
reich e</w>
R E
vi de
forder t</w>
be ach</w>
s st</w>
k s
requ est</w>
sp rä
fundament al</w>
ist an</w>
fore ign</w>
alo gue</w>
bo ard</w>
vi er</w>
ear ly</w>
W ieder
lu s</w>
ri chten</w>
L on
Umwel t
K ir
o ft</w>
N etz
fort un
Al l
uni que</w>
wis sen
sp or
d ar</w>
sh are</w>
th us</w>
ch e
educ ation</w>
at ors</w>
fo und
ün sti
stell ungen</w>
acc ording</w>
m al
st ates</w>
am bi
steh enden</w>
ber eit</w>
con ven
wen ig</w>
d on
des cri
N ich
rei ben</w>
fun ds</w>
ch ed</w>
F rench</w>
verschieden e</w>
Ab sch
entwick elt</w>
impro ve</w>
Re chn
Pre is</w>
au t</w>
Ho ch
re fle
Pre sidency</w>
er fül
si an</w>
pri ces</w>
kön nten</w>
t ou
Hin blick</w>
ac comm
al most</w>
ap er</w>
tw eit</w>
clim ate</w>
mis sion</w>
r ing
min im
tre at
re form</w>
cor rec
n immt</w>
par ts</w>
eff ect</w>
ic ro
Americ an</w>
p ment</w>
ver antwor
re ma
me et</w>
dr in
Dienstleist ungen</w>
li ving</w>
lä tz
T O</w>
uni k
fam ous</w>
im medi
spiel en</w>
a y</w>
a im
gh out</w>
design ed</w>
arbei tung</w>
kon kre
di gen</w>
gra phi
on i
succ ess</w>
addi tional</w>
gri ff</w>
er seits</w>
inclu ded</w>
be finden</w>
B ank</w>
1 5
S an</w>
Berichterstat ter</w>
c ard</w>
gel ei
pr ise</w>
h eu
gemein same</w>
Fisch er
Par k</w>
Dis kus
mittel n</w>
r ates</w>
so on</w>
Di en
P lan
ac tually</w>
Minu ten</w>
lat er</w>
S t</w>
stat t
Früh st
h of</w>
verfü gt</w>
i erung</w>
ehr s
k or
Beh ör
hi er
C D</w>
ide a</w>
ermög licht</w>
lo g
Her aus
ta x</w>
sk i</w>
Aus wirkungen</w>
Isra el</w>
ke y
Au ßer
sich ts</w>
ha ps</w>
P at
Ab kommen</w>
ats ächlich</w>
eff izi
Par is</w>
fall en</w>
li k
Kon ta
schri f
T our
ru hi
ex am
untern ehmen</w>
7 0</w>
Regi onen</w>
M et
en coura
er st
h atten</w>
Li ber
T ele
Ver tre
ish ing</w>
re ich</w>
b ark
g te</w>
gen ie
ell ing</w>
lin ks</w>
under stand</w>
com b
än dern</w>
Do ch</w>
p e</w>
fi ve</w>
work ers</w>
wi ll
2 8</w>
F er
ent er</w>
W al
le ad</w>
inv esti
F rei
co ver</w>
wi l
wer k</w>
as soci
men tioned</w>
g le</w>
recei ve</w>
jen igen</w>
e e</w>
ver fahren</w>
Au stri
K at
Fü hr
c amp
ab led</w>
ac y</w>
acc ept</w>
Tat sache</w>
z ation</w>
hel fen</w>
Program me</w>
Z u</w>
Por tu
stat tet</w>
ur ing</w>
initi ative</w>
it ali
M is
Verhand lungen</w>
en ing</w>
erforder lich</w>
sch ul
fa ir</w>
cap ital</w>
ch eck</w>
I P</w>
ta kes</w>
le ading</w>
äu ßer
out side</w>
ob s</w>
Pro to
Mitglie der</w>
susta in
D el
f al
comm er
K a
p u
proc edure</w>
F äl
wel tweit</w>
er hö
ge stal
Kolleg innen</w>
bil dung</w>
M as
f ran
ktion s
ameri kan
ra ce</w>
m ed</w>
gesam ten</w>
inte gr
H ö
H af
ad urch</w>
buil t</w>
kno wledge</w>
zi ert</w>
g lichen</w>
b ack
Ge f
re it
us ers</w>
di st
we ek</w>
k er
tel y</w>
K or
sm us</w>
c are
ei gent
I M
eben so</w>
si erung</w>
B ar</w>
maj ority</w>
schlie ßen</w>
wel t
Li ste</w>
feat ures</w>
P an
einzel nen</w>
Finan zi
dar um</w>
be zieh
amoun t</w>
progra m</w>
g um
ser ved</w>
fron t</w>
den ke</w>
1 3
h or
u ally</w>
me t</w>
lä ssi
z one</w>
communic ation</w>
ck ing</w>
a den</w>
sur round
fil es</w>
ta x
ste ad</w>
re ach</w>
st a</w>
h ours</w>
Grupp e</w>
to ok</w>
er wäh
B it
Ver tra
do ing</w>
M ob
emp ha
ei en</w>
Zent rum</w>
str ategi
tur en</w>
V o
a vo
P rin
throu ghout</w>
it ing</w>
län dern</w>
s atis
ep tion</w>
C hr
custom er</w>
Sch ritt</w>
weiter en</w>
Ma il</w>
Bes timm
su per
guaran tee</w>
E S</w>
St at
t i</w>
e ch</w>
an gem
or ing</w>
el ess</w>
ver ur
B ur
2 6</w>
Außer dem</w>
we b</w>
B innen
connec tion</w>
Entschei dung</w>
9 0</w>
Ho w</w>
Änderungsanträ ge</w>
Abgeord neten</w>
par k</w>
U N</w>
un ds</w>
par ty</w>
medi a</w>
Ver f
do or</w>
Au ßen
ac ross</w>
fre i
ex tern
ga b</w>
b li
Berei chen</w>
d est</w>
a ware</w>
fin al</w>
Ver wen
ad d</w>
reli gi
Ergeb nis</w>
s em
w ahl</w>
I S</w>
con text</w>
intern ationale</w>
wri ting</w>
at trac
in ge</w>
stan ces</w>
certain ly</w>
sti c</w>
Rus s
P u
rel ations</w>
invest ment</w>
n ation
ele gan
Th e
con sequ
je dem</w>
zun ehmen</w>
er le
co de</w>
än dert</w>
c y
d or
We b</w>
tradi tional</w>
vor zu
Änderungs antrag</w>
z er</w>
sta ge</w>
S T
W asser
kon nte</w>
signific ant</w>
sam keit</w>
f lä
ä d
indi c
g ten</w>
hä tte</w>
N et
Ein zel
lu x
fähi gkeit</w>
B us
b an</w>
perform ance</w>
exist ing</w>
B y</w>
am a</w>
is en</w>
gegen wär
Ant wort</w>
Bezieh ungen</w>
w under
Vereinig ten</w>
al though</w>
colle ag
t ent</w>
P h
lä sst</w>
so ft</w>
Plat z</w>
A ktiv
F ur
ill a</w>
si sche</w>
st elle</w>
origin al</w>
g res
program mes</w>
B lick</w>
lich erweise</w>
Tur key</w>
G ele
gleich zeitig</w>
ch oo
ali tä
an z</w>
g ame</w>
s ent</w>
vel s</w>
wei ß</w>
for men</w>
ati c</w>
Ur lau
Bevölk erung</w>
hei ßt</w>
in ation</w>
perf ect</w>
tim me</w>
Eng lish</w>
G eh
g ei
concern s</w>
men d
co ordin
pra kti
m ut
ck e</w>
A cc
con sum
än de</w>
gemein sam</w>
Ver ordnung</w>
con tra
c ell
w at
vi r
program m</w>
is ing</w>
Aus druck</w>
wichti gen</w>
ig ration</w>
wal k</w>
J oh
Woh n
th ern</w>
eb ru
mom ent</w>
G eld</w>
en ding</w>
sh ed</w>
m y
ander er</w>
Govern ment</w>
richti g</w>
m as
ple as
M y</w>
a di
ke i</w>
Ri si
Erfol g</w>
Americ a</w>
lan gen</w>
s ag
is on</w>
li gh
vol le</w>
s mo
In st
z en
speci ali
qui ck
profession al</w>
am s</w>
concern ing</w>
äh ri
Tag es
consu l
bark eit</w>
ati v</w>
je de</w>
app ly</w>
A gen
On line</w>
comm ittee</w>
re ad</w>
lo k
pop ulation</w>
schri ften</w>
y l
en or
O c
accomm od
si ze</w>
comm unity</w>
ei gen
Ver pflich
si tz</w>
K rise</w>
För derung</w>
sei te</w>
milit ary</w>
c ru
län der</w>
ge st
H am
Tür kei</w>
Ver bindung</w>
er inn
reas ons</w>
S at
establish ed</w>
Auf gabe</w>
agre ements</w>
be kommen</w>
Sch wi
z z
le gi
kl eine</w>
conf lic
imp act</w>
comple tely</w>
arch it
no thing</w>
l te</w>
P C</w>
deci sions</w>
Proje kt</w>
rich tungen</w>
l d
F ebru
em er
o v
alis ation</w>
b ein
un abhängi
li eren</w>
inclu des</w>
be h
Bar cel
ne w
erk enn
for dern</w>
n it
Minist er</w>
S outh</w>
Cour t</w>
inte gri
ti vely</w>
St abili
Kon z
partn er</w>
prac tice</w>
c le</w>
gar anti
e y
ba sic</w>
C re
m als</w>
Un ser</w>
ä lt</w>
su ch
Schlus sel
sty le</w>
mo bili
Au g
ür z
Lon don</w>
be deut
Kon trolle</w>
S eit</w>
verb unden</w>
blei bt</w>
entschei den
m einen</w>
qu o
gerich tet</w>
ul ate</w>
S lo
er lau
unser es</w>
Aussch usses</w>
M al</w>
Z um</w>
De sign</w>
equi pped</w>
Ein satz</w>
E ff
Spe zi
re stri
fun den</w>
ra ch
dd le</w>
st ar</w>
C H
Forsch ung</w>
j ähri
con stitu
allo ws</w>
bed ingungen</w>
Jah res</w>
m es
u es</w>
ter ran
sen se</w>
4 5</w>
c as
inter net</w>
ba th
2 9</w>
j obs</w>
gehör en</w>
m ise</w>
enth alten</w>
en lar
proc ess
gan gen</w>
Inform ation</w>
sident schaft</w>
e chti
in tel
ver bin
mo del</w>
b ad</w>
gr enz
Partn er
O ber
exp en
s sel
gan genen</w>
pl ann
ab zu
re main</w>
am era</w>
de si
it able</w>
S ince</w>
äu fi
pre ci
holi day</w>
cho ice</w>
G lob
fi gu
si di
sieh t</w>
con fir
con struction</w>
b it</w>
über zeu
R ec
valu es</w>
ba si
ati sti
partn ers</w>
objec tives</w>
sch es</w>
A part
ob lig
3 5</w>
For m
wirtschaf tliche</w>
Sch la
gef ähr
pack age</w>
t le</w>
Lu x
sto p</w>
fun ction</w>
inte gration</w>
recei ved</w>
tre ffen</w>
h om
Partn er</w>
Au ff
Erweiter ung</w>
we ch
V en
ei ch
gemä ß</w>
an ischen</w>
ne u</w>
Wis sen
ent ed</w>
Entschließ ung</w>
we st
ie ten</w>
ep s</w>
di o
inf lu
regar ding</w>
ent ation</w>
t ary</w>
devel op</w>
re si
sch le
un ge</w>
verstän dlich</w>
ann te</w>
Lis bon</w>
Nutz ung</w>
e uro</w>
hin zu
w ise</w>
ha f
um e</w>
prü fen</w>
stell er</w>
simp le</w>
Behör den</w>
equi pment</w>
tem por
guaran te
rech ts
applic ations</w>
O N</w>
Aug ust</w>
r un
M ul
19 6
pur ch
V or</w>
er c
ec e</w>
M il
Aussch uss</w>
f s
Ge or
ver hin
n s</w>
je des</w>
disp la
f rü
an te</w>
g ol
bes u
ima ge</w>
L et</w>
manufac tur
3 00</w>
Bei trag</w>
s ett
Lös ungen</w>
dem and</w>
agri cultural</w>
mo ve</w>
wichti gsten</w>
enti re</w>
Nat ur
p al
per at
Jap an</w>
tion ing</w>
ter rit
3 1</w>
ra ble</w>
res se</w>
fi ght</w>
ver ti
A pp
U kra
Dam it</w>
No twendi
t ol
hau p
Tex t</w>
p ite</w>
en ed</w>
ach es</w>
ger ne</w>
a im</w>
benef it</w>
saf e</w>
x ed</w>
Ver anstal
s timmen</w>
m us
comp uter</w>
spi ri
treat ment</w>
Bit te</w>
objec tive</w>
Lis sab
at mosp
r us
Sch wei
si t
poten tial</w>
s ou
ser ies</w>
re turn</w>
as h
Auf enth
de p
gen au
D V
le h
Ho st
conc ern</w>
li ance</w>
mehr ere</w>
re ports</w>
E ast</w>
quick ly</w>
limit ed</w>
f est</w>
di gung</w>
bel ow</w>
wo bei</w>
el en</w>
hin sichtlich</w>
g oods</w>
fl ü
Ge wal
E L
ar d
li er</w>
gesam t</w>
So li
C A
ges p
Steu er
ni ce</w>
Ma y</w>
sor gen</w>
nach hal
trans l
F eri
ag er</w>
foc us</w>
H ere</w>
Mark t
la den</w>
an ten</w>
d aten</w>
Aff airs</w>
zur ück</w>
Bu ch
dou ble</w>
k it
gan ze</w>
ho tels</w>
s cre
är en</w>
pro mise</w>
gan zen</w>
fortun ately</w>
Ch an
enth ält</w>
Kul tur</w>
Wettbewer bs
bal d</w>
sci enti
S on
Ges am
Verbesser ung</w>
ic k</w>
bet ei
ti sh</w>
be züglich</w>
f ru
v eh
an no
success ful</w>
r und</w>
ven ess</w>
tradi tion
ne ben</w>
ri ften</w>
In nov
Man agement</w>
ermög lichen</w>
kul turel
hand eln</w>
ei gene</w>
ph y
gen annten</w>
Mat eri
jo b</w>
e ks</w>
f s</w>
W hi
m m</w>
n a</w>
gu est</w>
achie ved</w>
schwi eri
con tains</w>
su l
el ten</w>
S en
B ul
ac ity</w>
ü hr
sicher heit</w>
A ra
se ems</w>
r ing</w>
Barcel ona</w>
inde ed</w>
vel op
Ein k
fol low</w>
ent al</w>
auf zu
in k
k ei
St unden</w>
Ira n</w>
N ational</w>
Jun e</w>
ci ples</w>
K oh
rec ently</w>
fre i</w>
Verbrau cher</w>
T ä
F ri
ch em
be ein
lo ss</w>
Sch affung</w>
syst em
re f
sen de</w>
T im
Arbei tn
Umwel t</w>
me an</w>
re p
A mend
un e</w>
wei s</w>
zah len</w>
we g</w>
prev ent</w>
C ap
d ates</w>
con grat
S omm
W ort</w>
le vels</w>
high ly</w>
beginn ing</w>
cle an</w>
it es</w>
schließ end</w>
rie g</w>
Fin ally</w>
Ser ver</w>
ver pflich
F lü
M ich
t op
di alogue</w>
t licher</w>
ad ded</w>
Selb st
off ice</w>
Cent ral</w>
Ergeb nisse</w>
organis ation</w>
inn er</w>
an gen
ge k
present ed</w>
plac es</w>
d ynam
Y or
e vi
Gele genheit</w>
ständi gen</w>
Am ster
O k
vor schriften</w>
Verwen dung</w>
l ück
ti ger</w>
Bet ri
Bil d</w>
Geb äu
every one</w>
vi ously</w>
K rank
J us
B ü
tra ff
erh eb
Russ land</w>
Lan des</w>
An gebot</w>
völ lig</w>
g as</w>
ori en</w>
govern ments</w>
h äre</w>
ür f
ig keiten</w>
Initi ative</w>
hu ge</w>
clo sed</w>
Re g
ele k
b order</w>
C ity</w>
at temp
för dern</w>
in i</w>
Wo che</w>
bal ance</w>
flo or</w>
si mil
M E
V al
sozi ale</w>
Notwendi gkeit</w>
p le</w>
no te</w>
Pro f
wh ose</w>
ur s</w>
grund le
verbesser n</w>
F ach
ac ks</w>
S am
agre ed</w>
increas ed</w>
ans wer</w>
i d
relev ant</w>
L inu
pec ts</w>
I r
s lo
me an
s ex
f lu
carri ed</w>
j our
sel ec
organ isi
groß er</w>
as ked</w>
Lissab on</w>
consum ers</w>
gu ten</w>
O S</w>
Te am</w>
sho ws</w>
cover ed</w>
En ter
bu te</w>
Mitarbei ter</w>
high er</w>
en able</w>
l y
ar in</w>
key word</w>
suff ici
Pri or
prin ciples</w>
entwick eln</w>
direc tion</w>
ó n</w>
ser ver</w>
äh n
posi ti
kre ich</w>
C a
N ieder
te i</w>
Inter essen</w>
op h
be stä
verwen den</w>
T age</w>
Them en</w>
serv ation</w>
ver stär
fil m</w>
ell a</w>
Dar über</w>
amend ment</w>
set ting</w>
Gener al</w>
human it
sustain able</w>
H um
h äufi
verfü gen</w>
g ers</w>
I D
Industri e</w>
vide o</w>
re views</w>
consider ed</w>
f onds</w>
M än
k ann
pos sibility</w>
spä ter</w>
dis ku
sch utz
ent lich</w>
trav el</w>
Famili e</w>
g ül
per haps</w>
choo se</w>
comple x</w>
b all</w>
nu clear</w>
em is
un ion</w>
en ded</w>
commit ment</w>
Zeit punkt</w>
zi eren</w>
Gi pf
si cal</w>
g al</w>
spezi f
f eld</w>
li ge</w>
ge o
materi als</w>
Energi e
b our
ch ing</w>
be stehen</w>
con duc
m einem</w>
S ome</w>
fün f</w>
c las
Ar ticle</w>
n ie
Über ein
ast rop
0 1</w>
ma ßnahmen</w>
geh end</w>
u ß</w>
ir gend
di enen</w>
Be wer
fol ge</w>
Änder ungen</w>
zun ächst</w>
effec ts</w>
Arbeitsp lätz
W asser</w>
Ther efore</w>
I tal
veh ic
m ann</w>
Fran kreich</w>
mat ters</w>
Per son</w>
x is</w>
F a
W ahr
Untern ehmen
sho wn</w>
verfü g
Organis ation</w>
c ro
Fir st</w>
Gemein schafts
as pects</w>
th anks</w>
oo m</w>
ge eig
Ma i</w>
De velop
wäh len</w>
M P
pl ant</w>
3 2</w>
Gesund heit</w>
po st
stat us</w>
un k
innov ative</w>
di ent</w>
Regi erungen</w>
ck et</w>
an genommen</w>
te sten</w>
ver se</w>
W ert</w>
ger ung</w>
promo te</w>
ü bri
E C</w>
n ie</w>
jo int</w>
W erk
di glich</w>
sho p</w>
rou ght</w>
Sp ain</w>
Ko so
Vol ks
t atsächlich</w>
fre ien</w>
c ame</w>
ex change</w>
No w</w>
gel eg
ter ien</w>
Jun i</w>
form er</w>
S um
n er
plac ed</w>
sam m
O f</w>
Erfahr ung</w>
ein deu
schrif tlich</w>
s yn
Linu x</w>
fi k
s al
Kon fli
mo bi
Beh and
Intern et
R A
spe ak</w>
lat est</w>
ti veness</w>
Deb ian</w>
O N
beh ind</w>
deta ils</w>
cre ation</w>
Rat sprä
de ten</w>
Aus wahl</w>
opport unities</w>
Me tho
ex hi
ann er</w>
so und</w>
pre vious</w>
cap acity</w>
ologi es</w>
sch ätz
di schen</w>
Ein führung</w>
pres sure</w>
proce du
Her zen</w>
de termin
Komm unik
increas ing</w>
Um gebung</w>
U p
ra li
ff et</w>
Gä ste
Ital y</w>
Mitg lied</w>
ten en</w>
an gebo
al ing</w>
M useum</w>
intern ation
Ver trau
bau en</w>
An aly
spru ch</w>
ter in</w>
o il</w>
Ver b
et ary</w>
B lo
comp et
dra w</w>
pop ular</w>
F le
Währ end</w>
pri m
provi ding</w>
prep ared</w>
Aut om
An fang</w>
Ter ror
ver stehen</w>
öff net</w>
respon se</w>
Da bei</w>
ter ia</w>
reach ed</w>
accommod ation</w>
Fran k
Verein bar
sta g</w>
ge funden</w>
par li
easi ly</w>
en a</w>
sion s
atmosp here</w>
exp lo
wen den</w>
u en</w>
äußer st</w>
mar k</w>
k rä
Sta ats
tic ally</w>
di e
B l
199 8</w>
Me er</w>
s cri
Proz ess</w>
zei t
tain ing</w>
industri al</w>
Öff ent
Ei gen
bestimm te</w>
ges sen</w>
commer cial</w>
fun c
Kamp f</w>
und es
ari ly</w>
wi der
Nat ur</w>
Soli dar
bis her</w>
W TO</w>
cl ass</w>
Afri ca</w>
redu ce</w>
schaf tlichen</w>
er ous</w>
extern al</w>
S ie
publi k</w>
Syst ems</w>
T H
ho hen</w>
gesam te</w>
produc ed</w>
re pe
S wi
Ho tel
ad ap
som it</w>
b ür
besch äf
O ri
den s</w>
le diglich</w>
G est
char ge</w>
T it
star k</w>
wer s</w>
Spra che</w>
Aktiv itäten</w>
zus etzen</w>
gewähr leisten</w>
ent de
g a</w>
Amster dam</w>
sum mer</w>
Ener gie</w>
D I
lin k</w>
th y</w>
S A
H aus
An zahl</w>
M icro
in fra
verk ehr</w>
supp ly</w>
S tern
br ingt</w>
Bri tish</w>
nei gh
comp re
Verk ehrs
H and</w>
Rau m</w>
sub mitted</w>
g liche</w>
mäß ig</w>
H inter
ass ess
wün schen</w>
Be kämp
ein hei
Con vention</w>
s la
Gä ste</w>
Inte gration</w>
ic ally</w>
effici ent</w>
H om
qu es</w>
civi l</w>
er y</w>
ob wohl</w>
gi ves</w>
deci ded</w>
gen der</w>
Ukra ine</w>
h ung</w>
ar ing</w>
Dec ember</w>
ver suchen</w>
bi o
Kommiss arin</w>
es si
proper ty</w>
üh m
be sitz
au m</w>
anno un
W ahl</w>
hervor ra
bew us
ci a</w>
prote ct</w>
gen heiten</w>
enlar gement</w>
pri ority</w>
bestimm ten</w>
ant i</w>
B usiness</w>
ro und</w>
E ing
emplo ye
read ing</w>
rema ins</w>
ah len</w>
our cen</w>
ber t</w>
Bekämp fung</w>
hol d</w>
ich ten</w>
fund ing</w>
ru s</w>
sätz e</w>
Al so</w>
ti v
De z
er enden</w>
K op
c ause</w>
b ig
i le</w>
Produ ktion</w>
ein schließlich</w>
f än
ap poin
ung sp
ish ed</w>
Ser vices</w>
Gesund heits
spe ed</w>
selb st
sib ilities</w>
is land</w>
ali st</w>
ti li
suppor ted</w>
erk ennen</w>
charac ter
H y
inter ess
lea ve</w>
acc ord
setz ungen</w>
E rach
m bo
Erach tens</w>
J av
m eines</w>
D inge</w>
ther more</w>
Zent r
g ünsti
indepen dent</w>
li ert</w>
an ia</w>
zwei te</w>
on nen</w>
Par ty</w>
fran zö
gew öh
k li
kri min
zeh n</w>
mobi le</w>
bet ro
ver l
D or
Yor k</w>
St o
In sel</w>
Koso vo</w>
Z ahl</w>
re staurants</w>
Res er
zahl reiche</w>
Ch rist
instru ment</w>
M y
consu mer</w>
produ ce</w>
b illion</w>
assi stance</w>
Sp iel</w>
R ess
mo vement</w>
Tran spar
terran ean</w>
D om
Bestimm ungen</w>
ck er</w>
compre hen
P ap
ro r</w>
pro b
pres ents</w>
n ö
Boo king</w>
demon str
zi p</w>
ari es</w>
let ter</w>
pre par
im pres
ge m</w>
Inform ations
pur pose</w>
Dem o
accep table</w>
Tran s
de te</w>
Fortsch ritte</w>
v an</w>
zeu ge</w>
qu are</w>
ge wis
ne y</w>
West ern</w>
er weiter
Vor aus
pl om
el te</w>
re a</w>
kon zent
er ster</w>
rei b
sag te</w>
add res
l ös
C u
w ander
ten den</w>
L E
sch ütz
Hand els
f r
spr ün
cre ating</w>
ich t
S onn
simil ar</w>
geb aut</w>
a h</w>
Kre di
mög lichkeiten</w>
ru le</w>
S E</w>
ges ell
s ource</w>
acti vity</w>
apart ment</w>
L es
con v
C ro
Jahrhunder t</w>
O per
Pre ise</w>
b rought</w>
Dez ember</w>
Lu ft
i cial</w>
rel ation</w>
p ul
la un
op tion</w>
Mar ch</w>
äu ß
Po sition</w>
ex ec
our selves</w>
regul ations</w>
ill ed</w>
h es</w>
syst eme</w>
lar gest</w>
le gung</w>
minist er</w>
w ritten</w>
ic es</w>
außer dem</w>
im mer
ho ben</w>
ausge stattet</w>
Fun ktion</w>
k in
Erklär ung</w>
ri eben</w>
st eps</w>
fre qu
Janu ary</w>
soli dar
on dly</w>
sol chen</w>
St elle</w>
m ein</w>
Ger ä
er zeu
D r</w>
Di alog</w>
em and</w>
air port</w>
P rü
er e
vol len</w>
el e</w>
lei cht</w>
L auf
si x</w>
prä sen
sch au
wur f</w>
c e
d adurch</w>
stän de</w>
instru ments</w>
G ei
st ung</w>
m ine</w>
ple ased</w>
versi ty</w>
shi ps</w>
Wachst um</w>
ac ts</w>
categ ories</w>
con struc
zwei ten</w>
ber ühm
exp la
Re public</w>
Nor th</w>
ho he</w>
Mehr heit</w>
f ishing</w>
Oc tober</w>
vari ety</w>
los sen
Bil d
ins gesamt</w>
C lub</w>
wi d
ha fen</w>
credi t</w>
si des</w>
S ite</w>
P unkte</w>
inter pre
ra di
con ference</w>
rel ation
l ten</w>
Han del</w>
pa id</w>
größ ten</w>
il om
ges ellschaft</w>
1 2
in stead</w>
mes sage</w>
m ers</w>
C ha
medi um</w>
op e</w>
lei der</w>
re in
Auf merk
discus sion</w>
j ün
s sel</w>
inten si
docum ent</w>
e te</w>
eh er</w>
Str and</w>
auf genommen</w>
einzi ge</w>
Vorsch riften</w>
typ es</w>
stell ten</w>
po st</w>
p ati
th ous
bec ame</w>
Gewal t</w>
B as
Musi k</w>
s th
Er zeu
Medi terranean</w>
vo c
fis her
reg ards</w>
re over</w>
ar en</w>
D et
st ability</w>
ex tra</w>
stu dy</w>
sec tion</w>
ar ran
ateg orien</w>
gel an
star ted</w>
gn isse</w>
Entschei dungen</w>
Am eri
di stance</w>
ev ent
it em</w>
ver gangenen</w>
gi ving</w>
c ross</w>
Itali an</w>
S we
s a</w>
ab ge
f la
tel l</w>
s au
An forderungen</w>
Inst all
B undes
N ur</w>
distri bution</w>
c ast
Mär z</w>
Kü che</w>
K ün
alis m</w>
Fe der
a i
wer k
opp ing</w>
sel s</w>
ob en</w>
legisl ative</w>
ep h
fol gt</w>
H i
F ak
Bal k
h aus</w>
interest ing</w>
M S</w>
P ho
T or
por ate</w>
bewer tungen</w>
ag ing</w>
ord ini
p ass</w>
Bu d
ko sten</w>
ill s</w>
allo wed</w>
einzi gar
Aufmerk samkeit</w>
H ung
sign ed</w>
st ers</w>
y ond</w>
au lt</w>
Ma sch
To day</w>
g ste</w>
di g</w>
c lick</w>
procedu res</w>
partn er
genie ßen</w>
conc ept</w>
P S</w>
ch tung</w>
Span ish</w>
conven i
b ase</w>
In de
stra tion</w>
sh ops</w>
Freih eit</w>
ec k
A gr
a i</w>
rei bung</w>
Gef ahr</w>
stat ement</w>
an ge</w>
u le</w>
sch ool</w>
archit ec
comp on
ter t</w>
L ehr
Ri ghts</w>
rela x
et z</w>
pa yment</w>
k ein
konzent ri
to ol</w>
mm ing</w>
ä st
W est</w>
St äd
S im
Cent er</w>
com promise</w>
e ven
nis sen</w>
Proje kte</w>
ologi en</w>
vi er
elec tri
Stand punkt</w>
qu ar
le ge</w>
St är
M acht</w>
dam age</w>
V illa</w>
Beschäf tigung</w>
Wir k
letz t</w>
contri bution</w>
lie genden</w>
tei en</w>
ev alu
Gr enzen</w>
histor ical</w>
agen da</w>
provi sions</w>
Al ler
ver ty</w>
kur z</w>
stand s</w>
G al
pur su
Berei che</w>
B on
vil lage</w>
Emp feh
ab ri
Stad t
199 7</w>
do w</w>
über sch
I L
G oo
Gäste bewertungen</w>
gel ten</w>
we g
fas sen</w>
Develop ment</w>
M us
ro s</w>
oll ar</w>
Land wirtschaft</w>
viol ence</w>
Ju ly</w>
m in</w>
S up
sp orts</w>
eigent lich</w>
di men
bo x</w>
pos es</w>
di se
eff ort</w>
L ab
buil d</w>
ul i</w>
qu iet</w>
v in
T ab
kon nten</w>
Ex per
Dur ing</w>
neu er</w>
be vor</w>
elec tron
Wi der
kon trol
Rah men
w ine</w>
wei s
tempor ary</w>
en ced</w>
fahr t</w>
l auf
sh or
dri ve</w>
Ro oms</w>
N r</w>
Portu gal</w>
tri t
sel n</w>
Bel gi
ein gesetzt</w>
gewöh n
U R
n or</w>
lab our</w>
t ask</w>
E m
O pf
B ad</w>
ü b
Re form</w>
Ber u
docum ents</w>
en gen</w>
An frage</w>
cri teria</w>
isti schen</w>
Wettbewer b</w>
lie ß
ie te</w>
7 5</w>
S il
E re
s us
oper ating</w>
cra ft</w>
esti val</w>
P res
Kra ft</w>
expres s</w>
Investi tionen</w>
fan gen</w>
Af gh
l ate</w>
do wnload</w>
Kon ferenz</w>
europä ischer</w>
V is
v ements</w>
f alt</w>
wen ige</w>
kti ven</w>
ren e
Regel n</w>
jus ti
Benutz er</w>
nie dri
N ationen</w>
Fol gen</w>
Unter such
l o</w>
Fischer ei
con st
ut ting</w>
integr ated</w>
Ok tober</w>
lie f
fin ally</w>
men sch
dra ft</w>
Bil dung</w>
a p</w>
to ols</w>
benef its</w>
P H
N ation
un mittel
durch geführt</w>
Chr isti
kl assi
ra t</w>
P as
gro wing</w>
equ al</w>
E ig
M eine</w>
Frühst ück</w>
Janu ar</w>
w onder
dig ital</w>
el ements</w>
on t</w>
st able</w>
Diskus sion</w>
Fir ma</w>
St ar</w>
aktu ellen</w>
B or
M A
größ te</w>
Lin ie</w>
l as</w>
t au
con om
M any</w>
sch wer
Universi ty</w>
happ y</w>
Transpar enz</w>
ger ä
st es</w>
requ ire</w>
v al
con ver
c on</w>
Sin ne</w>
as se</w>
Cent re</w>
benö tigen</w>
Berich ts</w>
ma sch
altern ative</w>
eb s
wichti ger</w>
immedi ately</w>
Tele f
Person al</w>
be ziehen</w>
speci fic
high est</w>
g ot</w>
Se e</w>
Kin der
T u
Ver än
mu t</w>
k at
li a</w>
r at
Grün den</w>
tig ungs
b y
Präsiden ten</w>
apart ments</w>
for ces</w>
transpar ency</w>
un sch</w>
Al though</w>
chan ged</w>
h ed</w>
Z un
ein fa
Z ur</w>
Enter prise</w>
Ter ra
in en
Kön ig
in stal
off icial</w>
ange sichts</w>
Hö he</w>
Stu di
hör en</w>
Schwi er
go es</w>
D u</w>
ast ern</w>
ch i
E v
ve au</w>
H ig
sch utz</w>
su b</w>
fol genden</w>
get an</w>
K ern
all ein</w>
aus drück
dan ke</w>
or row</w>
ahn hof</w>
Feri en
erwar ten</w>
ver öffent
E conom
par king</w>
fin e</w>
kann st</w>
T r
Y our</w>
b usin
ab schie
employe es</w>
19 5
S af
wi esen</w>
S ho
Kun st
ur sprün
fri ends</w>
Feh ler</w>
E is
m ous</w>
ih res</w>
Prä sidentschaft</w>
opp el
At mosp
de ath</w>
app lied</w>
elec tions</w>
Agr ar
tra in</w>
re ality</w>
Bed ürf
con trac
Ne w
as tic</w>
Lo c
Bem üh
iz ed</w>
Par k
ac e
gen s</w>
Ver tei
help ful</w>
F lu
Bul g
Auff assung</w>
num erous</w>
gel ö
hin ter</w>
it en</w>
pho to
transp or
sub stan
analy sis</w>
ge wäh
so fort</w>
c ent</w>
ann ual</w>
avo id</w>
challen ges</w>
vol ution</w>
ständi ge</w>
t ac
Sa che</w>
lö sen</w>
advan tage</w>
Öffent lichkeit</w>
E L</w>
po verty</w>
c lu
da ily</w>
trau m</w>
kei ts
proc esses</w>
institu tion
Flug hafen</w>
ätz e</w>
g ation</w>
Priv at
person s</w>
Fur thermore</w>
per man
ti tu
kti v</w>
DV D</w>
b ru
Ere ig
off izi
dis crimin
gi c</w>
v ali
Bet ei
solidar ity</w>
Dru ck</w>
alisi ert</w>
wieder hol
r aten</w>
erfolgre ich
zeu g</w>
re view</w>
n ungen</w>
fa ir
eff e
demokrati schen</w>
tal k</w>
V öl
ur g
tim ate</w>
H eute</w>
be hör
K ör
a der</w>
eg ation</w>
occ a
2 3
al te</w>
W ahl
wor tern</w>
erneu t</w>
aus reich
P au
consequ ences</w>
ein gesch
bath room</w>
si l
sa ying</w>
ho st
Kom promis
off ering</w>
ell es</w>
zeichn ung</w>
die jenigen</w>
p un
le gt</w>
fas st</w>
ear ch</w>
C al
S P
j ähr
gh t
o ber
Pal est
begrü ße</w>
schö nen</w>
be yond</w>
öffent liche</w>
S ou
ag ed</w>
Tages ordnung</w>
Bil der</w>
di gt</w>
histor ic</w>
Dat ei</w>
sel y</w>
ber echti
ß er</w>
conflic t</w>
hau pt</w>
ge worden</w>
ade qu
Kap it
m ess
he ad</w>
entsprech enden</w>
st ark
se as
mor gen</w>
Änder ung</w>
nah e</w>
ther wise</w>
C i
effici ency</w>
O st
Hig h</w>
li ves</w>
p lus</w>
est er</w>
cur ren
wir ken</w>
K ommission
zun ehmen
recomm end
9 8</w>
Urlau b</w>
bu ffet</w>
ec ken</w>
ld wide</w>
Arch it
R en
bei tragen</w>
sc ap
i ze</w>
ra tive</w>
colleag ues</w>
off ered</w>
C amp
minim um</w>
Fäl len</w>
J uli</w>
sat z
er ter</w>
g yp
s ent
Bemüh ungen</w>
ge tro
R O</w>
Austri a</w>
An ge
op tions</w>
timm ung</w>
T ou
gre at
k ehr
g keiten</w>
wer te</w>
berei t
D o</w>
car ry</w>
Re staurants</w>
b ran
empha si
Schlussel wortern</w>
fa il
lang fris
sch o
ig ran
il legal</w>
en se</w>
ler nen</w>
Mon aten</w>
wan ted</w>
modi fied</w>
terror ism</w>
k i
star ting</w>
be handelt</w>
W ell
ide as</w>
le c
publi shed</w>
prac tical</w>
Ba sis</w>
An satz</w>
besch rän
St ar
requi res</w>
R oom</w>
bal an
ch tet</w>
e f</w>
establi sh</w>
s inn
P hi
wahr schein
ut ely</w>
bet rä
h ou
bed ingt</w>
bek ämp
L eg
ne ws</w>
trans fer</w>
b ir
zu frie
po or</w>
pla yer</w>
ph one</w>
verhin dern</w>
Bür gern</w>
industri e</w>
bi a</w>
z in
d t</w>
ver standen</w>
K am
implement ed</w>
sh opping</w>
use ful</w>
M au
einf ach
Direc tive</w>
tre i
Re publik</w>
re ference</w>
di vi
H el
Gr ö
Micro soft</w>
l ing
Poli tik
Lie fer
organis ations</w>
Dat eien</w>
berücksichti gt</w>
e g</w>
Stand ard</w>
si eren</w>
exp ect</w>
199 6</w>
gri ffen</w>
zü gi
we eks</w>
entsprech end</w>
mach ine</w>
Ta gen</w>
monit oring</w>
pro je
ci ties</w>
Itali en</w>
hä tten</w>
wä l
i or</w>
An sch
komm ens</w>
prote c
be halten</w>
tur ned</w>
Behand lung</w>
rech ts</w>
suffici ent</w>
ali en</w>
th ought</w>
tom orrow</w>
erfol gt</w>
ver gessen</w>
d nis</w>
congrat ulate</w>
lo sen</w>
zi p
cir cum
pa ar</w>
Techn ologie</w>
se ktor</w>
maxim um</w>
cru cial</w>
cli ents</w>
s ales</w>
ander em</w>
W a
gen ce</w>
lear n</w>
sec ure</w>
Milli ar
l le</w>
d ner</w>
Un ter</w>
tro tz</w>
Bürger innen</w>
rel ating</w>
f oo
N AT
l am
Sp ei
M ün
lab or
c ut</w>
w ser</w>
an lage</w>
z t</w>
min ute</w>
sor g
wei st</w>
techn ischen</w>
b a</w>
re le
reduc tion</w>
wer t
mark s</w>
B rü
M c
Sch lü
T at</w>
ver treten</w>
I N</w>
zu führen</w>
techn ologies</w>
kur z
Atmosp häre</w>
ar a</w>
some times</w>
l esen</w>
si en</w>
mor ning</w>
Ma ß
s ü
ver sucht</w>
dru ck
Sch ließ
Ver gan
olog ischen</w>
Amend ment</w>
Nach bar
ep age</w>
el ds</w>
stre et</w>
moun tain</w>
ander s</w>
richti ge</w>
mon th</w>
cla im
comprehen sive</w>
So ci
caus ed</w>
get ary</w>
sich ern</w>
s ation</w>
em ail</w>
ser ves</w>
deut schen</w>
nat ür
si gkeit</w>
vo ting</w>
g ames</w>
us w</w>
lau b
L e</w>
chil d</w>
struk tur</w>
ho ch</w>
camp a
Erfahr ungen</w>
4 8</w>
M ag
Ver häl
D en</w>
fol gen</w>
I mp
eh em
C am
de gre
be mü
E ven</w>
reas on
ther ap
Whi le</w>
b and</w>
P D
P en
pro fi
S icht</w>
gem ents</w>
G et
s ession</w>
moder nen</w>
th eless</w>
ver wal
ff enen</w>
Ber at
k ro
accord ance</w>
st ör
ver theless</w>
Nat ürlich</w>
th in
fü gen</w>
B lu
F R</w>
k ers</w>
any thing</w>
per fe
Rechts vorschriften</w>
N icht</w>
trä gt</w>
fre ih
n ungs
über haupt</w>
k i</w>
wa ste</w>
institu tional</w>
on y
Menschen rechts
F ähi
ex ac
war um</w>
Be gin
al one</w>
histor ischen</w>
Grupp en</w>
Span ien</w>
k tive</w>
di sa
br ing
nor m
pl ans</w>
sor gung</w>
lo wer</w>
Proto kol
beg in</w>
n ehm
Me er
le y</w>
prob ably</w>
ist s</w>
can di
pla yers</w>
erklär t</w>
Al tern
langu ages</w>
f it
av ing</w>
Forsch ungs
M om
i ed</w>
zahl reichen</w>
verantwor tlich</w>
interest ed</w>
Begin n</w>
I s</w>
metho d</w>
Wo chen</w>
r ück
Sch utz
Comp uter</w>
ep ing</w>
Ress ourcen</w>
or ie</w>
ch s
um en</w>
L assen</w>
bi tion</w>
du le</w>
bre chen</w>
s äm
cer ti
Aufenth alt</w>
Pro te
wel ches</w>
betre ff
Finanzi erung</w>
c a
Drit t
Frank fur
Afgh an
off en</w>
gra f
Air port</w>
conc ent
lik ely</w>
acc ession</w>
Con ference</w>
F ron
Aspe kte</w>
far mers</w>
ima ges</w>
k ap
ex tent</w>
scienti fic</w>
P E</w>
t ari
men u</w>
l auf</w>
ti sch</w>
wor ldwide</w>
wor ked</w>
re lease</w>
D ol
gew esen</w>
sc ale</w>
C li
M and
t ori
tn isse</w>
erfül len</w>
su s</w>
be ste</w>
S wis
gar den</w>
ig keit</w>
gre en</w>
t oren</w>
ch ter</w>
voll ständig</w>
metho ds</w>
F el
is sen</w>
men tion</w>
Vergan genheit</w>
ch ance</w>
K u
K al
M ac
mo tion</w>
A gent
führ te</w>
angem essen
zei ten</w>
swi mming</w>
häufi g</w>
D ro
challen ge</w>
An der
Qu alitä
zu min
Sec urity</w>
gesch affen</w>
stell te</w>
In halt</w>
f ish</w>
Al t
erfolgre ich</w>
streng th
ad verti
grupp e</w>
end lich</w>
Goo gle</w>
neu es</w>
proz ess</w>
trit ts
coun t</w>
F ac
b es</w>
sec tors</w>
Chin ese</w>
jewei ligen</w>
ck ets</w>
Vide o</w>
D re
é s</w>
zumin dest</w>
Publi c</w>
occ up
M ei
s un
c in
ti ges</w>
process ing</w>
I F
9 9</w>
zi g</w>
S onder
appe ar</w>
Ad resse</w>
verpflich tet</w>
An ti
w ood</w>
as p
bed au
gewi esen</w>
F und</w>
power s</w>
f ts
Zwei tens</w>
at tra
pa in
st ets</w>
be für
Stern e</w>
en ze</w>
re land</w>
Fre e</w>
un er
W erte</w>
zah lt</w>
fi elds</w>
un ten</w>
L it
lo st</w>
er o</w>
ver age</w>
Viel e</w>
er ende</w>
außer halb</w>
jus tice</w>
busin esses</w>
k am</w>
selec tion</w>
wal king</w>
pas sen
erwar tet</w>
4 00</w>
Min der
Woh l
o de</w>
Bes onder
gen utzt</w>
accep ted</w>
ap preci
Sch ritte</w>
schütz en</w>
flä che</w>
des pite</w>
0 9</w>
ar gum
strategi c</w>
an g
com fort</w>
ter en</w>
ic a</w>
inc or
Syst em
sen si
ver trau
k ennen</w>
Berichterstat terin</w>
ail s</w>
ex erc
emp feh
f ying</w>
Gr and</w>
ut y</w>
fl uss</w>
Arbeitn ehmer</w>
N ot</w>
Th ank</w>
f res
ausge zeich
ma p</w>
P l
vi ert</w>
W ol
Ö ster
I reland</w>
st ab
ei l</w>
s eines</w>
brau cht</w>
ra ised</w>
b lu
ach tet</w>
gn is</w>
leist et</w>
Vertrau en</w>
0 8</w>
Angele genheiten</w>
persön lichen</w>
Rus sian</w>
Angele genheit</w>
est er
st atisti
w ell
sp rü
t y
visi tors</w>
influ ence</w>
innov ation</w>
sp rech
ament ary</w>
separ ate</w>
E l</w>
bar er</w>
genu g</w>
Gebäu de</w>
wahrschein lich</w>
heu tigen</w>
h eben</w>
contra ct</w>
Zentr al
tr ying</w>
letz te</w>
dou bt</w>
a war
1 50</w>
Da zu</w>
w r
ö ri
In fra
absol utely</w>
Ges prä
imple ment</w>
Schwier igkeiten</w>
lo sigkeit</w>
A T</w>
Ber g
flexi ble</w>
Heraus forderungen</w>
sc ope</w>
ou rable</w>
her aus
W ein
schaf t
erlau bt</w>
oper ate</w>
ad o</w>
co he
Di stri
s le
amerikan ischen</w>
Pra xis</w>
m and
Vertre ter</w>
Ba de
besser e</w>
aus schließlich</w>
Entschließ ungs
Pre is
Kün st
is ation</w>
Spiel er</w>
St ation</w>
Fo to
jo in</w>
I D</w>
Par teien</w>
l ess
ati v
t our</w>
U K</w>
fäl lt</w>
lea ders</w>
bil den</w>
Pre mi
Aller dings</w>
se chs</w>
cri pt</w>
Produ kt</w>
dem ands</w>
A le
erkenn ung</w>
y our
geh öri
gesch ütz
elek tron
Ein richtung</w>
t ations</w>
n ü
u tive</w>
nam ely</w>
pr ises</w>
N eben</w>
ar k</w>
On ly</w>
lo ve</w>
Bet rie
stu di
I ma
An gebo
u re
aff ected</w>
bor ders</w>
di sche</w>
Ein ige</w>
cri tical</w>
ru ption</w>
Sch wer
Hin sicht</w>
ger ungen</w>
open ing</w>
b rie
zeich nen</w>
K las
Regi on
Eig ent
inten ded</w>
g st</w>
3 3</w>
get ting</w>
Sec ondly</w>
Fol ge</w>
h our</w>
D enn</w>
Con stitu
call s</w>
priv aten</w>
Mo reover</w>
hear d</w>
D ra
ri d</w>
erinn ern</w>
gesch i
gel n</w>
W unsch</w>
stoff e</w>
k lu
k rise</w>
wei ten</w>
sta aten</w>
regi me</w>
over all</w>
aff t</w>
sel ben</w>
F alls</w>
E T
Sta at</w>
di plom
bit ten</w>
D im
war m</w>
Sp ec
Instru ment</w>
M O
A gre
H T
neg ative</w>
Ih res</w>
w inn
adop t</w>
and a</w>
Opf er</w>
vorgesch la
S port
sa ys</w>
V il
gel t</w>
allgem einen</w>
itali en
st ore</w>
in si
mp tion</w>
exp ec
ori enti
ter e</w>
Solidar ität</w>
S Q
An nahme</w>
fäl le</w>
represent atives</w>
M L</w>
h tt
zu künf
your self</w>
Ho ff
Auf gaben</w>
Nach fol
NAT O</w>
for ced</w>
li en</w>
ge kommen</w>
über nehmen</w>
Su per
P ati
Regi erungs
sch ung</w>
relation ship</w>
9 5</w>
D ann</w>
R ed</w>
Struk tur
moder ne</w>
L am
l aufen</w>
ehem ali
ban ks</w>
run ning</w>
W er</w>
C z
S eh
Frie den</w>
A K
initi atives</w>
Arbeitsplätz e</w>
isti c</w>
l ass</w>
S om
G N
K rieg</w>
M er
traff ic</w>
st ress</w>
M ex
streng ungen</w>
us ually</w>
aus ch</w>
entschei den</w>
Mittel me
geb iet</w>
tr e</w>
begr enz
expres sed</w>
Pe ople</w>
su itable</w>
c en
Afghan istan</w>
sch wer</w>
even ing</w>
dat ab
j ahr</w>
kl ein
pe ace
se e
kon om
prü ft</w>
0 s</w>
stän den</w>
tar get</w>
R el
S yn
v ent
r en</w>
bor n</w>
colle c
Kul tur
bewus st</w>
H ä
exp ected</w>
bei de</w>
gener ation</w>
h a</w>
dar stellt</w>
S O
commit ted</w>
Organis ationen</w>
9 7</w>
M ore</w>
ün f
zu dem</w>
hil fen</w>
begrü ßen</w>
Ob wohl</w>
main ly</w>
fre ie</w>
com par
pro per</w>
V oll
f ant
automati sch</w>
administ ration</w>
0 er</w>
d ated</w>
ru p
s i</w>
Di re
l ern</w>
sit ting</w>
Gesam t
e e
f el</w>
ra il
eth n
I ts</w>
appro ved</w>
w in</w>
tal king</w>
main tain</w>
Produ kt
Syst eme</w>
än der
D A
forder ung</w>
gele gen</w>
Kun den
H u
ch ec
Er stens</w>
kar te</w>
Ob je
Verf assung</w>
ter race</w>
et ings</w>
N ord
L eute</w>
ver mei
bu ch</w>
för dert</w>
mu si
fan gre
plann ing</w>
il leg
nach ten</w>
install ation</w>
D oppel
Verpflich tungen</w>
s agt</w>
v ital</w>
S S</w>
dest ens</w>
d eine</w>
ex tra
vorgesch lagen</w>
n ä
ing er</w>
Er n
at ure</w>
E M
k ürz
aci ous</w>
at or
min i
nor mal</w>
tour ist</w>
li gung</w>
curren cy</w>
Ar mut</w>
steh ende</w>
Über wach
confi dence</w>
ein ger
famili es</w>
R ats
th in</w>
Agen da</w>
T sch
par te
sh e
3 4</w>
F alle</w>
r i</w>
m är
cohe sion</w>
Kun st</w>
Rom a</w>
D e</w>
Bi o
publi c
impro ved</w>
st ein</w>
del ines</w>
fre uen</w>
eindeu tig</w>
k ü
b ul
colle ction</w>
sp ann
en des</w>
los oph
k am
6 5</w>
h eb
prac tic
Milliar den</w>
G rie
struc tures</w>
u ten</w>
milit är
n ern</w>
correc t</w>
contro ll
Im mobili
li c</w>
Ele k
S ign
führ ten</w>
pho to</w>
au di
ly mp
Co sta</w>
administ rative</w>
Kri terien</w>
Sit zung</w>
B ec
go al</w>
größ ere</w>
Par tei</w>
stu dents</w>
Co de</w>
Zus timmung</w>
f ei
ent schie
An strengungen</w>
Re ak
Inv est
S ant
ti ous</w>
6 4</w>
k aum</w>
re forms</w>
lich ung</w>
gu li
sp er
scre en</w>
N un</w>
a g</w>
ben utzt</w>
struc tural</w>
Sp a
w est</w>
ha ft</w>
feat ure</w>
Kar te</w>
H ause</w>
deli very</w>
Char ak
wh ite</w>
comm ents</w>
0 7</w>
olog ische</w>
exc ep
b on
increas ingly</w>
er gän
conclu sion</w>
Fil m</w>
wh om</w>
sti eg</w>
pp ing</w>
n ationale</w>
tim s</w>
deci de</w>
T y
competi tive</w>
eng ine
but ed</w>
circum stances</w>
sa chen</w>
Proz ent</w>
T em
tem perat
ä den</w>
An erkennung</w>
ali sten</w>
sp richt</w>
reduc ed</w>
zusätz liche</w>
prote cted</w>
schaf tliche</w>
er land</w>
Protokol l</w>
um fangre
ück e</w>
Sü d
3 6</w>
automati cally</w>
b um</w>
cri tic
ll a</w>
verein bar
gen annt</w>
Ide e</w>
C he
N ations</w>
a y
entsp richt</w>
G ast
un bedingt</w>
199 5</w>
Fun ktionen</w>
re agi
cri me</w>
Vereinbar ung</w>
grupp en</w>
la ws</w>
S ing
te ach
Binnen markt</w>
W ahlen</w>
Terror ismus</w>
Verwal tung</w>
alle y</w>
electron ic</w>
vo ice</w>
el se</w>
t on
s ources</w>
Ira q</w>
p es</w>
20 20</w>
cel eb
ic o</w>
Er d
mit ten</w>
titu de</w>
beg an</w>
defin ed</w>
re siden
Fu ß
pri orities</w>
P L</w>
Somm er</w>
9 6</w>
beg innen</w>
ver tre
so fern</w>
form at</w>
de cor
überzeu gt</w>
g g
un employment</w>
o o</w>
esti c</w>
an ci
Palest ini
I st</w>
schön e</w>
power ful</w>
selbst verständlich</w>
eri es</w>
z lich</w>
sup ports</w>
i k
glei che</w>
pla yed</w>
us s
exten sive</w>
infra structure</w>
M ach
contri bute</w>
vor gelegt</w>
found ed</w>
speak ing</w>
at o</w>
stär ker</w>
co ff
particip ation</w>
En ga
ens uring</w>
Gipf el</w>
is ely</w>
ge tragen</w>
min destens</w>
er reich
wor th</w>
pa y
N ah
Stell ung
5 5</w>
y al</w>
introduc ed</w>
t abled</w>
ck ed</w>
H or
k en
por ted</w>
emis sions</w>
O R</w>
I denti
sp ie
Vol k</w>
fun ctions</w>
htt p</w>
posi tions</w>
plan ts</w>
ch ern</w>
le ment</w>
Aussch uß</w>
per spec
k ategorien</w>
p ing</w>
tz dem</w>
under standing</w>
ent y</w>
h und
v ac
st one</w>
ex ist</w>
In halte</w>
vic tims</w>
specific ally</w>
Medi en</w>
unterschie dlichen</w>
Swis s</w>
ri es</w>
erwäh nt</w>
deli ver
erle i</w>
ver abschie
encoura ge</w>
effec tively</w>
ver lässi
s outh</w>
re gre
A sia</w>
t ter</w>
ther e
SQ L</w>
b ü
be ha
he ad
pleas ant</w>
rec ord</w>
schnit t</w>
be qu
gen cy</w>
finan cing</w>
Produ kten</w>
glau ben</w>
l ad
gere cht</w>
Fl or
ge zeigt</w>
Rei se
tra ck</w>
stat tung</w>
an ische</w>
W äh
k ts</w>
Durch führung</w>
as su
S oll
fizi erung</w>
fel low</w>
Frankfur t</w>
Inde ed</w>
4 9</w>
O sten</w>
st ated</w>
Stra ße</w>
Indi a</w>
ab kommen</w>
Haush alt</w>
Be stand
berücksichti gen</w>
f rüh
acc es
grün det</w>
tel eph
J ust</w>
3 7</w>
b ab
em o
rit ann
E G</w>
v an
vor her
aktu elle</w>
As soci
sy mbo
s eiten</w>
agri culture</w>
W ann</w>
der zei
m anner</w>
hil fe</w>
fur nis
Mit teilung</w>
lief ert</w>
mehr eren</w>
um s
p aper</w>
pur poses</w>
erk annt</w>
z ing</w>
wesent lich</w>
si vely</w>
sich ten</w>
nach dem</w>
las h</w>
drin gend</w>
W ar</w>
N utzen</w>
hin weisen</w>
hoch wer
Agre ement</w>
ent ry</w>
as ks</w>
li gt</w>
entsprech ende</w>
Bem erk
open ed</w>
Joh n</w>
g lie
lar ger</w>
S E
manag ed</w>
E ach</w>
par ag
Vor teile</w>
am b
lat er
Se ktor</w>
M el
part ment</w>
refer red</w>
deta iled</w>
wonder ful</w>
si t</w>
he al
anim als</w>
Fo re
V ari
Stabili tät</w>
4 2</w>
x es</w>
k ungen</w>
mem ber
Sp a</w>
rech ten</w>
verfüg bar</w>
Besu ch</w>
So cial</w>
S M
on y</w>
li sted</w>
Gre en</w>
aim ed</w>
mark eting</w>
Techn ologien</w>
disc uss</w>
ga in</w>
O lymp
spiel e</w>
lin ked</w>
Christi an</w>
glob alen</w>
ass ungs
g ert</w>
de dic
cont in
pr e</w>
reg ular</w>
ar tige</w>
Re formen</w>
de ter
bil ater
er fahren</w>
entwick lung</w>
imm ern</w>
r ent</w>
ac ci
ar ge</w>
ho ffen</w>
partner ship</w>
Ü ber</w>
eu ch</w>
st ent</w>
ru ral</w>
li mit</w>
pas sen</w>
be ds</w>
kli cken</w>
ati vely</w>
Au gen</w>
Hom epage</w>
c amera</w>
Poli cy</w>
ste chn
tro ll
Bo ard</w>
exac tly</w>
N ahr
stär k
ex isti
transpar ent</w>
wr ong</w>
besonder en</w>
n ehmer</w>
Fun ktion
0 2</w>
auf s
Mi o</w>
P lan</w>
poli ce</w>
adequ ate</w>
0 5</w>
w on</w>
Se a</w>
be coming</w>
Febru ary</w>
D ig
assess ment</w>
bestimm t</w>
att le</w>
su ite</w>
ris ks</w>
o therwise</w>
3 9</w>
prec isely</w>
Kredi t
land scap
w ent</w>
techn ische</w>
Sch we
discus sed</w>
S port</w>
Br us
zei chen</w>
re jec
be stehenden</w>
akzep tieren</w>
sicher zustellen</w>
cli ent</w>
komm enden</w>
v el</w>
re presents</w>
D ollar</w>
lux uri
si zed</w>
bud getary</w>
I II</w>
S I
g or
en heit</w>
satis fac
N u
gan gs
Swi tz
B ran
d ware</w>
ens wür
umfangre ich
Konta kt</w>
ten d</w>
wan ts</w>
sidi ar
sel ected</w>
oper ations</w>
met res</w>
ben utzen</w>
progra ms</w>
Jah res
e b</w>
we ap
P un
meas ure</w>
Hum an</w>
ch mal</w>
sh of</w>
zent rum</w>
akti v</w>
sieh e</w>
develop ments</w>
getro ffen</w>
st ro
introduc tion</w>
discus sions</w>
j ene</w>
ar ischen</w>
en er</w>
Pro c
wa gen</w>
wer ke</w>
Famili en</w>
ta ges</w>
Th en</w>
Z y
Wh y</w>
Ver sch
techn i
ing dom</w>
Gar anti
ver lei
Schließ lich</w>
erzi elt</w>
cr ats</w>
i al</w>
Li z
er o
vo tes</w>
Au stra
p il
A kti
F r
p h</w>
Zu dem</w>
Su che</w>
Zun ächst</w>
gelö st</w>
hr en</w>
mög licherweise</w>
dom in
fres h</w>
C at
it ation</w>
Anwen dungen</w>
enter prises</w>
open ha
füh l</w>
läu ft</w>
in side</w>
al ter</w>
li o</w>
Hal tung</w>
medi cal</w>
thous ands</w>
Au to</w>
Op en</w>
kit chen</w>
P r
notwendi gen</w>
B est</w>
mög lichen</w>
er ti
is tics</w>
cle an
n y</w>
is ine</w>
bu y</w>
Ein richtungen</w>
Ch ance</w>
ch ter
4 4</w>
S un
re fu
Switz erland</w>
ar m
respon d</w>
hou ses</w>
graphi c</w>
Vertra gs</w>
k op
y e</w>
ch ron
e ten</w>
fac ilit
Apart ments</w>
di enst
T au
du m</w>
ster ed</w>
I V</w>
zu letzt</w>
finanzi ellen</w>
p sy
geb enen</w>
ge ändert</w>
Zei chen</w>
we gung</w>
E mis
Fle xi
am en
Tur k
Minist er
erfül lt</w>
gui delines</w>
Wettbewerbs fähigkeit</w>
E st
war ten</w>
pla ying</w>
Tran sport</w>
su r</w>
CO 2</w>
tu red</w>
exclu sive</w>
ear lier</w>
P T</w>
buil dings</w>
sur ance</w>
Mi ddle</w>
re present</w>
win ter</w>
Bel ar
follo wed</w>
ci ans</w>
fest gelegt</w>
pro por
um gesetzt</w>
en g</w>
bro ad</w>
ander es</w>
0 3</w>
L at
n ütz
lie fer
p assi
wei te</w>
verb un
M ini
geleg ten</w>
ho od</w>
ge wal
sch reiben</w>
enn a</w>
Währ ungs
ehr te</w>
Nation al
M ol
s timme</w>
di a</w>
yp e</w>
ge ber</w>
sp acious</w>
c ement</w>
be darf</w>
sp end</w>
clo sely</w>
Stand ards</w>
conv inc
d in
connec ted</w>
at ur</w>
breit en</w>
V ier
S he</w>
am ing</w>
Z immer
er greifen</w>
Unter kategorien</w>
al t
c ore</w>
ge mü
St and</w>
Aus bildung</w>
discrimin ation</w>
tour ism</w>
gra du
Mon ate</w>
Econom ic</w>
in come</w>
s li
Bre ak
An spruch</w>
V ir
net works</w>
berei tet</w>
suppor ting</w>
wei t
comp ens
degre e</w>
L ag
sho wer</w>
Go d</w>
elegan t</w>
seas on</w>
M ut
streng then</w>
m ischen</w>
M eter</w>
hi m
fac ing</w>
F la
sto ck</w>
qu anti
sci ence</w>
b ritann
vol ler</w>
3 8</w>
sp it
imm igration</w>
ein gerichtet</w>
ges und
fu n</w>
to t
en ster</w>
st ausch</w>
pop ul
isti sche</w>
impro ving</w>
f and</w>
su m</w>
ha ften</w>
Vor berei
rech t
Bar ro
be zo
0 6</w>
p ath</w>
Cz ech</w>
ma ß
sel ect</w>
vermei den</w>
ro man
vi eren</w>
S em
Gre ece</w>
N ame</w>
tel e
ra h
sa ve</w>
wor ten</w>
Kin dern</w>
teleph one</w>
lich em</w>
re member</w>
A ir</w>
grei f
au er</w>
d uty</w>
ber ich
Viel falt</w>
ac es</w>
au ßer</w>
ch ine
and ing</w>
pro to
consider able</w>
z y
T ier
ob ach
kra ft
happ en</w>
Kri eg
je derzeit</w>
boo king</w>
lich st</w>
Res earch</w>
Mo der
est en</w>
en det</w>
Geor gi
i erten</w>
ff er</w>
Gol f</w>
rich tet</w>
w and</w>
wel cher</w>
own ed</w>
ad ju
Sp it
Qualitä ts
dig it
e ad</w>
p en</w>
spe ech</w>
geeig net</w>
pr is
At lan
Konz ept</w>
Fo und
purch ase</w>
en b
he ar</w>
H is</w>
S timme</w>
dar unter</w>
freih eit</w>
lu ß</w>
ti ef
t led</w>
Schwei z</w>
typ ical</w>
gra de</w>
Ira k</w>
stär ken</w>
provi sion</w>
P ic
jewei ls</w>
ex pl
verfol gen</w>
eingesch rän
de ck
ori z
C le
spiri t</w>
w all</w>
dest ro
man i
sicher lich</w>
dra wn</w>
Kl ein
p ap
u tili
ent weder</w>
tain ment</w>
2 5
pres ence</w>
pri or</w>
di versity</w>
20 11</w>
Innov ation</w>
thin king</w>
Fre m
Betri ebs
Ein fluss</w>
m as</w>
w indi
ga ve</w>
de bt</w>
Do wnload</w>
Frie den
sich t
Tä tigkeit</w>
We ge</w>
Kenn tnis</w>
Mo st</w>
car ds</w>
d é
entschie den</w>
compon ents</w>
h ot</w>
Web seite</w>
mechan is
gew ün
b illi
bo dies</w>
rec eption</w>
A B
Men ge</w>
I A</w>
li sten</w>
ru fen</w>
M ess
Leist ungen</w>
S ci
teil weise</w>
sch lä
ver an
dor f</w>
cu isine</w>
Spra chen</w>
staat lichen</w>
E ver
exper ts</w>
Gar ten</w>
Mit te</w>
gelan gen</w>
n ation</w>
O T
sch lagen</w>
K rä
Gel d
politi scher</w>
anim al</w>
proper ly</w>
bre ak</w>
t inu
AD S</w>
sa w</w>
charac ter</w>
Stre et</w>
Verwal tungs
Febru ar</w>
Groß britann
be t</w>
A ktion
I R
ti vity</w>
wol lte</w>
an spru
li an</w>
Pro duc
el ement</w>
dis h</w>
En viron
it ems</w>
il l</w>
bro ad
Absch luss</w>
besu chen</w>
re fer</w>
erzi elen</w>
Mod ell</w>
Instru mente</w>
spiel t</w>
ordin ary</w>
ange zeigt</w>
Grie chen
Sal z
For derung</w>
au ff
fisher ies</w>
ul l</w>
ar i</w>
än den</w>
al d</w>
coordin ation</w>
Arbei ten</w>
Verein ten</w>
In s
zus timmen</w>
sti schen</w>
Brus sels</w>
kon ferenz</w>
verbesser t</w>
gener ally</w>
am e
perf ec
ph ra
kl are</w>
Pol and</w>
a des</w>
dra mati
enti rely</w>
Install ation</w>
ati schen</w>
coff ee</w>
For um</w>
All gem
zwei fel
Berich te</w>
competi tiveness</w>
Mo un
B ru
a el</w>
tra dition</w>
er leben</w>
br and</w>
vor gesehen</w>
auth ority</w>
erhö hen</w>
Re zep
l eng
ag no
über nachten</w>
tlin ie</w>
4 1</w>
pl ätze</w>
Ab schließend</w>
Sit z
t ter
ati n</w>
tr ust</w>
ju d
Europ e
Initi ativen</w>
funktion iert</w>
a verage</w>
pre sidency</w>
un be
ti ally</w>
de aling</w>
ausdrück lich</w>
übersch reit
f ach</w>
wär en</w>
sug gest</w>
tig keiten</w>
ti s</w>
s and
do wn
sch ä
De sign
Gr enz
zäh len</w>
ac tual</w>
Regel ung</w>
P len
auf merk
rel ate</w>
x e</w>
sto red</w>
sti t
han den</w>
eli min
displa y</w>
IS O</w>
af ter
difficul ties</w>
ha fte</w>
Vor sitz
Mitgliedsta at</w>
4 3</w>
cre te</w>
differ ence</w>
Bec ause</w>
sum mit</w>
reason able</w>
U l
d ol
6 00</w>
Abgeord nete</w>
uli eren</w>
F it
inform ed</w>
richti gen</w>
leist ung</w>
ing ton</w>
en han
parli amentary</w>
li e</w>
Ver bin
rap h</w>
flexi bility</w>
j et
rie si
t old</w>
al tung</w>
ali sts</w>
bet onen</w>
u de</w>
Schla f
pp er</w>
ti se</w>
me etings</w>
N E
moder n
Sch ön
spezi ell</w>
con dition</w>
Re fer
t to</w>
rec or
J etzt</w>
ell s</w>
mach ines</w>
k a
li ter
ab ilities</w>
se em</w>
kti eren</w>
hab it
end or
Dien ste</w>
Un abhängi
C lick</w>
N um
ge halten</w>
besch lossen</w>
ver ring
fi xed</w>
sch rän
vehic les</w>
Verän derungen</w>
Me chan
an ces</w>
ass es</w>
consider ation</w>
inform ieren</w>
A sy
ju di
orig in</w>
S ach
ess or</w>
me l</w>
hand s</w>
ori al</w>
nat ur
tol er
I B
er stellt</w>
mög lichst</w>
f low</w>
ri gh
coun ter
distri ct</w>
Besu cher</w>
re ise</w>
S hi
el ing</w>
w om
N G
fir e</w>
Tei le</w>
Sk i
G ri
prin t</w>
g ungen</w>
Un fortunately</w>
poli tics</w>
G ran
Lei der</w>
f a</w>
ö konom
Stat us</w>
E ADS</w>
f ly</w>
8 00</w>
Z eiten</w>
ap par
Gre at</w>
b ing</w>
appe ars</w>
ali smus</w>
form ed</w>
Str ategi
Ju gend
Enga gement</w>
w on
Aus gaben</w>
off ici
Währ ung</w>
ge fordert</w>
num bers</w>
lok alen</w>
peace ful</w>
Cas ino</w>
comp ati
F onds</w>
S cript</w>
app lies</w>
fl ation</w>
War um</w>
v ul
kulturel len</w>
Ein wander
Ver gleich</w>
perman ent</w>
4 7</w>
R ou
Famili en
c lub</w>
establish ment</w>
in ts</w>
es tim
Kom fort</w>
we ak
sch w
An gaben</w>
gen ü
Dim en
be comes</w>
tlin ien</w>
gi e
dig keiten</w>
Har mon
simp li
d ank</w>
tä glich</w>
we ek
kl ar
comb at</w>
3 D</w>
P rop
vor handen</w>
res ort</w>
li sch</w>
experi enced</w>
bili tät</w>
S au
Geb ieten</w>
Zei traum</w>
H ier
Leist ungs
est ate</w>
Viel en</w>
practic es</w>
konkre te</w>
s tim
Rats vor
Mad rid</w>
On ce</w>
h ne</w>
da gegen</w>
pic ture</w>
openha gen</w>
V ie
durch aus</w>
wen igen</w>
Beschäf tigungs
Ori gin
gan g
du ce</w>
LA N</w>
sth af
K er
ad ul
er leich
prü fung</w>
datab ase</w>
S til</w>
wa it</w>
Po st
attemp t</w>
cour ses</w>
Break fast</w>
Kir che</w>
sec re
Lo g
P C
zeu gen</w>
T our</w>
emb ly</w>
advan ced</w>
D P</w>
il ing</w>
Haus es</w>
mög liche</w>
dom estic</w>
vers al</w>
zentr ale</w>
auf t</w>
lig ten</w>
him self</w>
st abili
P ass
gew innen</w>
Öster reich</w>
wel t</w>
ö st
wei ght</w>
dan ger
aim s</w>
fer red</w>
Analy se</w>
gewähr leistet</w>
ü nen</w>
199 4</w>
ma ßen</w>
tri p</w>
ff s</w>
Sant a</w>
S ur
führ er</w>
promo ting</w>
u fen</w>
kt oren</w>
O ut
pro pose</w>
Bei tritt</w>
Acc ording</w>
tz ent
Po si
Program ms</w>
et ten</w>
my self</w>
R ein
Sa int</w>
asp ect</w>
for get</w>
at ta
elec tion</w>
transl ation</w>
Wis sen</w>
or g</w>
dar stellen</w>
Re de</w>
veröffent licht</w>
D S
Wor te</w>
tä tig</w>
Heraus forderung</w>
n ess
li gi
erklär en</w>
f und</w>
sat elli
angebo ten</w>
as ing</w>
fre ue</w>
easi er</w>
appro xim
I G
fi z
jo y</w>
Tran spor
n ieder
Produ ktions
Seh enswür
ester day</w>
erfol gen</w>
A L</w>
F und
in ci
br auch</w>
den k
fail ure</w>
He alth</w>
Kat astrop
Associ ation</w>
i erte</w>
ne ar
mi ddle</w>
pen sion</w>
Lebens mittel
de ep
P s</w>
ent stehen</w>
str onom
fi g
Zw eck</w>
Jahrhunder ts</w>
ack no
medi c
def ence</w>
mod els</w>
am eter</w>
se eing</w>
finanzi elle</w>
anci ent</w>
f ro
k n
ris h</w>
An trag</w>
fol gende</w>
leist ungen</w>
Auf nahme</w>
Stellung nahme</w>
da cht</w>
Kli cken</w>
A chtung</w>
a dem
In nen</w>
C ast
er scheint</w>
sug ge
m useum</w>
R um
unabhängi g</w>
nor th</w>
associ ated</w>
lie be</w>
0 4</w>
ti e
Her stellung</w>
seri ously</w>
4 6</w>
M un
For derungen</w>
Kom ple
h ous
Tra de</w>
benö tigt</w>
continu ed</w>
tion ally</w>
gesch rieben</w>
f rau
be auf
etz ung</w>
ac qu
su n</w>
öff nen</w>
any one</w>
di ge</w>
auth or
Komp et
em als</w>
Terra sse</w>
av y</w>
deta il</w>
den noch</w>
L ast</w>
ph ase</w>
ill ing</w>
alisi eren</w>
O li
er stellen</w>
sp ent</w>
con tr
zäh lt</w>
bl ack</w>
gro unds</w>
sto ff</w>
Ein haltung</w>
viel fäl
gegen sei
er ie</w>
K ingdom</w>
ar ticle</w>
Zwei fel</w>
J a</w>
rela x</w>
saf e
j ur
lea der</w>
konzentri eren</w>
führ enden</w>
th i
s ets</w>
näch ste</w>
f ers</w>
o re
Eff e
c er</w>
stu dies</w>
thre at</w>
star ke</w>
boo ks</w>
spra ch
ber icht</w>
Den noch</w>
é e</w>
Or d
ut ed</w>
nam es</w>
differ ences</w>
Parl ament
Priv ate</w>
Bei tritts
A M
n om
ec ke</w>
verur s
at z
Ein igung</w>
combin ation</w>
Belar us</w>
T est
au t
co s
wach sen
W ich
char ged</w>
inst ance</w>
jour n
qu alität</w>
wa iting</w>
lie ben</w>
implement ing</w>
architec ture</w>
woh ner</w>
Universi tät</w>
PH P</w>
De fin
Afri ka</w>
Ter min
adop tion</w>
rene w
cal cul
G B</w>
unterschie dliche</w>
crimin al</w>
do wnlo
arch i
re servation</w>
ein iger</w>
sich ts
Land wir
humanit arian</w>
ad ed</w>
fü gt</w>
sich erung</w>
happ ened</w>
lie ßen</w>
rele ased</w>
I rish</w>
Komp on
stat ements</w>
ven ue</w>
ein gehen</w>
M ilit
Ch am
reduc ing</w>
be aches</w>
op position</w>
absol ut</w>
gestal ten</w>
M ari
con crete</w>
isi erung</w>
Pak et</w>
samm lung</w>
ali zation</w>
Gemein samen</w>
graph y</w>
attrac tive</w>
produc ers</w>
M ann</w>
ri ver</w>
ah ead</w>
Les ung</w>
Nachfol gend</w>
br ary</w>
hän gt</w>
be glei
f are</w>
t un
gelei tet</w>
P ro</w>
Bus h</w>
tele vision</w>
disku tieren</w>
con dem
Re gel</w>
balan ced</w>
eh t</w>
im possible</w>
end gül
sha red</w>
col labor
Ch eck</w>
Ges ell
care fully</w>
Ab end</w>
gelei stet</w>
S co
t ch</w>
ma gn
fre ut</w>
exhi bition</w>
rä ume</w>
chan ging</w>
car s</w>
arri val</w>
Fir stly</w>
umfas st</w>
Sto ck
Inn en
bek ann
antwor ten</w>
betra chtet</w>
avail ability</w>
dec lar
immedi ate</w>
announ ced</w>
gesch ehen</w>
region alen</w>
lear ning</w>
S ehr</w>
8 5</w>
recogn ition</w>
ge gründet</w>
wir kt</w>
kon stru
agen cies</w>
beha vi
s letter</w>
schwieri g</w>
ke eping</w>
Ar gum
Großbritann ien</w>
in form</w>
le ben
n ar
fizi ert</w>
ter ra
Jus tice</w>
da d</w>
descri bed</w>
s or</w>
be haup
aussch uss</w>
call ing</w>
evi dence</w>
der ed</w>
un ge
her unter
quali t
k aufen</w>
Sch engen</w>
Tex te</w>
Sehenswür digkeiten</w>
Fu ß</w>
fe der
Kommunik ation</w>
vi erung</w>
gewi cht</w>
bi en</w>
tru ly</w>
po l</w>
F eu
men ten</w>
Afri can</w>
ver ei
guarante es</w>
Hinter grund</w>
mon etary</w>
cl ari
Eng land</w>
Lin ks</w>
col or</w>
be gan
g la
Prior itäten</w>
vern ünf
St ellen</w>
bil d</w>
intro duce</w>
lei ten</w>
y right</w>
elec ted</w>
s ale</w>
Dokum ent</w>
tra ding</w>
Au gen
ern sthaf
danger ous</w>
genu ine</w>
jähri gen</w>
t ür
le ts</w>
PD F</w>
Stär kung</w>
est ed</w>
ten de</w>
t aus
no ti
el a</w>
Jahr zeh
C E
Nach t</w>
H ome</w>
W ün
K lim
our n
stei gen</w>
pic tures</w>
fin ance</w>
impro vement</w>
lös ung</w>
Her steller</w>
Sor ge</w>
fest stellen</w>
adv ance</w>
me ters</w>
Aspe kt</w>
verfol gt</w>
Mich ael</w>
US B</w>
P O
regi stered</w>
kor re
Zi vil
C ul
Archit ek
T an
er tes</w>
cor respon
consu mption</w>
s ort</w>
co l</w>
Am bi
territ ory</w>
sch lag</w>
fi l</w>
H ü
h inter
Fern seh
pass ed</w>
Gener al
For men</w>
Pak istan</w>
Rechn ung</w>
Pri me</w>
E li
pas st</w>
Viel zahl</w>
pre is</w>
ni a</w>
b at
al a</w>
Pol en</w>
confi gu
s n
pos sibilities</w>
tu ri
al ty</w>
übri gen</w>
govern mental</w>
garanti ert</w>
Gleich zeitig</w>
Gu est</w>
wis hes</w>
F estival</w>
li schen</w>
but ton</w>
Ar ten</w>
iz ation</w>
Ges etz</w>
We ch
e ß</w>
Cu st
di t</w>
An n
ausge wäh
cour t</w>
Ham burg</w>
M use
S eine</w>
un less</w>
acti v
Found ation</w>
u red</w>
recomm end</w>
Tit el</w>
D ue</w>
über prüfen</w>
phra se</w>
Europe ans</w>
hal tet</w>
sk i
Entwick lungen</w>
schi ed</w>
Frühst ück
relax ing</w>
ent ran
trä gen</w>
y s
krä fte</w>
un acceptable</w>
su che</w>
inten ance</w>
lo ad</w>
persön lich</w>
ger ech
near by</w>
L O
sk ills</w>
ar tic
li ghts</w>
F inn
l es
ra ise</w>
hin gewiesen</w>
ob tain</w>
go sla
o di
Turk ish</w>
figu res</w>
n utz
religi ous</w>
no on</w>
Arbeits losigkeit</w>
f elt</w>
isch en
Mom ent</w>
se ek</w>
Dru ck
str ong
Barro so</w>
defin ition</w>
n eh
Partner schaft</w>
E very</w>
mit einander</w>
particip ate</w>
D on
pack ages</w>
be zeichnet</w>
fir m</w>
continu es</w>
sensi tive</w>
comple ted</w>
c ts</w>
install ed</w>
desi re</w>
member ship</w>
C ur
W es
T un
kun fts
combin ed</w>
t asks</w>
gegenwär tig</w>
p ed</w>
fi gh
de vices</w>
Demo crats</w>
respec tive</w>
un fortunately</w>
verk ehr
de ep</w>
Man ager</w>
ro o
il lu
Dis krimin
franzö sischen</w>
great est</w>
ö k
posi te</w>
bre ite</w>
S ha
Ger icht
Ele mente</w>
rei bt</w>
fo ot</w>
Go tt</w>
Richtlin ien</w>
or ders</w>
G an
k ept</w>
it a</w>
A no
sur face</w>
gegenwär tigen</w>
p unkte</w>
s co
Proble men</w>
reli able</w>
Kra ft
Sin n</w>
in surance</w>
A P
ausge wo
allo wing</w>
G as
c m</w>
R h
an gesprochen</w>
ei st
Pf lan
n d</w>
Deut sche</w>
strong ly</w>
führ ungen</w>
ver lassen</w>
í a</w>
1 st</w>
B us</w>
eti c</w>
Da vi
äst inen
Ver stän
da p
c am
ar ten</w>
H ab
g utes</w>
ex port</w>
profi tieren</w>
th or
Ver y</w>
demokrati sche</w>
empfeh len</w>
K i
w esen</w>
ma g
vol un
Tra dition</w>
Vi enna</w>
C op
k ilom
be hin
be wahr
an e</w>
bar s</w>
be hand
pp e</w>
Bedürf nisse</w>
g ate</w>
St art</w>
zer stör
sex u
weiter er</w>
wri te</w>
campa ign</w>
Ide en</w>
surround ing</w>
H ist
enti tled</w>
Betrie b</w>
s quare</w>
ein geführt</w>
En d
an nen</w>
Ko ordini
zufrie den</w>
ad o
Musi k
Überwach ung</w>
W ill
ständi gkeit</w>
absol ute</w>
positi v</w>
co ast</w>
ro l</w>
Sch au
ti erung</w>
b us
gui de</w>
p us
en ables</w>
Pla yer</w>
win dow</w>
k um
Kri tik</w>
Leist ung</w>
Ir land</w>
er hält</w>
un to</w>
W ür
loo d</w>
attrac tions</w>
ges eh
Nahr ungs
la p
beau ty</w>
pi ece</w>
clo ser</w>
establish ing</w>
Bewer tung</w>
tr enn
econom ies</w>
Con tro
B ou
Ne ther
kan ischen</w>
wh ere
an lagen</w>
ac king</w>
con tain</w>
sign al</w>
pro spec
ro b
Besch reibung</w>
refu ge
Techn ik</w>
komp li
be ar</w>
institu tion</w>
claim s</w>
aufmerk sam</w>
man age</w>
aussch usses</w>
dan ach</w>
holi days</w>
Mul ti
plat form</w>
J ac
ten e</w>
Ent wurf</w>
dedic ated</w>
as yl
belie b
sh es</w>
erforder lichen</w>
beginn t</w>
mark ed</w>
Regel ungen</w>
ver tei
ein setzen</w>
Geschäfts ordnung</w>
Ange sichts</w>
en su
appoin ted</w>
le m</w>
ma li
ing u
C ub
Brü ssel</w>
gro ß</w>
über all</w>
des er
w ind</w>
St or
fe ar</w>
vor liegenden</w>
Verpflich tung</w>
dis pos
u si
P PE</w>
ens wert</w>
exerc ise</w>
20 13</w>
säm tliche</w>
st ood</w>
geschütz t</w>
ut t
Verhäl tnis</w>
Griechen land</w>
C af
Stu dio</w>
ak t</w>
199 0</w>
unterstütz e</w>
asyl um</w>
Verk ehr</w>
vor aus
ini tial</w>
Prior ität</w>
E hr
A P</w>
B ab
P eter</w>
T en
Unter schie
Reg ulation</w>
bestä tigt</w>
R oh
s in
rou te</w>
Comp any</w>
besitz t</w>
ch urch</w>
Rei se</w>
individu als</w>
n ennen</w>
Su ch</w>
us ual</w>
pl ying</w>
kein erlei</w>
betei ligt</w>
T R
ha m</w>
adverti sing</w>
d an</w>
condi tioning</w>
mä chti
aller y</w>
stor age</w>
al ter
groß es</w>
inter face</w>
haup ts
ver häl
Her z
e c</w>
ein ander
comm ent</w>
ast s</w>
ren ov
W ander
enor mous</w>
perspec tive</w>
en ess</w>
Medi a</w>
h aus
Dat a</w>
ho st</w>
g an</w>
per c
sub si
expen di
B M
zi gen</w>
acces sible</w>
ma g</w>
par a</w>
ge zogen</w>
Sonn en
comp ared</w>
bi eter</w>
komple tt</w>
sp ending</w>
ti tle</w>
mo ving</w>
Agent ur</w>
Ab satz</w>
Mob ili
ate ver</w>
mem ory</w>
ve get
umfas sende</w>
Feder al</w>
tot ally</w>
st ory</w>
pri vi
at a</w>
b ath</w>
on to</w>
de vice</w>
exten ded</w>
Ch amp
lux ury</w>
g ä
Kommission s
Indi en</w>
TH E</w>
f ts</w>
ausreich end</w>
son st</w>
Prin zip</w>
Ver tri
bru ch</w>
M einer</w>
US S</w>
einfa che</w>
sh ing</w>
spezi elle</w>
rail way</w>
mittel s</w>
b ahn</w>
Ano ther</w>
ber n</w>
comp la
Austri an</w>
Mittel n</w>
grund sätz
E astern</w>
or am
urg ent</w>
cor porate</w>
g rie
er er</w>
G ü
Contro l</w>
C an</w>
größ eren</w>
gen annte</w>
Er hö
mitt l
Fortsch ritt</w>
Hi gh
Z ü
Kan di
convinc ed</w>
inst all</w>
Mis s
fa iled</w>
Glob alisierung</w>
R ad
stra ße</w>
hi elt</w>
con tex
r ying</w>
and o</w>
gran ted</w>
Wor ten</w>
e en</w>
um b
pe ti
organis ed</w>
Je der</w>
f light</w>
fas hi
te sts</w>
K ris
coun ter</w>
Nether lands</w>
J ourn
un ch</w>
no w
lu g</w>
Ban ken</w>
zu gän
big gest</w>
t an</w>
m o</w>
Bo s
Ne vertheless</w>
Grö ße</w>
pre ise</w>
exist ence</w>
ta bel</w>
str on
lä ss
dien st</w>
Fore ign</w>
Betei ligung</w>
e ds</w>
sug ges
La ke</w>
In n</w>
L im
rel ess</w>
r ated</w>
Mär kte</w>
eng ine</w>
Stad tzent
Pho to
ac qui
zi erung</w>
sor gt</w>
M es
re isen</w>
garanti eren</w>
organiz ation</w>
zah lung</w>
a gen</w>
S C
Ma ße</w>
verbun denen</w>
her gestellt</w>
ment ary</w>
ag ue</w>
fil l</w>
m ass</w>
gen des</w>
bek annten</w>
la id</w>
Institu te</w>
grö ßer
wesent lichen</w>
internation aler</w>
contro ls</w>
conclu sions</w>
parag raph</w>
A V
dis cover</w>
i de</w>
ber eiten</w>
to m</w>
län ger</w>
F lo
L atin</w>
kt ors</w>
w oo
de te
Cro ati
c au
fac tors</w>
kosten los</w>
mö gen</w>
Ap parte
vor hand
sy mp
S ar
Sch ri
b as
mo tor
oo k</w>
cho sen</w>
z y</w>
e ar</w>
statt finden</w>
it age</w>
up date</w>
offen sichtlich</w>
tri ed</w>
weap ons</w>
B ahnhof</w>
2 50</w>
über tragen</w>
bein haltet</w>
Pau l</w>
re chen</w>
kra ft</w>
Sup port</w>
ad vice</w>
Gre ek</w>
Gener ation</w>
lü sse</w>
att ack</w>
An teil</w>
un able</w>
Constitu tion</w>
contr ary</w>
ma intenance</w>
ris es</w>
Ge wi
Op tion</w>
al em</w>
Alt stadt</w>
ei m
sc en
arti sts</w>
A ktionen</w>
Tre ffen</w>
rä ger</w>
dise ase</w>
z e
geb il
fis cal</w>
nö tig</w>
S and
m id</w>
la ke</w>
S c
sel l</w>
phy si
perfec tly</w>
on ia</w>
ü ben</w>
con ci
Palestini an</w>
R ob
nit ure</w>
medi zin
T al
B ahn</w>
Ver letz
expen sive</w>
promo tion</w>
Pal ace</w>
stark en</w>
fl us
lim its</w>
w ettbewer
Re ligi
Er de</w>
1 60</w>
L ou
sol cher</w>
Grün de</w>
K ro
moun tains</w>
F i</w>
on ed</w>
Fo tos</w>
E ar
199 2</w>
Unter kunft</w>
beg lück
m illi
and ed</w>
pay ments</w>
dr än
agen cy</w>
back ground</w>
S D
T I
f it</w>
Koh ä
ut ch</w>
commit ments</w>
w ak
en ni
Kon tin
wä ch
Erklär ungen</w>
Entschließungs antrag</w>
igran ts</w>
ci ous</w>
fac es</w>
d den</w>
nei ther</w>
zusätz lich</w>
as king</w>
ver letz
lä gen</w>
IN G</w>
de cken</w>
entsp rechen</w>
J er
ar m</w>
f assung</w>
la h</w>
wen det</w>
deut sche</w>
tou ch</w>
candi date</w>
Pati enten</w>
righ tly</w>
d ul
re mind</w>
ac compan
sch ir
f i</w>
Um fang</w>
Kom bin
f em
Res ort</w>
expres sion</w>
r t</w>
gel ungen</w>
tä ten</w>
A N</w>
sch la
vali d</w>
K aff
te dly</w>
cla im</w>
zu vor</w>
ges chn
Netz werk</w>
g barkeit</w>
v es
ec kt</w>
regi ster</w>
wün sche</w>
leist ungs
ambi tious</w>
fin de</w>
hon ourable</w>
vehic le</w>
E ri
ent sch
mul ti</w>
Ba y</w>
C ard</w>
furnis hed</w>
categ ory</w>
D ep
d ance</w>
ver breit
Kompromis s</w>
achie ving</w>
D s</w>
Ni veau</w>
oblig ations</w>
Metho de</w>
se ven</w>
se g
Be griff</w>
quali fizi
ar di
Er hol
li t</w>
Mark et</w>
T emp
e chn
Mon at</w>
out come</w>
R äum
Auf bau</w>
success fully</w>
Geb iete</w>
Europä er</w>
rech tlichen</w>
neigh bour
mittel t</w>
conveni ent</w>
ent ing</w>
sti sche</w>
Ereig nisse</w>
gen er</w>
m 2</w>
Ein druck</w>
Flexi bilität</w>
den e</w>
betra chten</w>
Th us</w>
Mitglie dern</w>
ob viously</w>
kün st
om as</w>
speci es</w>
st ö
ra d</w>
ol der</w>
spezi ellen</w>
aff ec
fähi g</w>
Ale x
k as</w>
ben ach
Gegen satz</w>
ä ft</w>
inter vention</w>
No te</w>
posi t</w>
alle l</w>
verl oren</w>
con tained</w>
ran gi
C O</w>
w an</w>
do c
monit or</w>
Tim e</w>
sen sus</w>
H on
a ther</w>
continu ing</w>
Empfeh lungen</w>
bet t</w>
politi sch</w>
ab gel
iel t</w>
const antly</w>
do s</w>
Al ban
sequ ently</w>
zu folge</w>
Ener gy</w>
tion ary</w>
Ar e</w>
Frieden s
A ss
Y et</w>
bri tischen</w>
vol u
ab geschlossen</w>
j ah
inter ven
eri a</w>
approxim ately</w>
ge gangen</w>
colleag ue</w>
aus führ
some one</w>
Stra ßen
G az
A S</w>
Sch war
Haushal tsp
gl ass</w>
Be ach</w>
st ations</w>
ra y</w>
dar aus</w>
e quality</w>
t rop
un it</w>
ex klu
de fic
cont ents</w>
inform iert</w>
E F
k oh
surround ed</w>
Mo tor
sib ly</w>
vir tu
tür k
Re siden
n ommen</w>
comp li
Nach dem</w>
Verstän dnis</w>
in struc
Is lam
Ph ase</w>
Rezep tion</w>
S S
An lagen</w>
v ous</w>
th ers</w>
äl fte</w>
sequ ent</w>
Win ter</w>
exper im
produ ktion</w>
Weiter e</w>
Bo tschaft</w>
isch em</w>
Binnen mark
Unternehmen s
satelli te</w>
rei ber</w>
Aus sicht</w>
Grund satz</w>
cap able</w>
phy sical</w>
v it
Fir men</w>
R ome</w>
c ast</w>
situ ations</w>
Nutz er</w>
A tom
St ein
y esterday</w>
K r
In seln</w>
tig ten</w>
EC U</w>
Struk tur</w>
be st
foo t
S amm
out standing</w>
struk turi
dist inc
mas sive</w>
Agen cy</w>
tn er</w>
zieh t</w>
Risi ko</w>
air craft</w>
deli ver</w>
erh äl
angen eh
gesell schaften</w>
A G
M ak
in spec
re den</w>
Re alität</w>
Bei hilfen</w>
Mar tin</w>
sich ert</w>
Wir kung</w>
emplo yed</w>
es th
man chmal</w>
ö der
est e</w>
indepen dence</w>
sk y</w>
sur vi
wach st
fi f
dynam ic</w>
nation aler</w>
ob ject</w>
tra gs</w>
über ra
ri sten</w>
ge öffnet</w>
g uter</w>
dimen sion</w>
B li
quali fied</w>
es sions</w>
Fra ktionen</w>
K ab
f illed</w>
plann ed</w>
8 6</w>
wi der</w>
lan gt</w>
A 5</w>
go als</w>
gri ffe</w>
Wieder auf
D A</w>
W at
haupts ächlich</w>
Ba si
nam ed</w>
th eit</w>
el em
bring ing</w>
G eg
ein erseits</w>
p el
di sch
L au
gi cal</w>
ser s</w>
expendi ture</w>
m ly</w>
p ak
str ö
Loc ated</w>
Bei m</w>
fac tor</w>
berühm ten</w>
multi later
recommend ations</w>
k la
er ung
allgem eine</w>
sorg fäl
form ation</w>
Schlü ssel
rel ativ</w>
ren o
ir s</w>
pre vention</w>
ktiv ität</w>
R et
ord nungs
advan tages</w>
j ungen</w>
Al liance</w>
unter schei
m ün
Gr unde</w>
w asser
be zogen</w>
g un
ag ne</w>
gi r
si ed
pho tos</w>
Jap an
präsen tiert</w>
regi stri
Jav a
Environ ment</w>
aus län
p utting</w>
re ck
bin ding</w>
Hoff nung</w>
ar ms</w>
ra dio</w>
ent eil</w>
V e
Voraus setzungen</w>
ein verstanden</w>
G U
s we
bar ri
Dimen sion</w>
per s</w>
o c
re is
ge stellten</w>
sp a</w>
Li ve</w>
lau t</w>
erhö ht</w>
s m</w>
wa re
er es</w>
ide ale</w>
B is</w>
gan gs</w>
Er war
füh len</w>
mer ely</w>
tar gets</w>
lo g</w>
außer ord
du s</w>
bal con
see king</w>
Ver mitt
geschi eht</w>
Risi ken</w>
te sting</w>
han del</w>
ehr t</w>
Hin weis</w>
be achten</w>
f esti
exp an
Plat t
mean ing</w>
lei tung</w>
Ratsprä sident</w>
comm unities</w>
P L
e ding</w>
Ex c
mei st</w>
Sum mit</w>
poin ted</w>
consi sts</w>
Eff izi
mü s
Arch i
Po ten
con temporary</w>
ob vious</w>
Ch em
fest gestellt</w>
äu fer</w>
p assung</w>
Bu ch</w>
Umwel tsch
Unternehmen s</w>
br e</w>
einzi gen</w>
por ting</w>
P eti
so bald</w>
War en</w>
tä u
Th ose</w>
landscap e</w>
J es
dam als</w>
persön liche</w>
ühr en</w>
K no
S quare</w>
Ge währ
jün gsten</w>
er as</w>
A g
Tre k</w>
particip ants</w>
Meer es
er r
dig ungs
f ein
Ro yal</w>
dou b
wor fen</w>
loo ks</w>
bri dge</w>
siden ten</w>
Dien st</w>
dispos al</w>
sm aller</w>
re ve
mo de</w>
vorgeschla genen</w>
L icht</w>
wan del</w>
guarante ed</w>
sta ke</w>
Prü fung</w>
P ool</w>
19 93</w>
fic ations</w>
regi stration</w>
beru f
5 1</w>
ent gegen
comp liance</w>
inten sive</w>
regel mäßig</w>
O ther</w>
Be obach
Materi al</w>
substan tial</w>
e z</w>
so verei
tri fft</w>
So ft
mechan ism</w>
ro ll
der ship</w>
V om</w>
erforder t</w>
le ads</w>
nah m</w>
Tei len</w>
7 2</w>
sub scri
E G
or al</w>
ali sed</w>
m ar</w>
x en</w>
der i
Po ker</w>
R ules</w>
wichti gste</w>
consi stent</w>
Is land</w>
Haupt stadt</w>
Über zeu
m ol
a ys</w>
exten d</w>
ateg orie</w>
To des
Arbei t
Far ben</w>
gel assen</w>
bro wser</w>
ga z
f ach
betro ffen</w>
Nieder lan
is s
C y
hö h
Geg enteil</w>
r ul
acc ess
Telef on</w>
psy ch
tä ts
ger ing
6 8</w>
resul ting</w>
gewün sch
gol f</w>
betro ffenen</w>
Städ te</w>
en dum</w>
sp unkt</w>
0 3
fore st</w>
legi tim
Vertra gs
G ent
Ko rea</w>
M aria</w>
Spra ch
Bo th</w>
V it
Pra kti
strength ening</w>
nachhal tige</w>
Be darf</w>
regel n</w>
Sch nit
Stra f
er in</w>
Nich trau
govern ance</w>
r é
zip ien</w>
pre mi
respon sibilities</w>
t ab
vor an
Ru he</w>
Land schaft</w>
determin ed</w>
M ü
Zah lungs
n ations</w>
li ability</w>
caus es</w>
manufactur ing</w>
gu ard</w>
alitä ten</w>
ini ert</w>
m ari
Aut o
pleas ure</w>
ver z
wo durch</w>
Veranstal tungen</w>
0 2
ta g
stra h
Ta i
organis ationen</w>
identi ty</w>
M erk
T ari
ne arly</w>
zu gleich</w>
exam ples</w>
ver sions</w>
Leb ens</w>
or a</w>
be wegen</w>
cop y</w>
ö se</w>
Vor teil</w>
associ ation</w>
prakti sch</w>
Form at</w>
rap id</w>
Bestand teil</w>
ander erseits</w>
Rech ts</w>
Swe den</w>
e chte</w>
ser n</w>
mit glie
Mitglied s
blo ck</w>
v als</w>
Comp u
conclu de</w>
Mus li
ra tions</w>
Industri e
1 20</w>
An y</w>
reco very</w>
br ings</w>
spre ad</w>
Charak ter</w>
gel aden</w>
Klima anlage</w>
An dre
techn ological</w>
E D
fu el</w>
Liber alisierung</w>
L ink</w>
sol e</w>
v ie</w>
Gesetz gebung</w>
e ed</w>
Au th
an bieten</w>
Glob al</w>
ch mals</w>
gel y</w>
Java Script</w>
ö sen</w>
Wor k
Da y</w>
Wel che</w>
Infra struktur</w>
f abri
m ale</w>
L ast
Gol f
Ak tu
beschäf tigt</w>
p et
bu re
Intern ationalen</w>
Erhö hung</w>
multi ple</w>
ur ban</w>
fra gt</w>
win den</w>
vi lla</w>
beg ri
wel chen</w>
dri ving</w>
sp aces</w>
smo king</w>
Politik er</w>
vorsch lagen</w>
tradition ellen</w>
5 2</w>
N ice</w>
tre ated</w>
li ste</w>
Zah len</w>
Führ ung</w>
Ser ie</w>
C ri
P R
a is</w>
voll kommen</w>
Sy ri
Ferien woh
incor por
gewäh lt</w>
no tice</w>
dau er
spezif ischen</w>
qu ick</w>
expla in</w>
Angebo te</w>
her zlich</w>
lie gende</w>
7 00</w>
H älfte</w>
ta il</w>
Unabhängi gkeit</w>
ok ed</w>
st ol
Ver öffent
fäl len</w>
V ic
l i</w>
Eben so</w>
pati ents</w>
di um</w>
on s
freund liche</w>
p ine</w>
6 6</w>
att acks</w>
oh n</w>
A dri
Über prüfung</w>
ver w
ser ving</w>
w ann</w>
Aus land</w>
Frühstück s
bed room</w>
con sensus</w>
ger ufen</w>
techn ik</w>
requ ested</w>
Män ner</w>
ex plan
I l
g as
läu fi
dec ades</w>
D utch</w>
v ar
Th anks</w>
besser en</w>
prim ary</w>
addres sed</w>
evalu ation</w>
gram mati
W inter
pre viously</w>
v ent</w>
Det ails</w>
Koordini erung</w>
ti le</w>
y es</w>
zurück zu
fahr ens</w>
represent ative</w>
F ut
sch we
ho l</w>
U ser</w>
ann e</w>
pp en</w>
con soli
strateg ie</w>
prim arily</w>
schn eller</w>
ro m
ta ste</w>
F lash</w>
Lie be</w>
event u
mon o
t as</w>
ti er
ad or</w>
tt able</w>
j unge</w>
Publi k
k el</w>
Rom ania</w>
Diskrimin ierung</w>
wä s
grie ch
D er
k ehr</w>
tel ef
Rum än
zu verlässi
mis s
Ex press</w>
Z immern</w>
on i</w>
ste el</w>
ari um</w>
wirtschaf ts
vul ner
ã o</w>
ati sche</w>
bezieh t</w>
there by</w>
re spe
del ay</w>
Finan cial</w>
remo ve</w>
jähr lich</w>
d licher</w>
frü her</w>
I mm
scho ols</w>
f ting</w>
T wo</w>
u d</w>
kon tex
ev a</w>
Metho den</w>
E M</w>
g ere</w>
la gs</w>
ra il</w>
enter ed</w>
n den</w>
disku tiert</w>
au dio</w>
g al
discus sing</w>
grenz überschreit
em a</w>
par l
ör per
av es</w>
weiter es</w>
kin ds</w>
sprü che</w>
R am
Be wegung</w>
si mul
O M
em an
fer tigt</w>
sei tens</w>
König reich</w>
E D</w>
Sch u
optim al</w>
Lauf e</w>
industri es</w>
stoff en</w>
wn s</w>
Pro vin
can cell
inf o</w>
E s
K lar
d ler</w>
stell ungs
fru it</w>
C ho
B la
ol a</w>
for um</w>
Sho p</w>
schö n</w>
B au</w>
auth or</w>
tal ks</w>
bu tions</w>
ri gi
Auf grund</w>
de h
extre me</w>
wer ten</w>
p our</w>
leh nen</w>
ur s
sam er</w>
glob ale</w>
Min dest
J ean</w>
conduc t</w>
Teil nehmer</w>
F T
lie fern</w>
Ob ama</w>
Tro tz</w>
Rom an</w>
G old</w>
tra gs
kürz lich</w>
began n</w>
gesch lossen
sk in</w>
M ehr</w>
um ini
Ber ücksichti
de ckt</w>
fer ences</w>
Kör per</w>
Fran c
li ation</w>
Fi re
n on
An passung</w>
Gr enze</w>
Gä sten</w>
trei ben</w>
a c</w>
g one</w>
berei che</w>
Lu ft</w>
Hand el
a x
hol en</w>
Bra zi
Sat elli
reagi eren</w>
Aktion sp
Stadtzent rum</w>
Qu es
Geb ur
V ia</w>
ul tim
stimm t</w>
serv ations</w>
ti que</w>
lo ts</w>
St atisti
we gs</w>
leng th</w>
A U
ein s</w>
nah e
def ault</w>
an geht</w>
lich ten</w>
bet ont</w>
fe eling</w>
prof it</w>
Dokum ente</w>
positi ven</w>
Ro tary</w>
hol ding</w>
Eis enb
deliver ed</w>
7 1</w>
enn ung</w>
dic t
stra i
gesp eich
akzep tiert</w>
Fäl le</w>
compet ence</w>
op posite</w>
einzel ne</w>
Wh ite</w>
re d
k unden</w>
el i</w>
la w
de alt</w>
vi sible</w>
Far b
gh ted</w>
K yo
K ilom
bil det</w>
Su ite</w>
schau en</w>
En joy</w>
m ung</w>
Wil len</w>
k ali
represent ed</w>
intel li
bür ger
prep are</w>
Fähi gkeit</w>
hab er</w>
län dlichen</w>
es sive</w>
sou thern</w>
controll ed</w>
au sh
accoun ts</w>
F as
spezif ische</w>
y le</w>
Ord nung</w>
am ong
Fre unde</w>
t ment</w>
T est</w>
Spiel e</w>
in er</w>
we alth</w>
län e</w>
Ti ere</w>
no ise</w>
Hol z
W C</w>
or ca</w>
Sch n
poten zi
Pro di</w>
Vorberei tung</w>
among st</w>
W ien</w>
ben e
ü r</w>
ge arbeitet</w>
ung er</w>
Kon fer
ur ge</w>
au x</w>
invest ments</w>
Schlus s
d ritten</w>
will ing</w>
b om
ma gaz
speak ers</w>
kontex tu
St unde</w>
abhängi g</w>
bequ em</w>
Per spe
F lä
pa ir</w>
A qu
un anim
comp lic
h oriz
er geben</w>
appro val</w>
Del egation</w>
tion ality</w>
tur ning</w>
Jav a</w>
art a</w>
rich tlinie</w>
wa chen</w>
region ale</w>
ti z</w>
no chmals</w>
Au di
str en
sch war
stä d
compati ble</w>
Des pite</w>
am ente</w>
Ge fühl</w>
Po st</w>
present ation</w>
aff ect</w>
W ur
Teil nahme</w>
ro krati
quo te</w>
Gei st</w>
Gesetz e</w>
heb ung</w>
mechanis ms</w>
Architek tur</w>
r ö
ver m
Bi bli
j ahr
Eink aufs
Mun ich</w>
zi em
Aut ob
6 7</w>
über nommen</w>
manufactur ers</w>
Eink lang</w>
Qu ali
pr en
di verse</w>
un zu
Ver such</w>
in spi
cl ing</w>
k top</w>
ur a</w>
mo ved</w>
Ar gent
stat ten</w>
E gyp
Schi ff
ari en</w>
komp et
H öh
sp eich
Verbrau ch
si sch</w>
An liegen</w>
dest ination</w>
r uns</w>
consul tation</w>
B at
sicher stellen</w>
exc ept</w>
tur ing</w>
sha pe</w>
n un
Kon zep
high light</w>
gewis se</w>
viel mehr</w>
Unterschie de</w>
m t</w>
so weit</w>
Zu stand</w>
Reak tion</w>
Grund rechte</w>
west ern</w>
Par ti
ey e</w>
O pen
mut ual</w>
L ord</w>
di r</w>
Bil dungs
Um ständen</w>
Min utes</w>
Sü den</w>
jähri ge</w>
f es</w>
sa v
ent lichen</w>
gest ern</w>
Berücksichti gung</w>
ab sch
grund lage</w>
An gel
ig es</w>
lei den</w>
for d</w>
kon ta
ph en
1 000</w>
m i</w>
Ever y
co vers</w>
bo at</w>
ver lieren</w>
Proje kt
Kyo to</w>
ell o</w>
An lage</w>
lea dership</w>
Klim a</w>
k tes</w>
Re guli
ir y</w>
Ele c
K M
W an
streng th</w>
ver anstal
G laub
ra n</w>
To d</w>
ari o</w>
Kon troll
del egation</w>
ver langen</w>
di gkeit</w>
be u
gres sive</w>
N O
ac ting</w>
ba siert</w>
Boo k</w>
Davi d</w>
Diskus sionen</w>
at titude</w>
Eigen schaften</w>
ehemali gen</w>
S ter
Über nach
B is
ec es</w>
recomm ended</w>
K unde</w>
hän gen</w>
derzei tigen</w>
Be fore</w>
We gen</w>
AN D</w>
Kol lege</w>
Jo se
um welt
pres sion</w>
Kombin ation</w>
mit tag</w>
Wirtschaf ts</w>
rejec ted</w>
sol d</w>
Rau m
fo lio</w>
fol gerungen</w>
i um</w>
Bed ro
rep ly</w>
er ror</w>
höch ste</w>
h ing</w>
kno ws</w>
g ü
verstär kt</w>
Br enn
beein flus
ein richtungen</w>
inter es
lat ter</w>
uri es</w>
exper tise</w>
help ing</w>
ell ed</w>
ah me</w>
loc ations</w>
Fre ude</w>
Klima wandel</w>
begr ün
wech sel
servi ert</w>
impro vements</w>
tre es</w>
priv acy</w>
signific antly</w>
Fischer ei</w>
oblig ation</w>
Defin ition</w>
T ie
ad ly</w>
Sch äden</w>
requ ests</w>
engine ering</w>
M ein</w>
O L
res s
don e
D adurch</w>
experi ences</w>
re place</w>
lei sch</w>
Fo to</w>
Ameri ka</w>
artic les</w>
ubli n</w>
dru gs</w>
L eu
st reichen</w>
laun ched</w>
l st</w>
wieder um</w>
G ali
Be denken</w>
F ind</w>
he avy</w>
sei en</w>
F enster</w>
tz ei
Stu die</w>
compens ation</w>
web sites</w>
P ress</w>
ran k</w>
Sch o
ma ster</w>
be fassen</w>
char ming</w>
untern ommen</w>
k einer</w>
sen s</w>
cri ption</w>
phi losoph
m ur
B ack
fin ding</w>
mel dung</w>
Daten bank</w>
an erkannt</w>
conc ep
bed rooms</w>
Sch ule</w>
la y</w>
stre ets</w>
konkre ten</w>
son sti
regel mäß
in ary</w>
H än
ff er
appe ared</w>
Sch ü
G a
er ei</w>
Strategi en</w>
zi elt</w>
Ri ver</w>
G ep
tex ts</w>
Komm ent
Tem perat
dis covered</w>
cent res</w>
em ed</w>
flü ge</w>
ro te</w>
ei ght</w>
kar ten</w>
op les</w>
ak tive</w>
si eben</w>
k ir
Mark eting</w>
W aff
un its</w>
Grund sätze</w>
do kum
Sit z</w>
n a
r auch</w>
Re du
zw an
Überein kommen</w>
depen dent</w>
Untersuch ung</w>
è s</w>
hel ps</w>
Apart ment</w>
B ör
occ ur
Ant worten</w>
f en
ab sichti
Er wachsen
Ex ec
dien ste</w>
blu e</w>
m l</w>
appe al</w>
t ours</w>
Vi elleicht</w>
Techn ology</w>
vil le</w>
umfas senden</w>
z o</w>
peri or</w>
regre t</w>
5 4</w>
betre ffen</w>
Kar ten</w>
T aus
wer fen</w>
zeu g
fur niture</w>
behör den</w>
z in</w>
fle et</w>
ex t</w>
expec tations</w>
Effizi enz</w>
be handeln</w>
fac ed</w>
Ta ke</w>
Voraus setzung</w>
Klas se</w>
m icro
n avi
sol ve</w>
exten sion</w>
san ctions</w>
Aus gang
histor ische</w>
li sten
ef s</w>
Verfü gbarkeit</w>
Fa x</w>
recogn ise</w>
civi li
empha sis</w>
Cham ber</w>
ne ut
Be sitz
Nichtrau cher
F ein
spra chen</w>
Allgem einen</w>
w alls</w>
c af
dra wing</w>
Lei tlinien</w>
T ru
P aper</w>
appe ar
Pla za</w>
Kü ste</w>
Ver träge</w>
applic able</w>
temperat ure</w>
Ma il
tru th</w>
wichti ges</w>
Völ ker</w>
di shes</w>
fi cial</w>
bel on
intel lec
ci pl
che ap</w>
d inner</w>
gesp ielt</w>
Ro bert</w>
Su ch
West en</w>
host els</w>
aut onom
be ob
et t</w>
tra gung</w>
bei zu
wat ch</w>
fig ure</w>
her aus</w>
arran gements</w>
9 2</w>
j un
al bum</w>
tax es</w>
Milit är
b un
vorsch lag</w>
19 91</w>
ens es</w>
genau so</w>
comp ly</w>
exist s</w>
Air bus</w>
erneu er
j emand</w>
eng agi
Form ular</w>
w ater
emphasi se</w>
C er
inten tion</w>
San ktionen</w>
bezieh ung</w>
mensch lichen</w>
A gri
s qu
I C</w>
Op tim
Wer k</w>
oper ators</w>
A 4</w>
Regi stri
const ant</w>
G lück
rel atively</w>
d opp
af ri
sub stances</w>
cy cle</w>
C o</w>
b our</w>
n i</w>
di ty</w>
Sch ool</w>
To p</w>
198 9</w>
figh ting</w>
hil ft</w>
O b</w>
fi ci
resol ve</w>
mom ent
n de</w>
objec ts</w>
D ublin</w>
с т
Auf trag</w>
Wo chen
breit ung</w>
S A</w>
an o
te es</w>
fant astic</w>
produc ing</w>
is er</w>
pro of</w>
ko ordini
ö ster
amerikan ische</w>
stre ben</w>
kl einer</w>
ori um</w>
Ban k
th ir
ob st
Zu griff</w>
R ent
li ers</w>
italien ischen</w>
ak es</w>
ser vers</w>
komm erzi
C lu
s z
par allel</w>
P A</w>
Tra di
ati es</w>
W he
d einer</w>
Ge danken</w>
hand ling</w>
K ind</w>
Sk ype</w>
Gen ehm
O ld</w>
d ans</w>
fri end</w>
d ining</w>
wh atever</w>
tro tzdem</w>
col d</w>
K ategorie</w>
ou l
suff ering</w>
Ver brechen</w>
refuge es</w>
O m
z ell
U se</w>
ch em</w>
ver sorgung</w>
Ver halten</w>
ho her</w>
Er kenn
Wel come</w>
Mein ungs
kulturel le</w>
institution ellen</w>
ch ann
Empfeh lung</w>
appreci ate</w>
heal thy</w>
Sch w
ruhi gen</w>
disa ster</w>
N L</w>
bur den</w>
ziem lich</w>
f ing</w>
k amp
pl en
Phi li
C oo
Sp i
mo bility</w>
schließ t</w>
comm and</w>
di d
aff airs</w>
frau d</w>
ut tle</w>
i en
refle ct</w>
ger äum
ure ment</w>
Saf ety</w>
künf tig</w>
produ kte</w>
isch ung</w>
s and</w>
Spec ial</w>
confir med</w>
Minist ers</w>
u ung</w>
ni emand</w>
außer gewöhn
whi lst</w>
vis u
recogn ised</w>
eh mer
acc ur
will kommen</w>
ein geb
au ber
L ob
pro file</w>
graphi cal</w>
My SQL</w>
enter tainment</w>
Prof ession
sem in
Materi alien</w>
c les</w>
Kon sequ
person ally</w>
spr ing</w>
Ö l
Bei fall</w>
form ul
gr enzen</w>
th an
8 8</w>
Masch inen</w>
at re</w>
wissen schaftlichen</w>
schri ft</w>
Char ter</w>
erhäl tlich</w>
For t
wat ers</w>
bes or
Di alo
spec tac
k ern</w>
tu t</w>
Ru le</w>
natur ally</w>
ch ain</w>
invol ving</w>
help ed</w>
A v
5 6</w>
S hop
ück en</w>
schn ell
happ ens</w>
entde cken</w>
re ds</w>
it ely</w>
den den</w>
dan ger</w>
hö here</w>
renew able</w>
masch inen</w>
Maß nahme</w>
e ast</w>
Wahr heit</w>
E ssen</w>
bu chen</w>
ach tung</w>
Hil fs
ö p
herr scht</w>
Landwir te</w>
fa ther</w>
d ation</w>
re serve</w>
assi st</w>
P ack
sch lim
Ab sicht</w>
wesent liche</w>
zunehmen d</w>
Strateg y</w>
w asser</w>
k al
politi cians</w>
is o
pe oples</w>
Nor den</w>
dro p</w>
windi gkeit</w>
K ing</w>
ent lang</w>
bi ke</w>
ch tlin
Y u
exclu sively</w>
L etz
h t
hei m</w>
ersch einen</w>
bure au
F ei
Ak te
f tung</w>
schätz en</w>
An fragen</w>
manag er</w>
er öffnet</w>
W here</w>
beauf trag
man gel
k y</w>
sch wei
cre ative</w>
valu able</w>
Tour ismus</w>
mär kte</w>
K auf
an i</w>
st am
F A
vor geseh
Ab end
trä chti
Dienstleist ungs
vol ume</w>
ini en</w>
fl at</w>
Mün chen</w>
W affen</w>
ausge stat
L os</w>
dise ases</w>
Hin der
E B
i x</w>
B and</w>
F on
po t</w>
out door</w>
enth al
residen ce</w>
enth usi
B ir
beg onnen</w>
A ction</w>
op posed</w>
we ather</w>
Sch aden</w>
cast le</w>
et ri
zi er
fir stly</w>
Ambi ente</w>
o ds</w>
ed ge</w>
Swe dish</w>
beträ gt</w>
Eng lisch</w>
zusätz lichen</w>
Fern er</w>
bes ei
T S</w>
st ant</w>
Tag ung</w>
Cust om
P il
eigen es</w>
G DP</w>
Ge win
angem essen</w>
a side</w>
Vol k
lar s</w>
welt weiten</w>
Bri tain</w>
ali zed</w>
lei sure</w>
pre is
5 9</w>
ä ck
fa il</w>
Pu er
fi es</w>
is ol
feh l
natür lichen</w>
char ges</w>
Geor ge</w>
pre sident</w>
be zug</w>
M ill
steu er
Autom ob
interes siert</w>
D ort</w>
W ash
nä her</w>
qu is</w>
emb our
grundle genden</w>
cou ple</w>
t um</w>
te en</w>
sur v
V an</w>
ma y
tu m
itä ts
5 3</w>
sp ür
critic ism</w>
ini ons</w>
US D</w>
blo g</w>
automati c</w>
traff i
ar ische</w>
sa una</w>
Exper ten</w>
i res</w>
Sec re
en en
schön sten</w>
der ing</w>
co her
kün fte</w>
D onn
T ar
Un gleich
för der
eh nt</w>
pi eces</w>
ti cket</w>
ma ß</w>
Sp ann
w us
ob tained</w>
D ER</w>
Re al</w>
kurz em</w>
GN U</w>
schwieri gen</w>
excep tional</w>
ti ken</w>
ern st</w>
jour ney</w>
führ ende</w>
G ood</w>
staat liche</w>
zentr alen</w>
ge fördert</w>
comb ating</w>
gn e</w>
Erwar tungen</w>
stre am</w>
Lux embour
O hne</w>
pro p
t tes</w>
deter mine</w>
b ol
et h</w>
dis cipl
ge geb
An griff</w>
ch ap
sex ual</w>
milli ons</w>
rü stung</w>
le aving</w>
vi l</w>
thre at
CO M</w>
construc tive</w>
off ices</w>
Ra dio</w>
pass word</w>
Schwe den</w>
ah nen</w>
kom b
reach ing</w>
Mittel punkt</w>
nah me
Bo den</w>
freund lich</w>
besitz en</w>
ver än
lar gely</w>
invol vement</w>
Nor men</w>
passen gers</w>
zi r
out put</w>
per form</w>
me at</w>
es n</w>
direc tives</w>
parl ament
es day</w>
gen i
Ein stellung</w>
Agrar politik</w>
fe e</w>
be ge
St off
leb ens
Mu sic</w>
Berat ung</w>
c ab
wle d
A 3
en ab
woh l
sur pr
instal liert</w>
b ag
ung ser
Wirk lichkeit</w>
brie f</w>
ra sch</w>
Un gar
Li fe</w>
Bade zimmer</w>
ni emals</w>
Altern ative</w>
equ ally</w>
protec ting</w>
h it</w>
ri ed</w>
stär kt</w>
Croati a</w>
ti ckets</w>
Er leb
nach zu
re v
it i</w>
Sch ad
communic ations</w>
Can ada</w>
remo ved</w>
berechti gt</w>
ob je
Mi kro
obst ac
ben e</w>
ter s
dec la
impres sive</w>
zweifel los</w>
B ol
be stand</w>
Ber lin
Verk auf</w>
th ro
or er</w>
allgem ein</w>
g y
tre aty</w>
at ures</w>
zu erst</w>
Bei spiele</w>
entwick elten</w>
teil nehmen</w>
hervorra gende</w>
neu esten</w>
mand ate</w>
pl ause</w>
wes halb</w>
Vertei digungs
L E</w>
ä r</w>
in zwischen</w>
Bet ra
unmittel bar</w>
c able</w>
ver ändert</w>
Be dien
Japan ese</w>
bi an</w>
col our</w>
Get rän
Kap az
de par
ver bo
la m</w>
bo t
Stra s
par ks</w>
Entschei dungs
u a</w>
amoun ts</w>
sat lan
Stand ard
ey es</w>
sp anischen</w>
kon trolle</w>
ausgezeich nete</w>
di ed</w>
main tained</w>
Entwicklungs ländern</w>
as h</w>
awar eness</w>
and els
IC H
zw ungen</w>
d rei
verk ehrs
ent standen</w>
Stra ßen</w>
repe at</w>
off enen</w>
Verbesser ungen</w>
decor ated</w>
ab len</w>
ho spit
Nach frage</w>
kämp fen</w>
Struk turen</w>
at oren</w>
pro ve</w>
strategi es</w>
erweiter t</w>
offici als</w>
T om
C N
m us</w>
par ents</w>
Bes or
N on</w>
O ver</w>
Nich t
ra d
do ors</w>
defin e</w>
disch arge</w>
organiz ations</w>
Frem den
mel den</w>
f ted</w>
bedeu ten</w>
increas es</w>
fin ished</w>
stri c
happ ening</w>
lo vely</w>
dr ink</w>
ver langt</w>
In stead</w>
Vi sion</w>
il er</w>
Be fu
own er</w>
Haf en</w>
si e
kri ti
B ahn
g eren</w>
Host el
sto ßen</w>
m än
r ating</w>
Bu cht</w>
Dor f</w>
Ma c</w>
B lack</w>
issu ed</w>
pol lu
contri butions</w>
bemü ht</w>
6 2</w>
ati k</w>
bed ro
La dies</w>
le ch
omm enen</w>
rapporte urs</w>
Ab stimm
mon um
Kri min
new ly</w>
Künst ler</w>
lie b
Bulg aria</w>
W are</w>
leg ungen</w>
Luxembour g</w>
organiz ed</w>
h all</w>
Th ir
weis ung</w>
Bra si
prepar ation</w>
ausgezeich neten</w>
dies el
auf zunehmen</w>
tre at</w>
occa sion</w>
Ratsvor sitz</w>
organisi ert</w>
betreff enden</w>
gesch äf
Regi me</w>
K amera</w>
fül lung</w>
komm unik
collec tive</w>
A b</w>
Du sche</w>
eu er</w>
ko stet</w>
M em
ll s</w>
Kre u
contrac ts</w>
S z
d al</w>
sat zes</w>
M esse</w>
b ahnhof</w>
Unter schied</w>
Z erti
el er
7 7</w>
O F</w>
Pf licht</w>
Net z</w>
är m
einfa chen</w>
Aus stattung</w>
ursprün glichen</w>
5 8</w>
de ad
tur ns</w>
liber alisation</w>
C E</w>
require ment</w>
Jus tiz</w>
Al li
Web sites</w>
restri ctions</w>
Mar ina</w>
höch sten</w>
pro hi
rä f
M ens
f our
m ac
Stell ung</w>
grundle gende</w>
kur ze</w>
hab t</w>
schn elle</w>
rema ining</w>
erheb lich</w>
o s
tri eben</w>
behör de</w>
comp u
ch est
Flü chtlin
Fron t</w>
Kapit al
E di
laun ch</w>
ir ing</w>
west lichen</w>
L ev
pro ved</w>
S par
h ü
Vide o
clas sic</w>
al ed</w>
An d
Überzeu gung</w>
ent re
T rau
Zus ätz
A ward</w>
an wes
ad voc
do esn</w>
Ab kommens</w>
connec tions</w>
zugän glich</w>
balcon y</w>
H it
star ten</w>
G et</w>
R in
ris ing</w>
Bo x</w>
deb ates</w>
Kon trol
Th omas</w>
character istics</w>
z ei</w>
sch ule</w>
ab road</w>
Well ness</w>
Kohä sions
P op
produ ziert</w>
B C</w>
o th</w>
5 0
def end</w>
Bet re
sicher ungs
ven tionen</w>
Poli sh</w>
renov ated</w>
Exec utive</w>
An bieter</w>
W et
a stri
zu legen</w>
har dware</w>
b ou
li sche</w>
Pun kten</w>
resol ved</w>
deta illi
F is
zi ele</w>
pos ing</w>
ass ungen</w>
ass ure</w>
cre ates</w>
sc lub</w>
mus ste</w>
Struktur fonds</w>
b lood</w>
re turned</w>
wi tn
Anwen dungs
D em</w>
op inions</w>
Asy l
Nah en</w>
lat z</w>
depen ds</w>
entscheiden d</w>
re in</w>
ro ads</w>
Th rou
Th eir</w>
divi ded</w>
en de
mess ages</w>
Regi erung
surround ings</w>
Gerä te</w>
N ein</w>
Proble ms</w>
kehr en</w>
6 9</w>
R and
den ten</w>
Be stellung</w>
europ a</w>
vis a</w>
umfas sen
d ating</w>
at em
uni cip
abgel ehnt</w>
wirk lichen</w>
own ers</w>
Prü f
H en
b all
resol utions</w>
Ausgang spunkt</w>
Ko operation</w>
Bu dap
a j
UN O</w>
and elt</w>
co ast
T O
ri sts</w>
ge prä
identi fy</w>
ni ghts</w>
wirk ung</w>
gei sti
entde ck
c utting</w>
Gesch m
Harmon isierung</w>
d ritte</w>
T isch</w>
gl ück
Ven e
K ann</w>
a e
akti vieren</w>
sti l
adv ent
Proje kten</w>
edi a</w>
vor genommen</w>
Geb rauch</w>
künf tigen</w>
fal sch</w>
7 3</w>
prec ise</w>
di agno
In tel
fac ts</w>
Am ts
certain ty</w>
J ames</w>
ar tigen</w>
um zusetzen</w>
H all</w>
D es</w>
Re volution</w>
Mittelme er
y o</w>
cover ing</w>
Überein stimmung</w>
k rieg</w>
lü ck</w>
bis her
le u
reg ularly</w>
recommend ation</w>
Hostel sclub</w>
über nimmt</w>
5 7</w>
W ein</w>
min i</w>
befür wor
dar y</w>
sign s</w>
8 9</w>
P RO
Un der</w>
Mens ch</w>
Verf assungs
on ic</w>
comm un
bil dungs
8 2</w>
an statt</w>
lic ense</w>
a ward</w>
ho ff
ko st
ro ck</w>
to b
D ri
proper ties</w>
g old</w>
grat ulieren</w>
clas si
Vie w</w>
Mas sen
verurs acht</w>
defin itely</w>
erlau ben</w>
wettbewer bs
p um
ber ge</w>
Beh in
ethn ic</w>
riesi gen</w>
min uten</w>
Po wer</w>
Sa una</w>
Fest legung</w>
mean ing
auf s</w>
rit t
aufge fordert</w>
f ak
t ent
er b
ab and
reich ung</w>
masch ine</w>
f an</w>
6 3</w>
m ist
durch zuführen</w>
äh r</w>
contin ent</w>
L as</w>
m igration</w>
p m</w>
In done
under stood</w>
Je des</w>
top ic</w>
rah men</w>
verschieden er</w>
komm e</w>
El tern</w>
Ima ge</w>
KM U</w>
ate ful</w>
regul atory</w>
W LAN</w>
si ght</w>
wirk sam</w>
seh e</w>
Kro ati
N I</w>
mo tor</w>
Ma astri
li qui
Ar z
an geb
schi cken</w>
invol ve</w>
met al</w>
mas sage</w>
E ur
f estival</w>
St ei
kon tinu
oper ational</w>
tig te</w>
Krank heiten</w>
Ab schnitt</w>
lau tet</w>
Slo v
Rumän ien</w>
r on</w>
ti erten</w>
Proc edure</w>
gun sten</w>
Gent oo</w>
tr y
kein es
Ne ws</w>
K e
ME Ps</w>
jo ined</w>
perform ed</w>
Ratsprä sidentschaft</w>
R ub
h am
v ast</w>
er griffen</w>
voll ständige</w>
Hal b
conflic ts</w>
sch afft</w>
gh ter</w>
vis ual</w>
stit utes</w>
Ph one</w>
sub mit</w>
dri ver</w>
Region al
b ungen</w>
i ties</w>
inten d</w>
war ran
se at</w>
ob li
ink lu
bekämp fen</w>
B SE</w>
Sch ei
p on
s ligh
ü sse</w>
Fähi gkeiten</w>
den heit</w>
li ft</w>
am az
cust oms</w>
frei wil
Verbin dungen</w>
A ssi
Ele ment</w>
aci ón</w>
Steu ern</w>
Wech sel
k ings</w>
sti sch</w>
facilit ate</w>
re serves</w>
la stung</w>
Beru fs
öster reich
S how</w>
t d</w>
Al ter</w>
car bon</w>
feh lt</w>
Vorsch lägen</w>
Änderungsanträ gen</w>
li sts</w>
system en</w>
frequ ently</w>
transpor tation</w>
I V
Aus führungen</w>
Y o
av ec</w>
C yp
hal ten
Au stausch</w>
dat en
foc used</w>
gla d</w>
Far be</w>
impres sion</w>
Institu tion</w>
Aus nahme</w>
st opp
conduc ted</w>
C C</w>
K üh
for schung</w>
exp lic
extre m</w>
Stru c
Ear th</w>
Be weis</w>
viel er</w>
gran t</w>
forder e</w>
HT ML</w>
wachst um</w>
V ice</w>
ut ing</w>
Po wer
st ück</w>
An gst</w>
Dritt ländern</w>
R an
un eingeschrän
reali stic</w>
confir m</w>
al co
pro ud</w>
7 8</w>
Bro wser</w>
gef ähr</w>
st res
ha ir</w>
person nel</w>
gi o</w>
è re</w>
Ver ring
g ungs
Mitglied schaft</w>
lan s</w>
star s</w>
Mon etary</w>
Veranstal tung</w>
e chten</w>
Be au
kl aren</w>
ti zen</w>
Führ ungs
Nor di
care er</w>
hund reds</w>
ann ehmen</w>
De f
Gest altung</w>
inter ior</w>
6 1</w>
P in
g mati
s ac
Krank en
Cyp rus</w>
ver trag</w>
Emis sionen</w>
in habit
he ating</w>
be absichti
su ites</w>
Stra ß
bo ot</w>
sich ere</w>
phen om
re min
Aus stellung</w>
sk a</w>
Wil l</w>
stu dio</w>
parli aments</w>
some what</w>
g age</w>
Nach richten</w>
Wash ington</w>
zu gunsten</w>
Partn ern</w>
famili ar</w>
lo unge</w>
20 12</w>
Con su
ed oms</w>
umini um</w>
er ör
hervor heben</w>
v on
prin ting</w>
abo li
w u
ann es</w>
akti ven</w>
ony mous</w>
T enn
gn issen</w>
uni versal</w>
pla ys</w>
Program men</w>
wor se</w>
gn ü
clu bs</w>
T atsächlich</w>
um geben</w>
tn is
Ch urch</w>
bour g</w>
in ations</w>
ß te</w>
in n</w>
Kop f</w>
Ho li
gi gen</w>
aus geschlossen</w>
Über setzung</w>
Mob il
st ag
wirtschaf tlicher</w>
kur zen</w>
Kon kur
funktion ieren</w>
Portu gu
Telef on
mo dule</w>
notwendi ge</w>
ex ter
displa yed</w>
rap i
Ur spr
no t
up dated</w>
sett ings</w>
I P
Aus führung</w>
m essen</w>
struk turen</w>
N a
is lands</w>
Sec ond</w>
tan e
de als</w>
follo ws</w>
Ge gend</w>
depen ding</w>
sinn voll</w>
bot tom</w>
produc tive</w>
des k</w>
effec tiveness</w>
emer gency</w>
S V</w>
zu ständigen</w>
Fra mework</w>
pal ästinen
1 00
y out</w>
min ority</w>
hö her</w>
schlä gt</w>
kontinu ier
fa ster</w>
M ur
g ine</w>
ma chte</w>
Vi et
Verhand lungs
chem ical</w>
nachhal tigen</w>
be wäl
the ore
no ted</w>
acc u
beglück wünschen</w>
Re port</w>
s u</w>
Entwicklungs länder</w>
D ou
W illi
li brary</w>
la ges</w>
bau t</w>
ultim ately</w>
lo wing</w>
star ts</w>
far m</w>
Arbeitsplätz en</w>
früh eren</w>
proble mati
techni ques</w>
7 6</w>
sch em</w>
te a</w>
g in</w>
Re form
gro w</w>
SM Es</w>
Kilom eter</w>
Z oll
n ischen</w>
Sta at
durch führen</w>
beschrän kt</w>
w inner</w>
P et
ehr gei
dem anding</w>
wach sen</w>
oth ek</w>
Wissen schaft</w>
wom an</w>
P ort</w>
ver wand
ange l</w>
Immobili en
Z wei</w>
Mex ico</w>
Sem in
Ä r
W i</w>
P lus</w>
ung st
bo und</w>
angemessen e</w>
Schlaf zimmer</w>
ver bringen</w>
Sp ace</w>
Hand els</w>
Buch ung</w>
mo stly</w>
Ent fer
visi ted</w>
ans wers</w>
Sat ur
O M</w>
Wir d</w>
be zahlen</w>
so dass</w>
Konfli kt</w>
bu ch
wel fare</w>
m utz
gespeich ert</w>
Prote ction</w>
L as
num mer</w>
judi cial</w>
es ch
be an
ear th</w>
Wer bung</w>
de v
me ant</w>
Up date</w>
nü p
Isra eli</w>
inde x</w>
bestä tigen</w>
S P</w>
eb enen</w>
fra g
wol lten</w>
electri city</w>
m ation</w>
fe ed</w>
eig net</w>
interess ante</w>
host el</w>
Garanti e</w>
E dition</w>
minist ers</w>
zu lassen</w>
lo yment</w>
ber ech
win dows</w>
lie ß</w>
Geschäf te</w>
A l</w>
mini str
verabschie det</w>
Gleich gewicht</w>
W ell</w>
vac ation</w>
c i</w>
Deut schen</w>
Son y</w>
T ol
accompan ied</w>
er fahr
te ams</w>
Lan g
Um gang</w>
dri vers</w>
th il
pro mp
Kompon enten</w>
E Z
spo t</w>
provi der</w>
dra w
zü ge</w>
ch a
besch le
bur ger</w>
Drit tens</w>
Son ne</w>
Plen um</w>
7 4</w>
E d
er mu
ar ab
öffent lich</w>
nor thern</w>
R om</w>
k raten</w>
eh e</w>
ban ken</w>
v alley</w>
her itage</w>
fashi on</w>
pollu tion</w>
fil ms</w>
mul tin
cor ner</w>
Host els</w>
chine sischen</w>
st amm
ben utz
Nor d</w>
Schwer punkt</w>
A do
Ma ß</w>
l ler</w>
der er</w>
Cli ent</w>
Prin zipien</w>
indic ated</w>
A ct</w>
func tioning</w>
ru b
de cre
ge prüft</w>
intellec tual</w>
ti erte</w>
imp lic
pl ate</w>
chann els</w>
Vereinbar ungen</w>
Regierungs konferenz</w>
Budap est</w>
An rei
ten nis</w>
terror ist</w>
gr ateful</w>
reich s</w>
Verring erung</w>
K as
fül len</w>
lich sten</w>
A D</w>
B IP</w>
O s</w>
Ad di
te ste</w>
Über setz
Bezieh ung</w>
satis fied</w>
Coo k
der artige</w>
defin iert</w>
investi g
statisti cs</w>
re ported</w>
conci liation</w>
Mor gen</w>
Zi ffer</w>
Mob ile</w>
lo oked</w>
gehöri gen</w>
anspru chs
pre fer</w>
geh ende</w>
mo ther</w>
Al les</w>
ti l
fli ghts</w>
einzigar tige</w>
T yp
aus gesprochen</w>
visi ting</w>
k amen</w>
t ats
Be am
vor her</w>
Plan ung</w>
entran ce</w>
emp f
m ir
win es</w>
deli ghted</w>
verhin dert</w>
tou rists</w>
läss lich</w>
Whe ther</w>
in ser
si ven</w>
No t
Sign al</w>
an sch
pris on
D ynam
spo ken</w>
arri ve</w>
rä umen</w>
verlei hen</w>
si m
cont acts</w>
Fun ds</w>
remo te</w>
Geh eim
relax ation</w>
er ce</w>
re di
Aus gabe</w>
wid ely</w>
Zy per
aus gesetzt</w>
So vi
t ance</w>
Portugu ese</w>
A ktion</w>
er läu
Ger ichte</w>
Pra gue</w>
9 4</w>
ein gerich
Ein beziehung</w>
Bei träge</w>
Platt form</w>
inv ite</w>
supp le
Außen politik</w>
F ood</w>
Ab hängi
he at</w>
invest ors</w>
Euro pol</w>
acc o</w>
Tsch ech
Sch luss</w>
im posed</w>
ra c
Fak toren</w>
arti st</w>
subsi dies</w>
Indi vidu
wel chem</w>
Op tionen</w>
declar ation</w>
ten dlich</w>
Freih eiten</w>
Minder heiten</w>
L ö
dire kten</w>
0 4
per cent</w>
invol ves</w>
aussch uß</w>
e astern</w>
Ara b</w>
Somm er
8 1</w>
sk o
decla red</w>
Res ol
ver gleich
them e</w>
sau ber
Vertei digung</w>
M eg
acti vely</w>
Pi az
L td</w>
di ch</w>
Erhol ung</w>
plan et</w>
main taining</w>
Gesell schaften</w>
Ein stellungen</w>
traffi cking</w>
re k
go s</w>
appear ance</w>
B O
auf nehmen</w>
B rie
inhabit ants</w>
ent wurf</w>
Kon sul
Ameri kan
ran g</w>
ent steht</w>
blo ck
promis es</w>
kurz fris
after noon</w>
fer ner</w>
mat ch</w>
Per sön
be vorzu
Fre it
Hei mat
ver ehrte</w>
form al</w>
Br and
Haf tung</w>
Besonder s</w>
expl ore</w>
re main
rech tliche</w>
äum en</w>
un möglich</w>
vi erte</w>
exper t</w>
R und
b ly</w>
Y es</w>
t wi
he ber
Ado be</w>
geb oren</w>
gar dens</w>
Verb ot</w>
Brazi l</w>
ID S</w>
v ince</w>
is ra
me e</w>
Fri day</w>
tats äch
sho wing</w>
d less</w>
stri ct</w>
rei fen</w>
exc iting</w>
passi ert</w>
ou red</w>
kat astrop
speak er</w>
compet ent</w>
Schnit t
fit ness</w>
geb iete</w>
le bt</w>
St ück</w>
Verbrau cher
begrü ßt</w>
func tional</w>
L y
fra me</w>
Ch arta</w>
C openhagen</w>
F ru
be we
zi ge</w>
Hand eln</w>
Ad minist
über wach
steh e</w>
Verk ehr
wün sch
Wün sche</w>
si erte</w>
Be weg
cor ruption</w>
demonstr ated</w>
sam es</w>
mer ken</w>
V iz
Bal tic</w>
Bemerk ungen</w>
M ig
new sp
A sh
passen ger</w>
magn ific
mal erweise</w>
demonstr ate</w>
da fri
lie f</w>
chan nel</w>
steu er</w>
care ful</w>
Blo g</w>
winn ing</w>
ap art</w>
Ma y
lus s
collabor ation</w>
3 0
Mo z
Fre e
2 2
cos y</w>
h n
ver ändern</w>
di n</w>
ör ung</w>
Zus atz
p or</w>
gel tenden</w>
commit tees</w>
an wen
re ject</w>
p g</w>
ich ts
ausge führt</w>
schle cht</w>
erreich bar</w>
durch schnit
lig ent</w>
D ie
st un
Veröffent lichung</w>
gestal tet</w>
quar ter</w>
resi stance</w>
i ens</w>
Sub sidiar
un gefähr</w>
cop yright</w>
bilater al</w>
grenz ung</w>
configu ration</w>
Des wegen</w>
Gesprä che</w>
erleich tern</w>
E V
sta at</w>
fre m
fizi eren</w>
hinzu fügen</w>
s ung</w>
co ok
pre t
T ER
l ust</w>
Ma j
contra st</w>
uni versi
har m
höh eren</w>
an er</w>
ge trenn
sol ange</w>
tran sition</w>
avo i
M B</w>
Neu e</w>
isra eli
Ma in</w>
Je de</w>
dom ain</w>
sett lement</w>
E W
ann i
wei le</w>
l ying</w>
Hung ary</w>
dist ingu
Poli tiken</w>
j o</w>
en h
ni er</w>
Win d
Net work</w>
gerä te</w>
New sletter</w>
F ischer</w>
N ic
Au dio</w>
fac ility</w>
de partment</w>
lin ie</w>
dr au
The ater</w>
occ ur</w>
dan k
Stu denten</w>
Con gress</w>
Host el</w>
ra w</w>
Wer ke</w>
Maastri cht</w>
sätz en</w>
A C</w>
Mark tes</w>
ee ded</w>
Web seiten</w>
ell ers</w>
desi red</w>
Hei m
Mobili tät</w>
m use
o st
ro ot</w>
con tradi
Er inn
conclu ded</w>
Aufenth al
justi fied</w>
ati ver</w>
Grün dung</w>
je gliche</w>
ben den</w>
m assi
sup er</w>
An merk
dep th</w>
G au
Ver pack
ta gen</w>
erinn ert</w>
Amend ments</w>
f ur</w>
distri buted</w>
cas h</w>
g allery</w>
is tic
Dig ital</w>
nahe zu</w>
B ut
fa vor
docum entation</w>
G ames</w>
ab or
eb ene</w>
vor legen</w>
dru g</w>
ori ented</w>
regar ded</w>
Identi tät</w>
or ama</w>
pos sibly</w>
bemü hen</w>
e x</w>
ch ers</w>
con taining</w>
on going</w>
sorgfäl tig</w>
sch einen</w>
Vorsch lags</w>
t ack
Kon figu
überzeu gen</w>
präsen tieren</w>
ci an</w>
et ed</w>
educ ational</w>
ru g</w>
No ch</w>
p ac
t stellung</w>
Ko sten
be stehende</w>
liber al</w>
found ation</w>
si erten</w>
W omen</w>
cri mes</w>
Per haps</w>
Sor gen</w>
ge fügt</w>
Belgi um</w>
Dro gen
verring ern</w>
on al</w>
Gericht shof</w>
tro ub
on ien</w>
to wns</w>
heu tige</w>
recor ded</w>
bes timmen</w>
pl enty</w>
coun try
ge zwungen</w>
wh ol
geh ens
übri gens</w>
n etz
Sovi et</w>
re placed</w>
Fil m
2 4
star tet</w>
tor al</w>
Tai wan</w>
ent es</w>
betri eben</w>
Ziel en</w>
ameri ka</w>
Pol y
A sien</w>
mark t
awar ded</w>
E T</w>
zeichn is</w>
k on</w>
Qu ar
Z one</w>
gew inn
Tra g
Por t
Ques tion</w>
B R
zi erten</w>
iz za</w>
dau er</w>
P act</w>
h et</w>
ges u
gener ated</w>
sta un
fir ms</w>
ist a</w>
bezieh ungen</w>
re plac
soli d</w>
Untersuch ungen</w>
Balk on</w>
r d</w>
Mon t
Arbeits markt</w>
determin ation</w>
D on</w>
S et</w>
be ten</w>
perfe kt</w>
satisfac tion</w>
to i
min orities</w>
T own</w>
ge teilt</w>
occa sions</w>
D R</w>
sh aring</w>
mi x</w>
respec ted</w>
Studi en</w>
schwi er
A M</w>
la sting</w>
Ex pl
Zw ischen
O s
mo tiv
Lebens mittel</w>
sty lish</w>
d ele
adv is
Char les</w>
expan sion</w>
vis ory</w>
einhei tlichen</w>
M A</w>
p ar</w>
Vor gehen</w>
O r</w>
R em
ch air
Des cription</w>
Fund ament
mor al</w>
mor ali
Zw ecke</w>
i on
kü mm
ck er
ben en</w>
Ein schrän
proz esses</w>
den kt</w>
Wissen schaft
letz tlich</w>
J e</w>
imm igrants</w>
pol y
E X
st em</w>
ro utes</w>
hi p</w>
é es</w>
rus sischen</w>
t at</w>
ass ets</w>
assu me</w>
Stock hol
E duc
Um feld</w>
Nor thern</w>
glau b
interpre tation</w>
ame ters</w>
tack le</w>
ex it</w>
Poli zei</w>
Tra ining</w>
akzep tabel</w>
em en</w>
mitt ler
Pu tin</w>
ber au
auth ori
Soll ten</w>
en for
um in
organisi eren</w>
rapi dly</w>
verur teilt</w>
h ungen</w>
Eng ine
horiz on
Bar s</w>
constitu tional</w>
th ly</w>
de struction</w>
för derung</w>
legi timate</w>
a x</w>
ber aten</w>
program ms</w>
M all
g lo
ab sen
Wi th
tar ge
Einwander ung</w>
För der
Pro vi
v is</w>
Mal ta</w>
M erc
ähr t</w>
c us</w>
un ent
CO N
steu erung</w>
Kommunik ations
k g</w>
äuß ert</w>
Zentral bank</w>
R est</w>
Di ffer
vie wed</w>
Wei ß
over come</w>
ab gestimmt</w>
Ver breitung</w>
Pre isen</w>
uli ert</w>
Feder ation</w>
auff or
pla y
adop ting</w>
lok ale</w>
Chan cen</w>
li z
zus ehen</w>
Rechn ung
Res pe
manufactur er</w>
C hil
L ad
War en
gewähr t</w>
te sted</w>
Kur z
f lug
Ap plause</w>
spann ung</w>
U C
Mis sion</w>
dire kte</w>
certi fic
Ins besondere</w>
Kon sens</w>
8 7</w>
Ver sionen</w>
zi one</w>
A R</w>
individu elle</w>
AK P</w>
Soll te</w>
di ver
spectac ular</w>
w rote</w>
lä ßt</w>
sub sidiar
emer ging</w>
Ansch luss</w>
di vision</w>
su gar</w>
zu gang</w>
mari time</w>
re cip
ein ig</w>
wer tung</w>
off ic
cent uries</w>
electri c</w>
ei ra</w>
woh nen</w>
high ligh
pu ts</w>
d s
au en</w>
sch eme</w>
ci tizen</w>
argum ent</w>
Sing le</w>
j enen</w>
hi ll</w>
ier ungs
grundsätz lich</w>
es cap
bekämp fung</w>
week end</w>
subsidiar ity</w>
sen ding</w>
glob alisation</w>
vi rus</w>
trans actions</w>
Krä fte</w>
f erung</w>
K auf</w>
du l</w>
Wer t
äuß ern</w>
sus p
t ables</w>
par tly</w>
tran satlan
mi d
beg eist
bek annte</w>
oll s</w>
profession als</w>
er setzt</w>
In c</w>
we ar</w>
Ho hen</w>
zent ral</w>
Kur s</w>
B y
rupp en</w>
Selbst verständlich</w>
correspon ding</w>
er end</w>
verk aufen</w>
Le gi
Kapit el</w>
ver dient</w>
bel an
Gi ven</w>
di gn
yst em</w>
f ans</w>
as ti
geh enden</w>
cir cul
Selb st</w>
instal lieren</w>
F al
zi erte</w>
speci ally</w>
arri ved</w>
g keits
No s</w>
Besor gnis</w>
fäl lig</w>
correc tly</w>
P age</w>
kti ver</w>
üh r</w>
D ü
La w</w>
enjo yed</w>
gemein schaft</w>
individu ellen</w>
sha res</w>
beträ ch
ackno wled
ac ted</w>
verk auft</w>
Daten schutz
credi bility</w>
S ein</w>
behand lung</w>
strai ght</w>
y outh</w>
as sum
Pal äst
mil es</w>
stron ger</w>
I ON</w>
V AT</w>
ü bt</w>
Mitarbei tern</w>
inklu sive</w>
r ental</w>
t liches</w>
Can on</w>
Ma ster</w>
Pat ri
nun mehr</w>
Puer to</w>
d y
vor stellen</w>
inform ationen</w>
vorhand enen</w>
b attle</w>
Fir men
ver i
De fiz
bri tische</w>
Erzeu gnisse</w>
h i</w>
minist eri
entscheiden de</w>
Gaz a</w>
constitu tion</w>
C las
ck y</w>
beru ht</w>
in flation</w>
C ra
l ac
gh ly</w>
spra ch</w>
Br un
Mr d</w>
k ter</w>
s low</w>
ch amp
ver halten</w>
end ung</w>
ev al</w>
quar ters</w>
er maßen</w>
inter essi
pf lan
cour ts</w>
beschäf tigen</w>
erfolgreich e</w>
ta gs</w>
Vor stellung</w>
Wi thin</w>
Krank heit</w>
j ap
Re de
Po int</w>
bek räf
mil k</w>
tax ation</w>
on ing</w>
Fre unden</w>
enst adt</w>
Fol lowing</w>
ear n</w>
lo ck</w>
strateg ischen</w>
supp liers</w>
Konta kt
consider ing</w>
Atlan tic</w>
adul ts</w>
sc ene</w>
gerä t</w>
hous ing</w>
enti al</w>
jen er</w>
Struc tural</w>
sa ving</w>
sub sidi
gän ge</w>
li s</w>
sch ed
ver hand
zei ge</w>
person en
drin ks</w>
hin aus
O der</w>
ber ühr
P lätz
Lo unge</w>
prä z
addres ses</w>
Salz burg</w>
sel be</w>
Des k</w>
Gewi cht</w>
sich eren</w>
Benutz er
we ge</w>
eg al</w>
Cap tain</w>
behavi our</w>
se where</w>
los ses</w>
pic tu
congrat ul
dür fte</w>
größ er</w>
pat ent</w>
fil ter</w>
begrenz t</w>
ruhi g</w>
en em
l ers</w>
eth eless</w>
fün f
Hung arian</w>
ex por
a qu
mo ti
leh nung</w>
la bel</w>
wa ff
Besch luss</w>
entwick elte</w>
val ent</w>
Bemerk ung</w>
G lei
am i</w>
oh len</w>
Städ ten</w>
S D</w>
Kontrol len</w>
Sch lu
provi ders</w>
stan z</w>
o tive</w>
Th urs
Tou risten</w>
genü gend</w>
mar quis</w>
AR E</w>
compon ent</w>
secre t</w>
A ri
ec omm
Her b
Men sch
kon z
sligh tly</w>
magnific ent</w>
br ut
bestimm ter</w>
Au ge</w>
geb ieten</w>
extra ordinary</w>
Y ear</w>
schn ei
inclu sion</w>
Sun day</w>
sch u
direc ted</w>
redu zieren</w>
An im
aus sprechen</w>
rech tzei
fu sion</w>
form ing</w>
identi fied</w>
hol ders</w>
beein druck
erheb liche</w>
encoura ging</w>
L ist
gu n</w>
Ex change</w>
Medi en
P y
flo ws</w>
ex emp
ap p</w>
up dates</w>
Woh nung</w>
soci e
port al</w>
ange wand
antwor tet</w>
ô tel</w>
ver änder
Ex ist
ed ral</w>
fän ger</w>
außerord entlich</w>
Vide os</w>
A h
drück en</w>
unver züglich</w>
be währ
ed ly</w>
cu ts</w>
V ater</w>
Se ktoren</w>
zusammen arbeiten</w>
sub stance</w>
prepar ing</w>
B ö
V alley</w>
vor bereitet</w>
Qu ad
Schul en</w>
ter ed</w>
te ch</w>
sen sible</w>
Nach richt</w>
einfach er</w>
Berei tstellung</w>
ange gebenen</w>
exc eption</w>
gar ten</w>
x el</w>
ar my</w>
fa ßt</w>
Transpor t
propos es</w>
wer ken</w>
de x</w>
Qu o
F ig
d ella</w>
m ern</w>
Vor sitz</w>
wiederhol en</w>
System en</w>
E ch
Dol om
p o</w>
dis k</w>
E A</w>
V el
herr sch
neigh b
hund red</w>
et es</w>
groß zügi
plen ary</w>
With out</w>
C S</w>
K n
er ischen</w>
Region al</w>
Dem on
Gra n</w>
Ham as</w>
verbin den</w>
auth enti
S ig
Arz nei
G lau
t ö
ali for
gew onnen</w>
Män nern</w>
effe ktiv</w>
betreff end</w>
b o</w>
Er wä
arti stic</w>
Ö l</w>
Balk ans</w>
einger eicht</w>
R ap
k lim
ol o</w>
E P</w>
re e</w>
Verbrauch ersch
f on
ges s
adju st
L ate
did n</w>
deci sive</w>
Ex tre
bel ast
Energi ever
uni versity</w>
S m
wissen schaftliche</w>
offizi ellen</w>
co s</w>
Ass embly</w>
o v</w>
mod ell</w>
franzö sische</w>
ehm ern</w>
Lux em
Schluss folgerungen</w>
D res
fahr er</w>
Bud get</w>
Mar ke</w>
un for
Lie ferung</w>
gesund heit</w>
Ungar n</w>
G las
Ern ähr
s k</w>
therap y</w>
D al
tre e</w>
Den k
er hielt</w>
Ber n
verstär ken</w>
B lan
ra tions
ru ms</w>
stan de</w>
A mon
every day</w>
sion al</w>
exam ine</w>
the ory</w>
erfolgreich en</w>
Thir dly</w>
1 1
k ö
ra cy</w>
de posit</w>
Ein heit</w>
ck s
Ein w
represent ation</w>
ensu res</w>
BM W</w>
concep ts</w>
event ually</w>
M ann
ber at
ie ßen</w>
Bel ast
Komm un
thous and</w>
D ach
Er stellung</w>
C 5</w>
E p
Stand or
Spa ß</w>
viel es</w>
system ati
T E</w>
Kon text</w>
car rying</w>
elektron ischen</w>
8 3</w>
F ast</w>
du ties</w>
stra fe</w>
Gra d</w>
us ern</w>
erle bt</w>
E I
p p</w>
li ked</w>
in ess</w>
her zustellen</w>
00 1</w>
Vier tel</w>
drück t</w>
enh ance</w>
Con tent</w>
besch rieben</w>
bon us</w>
8 4</w>
ban king</w>
Ant i</w>
utt gar
Genehm igung</w>
ten tion</w>
unic ations</w>
ade my</w>
vir tual</w>
appoin tment</w>
zügi gkeit</w>
K now</w>
geschn it
ed ings</w>
wa ve</w>
absen ce</w>
sub jects</w>
S timm
s elling</w>
Rechts grundlage</w>
K en
er stre
bei getragen</w>
tä r</w>
speci fied</w>
verantwor tungs
Leg al</w>
spo ke</w>
geb rau
tradi tions</w>
An la
pack aging</w>
tradition elle</w>
Zusätz lich</w>
i tive</w>
Ü bri
top ics</w>
Li ke</w>
connec t</w>
defic it</w>
C up</w>
el sewhere</w>
7 9</w>
at tri
ri de</w>
sch efs</w>
ab use</w>
fore sts</w>
shi pping</w>
ge stattet</w>
sol ely</w>
groß em</w>
Gar den</w>
sch m
su rely</w>
ni en</w>
re struc
ab e</w>
wür digkeit</w>
propos ing</w>
Sta ates</w>
A IDS</w>
h em</w>
R ü
V ER
Z eu
or i</w>
Th ail
ma kers</w>
ut ation</w>
Besch rän
Direc tor</w>
Bild schir
photo graph
thil fe</w>
C ir
St uttgar
D ub
L ok
ge fallen</w>
fer tigen</w>
Nach hal
Bedro hung</w>
den de</w>
K ub
zu gr
gebo ten</w>
descri ption</w>
accur ate</w>
pro ven</w>
Chin as</w>
gener ate</w>
supp lies</w>
Thurs day</w>
L en
ap plying</w>
az z</w>
vulner able</w>
gesch ichte</w>
Ko ordin
ren owned</w>
j i
re chn
ver st
finanzi ert</w>
G ast</w>
S T</w>
se x</w>
belan gt</w>
ne vertheless</w>
betei ligen</w>
T on
Z ul
ver mitteln</w>
con sent</w>
C it
der te</w>
Kon to</w>
i ken</w>
ge kenn
volun tary</w>
Viz ep
e be</w>
im pose</w>
Distri bution</w>
kl eines</w>
exc essive</w>
less ons</w>
anwes end</w>
D auer</w>
K ür
Besch lüsse</w>
Is lam</w>
suff er</w>
Bulg arien</w>
N eben
Pak ete</w>
luxuri ous</w>
country side</w>
hä user</w>
la yer</w>
tri al</w>
Fer r
K it
Stabili tä
N am
führ ungs
bis lang</w>
wunder schönen</w>
tob acco</w>
zu tage</w>
col ours</w>
N avi
vide os</w>
Num mer</w>
stol z</w>
men ade</w>
Sich erung</w>
enth alt</w>
complic ated</w>
muse ums</w>
verkehr s</w>
tran si
Mon it
proce ed</w>
ähn lich</w>
Sco t
Deut sch</w>
mensch liche</w>
privi leg
re vi
Ein wohner</w>
Katastrop he</w>
zi pi
To ols</w>
H im
T el
ö pf
re volu
it al
ali ties</w>
W äl
ath edral</w>
Investi tions
sugges tions</w>
nach drück
won der</w>
philosoph y</w>
gi ble</w>
fu er</w>
P fer
vil lages</w>
Ä gyp
N ig
w ski</w>
zi elen</w>
fin ish</w>
depar ture</w>
g li
sa h</w>
AC P</w>
vor rangi
str o</w>
Ha ar
einzigar tigen</w>
Poten zi
tri ps</w>
Posi tionen</w>
ex ports</w>
Gem ü
integri ert</w>
Kroati en</w>
R ati
T rop
M angel</w>
u x</w>
einge halten</w>
Slo ven
Provin z</w>
t less</w>
wech sel</w>
Bud gets</w>
Men ü</w>
direc tory</w>
ga ined</w>
tr end</w>
hand le</w>
S imp
An sichten</w>
hei ts</w>
berei chen</w>
W är
Vizep rä
G ö
k ette</w>
bed ing
unver gess
entscheiden der</w>
е н
for th
sol ches</w>
O l
wei len</w>
Qu ality</w>
en cia</w>
ven tion
dr ing
ange geben</w>
Wohl stand</w>
Be sides</w>
inv est</w>
erzeu gt</w>
Gewähr leistung</w>
K y
Be glei
Konsequ enzen</w>
F eld</w>
in su
great ly</w>
ra ising</w>
zi vi
komm un
Über legungen</w>
Gegen stand</w>
gn er</w>
en abled</w>
ge wissen</w>
gr o</w>
Agri culture</w>
en kt</w>
li erung</w>
T ool</w>
an gebot</w>
ni veau</w>
ign ori
lau b</w>
S ad
Ber g</w>
Schlü ssel</w>
Minister prä
u el</w>
sozi aler</w>
H O
p ure</w>
w ahlen</w>
po ll
kon fron
ehr ten</w>
supp lier</w>
ski ing</w>
an belangt</w>
ag ra
pa ying</w>
Ko oper
Prof essor</w>
Eisenb ahn
hervor ge
verbin det</w>
H O</w>
her vor</w>
hei m
Schi ff</w>
N ext</w>
z onen</w>
ge führten</w>
zu ständig</w>
son g</w>
mi x
S timmen</w>
c ei
coun ts</w>
st y</w>
Kul turen</w>
Betra g</w>
P ul
k el
sti ll
bereit gestellt</w>
ru f</w>
demo kraten</w>
Fam ily</w>
g ischen</w>
s q
H aving</w>
clean ing</w>
Verletz ung</w>
Cast le</w>
ab sor
te u
peri ods</w>
Per form
recei ving</w>
bedau er
Holi day</w>
R ö
ch st
inv ited</w>
in os</w>
Mon day</w>
B 5</w>
re servations</w>
Dar um</w>
Mod elle</w>
n ör
dis abled</w>
Proz esse</w>
wiederhol t</w>
Stras bourg</w>
U p</w>
Blu e</w>
ak ing</w>
C R
c el</w>
gesetz ten</w>
compar ison</w>
ma x</w>
tr o</w>
Gu ests</w>
difficul ty</w>
pursu e</w>
Zivil gesellschaft</w>
kilom et
mittl eren</w>
inter nen</w>
h l</w>
gra d</w>
Kolleg in</w>
vor ange
far ming</w>
pan oram
u pper</w>
Vor haben</w>
lin ed</w>
e at</w>
li st
vor anzu
App le</w>
sugge sted</w>
si ty</w>
ein bezogen</w>
lus ses</w>
religi on</w>
Egyp t</w>
ur teilung</w>
Stoff e</w>
L es</w>
im port</w>
Er füllung</w>
tei lungen</w>
mis sing</w>
Is lands</w>
gebil det</w>
beob achten</w>
bab we</w>
in y</w>
sch e
be antworten</w>
ma chten</w>
gr ös
Park platz</w>
Eigent um</w>
t ons</w>
en cing</w>
attemp ts</w>
n am</w>
al ties</w>
letz tendlich</w>
klär ung</w>
sav ings</w>
con sci
sh ot</w>
bo ts</w>
Rom an
Gerä t</w>
X P</w>
po ols</w>
Ein kommen</w>
fer n
Ger echti
Ju gen
am in</w>
Pas sa
j pg</w>
ber gen</w>
ck en
Gu ide</w>
ing s
zz i</w>
W o</w>
in put</w>
ter ri
Ver zö
mag ne
Soft ware
be kommt</w>
zi el
au to
Fit ness
ro ll</w>
con vi
Inter essen
Brasi lien</w>
i Phone</w>
no tic
Vor der
ord nungen</w>
Kir k</w>
l ou
mo vie</w>
tra ge
tern al</w>
pati ent</w>
Völ ker
Glaub würdigkeit</w>
kti ert</w>
Mark en</w>
Schi ffe</w>
por ation</w>
ed back</w>
dre am</w>
bedeut ende</w>
Redu zierung</w>
in mitten</w>
Land es
Sp eich
lauf enden</w>
ursprün glich</w>
ausge zeichnet</w>
she et</w>
O K</w>
st ages</w>
Gr ünen</w>
stre bt</w>
individu ell</w>
mus sten</w>
S mo
pri me</w>
Automob il
P SE</w>
constitu te</w>
argum ents</w>
Prakti ken</w>
enab ling</w>
LA F</w>
Konta kte</w>
symbo l</w>
un ited</w>
im por
Schwi mm
Pl ace</w>
über prüft</w>
bat ter
C F
an gesehen</w>
T reib
B ased</w>
on e
ge dacht</w>
Z ur
b ele
ti ere</w>
wirtschaf tlich</w>
four th</w>
weit gehend</w>
ge ttable</w>
belie bi
V ul
d as
wen ig
Al ger
air e</w>
entsp annen</w>
T ages</w>
sh ar
necess arily</w>
Su iten</w>
continu ous</w>
sper ity</w>
destro yed</w>
per mitted</w>
E mail</w>
wi reless</w>
Ger icht</w>
confir mation</w>
effizi ent</w>
col lap
investi eren</w>
G anz</w>
s ought</w>
so unds</w>
aus gerichtet</w>
Geschm ack</w>
S pre
p lu
An lass</w>
promis ed</w>
re sear
Belgi en</w>
satisfac tory</w>
B e</w>
ach ing</w>
poli tically</w>
Ter rit
ein ma
proble me</w>
Ser vic
erst mals</w>
pl atte</w>
cent rali
signific ance</w>
tw enty</w>
man che</w>
ähn liche</w>
G lück</w>
wel coming</w>
lü ssel
deli cious</w>
Wäh len</w>
ou b
ali stischen</w>
Her z</w>
fer tig</w>
Pla ya</w>
tim edia</w>
Ge fahren</w>
Ver lust</w>
Ent lastung</w>
Con sul
m unicip
Er k
j i</w>
den falls</w>
Situ ated</w>
fän gt</w>
public ation</w>
Konkur ren
ch am
vers ary</w>
G ir
L A</w>
g licher</w>
st sein</w>
Gol d
beein trächti
G ut
J ack
g gle</w>
al located</w>
Tran sa
hom es</w>
cro s
spar tner</w>
rec y
le aves</w>
ref ers</w>
L U
k illed</w>
bet reiben</w>
m ic
ge plan
Vor aussch
dis cre
r are</w>
ge pf
port folio</w>
auf treten</w>
bet ten</w>
gemein schaftlichen</w>
schätz ung</w>
vertei digen</w>
g ut
geh ol
tä glichen</w>
isl am
Gef än
W F</w>
lob by</w>
kl ein</w>
sp here</w>
co operate</w>
i gt</w>
res ource</w>
fre edoms</w>
optim ale</w>
Har dware</w>
obli ged</w>
gel ingt</w>
Kon stru
über greif
at o
Ver arbeitung</w>
mu sical</w>
Kor ruption</w>
weis ungen</w>
N az
T A</w>
redu ziert</w>
v ar</w>
pro sperity</w>
refer endum</w>
A th
SA P</w>
s inc
ter ung</w>
them ati
zentr en</w>
Geh minuten</w>
ES CO</w>
oper ative</w>
e ur</w>
si dents</w>
ak s</w>
program ming</w>
kom fort
steu ern</w>
dep end</w>
Tä tigkeiten</w>
F rü
arbei ts
S U
gesch afft</w>
Ger ade</w>
over view</w>
künf tige</w>
li ved</w>
ein zusetzen</w>
vi c</w>
sec tions</w>
zukünf tigen</w>
instruc tions</w>
entre pren
unfor gettable</w>
ch ie
rel ative</w>
lang sam</w>
reit er
hier bei</w>
Gerechti gkeit</w>
de fe
Bür o</w>
Stockhol m</w>
son gs</w>
ver teilt</w>
grün den</w>
Secre tary</w>
ac tors</w>
harmon isation</w>
com ed</w>
socie ties</w>
leg ally</w>
illeg alen</w>
entsch lossen</w>
im ports</w>
Frie d
charac ters</w>
dau ert</w>
N G</w>
d ges</w>
re vision</w>
Fin land</w>
H under
s man</w>
Proz esses</w>
ver län
gra m</w>
Gemein de</w>
spar tei</w>
fe es</w>
exc ur
Berlin er</w>
er setzen</w>
Zu g</w>
i o</w>
ver sichern</w>
Da für</w>
Tro tzdem</w>
verfüg baren</w>
ausge geben</w>
erkenn t</w>
Mill enni
A vi
Fahr zeuge</w>
proje kte</w>
wel comed</w>
Kon zer
Ti p</w>
d ness</w>
speciali st</w>
Be stä
soli di
organ ic</w>
z enten</w>
Über gangs
succ eed</w>
mi en</w>
S I</w>
st ern</w>
Ven ice</w>
MP 3</w>
Throu gh</w>
Freit ag</w>
wi ld</w>
lat t</w>
Situ ationen</w>
du mp
des wegen</w>
ful fil</w>
Mex i
fa x</w>
Sy mbo
D C</w>
sup posed</w>
vorgeseh enen</w>
K la
Organ e</w>
cell s</w>
no tes</w>
Energi en</w>
enter prise</w>
kt rum</w>
Wh o</w>
Er gän
S ul
l unch</w>
unter streichen</w>
be vor
vorzu legen</w>
militär ischen</w>
P eri
ar med</w>
all zu</w>
off ene</w>
So und</w>
Perspe ktive</w>
M ut</w>
unterschei den</w>
Auf sichts
р а
Americ ans</w>
recogn ized</w>
staat lichkeit</w>
as en</w>
gen e
conc er
ari ties</w>
Res ul
lug in</w>
institution elle</w>
behaup ten</w>
Educ ation</w>
wel comes</w>
be endet</w>
introduc ing</w>
negoti ating</w>
foot ball</w>
O ver
UN ESCO</w>
proce edings</w>
cr yp
well ness</w>
F an
leg te</w>
suff ered</w>
super vision</w>
direc tor</w>
Lan gu
speich ern</w>
konta ktieren</w>
stei gt</w>
Wal d
Fac ilities</w>
á n</w>
mod ules</w>
Liz enz</w>
S CH
n one</w>
Sch loss</w>
remain ed</w>
H ans</w>
interess ant</w>
konzentri ert</w>
Kör per
wei ch
Bo den
Austra lia</w>
b i</w>
unabhängi gen</w>
func tionality</w>
Late Rooms</w>
Aus flüge</w>
G ang</w>
en on</w>
spre che</w>
hy dro
Euro zone</w>
mitglie der</w>
Donn er
Thail and</w>
G or
op hi
si n</w>
prev enting</w>
Soci alist</w>
Audi tors</w>
mit teilen</w>
Sa chen</w>
expla ined</w>
9 00</w>
Di kt
Program m
D N
t act</w>
er freut</w>
ba res</w>
Ba y
contri buted</w>
origin ally</w>
EZ B</w>
ange passt</w>
shor t
Samm lung</w>
pro t
eu ros</w>
Krieg s
Ver einfach
fu hr</w>
Bet ten</w>
cl asses</w>
design s</w>
ong side</w>
P on
ra tion
Gen ießen</w>
der e</w>
Pro ject</w>
fähi gen</w>
S eri
ga ther
Zei tung</w>
A F
wa ffen</w>
voll ständigen</w>
S ä
emp fangen</w>
gr enze</w>
gele genen</w>
Ri o</w>
every body</w>
begri ffen</w>
beschle uni
ther mal</w>
Am t</w>
Finanzi erungs
Premi er
Al bum</w>
wirk same</w>
langfris tige</w>
pro xim
Stand ort</w>
konfron tiert</w>
ar ity</w>
av i</w>
bege g
re ih
ar gu
par ameters</w>
und oub
forth coming</w>
feder al</w>
größer es</w>
ch air</w>
et a</w>
o ch</w>
Cor porate</w>
Weiter en</w>
bra chte</w>
fem ale</w>
S ource</w>
bew u
e o</w>
we ak</w>
reich er</w>
hospit ality</w>
unter zeichnet</w>
spe k
bein gs</w>
vier tel</w>
Bran che</w>
ch ester</w>
por tu
har dly</w>
militär ische</w>
Lat ein
Ro ad</w>
Alli anz</w>
an gebracht</w>
ti er</w>
R unde</w>
ar ise</w>
lie ber</w>
Ab lehnung</w>
lab elling</w>
effizi enz</w>
spar en</w>
Schwei zer</w>
amen ities</w>
NG Os</w>
S L
b ann
chec ks</w>
ment ally</w>
belie f</w>
Bu il
Institu t</w>
flä chen</w>
Frühstücks buffet</w>
sch em
be stellen</w>
wie gend</w>
estim ated</w>
Piaz za</w>
ab stimmen</w>
mo vements</w>
A sian</w>
n ut
St ability</w>
Zu ständigkeit</w>
indic ate</w>
ä fen</w>
bisher igen</w>
a res</w>
sho fs</w>
H D</w>
M aga
w ahl
Sy mp
restri cted</w>
F öder
k es
t ings</w>
co ol
char ak
akti viert</w>
blo cks</w>
Satur day</w>
S mar
per si
Wider spruch</w>
Er wer
trans mission</w>
where as</w>
W eg
t ten
stim ul
P fle
tim et
Bevölk erungs
verwal tung</w>
Übernach tung</w>
ass ur
safe guard</w>
Cul ture</w>
ph arm
Ju gend</w>
sto cks</w>
fan den</w>
tain er</w>
dienst leistungen</w>
sicht bar</w>
Kaff ee</w>
err ors</w>
fir mly</w>
ern t</w>
Kommission sprä
Kris en
en ever</w>
dr y</w>
ker nel</w>
Ti bet</w>
kön nt</w>
vorgeschla gene</w>
Mall orca</w>
stand s
öff nung</w>
Stuttgar t</w>
ran ging</w>
explo itation</w>
Ar mee</w>
dar k</w>
tr ends</w>
Islam ic</w>
eu ro
reali se</w>
p ä
unter liegen</w>
produc tivity</w>
strateg ische</w>
compu ters</w>
acc eler
har t</w>
fü ll
Will kommen</w>
Sti ftung</w>
sustain ability</w>
Ser bia</w>
RO M</w>
S ohn</w>
Ä u
Ent sch
ri eren</w>
zu zu
alisi erten</w>
Wirtschafts wachstum</w>
Kön ig</w>
Absch affung</w>
barri ers</w>
unzu reich
V ista</w>
gehens weise</w>
P läne</w>
hear ing</w>
Vol kes</w>
Tour ism</w>
Donner stag</w>
pic k</w>
Kan ada</w>
Mittelme er</w>
enhan ced</w>
personen bezo
m outh</w>
r ung</w>
Aut onom
D ritten</w>
b ach</w>
An kunft</w>
ap ers</w>
fa ith</w>
ves sels</w>
ange kün
er gibt</w>
Verän derung</w>
soverei gn
L ic
S ob
T or</w>
gro sse</w>
Eben en</w>
s now</w>
fre u
bir th</w>
C olo
bed ded</w>
be ur
Custom er</w>
ill ar</w>
hy th
Abend essen</w>
herunter laden</w>
unabhängi ge</w>
par liament</w>
Frei zügigkeit</w>
Mut ter</w>
an schließend</w>
sa ved</w>
ess ed</w>
colle cted</w>
Gen eva</w>
flu g</w>
Vor lage</w>
ssi g</w>
Wer be
ans wer
let ters</w>
Alex ander</w>
H us
I M</w>
or ds</w>
sau ber</w>
Stre it
Viet nam</w>
Schri ft
simul tane
geprä gt</w>
li on</w>
Re dner</w>
sho wed</w>
Gesch le
P resse</w>
S ier
an schließen</w>
gi es</w>
f ährt</w>
re st
so genannten</w>
gesch m
sever e</w>
am t</w>
obstac les</w>
Lei tung</w>
wahr en</w>
fair ly</w>
S ind</w>
an hand</w>
Sch on</w>
Wachst ums
prakti sche</w>
e dition</w>
su it</w>
wal d</w>
scri pt</w>
Sh ould</w>
bür ger</w>
amaz ing</w>
de ad</w>
bo ards</w>
Bo ot</w>
comb ine</w>
Christ mas</w>
natür liche</w>
ver dienen</w>
res que</w>
fik ation</w>
hochwer tige</w>
re marks</w>
künst ler
fi x</w>
zukünf tige</w>
no ver</w>
M ah
besch reibung</w>
EN T</w>
investi gation</w>
Nachbar n</w>
adap t</w>
Ver halten
är ten</w>
Gesch äft</w>
Rei sen</w>
oph istic
ima gine</w>
et abli
At tra
abili tät</w>
exclu sion</w>
en ge</w>
ter ing</w>
gewähr en</w>
effizi ente</w>
enthal tenen</w>
tra cks</w>
arbei tungs
jur is
An stieg</w>
Person al
Mär kten</w>
krä f
р о
regar dless</w>
Balk an</w>
be völk
19 th</w>
gn is
accep tance</w>
umfangreich e</w>
Regierung schefs</w>
C P</w>
I l</w>
Aktionsp lan</w>
Consu mer</w>
in ev
wor thy</w>
bud gets</w>
Gra fi
endor se</w>
ger ing</w>
can cer</w>
Sk i</w>
adap ted</w>
roman tic</w>
fas cin
n ine</w>
Moder ni
P las
á s</w>
Respe kt</w>
besonder er</w>
grei ft</w>
re mark
ar bit
coordin ated</w>
R ab
Rich ard</w>
Pap ier</w>
sched ul
sp ital</w>
ul s
col um
ätz en</w>
contri but
Jose ph</w>
d rop
Volks gesundheit</w>
ag ent
hol ds</w>
be hoben</w>
Bu dd
ism us
refle cted</w>
ge beten</w>
tra vel
hin gegen</w>
is men</w>
ab sur
Sci ence</w>
Haushaltsp lan</w>
Erinn erung</w>
im men
B in
m its</w>
Binnenmark tes</w>
Ma x</w>
ori a</w>
ant es</w>
Qu ellen</w>
Masch ine</w>
k an</w>
vi es</w>
ob o
Intern ationale</w>
vereinbar t</w>
hervorge hoben</w>
p her
sel ten</w>
sen s
techn ologie</w>
Risi ko
internation ally</w>
universi ties</w>
c ell</w>
met ro</w>
pen alty</w>
deli ber
anzu zeigen</w>
at z</w>
Sp ie
Gleich stellung</w>
Phi losoph
tu s</w>
Do es</w>
dign ity</w>
E qu
P ur
s ach
Mar k</w>
Befu gnisse</w>
Bör se</w>
am ed</w>
Cook ies</w>
h te</w>
de i</w>
Lu f
disa sters</w>
re action</w>
über ein
ban k
Zi vi
e ase</w>
ti m</w>
hil fre
trav elling</w>
Wei h
D än
c lin
rä u
dar gestellt</w>
samm eln</w>
vor liegende</w>
Commission ers</w>
Voraussch au</w>
vor ge
gener ations</w>
zo g</w>
roo ts</w>
v i</w>
ß ten</w>
Mut ter
ga p</w>
Ac ademy</w>
hervorra genden</w>
Gesch en
verbo ten</w>
dank bar</w>
L ine</w>
ti ll</w>
stri chen</w>
bur gh</w>
j unk
w ör
z eln</w>
dri ven</w>
s entation</w>
th u
consider ably</w>
langfris tig</w>
sp a
prä sent
kri eg
consul ting</w>
M eines</w>
akti v
metho den</w>
jet zigen</w>
Pla y
lei dung</w>
vor bei</w>
incre di
viol ations</w>
freund lichen</w>
proto col</w>
Flüchtlin ge</w>
ger aten</w>
arbei tete</w>
län dischen</w>
ling u
Z e
si ghts</w>
ungs verfahren</w>
Indi an</w>
sh ore</w>
analy se</w>
Er st</w>
Off en
Or te</w>
B üh
r as</w>
conven tional</w>
Ger ichts
Wi k
Cat al
er re
ger ü
coura ge</w>
manag ing</w>
F ull</w>
Me d
Me eting</w>
del eg
supp lied</w>
Rück kehr</w>
gesch o
App lik
Compu ter
E P
T al</w>
CH F</w>
Lit er
Wochen ende</w>
B 4</w>
kre is</w>
lös ungen</w>
Ander e</w>
pret ty</w>
A li
V I
Ent spannung</w>
Ro ck</w>
Fre und
Berich ten</w>
D oh
a sion</w>
cl ause</w>
bestimm ungen</w>
ernsthaf t</w>
undoub tedly</w>
M ili
au stausch</w>
belie ves</w>
kontrol lieren</w>
norm alen</w>
Be für
distri but
p it
fest zulegen</w>
Steu erung</w>
f illing</w>
cul tures</w>
Hau t</w>
EC B</w>
Plan eten</w>
Georgi a</w>
se es</w>
lin ien</w>
sorg ungs
Passa gi
wor st</w>
Hei zung</w>
entde ckt</w>
Betei ligten</w>
magaz ine</w>
fac tory</w>
For mu
m eter</w>
her stellung</w>
anti cip
wer ben</w>
prin ted</w>
gewünsch ten</w>
at i</w>
Oper a</w>
s ophistic
or dered</w>
ho hem</w>
comp act</w>
ek tive</w>
exclu ded</w>
einhei tliche</w>
re stored</w>
politi sches</w>
erwäh nen</w>
T rin
V an
ti scher</w>
ste am</w>
ul f</w>
ste ten</w>
Nach t
di alog</w>
Ge werk
exter nen</w>
m ass
sp ei
zi a</w>
Führ er</w>
Yu gosla
ic y
jo ining</w>
schn ellen</w>
under ground</w>
Loc ation</w>
Krimin alität</w>
Aut or
gui ded</w>
acci dent</w>
W ed
eg o
wirtschaf ten</w>
Chil dren</w>
wach senden</w>
pan el</w>
k üh
Administ ration</w>
mis sions</w>
nor malerweise</w>
equi valent</w>
Abhängi gkeit</w>
er nen</w>
feh l</w>
Reser vierung</w>
ex o
Re chten</w>
f eu
al tet</w>
hei ßen</w>
äum t</w>
Cas a</w>
Pass wort</w>
ver n</w>
Re d
trans ferred</w>
beauftrag ten</w>
ar do</w>
Aus maß</w>
H ong</w>
ali tion</w>
produ zieren</w>
nachdrück lich</w>
process ed</w>
In fo
sub sequent</w>
Fahr t</w>
ti ef</w>
Te ams</w>
Schön heit</w>
So l</w>
elek tr
mi et
k ür
re m
D O
r h
ge plant</w>
Mo tor</w>
rech nen</w>
Staats an
Kon g</w>
Slo wak
schwer en</w>
tac kl
ra vel</w>
ass embly</w>
Gesch windigkeit</w>
refle cts</w>
Vertra ges</w>
B ag
Ver teilung</w>
inf rin
Zah lungen</w>
m ere</w>
ol l</w>
Feh ler
Spezi al
Konfli kte</w>
spie gelt</w>
em m
oh n
fre ely</w>
Fran zö
satis fy</w>
pl astic</w>
kor rigi
si scher</w>
pro min
p lic
st on</w>
be danken</w>
beschrän ken</w>
b utes</w>
geh ei
kon figu
Sto ck</w>
hoff entlich</w>
sch reit
ent gegen</w>
ut zutage</w>
ta il
ag a</w>
Qu elle</w>
3 50</w>
fest gelegten</w>
Indu stry</w>
existi ert</w>
ökonom ischen</w>
sovereign ty</w>
auf gebaut</w>
Dar stellung</w>
Eing ang</w>
gesch ätz
ben de</w>
sha dow</w>
198 0</w>
klassi schen</w>
concent rate</w>
di versi
Ma xim
Su dan</w>
Om bud
Au ßen</w>
Dat ei
zugr unde</w>
W all
Gemein same</w>
reli ability</w>
G A</w>
k örper
Ther ap
geleg te</w>
Agent uren</w>
F esti
ge fragt</w>
Minu te</w>
Som e
in ated</w>
any where</w>
Di am
über aus</w>
Arbeitsp latz</w>
zusammen zu
N ero</w>
qu iry</w>
St rom
B A</w>
st an</w>
lear ned</w>
appro ve</w>
wes enheit</w>
um zu
ste te</w>
B our
über ein</w>
bs p</w>
Symbo l</w>
se u
unter sucht</w>
K öl
T P</w>
T el</w>
h ast</w>
eh ol
vi erten</w>
Be wus
No tes</w>
einge gangen</w>
Muse en</w>
ir re
cas ino</w>
P ack</w>
ener gie</w>
Eu ch</w>
komple tte</w>
Konfer enz
gen s
under taken</w>
Mon o
Fr ist</w>
unent gel
h o</w>
t ü
co ol</w>
Ur sachen</w>
re served</w>
sen z</w>
fisher men</w>
As sozi
Umweltsch utz</w>
stu dent</w>
D ritte</w>
re construction</w>
ul en</w>
form ats</w>
Op position</w>
Ra di
humanit äre</w>
won ach</w>
portu gie
ie den</w>
me al</w>
flo ors</w>
korre kt</w>
un ruhi
gi a</w>
to x
unterschie dlich</w>
ass ess</w>
dam ages</w>
Taus ende</w>
m ann
Re z
Ur heber
Fern sehen</w>
Zü rich</w>
Amon g</w>
B ord</w>
U T
D ör
lo gical</w>
Met ro
erst klassi
gestal tung</w>
restruc turing</w>
sich tsp
Wor t
strength ened</w>
li able</w>
leich ter</w>
Kredit karte</w>
Mi ß
tax i</w>
stamm t</w>
be merk
Par ameter</w>
dis krimin
Ge fan
an erk
be zahlt</w>
gro ssen</w>
re store</w>
j ac
ber ichten</w>
ast er</w>
letz ter</w>
Spiel en</w>
teil s</w>
zurück zuführen</w>
Imp le
Wür de</w>
Er forder
indi re
Se ver
Haupt bahnhof</w>
P hän
se kre
um setzen</w>
ar ising</w>
dec ade</w>
Flor enz</w>
is lat
perfe kte</w>
M ir</w>
swi tch</w>
Ver schie
Hol z</w>
di ert</w>
for th</w>
einzu führen</w>
re stor
ad ding</w>
pl ates</w>
Finanz krise</w>
Öff nung</w>
Fri endly</w>
Luxem burg</w>
F OR
Z ut
b rech
targe ted</w>
Rechts staatlichkeit</w>
Leg isl
E X</w>
gro wn</w>
sto ß</w>
jud g
beglei tet</w>
D S</w>
is co</w>
hei t
á n
in hal
Be arbeitung</w>
stra sse</w>
over looking</w>
Groß teil</w>
au l
every where</w>
umfas send</w>
geeig nete</w>
Bl ut
exec utive</w>
v re</w>
н о
Den mark</w>
pictu resque</w>
S C</w>
Bei de</w>
Aus einander
Gol den</w>
Cha ir
symp ath
M äd
ten e
bil d
part ments</w>
Fak tor</w>
sus pen
Registri erung</w>
wa ge</w>
uni or</w>
treat ments</w>
B om
G PS</w>
Lei p
kom fortable</w>
Dokum enten</w>
b right</w>
p ts</w>
end ar</w>
Wi kit
CA P</w>
ali a</w>
dr yer</w>
gra fi
proz esse</w>
enter ing</w>
statt findet</w>
besor gt</w>
hi king</w>
per cent
geb äu
produc es</w>
shi ft</w>
Anwen der</w>
H at</w>
rec re
vorsch läge</w>
Doh a</w>
n bsp</w>
hier für</w>
norm ally</w>
ackno wledge</w>
K ategorien</w>
к о
ange wendet</w>
G M
K ern</w>
un fair</w>
erweiter n</w>
türk ischen</w>
verhand lungen</w>
ri si
Ab ent
oper ates</w>
Ev ents</w>
he ading</w>
present ing</w>
Proto col</w>
Autob ahn</w>
z a
mi le</w>
mis s</w>
fin ed</w>
fo x</w>
gnü gen</w>
rä um
neighbour ing</w>
S har
st ran
sol ar</w>
brie fly</w>
atta ched</w>
us alem</w>
ap s</w>
War craft</w>
p illar</w>
intel ligent</w>
haf tet</w>
h ec
sto res</w>
Gener ationen</w>
sle ep</w>
Col lege</w>
deep ly</w>
Kompet enz</w>
sec onds</w>
fest en</w>
inte gra
ent täu
St aff</w>
Bes ei
lä dt</w>
bel ong</w>
Hoch schul
er fordern</w>
in er
pro vince</w>
Ver lauf</w>
vor nehmen</w>
kur s</w>
illu str
Z er
r ut
bro w
anni versary</w>
panoram ic</w>
Comm un
Sta ats</w>
Bibli othek</w>
ar re
im peri
mitt lung</w>
frü hen</w>
I ran
m ein
ous ness</w>
Soci ety</w>
nar row</w>
mittler weile</w>
ra id</w>
ph ones</w>
individu ally</w>
H IV</w>
w as
Le on
C ou
k einem</w>
us age</w>
pro ch
tra t</w>
Inn enstadt</w>
Bestimm ung</w>
teach ing</w>
griech ischen</w>
G E</w>
ver weisen</w>
gesetz lichen</w>
G as</w>
Kap ital</w>
Herb st</w>
su perior</w>
ir ischen</w>
fe et</w>
C ab
c amp</w>
ri ft</w>
Program mi
list ings</w>
ec ological</w>
Spei sen</w>
B ed</w>
Er haltung</w>
Inform ation
colle ct</w>
Kon zent
graphi cs</w>
ge äußert</w>
Hand lungs
ürz t</w>
gegenwär tige</w>
Wikit ravel</w>
A ma
son sten</w>
fu els</w>
prof its</w>
Lou is</w>
iss ance</w>
w ash
lo h
pus h</w>
I K
Stre cke</w>
Berei tschaft</w>
pro pri
zi ger</w>
fähi ge</w>
cat ch</w>
Vereinfach ung</w>
le hr
Ver lu
Stär ke</w>
Well ness
es c
ge wer
Belgi an</w>
Som it</w>
Z ahl
di stor
ge stärkt</w>
pre dic
Zu ständi
n ail</w>
zerstör t</w>
empf ohlen</w>
bath rooms</w>
S eg
offizi elle</w>
qualit ativ</w>
o live</w>
Zah lung</w>
C el
al i</w>
fas z
Zyper n</w>
demo cra
Straß burg</w>
k ia</w>
eng ines</w>
Fre und</w>
Niederlan den</w>
eng aged</w>
high lights</w>
sicher gestellt</w>
manufac ture</w>
rep utation</w>
sel ber</w>
le m
Hab en</w>
F luss</w>
P sy
g on</w>
gel esen</w>
cre w</w>
Deb atten</w>
nütz lich</w>
Resol ution</w>
g no
in j
ba y</w>
mei ster</w>
t ories</w>
ein gestellt</w>
Po d</w>
lab or</w>
appropri ations</w>
Gel der</w>
W ould</w>
p lo
Kontin ent</w>
Ferienwoh nung</w>
a ders</w>
Park plätze</w>
Perform ance</w>
oper ated</w>
Produ k
n ative</w>
angemessen en</w>
campa ign
Jahrzeh nten</w>
Währungs union</w>
K openhagen</w>
mar ine</w>
Spa zier
mutz ung</w>
d lichkeit</w>
í n</w>
gen es</w>
vari ed</w>
Berichterstat ters</w>
T ür</w>
sch ritt
Über blick</w>
ft mals</w>
Instru ments</w>
Sup er</w>
be hält</w>
mit h</w>
Mon tag</w>
fund ed</w>
Mehr wert
Origin al</w>
S W
re ti
Kü sten
Sier ra</w>
H els
vor aus</w>
Con sequently</w>
Min im
fav ou
Residen ce</w>
Waff en
ri ding</w>
Con c
zeichn ungen</w>
digit alen</w>
S ah
stru ggle</w>
twi ce</w>
G am
ä le</w>
Comm on</w>
ment ed</w>
au dio
sh uttle</w>
Pflan zen</w>
dafri ka</w>
T ests</w>
rec ording</w>
dec line</w>
herr lichen</w>
Tele kommunik
ö l</w>
Wirtschafts krise</w>
genau e</w>
P hy
lo ser</w>
r ally</w>
lich keits
conc ert</w>
Det ail</w>
T ok
ei gh
gan z
verwen de</w>
propor tion</w>
H z</w>
S äu
ad ds</w>
D R
it ar
em pl
thre ats</w>
suffici ently</w>
L ü
ri te</w>
über winden</w>
lan ger</w>
re al
sp ite</w>
her auszu
integri erten</w>
Pres se
fro h</w>
hor se</w>
Wes entlichen</w>
Ho he</w>
he ads</w>
gen o
sec on
condi tioned</w>
rechtzei tig</w>
D ass</w>
Ver mö
co des</w>
stu ff</w>
pharm ac
fa chen</w>
effici ently</w>
ges tie
to ward</w>
rel ates</w>
uni form</w>
hon our</w>
recor ds</w>
Hels ink
S po
beg ins</w>
refer ring</w>
Besei tigung</w>
1 10</w>
wi des
Parl amente</w>
ergän zt</w>
S li
c lar
re volution</w>
inten ds</w>
Län ge</w>
kontrol liert</w>
Liz enz
ver wei
gi k</w>
gar age</w>
essen tially</w>
T onnen</w>
in o
stun ning</w>
Di plom
mit zu
lin ken</w>
me ets</w>
cul p
Kor rek
Gali le
bewäl tigen</w>
po le</w>
au ßen</w>
em bar
ak ia</w>
ld n</w>
Küh l
G o</w>
M E</w>
y ard</w>
be enden</w>
sen ken</w>
X ML</w>
be er</w>
unmittel barer</w>
phenom enon</w>
ec ts</w>
vo s</w>
konkre t</w>
enor me</w>
Q U
z te</w>
de fiz
C lin
adi se</w>
territ orial</w>
Expl orer</w>
at ri
Sch wan
kl asse</w>
ni k</w>
alco hol</w>
olog isch</w>
inspi red</w>
P M</w>
Z erst
pra gmati
Ander erseits</w>
C Ds</w>
produc er</w>
sor ge</w>
zwei tens</w>
Augen blick</w>
Kamp agne</w>
pos s
war ning</w>
tre ff
lic a</w>
gleich ermaßen</w>
18 0</w>
eigen er</w>
Mechan ismen</w>
zu kommen</w>
bedeut enden</w>
Str and
geo graphical</w>
D ingen</w>
S ens
Lab our</w>
Fis her
T us
typ ischen</w>
prospec ts</w>
Sm all</w>
A rea</w>
p as</w>
ha z
aff ir
ag ents</w>
kilomet res</w>
T op
ch i</w>
In ten
all eng
län dliche</w>
Helsink i</w>
c as</w>
ung laub
lich te</w>
urg ently</w>
acqui red</w>
er ship</w>
rech tlich</w>
enn t</w>
Sa ison</w>
combin es</w>
stärk ere</w>
pres sing</w>
go tten</w>
tt i</w>
Por to</w>
em ens</w>
Aut os</w>
scienti sts</w>
Sad dam</w>
Ombud sman</w>
C ar</w>
K lo
P har
bin den</w>
exec ution</w>
Ci vil</w>
P aci
r y
con fron
Re present
Benutz ung</w>
are st</w>
syn chron
de lic
ru pt</w>
aus gaben</w>
ini eren</w>
hol e</w>
anzu bieten</w>
Dialo gs</w>
stam men</w>
Mexi ko</w>
vi era</w>
ell i</w>
ex zell
medic ine</w>
Apparte ments</w>
en ne</w>
Profession al</w>
lic ens
Person en
Proje kts</w>
mi stake</w>
Invest oren</w>
ol dest</w>
se ats</w>
pre siden
Ter r
besu cht</w>
ro of</w>
Auf trags
sur prise</w>
neg ativen</w>
Religi on</w>
incorpor ated</w>
cust om</w>
Jugen dlichen</w>
hal t
Medi kam
Ha ve</w>
occur red</w>
tra gt</w>
Ber ge</w>
stei gern</w>
Dre h
Todes strafe</w>
il ater
bo ats</w>
oper ator</w>
wirk lichung</w>
Te ch</w>
pass ing</w>
auffor dern</w>
unter bro
flexi b
caus ing</w>
Bas el</w>
derzei tige</w>
stric tly</w>
n ers</w>
hi dden</w>
sh el
gra ben</w>
up gra
Pen sion</w>
U sing</w>
Zu verlässi
c at</w>
an z
construc ted</w>
conveni ence</w>
K ey
d ollar</w>
al p
unter suchen</w>
Zusammen halt</w>
Reser ve</w>
Jer usalem</w>
a o</w>
Spit zen
Last ly</w>
U L
m ouse</w>
p ace</w>
cul tiv
Mi et
len ken</w>
ro lle</w>
D au
an zeigen</w>
war t</w>
Su ites</w>
Rei ch
Ober fläche</w>
gül tig</w>
Bl ack
highligh ted</w>
n eter</w>
ver fahrens</w>
succ eeded</w>
resul ted</w>
consequ ence</w>
G R
em ark</w>
hy po
Sicherheits politik</w>
lossen heit</w>
Imp ul
Wan del</w>
fav ourable</w>
Amerikan er</w>
ur laub</w>
am ti
Ur teil</w>
coher ent</w>
Spi ri
Ver sorgung</w>
An y
Vor be
Mon tene
Rech t
Ven edi
candi dates</w>
x i</w>
consi ders</w>
bewahr en</w>
in her
urop ä
me als</w>
Do wnlo
speciali sts</w>
clas sical</w>
C ru
ph a</w>
Kandi daten</w>
g lied</w>
Jes us</w>
t é</w>
er richtet</w>
man ual</w>
up grade</w>
Nahrungs mittel
den jenigen</w>
betri eb</w>
gh äfen</w>
so il</w>
sophistic ated</w>
V IS</w>
min er
diplom atic</w>
ch rist
Bedürf nissen</w>
heal th
integr ate</w>
App lic
D rei
I X</w>
L ern
g l</w>
er wor
Be grün
Aus wei
Air lines</w>
Umwelt fragen</w>
Vertre tern</w>
S eries</w>
t ant</w>
Sch reiben</w>
affec ts</w>
L eh
hal ts</w>
air ports</w>
erzeu gen</w>
C P
ha i</w>
ann a</w>
bi tions</w>
eng age</w>
tax pa
Elek tro
ge fasst</w>
sh aush
graf ie</w>
min ing</w>
pre ad</w>
Ni kon</w>
al li
Co operation</w>
proje kt</w>
eff ektive</w>
vir tually</w>
R enn
K äufer</w>
ra dio
quali ties</w>
Acc ess</w>
Hä user</w>
chec ked</w>
a ke</w>
er staun
sp len
Sonn tag</w>
angeneh m</w>
Erleb nis</w>
vor gestellt</w>
entscheiden den</w>
kontrol li
gekenn zeichnet</w>
O ut</w>
in ely</w>
re pair</w>
sub jec
Pf ei
associ ations</w>
angen ehmen</w>
Saf e</w>
hal ts
enti ves</w>
Steu er</w>
l len</w>
Sie d
land s
20 th</w>
s ement</w>
re form
gen z</w>
spiel er</w>
gradu ally</w>
An hör
versch är
J ung
Dan ish</w>
hier zu</w>
Fur ther</w>
Invest ment</w>
prison ers</w>
Ägyp ten</w>
unentgel tlich</w>
Tra in
sitz en</w>
Ti cket</w>
Dü ssel
A y
re porting</w>
gro ss</w>
cho ices</w>
avi ation</w>
bein halten</w>
radi k
Ver sammlung</w>
fo to
serv ative</w>
Glau ben</w>
pr ison</w>
Por tal</w>
Jo int</w>
Be achtung</w>
Ter ms</w>
Si emens</w>
ch alleng
f at</w>
war tet</w>
De partment</w>
Produ ktion
Met ro</w>
M ass
R ele
zw ingen</w>
verletz ungen</w>
Th ree</w>
lo y
ex act</w>
schaf tlich</w>
1 30</w>
tro ops</w>
tn issen</w>
ga stronom
environ mentally</w>
Flä che</w>
Ty p</w>
net z</w>
swi t
Hinder nisse</w>
G AP</w>
st ories</w>
Ma ke</w>
ke ys</w>
Sen kung</w>
teach ers</w>
maß geb
müs ste</w>
über lassen</w>
the atre</w>
kol le
uls ory</w>
N apo
y ards</w>
re venue</w>
gr ünen</w>
eri eren</w>
Li thu
prakti schen</w>
Potenzi al</w>
encoura ged</w>
berech net</w>
wides pread</w>
sch mer
ak te</w>
isti sch</w>
aktu ell</w>
will ing
ver letzt</w>
cap it
P ier
p end
t ut
Berei ts</w>
198 8</w>
explan ation</w>
at orium</w>
sti ck</w>
Mo sco
Über tragung</w>
Chi le</w>
wech seln</w>
bi eren</w>
gewi d
be fasst</w>
ach ed</w>
pre chen</w>
pri ze</w>
her z
komp ati
col ors</w>
Hin weise</w>
verw öh
er hol
sol di
wür dig</w>
particip ating</w>
Dres den</w>
program men</w>
Constitu tional</w>
E din
A part</w>
N er
eventu ell</w>
Un der
Immobili en</w>
kn app</w>
K DE</w>
ö tz
produ kten</w>
Flor ence</w>
ad os</w>
reich hal
inf ec
Ver wirklichung</w>
clo ck</w>
kümm ern</w>
Engine ering</w>
L esen</w>
W ind</w>
W ör
se eks</w>
res sen</w>
fahr t
bro ken</w>
Sou verän
k u</w>
Ergeb nissen</w>
äl teren</w>
sha re
Vo y
acci dents</w>
Mechan ismus</w>
An sprüche</w>
ende av
Ma z
Sob ald</w>
B ig</w>
b lau
re aler</w>
spezi alisiert</w>
betri eb
cr yst
A z
S Y
ei ll
al ongside</w>
be aring</w>
Re par
surpr ised</w>
di al</w>
pro sec
An meldung</w>
Ber echn
pres ti
la im
str and</w>
AL E</w>
Mich el</w>
g am
i ds</w>
ä ften</w>
hi lls</w>
St amm
Tre aties</w>
so und
erklär te</w>
Mand at</w>
Bo tschaf
zieh ung</w>
ei ved</w>
com position</w>
Kon gres
Tra vel</w>
Auth ority</w>
r l
ver sammlung</w>
ing er
Prä senz</w>
Dat um</w>
insi st</w>
ob served</w>
europä isches</w>
No kia</w>
wesent licher</w>
hom o
geschi ckt</w>
bo ar
Nachhal tigkeit</w>
in folge</w>
dies bezüglich</w>
Gemein schaften</w>
achie vement</w>
geh andelt</w>
Bu g
Hö chst
ou ts</w>
Finn land</w>
Mes se
di ger</w>
bring ung</w>
clari fy</w>
ausgewäh lt</w>
di ction</w>
el and</w>
spe e
gelan gt</w>
K lu
fest zustellen</w>
atten d</w>
Paci fic</w>
t u</w>
for ts
and t</w>
trans fers</w>
stechn ik</w>
ei te</w>
ra in</w>
Mit entschei
Mo dule</w>
regel ung</w>
th umb
un ab
ab end</w>
Kon ver
territ ori
angewand t</w>
f loo
ut most</w>
all ing</w>
reno viert</w>
emp ty</w>
fun ktion</w>
conver gence</w>
con vention</w>
Betri eb
woo den</w>
w ahr</w>
z auber
pre serve</w>
wech s
gewäh lten</w>
IM F</w>
Wider stand</w>
j k</w>
so eben</w>
Mar t
vari able</w>
str ing</w>
C A</w>
N or</w>
sta yed</w>
finanzi eren</w>
ta i
ear ning</w>
je denfalls</w>
regul ated</w>
B av
boo ked</w>
Pat ent
lässi g</w>
co ck
Wirk samkeit</w>
ein stimm
ge führte</w>
per mission</w>
Besu chen</w>
Räum e</w>
d rit
Par a
Energie effizienz</w>
illeg ale</w>
gir ls</w>
müs sten</w>
Reguli erung</w>
B and
R SS</w>
S L</w>
po ker</w>
Al p
j an</w>
quo tas</w>
druck s
Entfer nung</w>
F oo
K le
sp häre</w>
con ferences</w>
eb o
Al lah</w>
he sit
Wohn zimmer</w>
speciali zed</w>
Journ alisten</w>
Kohäsions politik</w>
g ori
stitu tion</w>
tt a</w>
Proz ess
Drit tel</w>
pu rely</w>
gefähr det</w>
in door</w>
Ac count</w>
G ay</w>
S earch</w>
ru m
tour n
vic tory</w>
Tau ch
ar ts</w>
li ger</w>
Ar ena</w>
Er richtung</w>
mäß ige</w>
deck ung</w>
harm ful</w>
V I</w>
f in</w>
as i</w>
Ver trag
min or</w>
tro ck
d or</w>
sec ondly</w>
Bur ma</w>
langfris tigen</w>
B ak
Z im
op ens</w>
cap abilities</w>
palästinen sischen</w>
f ed</w>
ad ays</w>
Feh l
gere gelt</w>
Spezi alitäten</w>
b are
an zunehmen</w>
ima gin
recogn ize</w>
Moderni sierung</w>
S n
T ruppen</w>
wi fe</w>
Go ttes</w>
Cub a</w>
G T
v able</w>
comp ulsory</w>
Betre uung</w>
ges etz</w>
wirk liche</w>
pil ot</w>
Leip zig</w>
k as
Entwick ler</w>
Oper ation</w>
Ge winn
disp ute</w>
humanit ären</w>
Wei l</w>
Le ague</w>
th ri
zer ti
Ver fol
clo sure</w>
Str ände</w>
spä t</w>
willing ness</w>
Verbrauchersch utz</w>
nut ri
a issance</w>
Vor stellungen</w>
Mark en
air lines</w>
Innov ationen</w>
günsti ge</w>
ICH T</w>
ni ght
Übri gen</w>
as y
K m</w>
U R</w>
geb lieben</w>
ht ml</w>
Chair man</w>
d ying</w>
evi dent</w>
Dire kt
s ä
ster ben</w>
Lev el</w>
Dokum entation</w>
Fire fox</w>
dump ing</w>
F abri
tri g
Oli ven
th aus</w>
it ly</w>
boo st</w>
stä tigkeit</w>
Gep äck
schedul ed</w>
K ie
lo ading</w>
Wirtschafts politik</w>
Bü cher</w>
italien ische</w>
ra chten</w>
Haushal ts</w>
charak ter
är er</w>
bo und
repe at
communic ate</w>
radi cal</w>
Betrie be</w>
ergän zen</w>
A ktions
o ftmals</w>
in ischen</w>
as signed</w>
Trans fer</w>
en burg</w>
graf ischen</w>
qu i</w>
neu n</w>
beeinflus sen</w>
navi gation</w>
And alu
dis count</w>
dist ur
Veranstal tungs
contex tual</w>
k lear
r is</w>
An hän
percent age</w>
tel ecomm
may be</w>
Smo king</w>
Philosoph ie</w>
th ou
setz te</w>
c ting</w>
an sehen</w>
Ein en</w>
fest legen</w>
schwieri ge</w>
S w
ment ation</w>
Kar l</w>
de a
Aus arbeitung</w>
chti gkeit</w>
fu gen</w>
Vi si
läufi g</w>
en ger</w>
Ver zeichnis</w>
initi ally</w>
profession elle</w>
prec e
Sat z</w>
Sam stag</w>
ar men</w>
la g
develop ers</w>
ö ch
ra k
ung alo
stat ing</w>
Vermitt lungs
4 0
Produc t</w>
Fundament al</w>
wer ks</w>
An nehm
ge liefert</w>
exten ding</w>
behin der
geschlossen en</w>
Schü ler</w>
is ode</w>
te x</w>
Qu ark</w>
Wohn ungen</w>
cast ing</w>
advent ure</w>
chair man</w>
F leisch</w>
N on
ne o
Di agno
gre en
Ri viera</w>
Premier minister</w>
D ring
o ve</w>
en cies</w>
ati vity</w>
ent liche</w>
bewer ten</w>
Frau en
relation ships</w>
Parlament s
organ ise</w>
wh er
moder ni
g oo
sch were</w>
br y
län gst</w>
Pro f</w>
Wiederauf bau</w>
enen falls</w>
L CD</w>
se ktors</w>
Re ad</w>
ig a</w>
ven ues</w>
Grund lagen</w>
govern ing</w>
cal m</w>
ar ray</w>
medi eval</w>
Mach t
Musli m</w>
Tradi tionen</w>
f o</w>
m ary</w>
s son</w>
am ended</w>
Des ktop</w>
hop es</w>
Je wish</w>
Caf é</w>
la yout</w>
mer kt</w>
char m</w>
berühm te</w>
Ev ent</w>
concent ration</w>
F I</w>
Ar men
woh n
jo in
the ken</w>
Kl ing
Him mel</w>
Edin burgh</w>
in ter</w>
ti ment</w>
slo w
Sie g</w>
Flu ghäfen</w>
Z ins
ro t
accoun ting</w>
ber ger</w>
schaf tlicher</w>
Co ck
proble m
Mon te</w>
Fil me</w>
AC H</w>
Willi am</w>
enfor cement</w>
Weiter entwicklung</w>
app elli
smo oth</w>
well en
Nig eria</w>
E E
m ische</w>
uri ties</w>
ich tet</w>
ut ung</w>
Ge o
Bil dern</w>
isti k</w>
edi ted</w>
Doppel zimmer</w>
audi ence</w>
i Pod</w>
L T</w>
au ern</w>
pl ötz
kenn t</w>
S un</w>
der ly</w>
an en</w>
mi xed</w>
Je doch</w>
X I</w>
h ur
bran che</w>
N izza</w>
an sprechen</w>
ul timate</w>
av a</w>
H U</w>
gi g</w>
Val encia</w>
hin zu</w>
Fin de</w>
expen se</w>
Bü rokrati
por tra
Tex t
Spit ze</w>
P AR
hin weg</w>
belie ved</w>
Poli zei
Proto k
schem es</w>
Gipf el
se emed</w>
techni que</w>
at t</w>
per mit</w>
ing redi
fo rec
Fahr er</w>
Arbeitn ehmern</w>
in tu
qu et</w>
Er satz
tru m</w>
implic ations</w>
Mäd chen</w>
V IP</w>
Auf zug</w>
Prä sident
super b</w>
hervorra gend</w>
W it
pain ting</w>
afri kanischen</w>
op ho
ün d
aufzu bauen</w>
repe ated</w>
t es
il le</w>
entfer nen</w>
jun ction</w>
di tions</w>
sch reck
Mo sk
offen bar</w>
ri ere</w>
appro aches</w>
Wed n
pro gres
hal tungs
stell ern</w>
Rat schlag</w>
shor tly</w>
studi ed</w>
d unk
ü bung</w>
viol ation</w>
N et</w>
b lan
el ev
unter breit
kon zipi
negoti ation</w>
ver steht</w>
Er st
car te</w>
Elek tron
K h
R oll
Masch inen
en vis
ri gor
le ute</w>
aus üben</w>
Fil ter</w>
multilater al</w>
vol les</w>
Con nec
Emp ire</w>
bus y</w>
c rises</w>
s me
er teilt</w>
exp and</w>
Se ktors</w>
ac adem
dig ungen</w>
Uni ons
L or
por te</w>
tern s</w>
hei ght</w>
Proble mati
re tain</w>
Ver sicherungs
mehr fach</w>
ir on</w>
vor zunehmen</w>
alisi erte</w>
Emp loyment</w>
therap eu
gä ste</w>
i or
sta ying</w>
new sletter</w>
Zu ge</w>
moment an</w>
po o
St rom</w>
Be k
vor liegen</w>
comp res
inc entives</w>
Auf lösung</w>
Wil d
Sim il
T ieren</w>
lie b</w>
cli cking</w>
E tik
h ase</w>
s é</w>
ic als</w>
sto ck
enjo ys</w>
O x
T amp
l or
ci ón</w>
än e</w>
Min i</w>
ve z</w>
j um
Obje kte</w>
elimin ate</w>
P ir
be steh
ingredi ents</w>
W erten</w>
gen eti
and in
gesell schaftlichen</w>
mär kten</w>
Ten den
Nordi c</w>
fi a</w>
b ited</w>
Ser bien</w>
Vorsitz enden</w>
Argum ente</w>
Vic tori
Y O
descri be</w>
neh me</w>
ein gebracht</w>
se y</w>
dat eien</w>
mani p
cir cu
e vol
si v</w>
bu g</w>
comple tion</w>
Sam sung</w>
Hum an
B A
b la
ier ungen</w>
198 6</w>
chap ter</w>
b ought</w>
at ers</w>
ri k</w>
M s</w>
e a</w>
an cy</w>
gel s</w>
regi erung</w>
welt weite</w>
CE O</w>
y iel
Aus bau</w>
Ste ph
moder nis
Pi lo
kan ische</w>
Werk zeug</w>
Dän emark</w>
Fisher ies</w>
W all</w>
ent stand</w>
ehemali ge</w>
transl ated</w>
con stitutes</w>
vor gelegten</w>
rati fication</w>
J an</w>
di ving</w>
bel eb
occ o</w>
Bur g</w>
Tab ak
R it
b uses</w>
Aus sage</w>
Unter künfte</w>
Chi c
bab y</w>
medic ines</w>
Apparte ment</w>
Bla ir</w>
enti ert</w>
kosten lose</w>
where by</w>
verhäl tnis</w>
ex posed</w>
Or ten</w>
gri ff
Pal ma</w>
unic ation</w>
M ir
Z war</w>
occup ation</w>
Plen ar
gori th
an wenden</w>
li gence</w>
ein sei
So w
Intern al</w>
Zw ischen</w>
berich terstat
remark able</w>
ar er</w>
ab sta
ne e</w>
Wer den</w>
campaign s</w>
un ilater
lief erung</w>
O LAF</w>
ag o
verwen deten</w>
design er</w>
wäch st</w>
geb ühr
ten der</w>
Mo dul</w>
sprech end</w>
Effe kt</w>
meaning fully</w>
neighb ours</w>
n ische</w>
ch airs</w>
sü dlichen</w>
geni essen</w>
Sub ject</w>
Kat alog</w>
Mil ch
sou l</w>
poo rest</w>
I WF</w>
N ICHT</w>
arran ged</w>
Wissenschaft ler</w>
f es
gen eh
Dan ach</w>
betra cht</w>
addres sing</w>
Volk spartei</w>
B illi
electri cal</w>
Akte ure</w>
Slov akia</w>
Gesetz es
S cre
qu ellen</w>
Kon junk
stä tten</w>
maxim al</w>
UR L</w>
H ein
ti les</w>
struk turel
besei tigen</w>
Annehm lichkeiten</w>
Stra h
Mosco w</w>
aus ser
Fre qu
Schi cks
fik ationen</w>
benach tei
Galile o</w>
lo go</w>
Lu d
exam ination</w>
List ings</w>
S han
g ast
un t</w>
ut en
zah lungen</w>
UN G</w>
frequ ency</w>
rah men
F our
ver bindung</w>
fül lt</w>
Nutz ungs
Schul den</w>
own ership</w>
be zü
enn ess</w>
Entwick l
gere chte</w>
ein geleitet</w>
ap i
ig no
wi g</w>
Sch atten
nec essi
Mal ay
S K</w>
gi ous</w>
bed ürf
fal se</w>
verring ert</w>
An betracht</w>
Leb an
gek ehrt</w>
und ry</w>
gesch äft</w>
he avi
G O</w>
ä ter</w>
Be sitz</w>
gemein sames</w>
lei sch
Inter governmental</w>
feh len</w>
Tim es</w>
Niederlan de</w>
C lass</w>
n utzt</w>
Akti en
é n
le tte</w>
so ever</w>
sign ing</w>
gab en
refer ences</w>
Internet zugang</w>
kontextu ellen</w>
Exist enz</w>
L ernen</w>
tho tel</w>
Con ver
Proz eß</w>
mäß igen</w>
F C</w>
du al</w>
Be zeichnung</w>
R eh
land wirtschaftlichen</w>
entdeck st</w>
Ehr e</w>
listen ing</w>
F assung</w>
en es</w>
se as</w>
man chen</w>
Ex port</w>
gegeb enenfalls</w>
über wachen</w>
zer o</w>
aci o</w>
mom ents</w>
Vorder grund</w>
Re vision</w>
sor ry</w>
be cken</w>
Se e
Den ken</w>
gesu cht</w>
Bestä tigung</w>
Auswei tung</w>
C lau
H of</w>
gleich heit</w>
tor ate</w>
po t
aff ord
enjo ying</w>
e o
st ur
auf bauen</w>
intern e</w>
Um strukturi
digit ale</w>
ur gency</w>
ac o</w>
Sch wä
tn ess</w>
IN E</w>
Män gel</w>
cancell ation</w>
Legi tim
gewid met</w>
J ord
er hoben</w>
pl as
Cop yright</w>
ver stehe</w>
certi fied</w>
um gehen</w>
enti eren</w>
win d
grammati cally</w>
Sec tion</w>
manag ers</w>
contex tually</w>
legitim acy</w>
pa ths</w>
Mar co</w>
Demok raten</w>
Ein er</w>
hinzu fugen</w>
J on
ref used</w>
Camp ing
Souverän ität</w>
be antwortet</w>
woh nern</w>
ine a</w>
desi rable</w>
grammati sch</w>
shi p
stan zen</w>
näch ster</w>
kontextu ell</w>
man s</w>
defin ieren</w>
gi ft</w>
bo asts</w>
finan ced</w>
Venedi g</w>
V al</w>
lo aded</w>
än der</w>
tra ined</w>
ten den
Ara b
reagi ert</w>
keines wegs</w>
t lichkeit</w>
escap e</w>
Aus bildungs
plan en</w>
Wedn esday</w>
St ri
fol der</w>
Kon vent</w>
Lei t
p unk
be arbeiten</w>
pre ferred</w>
Br ut
GU E</w>
F ans</w>
qu est</w>
mo reover</w>
Über gang</w>
found ations</w>
Schlussel wort</w>
Schlussel phrase</w>
An onymous</w>
per su
mit glied</w>
hel l</w>
tsch ech
aufge zahlt</w>
Sol daten</w>
residen tial</w>
seg ment</w>
vent ure</w>
K ä
mo bil
An pass
Gemein schaft
Krieg es</w>
opp on
sa al</w>
fo ssi
j ing</w>
Ab fall
proz eß</w>
Sy mb
ruhi ge</w>
b aus</w>
hinzu gefügt</w>
Erwachsen e</w>
D amp
N ation</w>
be unruhi
as sen
end sten</w>
profession ellen</w>
aff ili
Gi bt</w>
chine sische</w>
timet able</w>
h ence</w>
deser ves</w>
O EC
all o</w>
Comm erce</w>
To gether</w>
üb lichen</w>
parlament arischen</w>
ho p</w>
fe wer</w>
Pa y
heraus ra
Rechn er</w>
Hist ory</w>
p lug</w>
sol ved</w>
gn a</w>
Premi um</w>
hochwer tigen</w>
Im peri
Mini stry</w>
arbit r
secon dary</w>
m elt</w>
si x
regi onen</w>
big u
ök ologischen</w>
2 nd</w>
N ehmen</w>
u xe</w>
be fu
zu gs
Ma in
her stellen</w>
consider ations</w>
si zes</w>
Ru f</w>
nü pf
coast al</w>
P hil
pre fer
instru mente</w>
fascin ating</w>
C ô
tex tile</w>
öst lichen</w>
journ alists</w>
Le ft</w>
n ings</w>
th um
sch ü
ha ir
par tial</w>
zeich nete</w>
betri ebe</w>
Col om
Klas si
Spazier gang</w>
C alifor
x y</w>
in adequate</w>
ob serve</w>
So wohl</w>
198 7</w>
B I
Flug haf
o red</w>
ein igt</w>
su ms</w>
St an
sta in
Pra g</w>
B un
besonder es</w>
dep lo
Düssel dorf</w>
günsti gen</w>
Wa sch
Fit ness</w>
For ts
Geb i
nich t
Publik um</w>
ver öffentlichen</w>
Ab lauf</w>
thre sh
gewöhn lich</w>
F isch</w>
St ur
zi o</w>
stra tions</w>
dest o</w>
nüp ft</w>
au tum
Universi täten</w>
fre ier</w>
guarante eing</w>
t ative</w>
Kol le
innov ativen</w>
198 5</w>
S ports</w>
fahr ens
Ex peri
Zei tsch
trav ellers</w>
C r
u zzi</w>
es o</w>
graph ie</w>
erst es</w>
L om
En d</w>
deb ating</w>
Ant oni
Grupp en
splen did</w>
ver li
hi elten</w>
co decision</w>
genu inely</w>
Aspe kten</w>
T ren
we l</w>
Gre en
princip al</w>
Ab teilung</w>
exc ell
erk unden</w>
cro w
G P</w>
fin dung</w>
with draw</w>
mut lich</w>
Lux us</w>
verbreit et</w>
repeat edly</w>
L ager</w>
an gehen</w>
comm it</w>
Geb ühren</w>
dramati c</w>
t dem</w>
pro jec
Ge wäs
sichti g</w>
Vereinig te</w>
betei ligten</w>
character istic</w>
OEC D</w>
U M
Chi ef</w>
ch ts
be gun</w>
Aut or</w>
Gre ens</w>
elegan te</w>
Dro gen</w>
s essions</w>
an gle</w>
ge sichert</w>
com po
wa i
vol lem</w>
zw öl
depen dence</w>
Er reichung</w>
Se kunden</w>
er a
R un
e de</w>
Re gen
rie b</w>
Jah re
IB M</w>
mittel alter
verb lei
expres s
Deutsch lands</w>
Urlau bs
Sach ver
e ters</w>
lo gic</w>
berich tet</w>
bewu ßt</w>
G B
b ird</w>
Y outh</w>
Wäh ler</w>
thumb nail</w>
än ge</w>
sub sequently</w>
thor ough</w>
cook ies</w>
0 5
P atten</w>
In genie
gener ell</w>
intensi v</w>
Ch r</w>
olog ischer</w>
Wel th
Erfol ge</w>
voc ational</w>
Kompet enzen</w>
Entsch lossenheit</w>
b eln</w>
un necessary</w>
as set</w>
fi re
besch ä
Gen au
Spei cher
wel le</w>
bri l
cop e</w>
Vis a</w>
1 40</w>
we d
tik er</w>
fore most</w>
hunder t</w>
represent ing</w>
krä ften</w>
ser ie</w>
höch st</w>
Dre i</w>
Br ücke</w>
umfas sen</w>
Mor occo</w>
compar able</w>
re ment</w>
su ited</w>
under lying</w>
aus gehen</w>
Ar ts</w>
gr and</w>
men tierung</w>
econom ically</w>
Kre ativ
bl ind</w>
bevölk erung</w>
ge statten</w>
Mo dern</w>
feat uring</w>
Montene gro</w>
I R</w>
Ein es</w>
Ge gner</w>
read s</w>
Kön nen</w>
existi eren</w>
Rati fizierung</w>
gegen über
atem berau
am bigu
da li
Mo dus</w>
exp enses</w>
adul t</w>
offizi ell</w>
K au
z el</w>
lo sing</w>
ta gs
lö schen</w>
Slowak ei</w>
lo ses</w>
stan des</w>
günsti g</w>
bü rokrati
zu fügen</w>
19 45</w>
mög lichkeit</w>
exp anded</w>
Ex ternal</w>
Sol ana</w>
strö m</w>
e ur
in spiri
cont am
Wachst um
gerech t
Elec tron
a w
Heim at</w>
E valu
s ample</w>
u um</w>
un zäh
her e
tä tigen</w>
exam ined</w>
Ins gesamt</w>
spee ches</w>
elektron ische</w>
comp ete</w>
Al ps</w>
tsp rin
erh eben</w>
schrif tliche</w>
purch ased</w>
E th
K lin
An tri
techn isch</w>
toler ance</w>
grenzüberschreit enden</w>
Anmerk ungen</w>
eh lt</w>
gi ge</w>
des ktop</w>
enor men</w>
genau er</w>
Ratsvor sitz
pak et</w>
п о
respec ts</w>
Franc isco</w>
Kooper ations
G ame</w>
l ings</w>
ter a</w>
ad es
import antly</w>
größ ter</w>
Gen au</w>
sac ri
ro ut
zi pl
kon sequent</w>
Argum ent</w>
autum n</w>
d än
Aus rüstung</w>
Verbrau chern</w>
W and
b ot</w>
t one</w>
ñ a</w>
inform al</w>
He ads</w>
Lehr er</w>
Design er</w>
Be kann
do g</w>
att ack
Energi equ
effizi enter</w>
miet ung</w>
ed y</w>
slo pes</w>
bran ch</w>
Komment are</w>
re au</w>
Aus blick</w>
inn ere</w>
wick lung</w>
Bet ro
inten tions</w>
Cor poration</w>
f at
é r
in ery</w>
Sch il
L icht
ou tlin
con stra
stri ke</w>
For d</w>
Pan oram
pap ers</w>
condem n</w>
co very</w>
big ger</w>
schwe dischen</w>
W ater</w>
fortun ate</w>
Sever al</w>
O st</w>
W en
v ary</w>
li vely</w>
sm art</w>
wid th</w>
vertrau t</w>
siden tin</w>
destro y</w>
motor way</w>
ei gn
Ba den</w>
wid men</w>
Garanti en</w>
terri ble</w>
hilfre ich</w>
v acc
Vor rang</w>
eill ance</w>
K el
R y
zwei ter</w>
Rechn ungs
gefähr lich</w>
Nichtraucher zimmer</w>
Schul z</w>
S ab
fre sh
Se ele</w>
Bet t</w>
Durch setzung</w>
Vil lage</w>
St au
Er schein
Kon vention</w>
Ru ß
Col le
Mas sage</w>
Kommissionsprä sident</w>
E n</w>
sen der</w>
Ro s
stärk sten</w>
sugge sts</w>
ch at</w>
Mo de</w>
eth ical</w>
Stell en
Behör de</w>
Latein amerika</w>
v a
ri o
Eigent ü
dele te</w>
O S
op tional</w>
hö her
Zwei ten</w>
verur teilen</w>
Stor age</w>
es en
zu geben</w>
Sch alt
Mar ok
EN T
Fl ori
schwer wie
ge ous</w>
ent h</w>
op enness</w>
Ein satz
reib ungen</w>
P ast
gu es</w>
gele gene</w>
gemü tliche</w>
Ash ton</w>
er wiesen</w>
at om
po sts</w>
wär tige</w>
inst antly</w>
F ür
W ie
k et</w>
th es</w>
ba g</w>
medi terran
La den</w>
Clu bs</w>
join tly</w>
Or der</w>
Li brary</w>
auslän dischen</w>
b its</w>
ann i</w>
Bos nia</w>
bei behalten</w>
be wegung</w>
com posed</w>
aus wählen</w>
integri erte</w>
Vene zu
G lo
den d</w>
spec trum</w>
Hä fen</w>
bewe gt</w>
excur sions</w>
E del
t onn
am ending</w>
compla ints</w>
de voted</w>
accu racy</w>
R ennen</w>
f ter</w>
dies bezü
Pro gram</w>
tw in</w>
anzu wenden</w>
con i</w>
Te am
ge fühl</w>
ho hes</w>
Sich t
cal endar</w>
haf ter</w>
frü h</w>
fif th</w>
er w
er werben</w>
il es</w>
Ti ckets</w>
mechan ical</w>
20 15</w>
Ar ti
Ber gen</w>
tri bute</w>
certi fication</w>
Be vor</w>
fahr zeuge</w>
europ a
Qu i
whe el</w>
kosten losen</w>
Klar heit</w>
di an</w>
Re al
En ts
sen sib
rank ungen</w>
ener y</w>
commer ce</w>
arran gement</w>
access ories</w>
ministr ator</w>
Min er
juris diction</w>
L oo
а н
al leg
Aus be
bedro ht</w>
Langu age</w>
M igration</w>
l é
Gu i
altern atives</w>
resi dents</w>
I deal</w>
publi sh</w>
dest inations</w>
klein ere</w>
r ent
sp anische</w>
vie wing</w>
auth ors</w>
anträ ge</w>
C in
d den
si erungs
AL DE</w>
Ha iti</w>
Up dates</w>
ger ei
G on
g on
re z</w>
ra cle</w>
tra gic</w>
tic a</w>
sozi al
Wettbewer bs</w>
wh at
ga u</w>
B ER
sch ar
ent ary</w>
Be stellungen</w>
sti l</w>
W ä
au p
Aus richtung</w>
er stens</w>
est a</w>
simultane ously</w>
er teilen</w>
st ently</w>
wei chen</w>
ali se</w>
H ör
n esses</w>
ver la
ver mittelt</w>
ci o</w>
Un s</w>
Pal ette</w>
manufac tured</w>
gehöri ge</w>
ge treten</w>
accord ingly</w>
sun ny</w>
Forts etzung</w>
W eine</w>
rec ru
EI B</w>
ver tritt</w>
In flation</w>
Ereig nis</w>
appar ent</w>
consi sten
iz ing</w>
NE T</w>
surv ey</w>
gestie gen</w>
clar ity</w>
inn eren</w>
Sk ri
termin al</w>
Chan cen
t ung
er leb
um es</w>
Inde x</w>
B S</w>
K G</w>
e ure</w>
ac tor</w>
comm odi
Statisti ken</w>
arab ischen</w>
H P</w>
st ür
at ur
inspec tion</w>
zei gte</w>
posi tion
dru ckt</w>
Liefer anten</w>
Äu ßer
C H</w>
H alle</w>
L eben
ari b
ide ally</w>
Gemein den</w>
meas urement</w>
Austra lien</w>
S por
f ell</w>
for gotten</w>
chem ische</w>
beabsichti gt</w>
troub le</w>
al uminium</w>
politi ken</w>
Bet reiber</w>
Ur sache</w>
Aus sagen</w>
LE D</w>
р е
pos ure</w>
her bei
ori entation</w>
For ce</w>
Qu ell
zus agen</w>
modi fy</w>
Origin al
kö mm
all ed</w>
Zu rich</w>
Wahr ung</w>
Komple tt
Be stell
Mit tw
Govern ance</w>
Ferienwoh nungen</w>
d äm
ge ehrte</w>
Plätz e</w>
k le
re publik</w>
Ko re
trans action</w>
Kenn tnisse</w>
Werk zeuge</w>
re ci
unterschie d
unterschie dlicher</w>
ig ungen</w>
pre served</w>
Ad van
authori zed</w>
trage dy</w>
S ark
m on</w>
er arbeitet</w>
so fa</w>
zah ler</w>
cei ling</w>
answer ed</w>
pa in</w>
Gro wth</w>
l assung</w>
con s</w>
sol ch</w>
Kop f
collap se</w>
8 0
ä der</w>
Problemati k</w>
st at</w>
Netz e</w>
fal sche</w>
C ross</w>
a sis</w>
ri ert</w>
um gehend</w>
tre as
fun ktionen</w>
Fest platte</w>
Fel der</w>
di en</w>
Sou thern</w>
rev ised</w>
S et
is a</w>
be weisen</w>
per pet
ähn lichen</w>
Cô te</w>
di eren</w>
fall ing</w>
Protok olls</w>
c it
lo se
lan gem</w>
ster ing</w>
öffent licher</w>
Do cum
fant as
geb nisse</w>
anzu passen</w>
Entwicklungs hilfe</w>
Liber alen</w>
Blo ck
k und
af raid</w>
se bene</w>
Kenn zeichnung</w>
oni al</w>
Palestini ans</w>
th ei
co o
fin ds</w>
sc and
fl uss
promo ted</w>
Fahr zeug</w>
statt gefunden</w>
Wich tigkeit</w>
H ände</w>
Z wan
la st
Bet rach
SD L</w>
Schicks al</w>
C lar
en to</w>
bu l</w>
gew ach
kur se</w>
finanzi erung</w>
taus end</w>
Mensch heit</w>
afford able</w>
s culp
Ver län
In halten</w>
ah e</w>
sa ke</w>
bre ath
lo ans</w>
what soever</w>
in sul
an ten
to wer</w>
Ge sicht</w>
Men ü
Nach druck</w>
ish ment</w>
ES S</w>
gebäu de</w>
express ly</w>
K eine</w>
her ausge
viol ent</w>
197 0</w>
überra scht</w>
J ag
i ran
at on</w>
reib ungs
pharmac eu
W ett
person en</w>
flexi bel</w>
remo val</w>
9 001</w>
continu ously</w>
bewer tet</w>
Wi reless</w>
behaup tet</w>
Gewin n</w>
assur ance</w>
th ic</w>
as er</w>
con version</w>
no body</w>
rec all</w>
aktu alisiert</w>
affec ting</w>
geschnit ten</w>
Califor nia</w>
g ische</w>
Ver heu
funktion ier
Mil an</w>
Christ op
Köl n</w>
sch alten</w>
hon est</w>
basi cally</w>
pel ine</w>
komb iniert</w>
en cryp
gen ös
bi om
Gesetz geb
bli cken</w>
befür worten</w>
chest ra</w>
e des</w>
li est</w>
le i</w>
sp annen</w>
Ar c
Coun try</w>
inclu sive</w>
tari at</w>
Finn ish</w>
zu stande</w>
aff ord</w>
Mon te
hol der</w>
L ap
T M</w>
poli s</w>
fa ire</w>
harmon isi
euro zone</w>
op pose</w>
arbei teten</w>
elec toral</w>
k it</w>
Ver fahrens</w>
with draw
publi shing</w>
pen sions</w>
klär t</w>
be fin
gra ph</w>
Rein igung</w>
k tu
Auf hebung</w>
install ations</w>
F R
k new</w>
For mul
mi ß
poten ti
confi g
ausgestat tete</w>
3 60</w>
G y
ne x</w>
tr in
Vor gehensweise</w>
typ isch</w>
Hand y</w>
Volks wirtschaften</w>
klär en</w>
dead line</w>
b icy
sa d</w>
vor liegt</w>
Ad d</w>
Sü do
G las</w>
K ein</w>
b ahn
Th ird</w>
ger ingen</w>
ess ing</w>
Ira q
stopp ed</w>
b ac
g are
komm ens
Com ple
cen ters</w>
Def ence</w>
Dynam ik</w>
T NG</w>
de cl
pro vo
Par li
Ju gosla
M ar</w>
In kraft
ständi ger</w>
ju dge</w>
atten ded</w>
Ziel setzungen</w>
Olymp ic</w>
umfangreich en</w>
Bewus stsein</w>
Verheu gen</w>
pro gressive</w>
ven tive</w>
doub ts</w>
T ali
Mac ed
Wün schen</w>
Zuverlässi gkeit</w>
T ak
bu ying</w>
woh nt</w>
Kur z</w>
zz o</w>
respe ktieren</w>
stres sed</w>
Foo t
c ommission
all a</w>
fer tigung</w>
trau m
S ac
bu cht</w>
Bet racht</w>
komple xe</w>
Einzel heiten</w>
Partner ship</w>
p ack</w>
sa iling</w>
eri ert</w>
Weiter hin</w>
architec tural</w>
monum ents</w>
Kür ze</w>
plan e</w>
komple xen</w>
trop ical</w>
gi pf
Zeit plan</w>
Ori enti
transi tional</w>
health care</w>
a wa
kt or
cho se</w>
Bri dge</w>
foc uses</w>
präz ise</w>
Colo gne</w>
Chancen gleichheit</w>
C 4</w>
ar te</w>
erheb lichen</w>
C e
M ischung</w>
O therwise</w>
res cu
br ands</w>
ens hip</w>
Con tact</w>
ph p</w>
Bau ern
Sau di</w>
Lebensmittel sicherheit</w>
endgül tige</w>
Trag ö
S ex
m ig
sh oo
lei hen</w>
Wahr schein
Archit e
liter ature</w>
uneingeschrän kt</w>
F ang
h em
n es</w>
v ine
plat ten</w>
gemü tlichen</w>
ch ur
fest yle</w>
Im mer</w>
integri ty</w>
belon gs</w>
Stei gerung</w>
K rie
ing ent</w>
Ent schä
sichti gen</w>
region aler</w>
Flü cht
dimen sions</w>
Altern ativen</w>
veran k
Tamp ere</w>
rela xed</w>
quanti ty</w>
Beschrän kungen</w>
rl pool</w>
é ri
ar tik
Di esen</w>
clo sing</w>
visi ts</w>
Inte gri
enthusi as
österreich ischen</w>
b onds</w>
c tu
re lief</w>
der selben</w>
UN D</w>
leben den</w>
g ingen</w>
aus wirken</w>
mar gin
Dan iel</w>
gi eren</w>
wür digen</w>
fri end
del ays</w>
18 th</w>
Russ lands</w>
begeg nen</w>
sch wan
mo vies</w>
Buch stab
telef on
be ach
ref use</w>
rene wed</w>
m äh
wach sende</w>
jähr lichen</w>
B rau
li t
der art</w>
vi able</w>
Geb ir
kap az
be ef</w>
verur sachen</w>
peti tion</w>
Syri a</w>
mark ing</w>
id yl
angekün digt</w>
w unden</w>
ar rest</w>
tig keits
gran ting</w>
soverei gn</w>
Tie f
ver e</w>
form ular</w>
ten sion</w>
vor sieht</w>
kön ne</w>
Pri ze</w>
offici ally</w>
Ker nel</w>
Represent ative</w>
wi en</w>
Er arbeitung</w>
Über nahme</w>
Li by
erwäh nten</w>
L ohn
T uni
uni vers
terra sse</w>
tatsäch lichen</w>
A ch
F OR</w>
I stan
er ische</w>
wir ft</w>
ob servation</w>
Off enheit</w>
erforder liche</w>
Zimmer beschreibung</w>
s ein
kü ste</w>
medizin ische</w>
I A
re servi
ar range</w>
ag nen</w>
bro ader</w>
CA D</w>
geneh mi
ab gesehen</w>
te stens</w>
Ka bel</w>
P um
es a</w>
mit ting</w>
fel der</w>
drän gt</w>
decl are</w>
L ich
re y</w>
st ops</w>
ab stra
Her kunft</w>
tel n</w>
conver t</w>
occup ied</w>
y l</w>
Par t</w>
Ab bau</w>
angen ommenen</w>
spür en</w>
p a</w>
Er öffnung</w>
erleich tert</w>
General sekre
soldi ers</w>
St rei
so genannte</w>
gem essen</w>
Techn ologi
Emp fang</w>
cat ors</w>
Haf en
Föder ation</w>
ic on</w>
geeig neten</w>
Georgi en</w>
getrenn t</w>
forts etzen</w>
S av
ge startet</w>
elegan ten</w>
privileg ed</w>
a z</w>
f ungen</w>
foc using</w>
prospec t</w>
H änden</w>
et ry</w>
Welt krieg</w>
exhi bitions</w>
neighbour hood</w>
spek ta
A pa
n ehmen
te stelle</w>
Nach mittag</w>
Il lu
ein iges</w>
ec ks</w>
Aus nahmen</w>
dam ali
Autom ati
Obje kt</w>
public ations</w>
du ration</w>
form uliert</w>
Ge sichtsp
stand ardi
organ ize</w>
distinc tion</w>
Fremden verkehr</w>
ar gue</w>
ver wiesen</w>
Bau ern</w>
wunder schöne</w>
musi kali
Pflan zen
f ab
el low</w>
sign als</w>
deut liche</w>
fur b
kun de</w>
sche dule</w>
Vermö gens
da vor</w>
Bu reau</w>
adv ise</w>
Gu te</w>
autom otive</w>
Г ј
ar z
so for
ann ehm
über mitteln</w>
Rech en
kur zer</w>
Schul den
cat alogue</w>
P ER
preci sion</w>
nö tigen</w>
b and
Betri fft</w>
b ak
de z</w>
po sted</w>
her um</w>
H OT
re alisiert</w>
ub s</w>
techn ischer</w>
cam eras</w>
Zerst örung</w>
E asy</w>
th row</w>
sp lit</w>
ko rea</w>
beg ünsti
Rich ter</w>
mm ing
frei ght</w>
Auff or
Bon us</w>
deser ve</w>
er arbeiten</w>
le gen
zentr aler</w>
thor ou
S us
z i</w>
hi re</w>
Sch wellen
So und
Fisch ler</w>
t ability</w>
Sei ten
NG L</w>
resear chers</w>
sch ür
gu il
territ ories</w>
vertrau en</w>
fasz ini
z immern</w>
be zeichnen</w>
Ma ils</w>
the ater</w>
identi fication</w>
archi ve</w>
6 0
ru fe</w>
wh enever</w>
Wal d</w>
verbin dungen</w>
Bon n</w>
newsp aper</w>
F li
er vice</w>
Ver ordnungen</w>
pas sion</w>
surv eillance</w>
Gar ten
Minder heit</w>
Voy ager</w>
M illion</w>
sta b</w>
Sü dafrika</w>
3 rd</w>
an erkennen</w>
begrün det</w>
Dou ble</w>
ssi er</w>
Inn er
fair en</w>
Bos nien</w>
certific ate</w>
W ord
le ger</w>
Bei jing</w>
achie vements</w>
eman den</w>
I bi
ra tional</w>
Bau m
geb ühren</w>
edi tor</w>
i sten</w>
u e
zu gestimmt</w>
Re f</w>
To wer</w>
Ru ral</w>
verz ichten</w>
du plic
tra ins</w>
ic ars</w>
credi ble</w>
presti gious</w>
sch wä
Zu cker
emp fängt</w>
angeneh me</w>
unterbro chen</w>
ver arbeitet</w>
tu be</w>
min es</w>
Sol utions</w>
graf ische</w>
ge habt</w>
Über sicht</w>
moder ner</w>
pro menade</w>
kri tischen</w>
interess anten</w>
V inc
c rop
f lich</w>
Ver sprechen</w>
pres sed</w>
mis sed</w>
koh är
Wik icars</w>
te c</w>
du stri
Slo wen
oblig ator
Koh len
prepar ations</w>
cancell ed</w>
explic itly</w>
B ah
o x
In tel</w>
so s</w>
sen sor</w>
Verk aufs
frequ ent</w>
popul ations</w>
Hän dler</w>
concer ts</w>
preci ous</w>
U K
il en</w>
Sch le
su res</w>
spiel te</w>
post al</w>
mechanis men</w>
Ministerprä sident</w>
b les</w>
ho tel
mis es</w>
pat tern</w>
angebo te</w>
erstre ckt</w>
inter active</w>
gen te</w>
wel s</w>
Al ters
az zo</w>
Privat sphäre</w>
Kreu z
v est
gen ous</w>
Frie dens</w>
Wieder herstellung</w>
behavi or</w>
bene ficial</w>
H our</w>
T aten</w>
н а
prin zip</w>
hör t</w>
mach inery</w>
Spec i
ma ps</w>
no s</w>
geb illi
K OM</w>
li min
ol i</w>
ursprün gliche</w>
Zerti fik
c tive</w>
fu hren</w>
under take</w>
arbei ter</w>
kri terien</w>
consul tan
niedri gen</w>
d res
sc ar
gemein samer</w>
fl ying</w>
reve aled</w>
Tari fa</w>
necessi ty</w>
ac t
Ver fahrens
tsp rech
plan ung</w>
herr schen</w>
religi ösen</w>
eindeu tige</w>
tau chen</w>
Schn ell
ion ship</w>
an ges
un usual</w>
ci ally</w>
Ver sand
Gro ßen</w>
Sch ie
fac to</w>
dri ves</w>
S MS</w>
o date</w>
Lo gik</w>
verein t</w>
Inte gra
verabschie den</w>
Der zeit</w>
adjust ment</w>
trans fer
land schaft</w>
Kar l
öh ne</w>
kompli ziert</w>
Bürokrati e</w>
auf nahme</w>
Pre sidents</w>
geh e</w>
hy gi
ign ore</w>
The orie</w>
pp s</w>
Li b
gel d</w>
deb ated</w>
Isra eli
premi um</w>
neut ral</w>
M S
Aus grenzung</w>
Kon su
mark tes</w>
co al</w>
mei ster
sand y</w>
proxim ity</w>
Formu lierung</w>
g lichkeit</w>
Sch reib
ori sten</w>
refle ction</w>
Every thing</w>
ver mutlich</w>
com o</w>
Er halt</w>
auf geführt</w>
ens er</w>
diesel ben</w>
S ER
per sec
Rei ch</w>
Rau ms</w>
genie ßt</w>
absur d</w>
ne m</w>
zu gelassen</w>
fi ehlt</w>
par ameter</w>
Sel ect</w>
eigent liche</w>
Ren aissance</w>
rele ases</w>
red und
ti an</w>
ehr en</w>
schen ken</w>
deter ior
beruf lichen</w>
toi let</w>
r and
s w
el det</w>
gel ernt</w>
je glicher</w>
einger ei
er weisen</w>
er öffnen</w>
Um stände</w>
Unter drück
stütz t</w>
typ ically</w>
emplo yers</w>
Industri al</w>
spor t
I ON
wär ts</w>
197 9</w>
komfort ablen</w>
green house</w>
rati fied</w>
zur zeit</w>
rul ing</w>
diesel be</w>
Ausbe utung</w>
Europ a
um so</w>
lei chte</w>
fe edback</w>
Ex port
zeich neten</w>
Col um
medizin ischen</w>
Mittw och</w>
M ül
be stände</w>
op t</w>
In clu
pl ätzen</w>
institu te</w>
fit ted</w>
al ar
ver arbeitung</w>
Stra sse</w>
mechan ismus</w>
an passen</w>
Re gar
prev ented</w>
civi lian</w>
wand els</w>
suspen ded</w>
G ut</w>
thi op
S ri</w>
un known</w>
ger inger</w>
tt on</w>
wahr e</w>
drän gen</w>
b lin
cer em
ght seeing</w>
un dern</w>
Pan orama</w>
berühr t</w>
klim ati
Millenni um</w>
Ver abschie
verm ieden</w>
D um
G allery</w>
L inien</w>
gr a</w>
metho de</w>
Exper im
gewünsch te</w>
k et
äum e</w>
promis ing</w>
kamp f</w>
S ant</w>
e ve</w>
tran sit</w>
Mini bar</w>
ökonom ische</w>
gegensei tigen</w>
Geträn ke</w>
Begrün dung</w>
w öch
sicher er</w>
Schlu ß
n ur
Finan zen</w>
industri ellen</w>
negoti ated</w>
Abgeord neter</w>
presiden tial</w>
telecomm unications</w>
versch affen</w>
Dokum ent
S anti
da hin</w>
av al</w>
Hol land</w>
D I</w>
ex qui
to tali
ic an</w>
Feri en</w>
Menschenrechts verletzungen</w>
V O
wh el
An gabe</w>
Er neu
Her kunfts
fest e</w>
chem icals</w>
befürwor tet</w>
geschm ack
I ron
h är
l assungen</w>
gr ü
zw ischen
ren omm
Char me</w>
log istics</w>
Haf t
Jugend liche</w>
sonsti ge</w>
photograph s</w>
C lim
An zeige</w>
Jo sé</w>
S mith</w>
i da</w>
re tail</w>
Al pen</w>
innov ations</w>
C all</w>
T am
un certainty</w>
sch reibt</w>
Hand lungen</w>
nation als</w>
jün gste</w>
Zun ahme</w>
Wol f
V E</w>
ri ebenen</w>
Sü d</w>
Wet ter</w>
L ul
indi cators</w>
glau bt</w>
Erd be
das selbe</w>
ent a</w>
tre gi
subscri be</w>
favou rite</w>
Terr oristen</w>
Tali ban</w>
D un
K ämp
us h</w>
enz a</w>
Stu fe</w>
läu fe</w>
z ones</w>
Rob o
Argent ina</w>
zwöl f</w>
ri x</w>
rati o</w>
entsp ann
Süd ti
academ ic</w>
C au
ver zer
contro versi
c z
ss a</w>
Pe ters
Tab elle</w>
Verabschie dung</w>
St ahl
relev anten</w>
Funktion ieren</w>
threat ened</w>
Hus sein</w>
ver teilung</w>
De ep</w>
mer k</w>
reali ze</w>
integri eren</w>
Rechnung shof</w>
s es
w en</w>
re furb
ad mit</w>
Vi rus</w>
replac ement</w>
Kub a</w>
[...]
