{"<unk>":0,"<pad>":1,"<BOS>":2,"<EOS>":3,"!":4,"#":5,"$":6,"%":7,"&":8,"(":9,")":10,"*":11,"+":12,",":13,"-":14,".":15,"/":16,"0":17,"1":18,"2":19,"3":20,"4":21,"5":22,"6":23,"7":24,"8":25,"9":26,":":27,";":28,"=":29,"?":30,"@":31,"A":32,"B":33,"C":34,"D":35,"E":36,"F":37,"G":38,"H":39,"I":40,"J":41,"K":42,"L":43,"M":44,"N":45,"O":46,"P":47,"Q":48,"R":49,"S":50,"T":51,"U":52,"V":53,"W":54,"X":55,"Y":56,"Z":57,"\\":58,"^":59,"_":60,"a":61,"b":62,"c":63,"d":64,"e":65,"f":66,"g":67,"h":68,"i":69,"j":70,"k":71,"l":72,"m":73,"n":74,"o":75,"p":76,"q":77,"r":78,"s":79,"t":80,"u":81,"v":82,"w":83,"x":84,"y":85,"z":86,"{":87,"}":88,"~":89,"¡":90,"¢":91,"£":92,"¤":93,"¥":94,"¦":95,"§":96,"¨":97,"©":98,"ª":99,"¬":100,"®":101,"¯":102,"°":103,"±":104,"²":105,"³":106,"µ":107,"¶":108,"·":109,"¸":110,"¹":111,"º":112,"¼":113,"½":114,"¾":115,"¿":116,"À":117,"Á":118,"Â":119,"Ã":120,"Ä":121,"Å":122,"Æ":123,"Ç":124,"È":125,"É":126,"Ê":127,"Ë":128,"Ì":129,"Í":130,"Î":131,"Ï":132,"Ð":133,"Ñ":134,"Ò":135,"Ó":136,"Ô":137,"Õ":138,"Ö":139,"×":140,"Ø":141,"Ù":142,"Ú":143,"Û":144,"Ü":145,"Ý":146,"Þ":147,"ß":148,"à":149,"á":150,"â":151,"ã":152,"ä":153,"å":154,"æ":155,"ç":156,"è":157,"é":158,"ê":159,"ë":160,"ì":161,"í":162,"î":163,"ï":164,"ð":165,"ñ":166,"ò":167,"ó":168,"ô":169,"õ":170,"ö":171,"÷":172,"ø":173,"ù":174,"ú":175,"û":176,"ü":177,"ý":178,"þ":179,"ÿ":180,"Ā":181,"ā":182,"Ă":183,"ă":184,"Ą":185,"ą":186,"Ć":187,"ć":188,"Ĉ":189,"Č":190,"č":191,"Ď":192,"ď":193,"Đ":194,"đ":195,"ē":196,"ė":197,"Ę":198,"ę":199,"ě":200,"ĝ":201,"Ğ":202,"ğ":203,"Ġ":204,"ģ":205,"ħ":206,"ĩ":207,"ī":208,"į":209,"İ":210,"ı":211,"ķ":212,"ĺ":213,"ļ":214,"Ľ":215,"ľ":216,"Ŀ":217,"Ł":218,"ł":219,"Ń":220,"ń":221,"ņ":222,"Ň":223,"ň":224,"Ō":225,"ō":226,"ŏ":227,"Ő":228,"ő":229,"Œ":230,"œ":231,"Ř":232,"ř":233,"Ś":234,"ś":235,"ŝ":236,"Ş":237,"ş":238,"Š":239,"š":240,"Ţ":241,"ţ":242,"ť":243,"ū":244,"ŭ":245,"Ů":246,"ů":247,"Ű":248,"ű":249,"ų":250,"Ÿ":251,"Ź":252,"ź":253,"Ż":254,"ż":255,"Ž":256,"ž":257,"ƒ":258,"ơ":259,"ư":260,"ǎ":261,"ǐ":262,"ǘ":263,"ǣ":264,"Ǵ":265,"ș":266,"ț":267,"ə":268,"ɛ":269,"ɡ":270,"ʊ":271,"ʌ":272,"ʒ":273,"ˆ":274,"ˈ":275,"ː":276,"˙":277,"˚":278,"˛":279,"˝":280,"̈":281,"Ά":282,"Α":283,"Β":284,"Γ":285,"Δ":286,"Ε":287,"Ζ":288,"Η":289,"Ι":290,"Κ":291,"Λ":292,"Μ":293,"Ν":294,"Ο":295,"Π":296,"Σ":297,"Τ":298,"Υ":299,"Φ":300,"Ω":301,"ά":302,"έ":303,"ή":304,"ί":305,"α":306,"β":307,"γ":308,"δ":309,"ε":310,"ζ":311,"η":312,"θ":313,"ι":314,"κ":315,"λ":316,"μ":317,"ν":318,"ο":319,"π":320,"ρ":321,"ς":322,"σ":323,"τ":324,"υ":325,"φ":326,"χ":327,"ω":328,"ϋ":329,"ό":330,"Ђ":331,"Ѓ":332,"Є":333,"І":334,"Љ":335,"Ћ":336,"Ќ":337,"А":338,"Б":339,"В":340,"Г":341,"Д":342,"Е":343,"Ж":344,"З":345,"И":346,"Й":347,"К":348,"Л":349,"М":350,"Н":351,"О":352,"П":353,"Р":354,"С":355,"Т":356,"У":357,"Ф":358,"Х":359,"Ц":360,"Ч":361,"Ш":362,"Щ":363,"Ы":364,"Ь":365,"Э":366,"Я":367,"а":368,"б":369,"в":370,"г":371,"д":372,"е":373,"ж":374,"з":375,"и":376,"й":377,"к":378,"л":379,"м":380,"н":381,"о":382,"п":383,"р":384,"с":385,"т":386,"у":387,"ф":388,"х":389,"ц":390,"ч":391,"ш":392,"щ":393,"ъ":394,"ы":395,"ь":396,"э":397,"ю":398,"я":399,"ё":400,"є":401,"ѕ":402,"і":403,"ї":404,"ј":405,"њ":406,"ќ":407,"џ":408,"ֳ":409,"א":410,"ב":411,"ד":412,"ה":413,"ח":414,"י":415,"ל":416,"מ":417,"ע":418,"ר":419,"ש":420,"ת":421,"،":422,"آ":423,"أ":424,"إ":425,"ا":426,"ب":427,"ة":428,"ت":429,"ج":430,"ح":431,"خ":432,"د":433,"ر":434,"س":435,"ش":436,"ص":437,"ط":438,"ع":439,"غ":440,"ـ":441,"ف":442,"ك":443,"ل":444,"م":445,"ن":446,"ه":447,"و":448,"ى":449,"ي":450,"ِ":451,"چ":452,"ک":453,"ی":454,"߮":455,"ह":456,"ก":457,"ค":458,"ง":459,"ธ":460,"น":461,"บ":462,"ป":463,"ฝ":464,"พ":465,"ม":466,"ร":467,"ว":468,"ส":469,"ห":470,"อ":471,"ะ":472,"ั":473,"า":474,"ี":475,"ื":476,"ุ":477,"฿":478,"เ":479,"แ":480,"ใ":481,"่":482,"๊":483,"ຄ":484,"ງ":485,"ຈ":486,"ດ":487,"ຖ":488,"ນ":489,"ມ":490,"ວ":491,"ັ":492,"ຸ":493,"་":494,"བ":495,"ღ":496,"ም":497,"ረ":498,"ር":499,"ቀ":500,"ṭ":501,"ạ":502,"ả":503,"ấ":504,"ẩ":505,"ậ":506,"ắ":507,"Ẳ":508,"ế":509,"ề":510,"ễ":511,"ệ":512,"ọ":513,"ồ":514,"ổ":515,"ộ":516,"ờ":517,"ợ":518,"ủ":519,"ứ":520,"ỹ":521,"‐":522,"‑":523,"‒":524,"―":525,"‛":526,"‟":527,"†":528,"‡":529,"•":530,"‰":531,"′":532,"″":533,"‹":534,"›":535,"※":536,"‼":537,"⁄":538,"₂":539,"₩":540,"₪":541,"€":542,"₴":543,"℃":544,"ℓ":545,"№":546,"™":547,"Ω":548,"⅔":549,"←":550,"↑":551,"→":552,"↓":553,"↔":554,"⇒":555,"⇢":556,"∈":557,"−":558,"√":559,"∞":560,"∴":561,"≈":562,"≠":563,"≤":564,"≥":565,"≪":566,"≫":567,"⌃":568,"⌘":569,"①":570,"╚":571,"╩":572,"█":573,"■":574,"□":575,"▪":576,"▲":577,"►":578,"▼":579,"◆":580,"◇":581,"◊":582,"○":583,"◎":584,"●":585,"◙":586,"◦":587,"★":588,"☆":589,"☎":590,"☑":591,"♀":592,"♠":593,"♣":594,"♥":595,"♦":596,"♪":597,"✿":598,"➲":599,"、":600,"。":601,"「":602,"」":603,"『":604,"』":605,"【":606,"】":607,"〜":608,"い":609,"お":610,"か":611,"き":612,"く":613,"こ":614,"し":615,"じ":616,"す":617,"っ":618,"つ":619,"て":620,"に":621,"の":622,"は":623,"ふ":624,"ま":625,"み":626,"む":627,"よ":628,"り":629,"る":630,"を":631,"イ":632,"ウ":633,"カ":634,"キ":635,"コ":636,"ス":637,"ダ":638,"ツ":639,"ト":640,"ナ":641,"マ":642,"ミ":643,"メ":644,"ン":645,"・":646,"ー":647,"ㄤ":648,"一":649,"三":650,"上":651,"下":652,"丘":653,"中":654,"丽":655,"举":656,"久":657,"习":658,"书":659,"了":660,"事":661,"二":662,"五":663,"京":664,"人":665,"仁":666,"今":667,"付":668,"代":669,"以":670,"会":671,"传":672,"伸":673,"体":674,"何":675,"作":676,"侍":677,"便":678,"俊":679,"修":680,"倒":681,"入":682,"其":683,"円":684,"凄":685,"出":686,"分":687,"切":688,"利":689,"剑":690,"剥":691,"加":692,"势":693,"勢":694,"勿":695,"匡":696,"区":697,"匿":698,"十":699,"南":700,"卡":701,"原":702,"去":703,"参":704,"取":705,"只":706,"号":707,"合":708,"吊":709,"名":710,"吗":711,"吧":712,"吹":713,"呀":714,"呑":715,"味":716,"呼":717,"和":718,"咬":719,"哈":720,"唸":721,"啤":722,"啦":723,"喜":724,"嘛":725,"四":726,"回":727,"囧":728,"圆":729,"國":730,"坐":731,"城":732,"塗":733,"士":734,"壮":735,"备":736,"大":737,"天":738,"头":739,"奚":740,"好":741,"如":742,"妻":743,"娥":744,"媛":745,"学":746,"安":747,"宜":748,"寄":749,"寺":750,"小":751,"尾":752,"屋":753,"山":754,"岭":755,"川":756,"市":757,"年":758,"広":759,"建":760,"弄":761,"弓":762,"弔":763,"張":764,"当":765,"律":766,"德":767,"心":768,"応":769,"怒":770,"思":771,"急":772,"悠":773,"悩":774,"情":775,"想":776,"愛":777,"憶":778,"戴":779,"戸":780,"手":781,"找":782,"承":783,"折":784,"担":785,"持":786,"挡":787,"振":788,"损":789,"排":790,"掻":791,"揃":792,"損":793,"摇":794,"撮":795,"斗":796,"明":797,"是":798,"暫":799,"書":800,"木":801,"李":802,"村":803,"来":804,"東":805,"板":806,"林":807,"架":808,"柱":809,"業":810,"楽":811,"樹":812,"止":813,"歩":814,"死":815,"殿":816,"比":817,"水":818,"江":819,"沪":820,"油":821,"治":822,"泉":823,"泊":824,"波":825,"洛":826,"流":827,"济":828,"浙":829,"浦":830,"深":831,"済":832,"湯":833,"満":834,"滬":835,"熨":836,"牌":837,"牙":838,"物":839,"献":840,"珠":841,"生":842,"用":843,"申":844,"直":845,"県":846,"眩":847,"眼":848,"着":849,"石":850,"碁":851,"祖":852,"神":853,"稼":854,"空":855,"立":856,"站":857,"竹":858,"箱":859,"納":860,"紙":861,"紧":862,"終":863,"纸":864,"绞":865,"美":866,"翁":867,"考":868,"者":869,"聞":870,"能":871,"腹":872,"臂":873,"臓":874,"臨":875,"自":876,"舁":877,"舅":878,"芝":879,"若":880,"英":881,"茨":882,"茶":883,"蒸":884,"蘇":885,"螳":886,"行":887,"街":888,"裕":889,"西":890,"見":891,"见":892,"角":893,"解":894,"記":895,"話":896,"語":897,"読":898,"請":899,"貢":900,"貮":901,"賢":902,"贡":903,"赤":904,"越":905,"足":906,"路":907,"載":908,"车":909,"载":910,"辞":911,"辱":912,"込":913,"连":914,"送":915,"逃":916,"連":917,"逸":918,"遇":919,"遽":920,"邊":921,"部":922,"鄂":923,"酎":924,"酒":925,"金":926,"銀":927,"鎚":928,"鏡":929,"钓":930,"钟":931,"镜":932,"開":933,"闻":934,"陀":935,"降":936,"陵":937,"陶":938,"难":939,"雄":940,"青":941,"頂":942,"頑":943,"顯":944,"顶":945,"题":946,"風":947,"飛":948,"食":949,"飯":950,"飲":951,"館":952,"香":953,"馬":954,"駅":955,"高":956,"鹈":957,"뀌":958,"년":959,"는":960,"니":961,"다":962,"로":963,"마":964,"막":965,"목":966,"문":967,"바":968,"변":969,"서":970,"습":971,"신":972,"어":973,"었":974,"에":975,"영":976,"월":977,"으":978,"이":979,"일":980,"주":981,"지":982,"ﬁ":983,"ﬂ":984,"＊":985,"．":986,"：":987,"；":988,"Ｓ":989,"［":990,"ｅ":991,"ｌ":992,"ｏ":993,"ｕ":994,"￥":995,"𐌰":996,"𐌴":997,"𐌸":998,"𐌼":999,"𐌽":1000,"𐍃":1001,"𐍉":1002,"𢥲":1003,"r</w>":1004,"←</w>":1005,"i</w>":1006,"n</w>":1007,"t</w>":1008,"w</w>":1009,"k</w>":1010,"s</w>":1011,"e</w>":1012,"h</w>":1013,"y</w>":1014,"g</w>":1015,"l</w>":1016,"z</w>":1017,"T</w>":1018,"p</w>":1019,"d</w>":1020,"O</w>":1021,"S</w>":1022,"a</w>":1023,"1</w>":1024,"o</w>":1025,"W</w>":1026,"я</w>":1027,"A</w>":1028,"m</w>":1029,"á</w>":1030,"é</w>":1031,"v</w>":1032,"x</w>":1033,"C</w>":1034,"5</w>":1035,"j</w>":1036,"R</w>":1037,"E</w>":1038,"M</w>":1039,"c</w>":1040,"ä</w>":1041,"2</w>":1042,"9</w>":1043,"N</w>":1044,"3</w>":1045,"0</w>":1046,"u</w>":1047,"b</w>":1048,"í</w>":1049,"ó</w>":1050,"I</w>":1051,"f</w>":1052,"D</w>":1053,"F</w>":1054,"Z</w>":1055,"G</w>":1056,"º</w>":1057,"в</w>":1058,"7</w>":1059,"L</w>":1060,"ß</w>":1061,"U</w>":1062,"4</w>":1063,"Y</w>":1064,"樹</w>":1065,"6</w>":1066,"H</w>":1067,"P</w>":1068,"Ö</w>":1069,"8</w>":1070,"Ã</w>":1071,"à</w>":1072,"X</w>":1073,"ý</w>":1074,"о</w>":1075,"ě</w>":1076,"е</w>":1077,"B</w>":1078,"K</w>":1079,"ы</w>":1080,"Á</w>":1081,"ú</w>":1082,"ï</w>":1083,"J</w>":1084,"ş</w>":1085,"н</w>":1086,"а</w>":1087,"›</w>":1088,"Å</w>":1089,"Q</w>":1090,"ń</w>":1091,"!</w>":1092,"ù</w>":1093,"V</w>":1094,"紙</w>":1095,"ח</w>":1096,"Г</w>":1097,"ı</w>":1098,"ď</w>":1099,"ă</w>":1100,"è</w>":1101,"š</w>":1102,"ь</w>":1103,"ž</w>":1104,"斗</w>":1105,"â</w>":1106,"х</w>":1107,"q</w>":1108,"ò</w>":1109,"ﬁ</w>":1110,"ć</w>":1111,"箱</w>":1112,"ą</w>":1113,"ż</w>":1114,"ð</w>":1115,"ü</w>":1116,"ς</w>":1117,"¾</w>":1118,"й</w>":1119,"芝</w>":1120,"济</w>":1121,"部</w>":1122,"å</w>":1123,"ø</w>":1124,"≠</w>":1125,"以</w>":1126,"勿</w>":1127,"β</w>":1128,"′</w>":1129,"č</w>":1130,"泉</w>":1131,"Ü</w>":1132,"ė</w>":1133,"ห</w>":1134,"◇</w>":1135,"ř</w>":1136,"ο</w>":1137,"Ă</w>":1138,"酎</w>":1139,"ť</w>":1140,"ő</w>":1141,"弓</w>":1142,"丘</w>":1143,"џ</w>":1144,"ö</w>":1145,"α</w>":1146,"ນ</w>":1147,"л</w>":1148,"み</w>":1149,"担</w>":1150,"ê</w>":1151,"⅔</w>":1152,"ę</w>":1153,"м</w>":1154,"È</w>":1155,"æ</w>":1156,"ã</w>":1157,"Č</w>":1158,"с</w>":1159,"î</w>":1160,"ค</w>":1161,"自</w>":1162,"≤</w>":1163,"ā</w>":1164,"ō</w>":1165,"т</w>":1166,"会</w>":1167,"ì</w>":1168,"県</w>":1169,"з</w>":1170,"=</w>":1171,"ł</w>":1172,"_</w>":1173,"ح</w>":1174,"³</w>":1175,"小</w>":1176,"ن</w>":1177,"を</w>":1178,"Ì</w>":1179,"代</w>":1180,"₴</w>":1181,"@</w>":1182,"◎</w>":1183,"і</w>":1184,"™</w>":1185,"闻</w>":1186,"腹</w>":1187,"σ</w>":1188,"К</w>":1189,"˙</w>":1190,"년</w>":1191,"岭</w>":1192,"ª</w>":1193,"Â</w>":1194,"§</w>":1195,"ū</w>":1196,"ô</w>":1197,"ç</w>":1198,"怒</w>":1199,"À</w>":1200,"一</w>":1201,"ש</w>":1202,"д</w>":1203,"Ñ</w>":1204,"國</w>":1205,"У</w>":1206,"С</w>":1207,"ك</w>":1208,"ů</w>":1209,"献</w>":1210,"竹</w>":1211,"□</w>":1212,"є</w>":1213,"Ę</w>":1214,"咬</w>":1215,"勢</w>":1216,"ѕ</w>":1217,"Е</w>":1218,"館</w>":1219,"ή</w>":1220,"ë</w>":1221,"и</w>":1222,"り</w>":1223,"к</w>":1224,"香</w>":1225,"泊</w>":1226,"体</w>":1227,"ω</w>":1228,"剥</w>":1229,"ś</w>":1230,"風</w>":1231,"‰</w>":1232,"寺</w>":1233,"損</w>":1234,"ะ</w>":1235,"年</w>":1236,"急</w>":1237,"π</w>":1238,"˝</w>":1239,"啦</w>":1240,"Ý</w>":1241,"″</w>":1242,"か</w>":1243,"р</w>":1244,"ㄤ</w>":1245,"-</w>":1246,"Ь</w>":1247,"村</w>":1248,"?</w>":1249,"ת</w>":1250,"納</w>":1251,"ة</w>":1252,"В</w>":1253,"ف</w>":1254,"¼</w>":1255,"다</w>":1256,"م</w>":1257,"吗</w>":1258,"遽</w>":1259,"É</w>":1260,"Ÿ</w>":1261,"満</w>":1262,"其</w>":1263,":</w>":1264,"ź</w>":1265,"☆</w>":1266,"损</w>":1267,"у</w>":1268,"Τ</w>":1269,"Ù</w>":1270,"Σ</w>":1271,"ợ</w>":1272,"用</w>":1273,"☑</w>":1274,"湯</w>":1275,"Ι</w>":1276,"ē</w>":1277,"螳</w>":1278,"唸</w>":1279,"稼</w>":1280,"Ó</w>":1281,"業</w>":1282,"Ж</w>":1283,"ل</w>":1284,"И</w>":1285,"µ</w>":1286,"纸</w>":1287,"入</w>":1288,"作</w>":1289,"Î</w>":1290,"．</w>":1291,"į</w>":1292,"滬</w>":1293,"茶</w>":1294,"车</w>":1295,"Û</w>":1296,"着</w>":1297,"陀</w>":1298,"じ</w>":1299,"参</w>":1300,"∈</w>":1301,"߮</w>":1302,"≫</w>":1303,"生</w>":1304,"ː</w>":1305,"Α</w>":1306,"沪</w>":1307,"ю</w>":1308,"▲</w>":1309,"钓</w>":1310,"г</w>":1311,"臂</w>":1312,"英</w>":1313,"宜</w>":1314,"·</w>":1315,"ề</w>":1316,"ň</w>":1317,"Õ</w>":1318,"♥</w>":1319,"월</w>":1320,"^</w>":1321,"山</w>":1322,"張</w>":1323,"逸</w>":1324,"¢</w>":1325,"倒</w>":1326,"丽</w>":1327,"石</w>":1328,"記</w>":1329,"见</w>":1330,"揃</w>":1331,"き</w>":1332,"◦</w>":1333,"下</w>":1334,"Š</w>":1335,"茨</w>":1336,"♦</w>":1337,"Ô</w>":1338,"Ο</w>":1339,"®</w>":1340,"弄</w>":1341,"♠</w>":1342,"Ź</w>":1343,"일</w>":1344,"་</w>":1345,"œ</w>":1346,"顶</w>":1347,"*</w>":1348,"読</w>":1349,"ر</w>":1350,"≪</w>":1351,"青</w>":1352,"持</w>":1353,"赤</w>":1354,"蘇</w>":1355,"М</w>":1356,"þ</w>":1357,"切</w>":1358,"く</w>":1359,"洛</w>":1360,"路</w>":1361,"事</w>":1362,"ж</w>":1363,"น</w>":1364,"て</w>":1365,"ダ</w>":1366,"す</w>":1367,"侍</w>":1368,"에</w>":1369,"ي</w>":1370,"建</w>":1371,"律</w>":1372,"飯</w>":1373,"∴</w>":1374,"Í</w>":1375,"は</w>":1376,"Н</w>":1377,"б</w>":1378,"四</w>":1379,"浦</w>":1380,"{</w>":1381,"載</w>":1382,"；</w>":1383,"暫</w>":1384,"ñ</w>":1385,"п</w>":1386,"牌</w>":1387,"哈</w>":1388,"А</w>":1389,"＊</w>":1390,"Ú</w>":1391,"¨</w>":1392,"分</w>":1393,"İ</w>":1394,"吧</w>":1395,"ɛ</w>":1396,"Ν</w>":1397,"℃</w>":1398,"★</w>":1399,"弔</w>":1400,"♪</w>":1401,"τ</w>":1402,"μ</w>":1403,"人</w>":1404,"ќ</w>":1405,"→</w>":1406,"⌘</w>":1407,"载</w>":1408,"Х</w>":1409,"殿</w>":1410,"愛</w>":1411,"ğ</w>":1412,"逃</w>":1413,"ч</w>":1414,"今</w>":1415,"×</w>":1416,"久</w>":1417,"Й</w>":1418,"頂</w>":1419,"大</w>":1420,"≥</w>":1421,"◊</w>":1422,"駅</w>":1423,"‡</w>":1424,"Þ</w>":1425,"ό</w>":1426,"只</w>":1427,"◆</w>":1428,"₩</w>":1429,"当</w>":1430,"‑</w>":1431,"Д</w>":1432,"Ş</w>":1433,"Ů</w>":1434,"和</w>":1435,"ก</w>":1436,"ờ</w>":1437,"щ</w>":1438,"ι</w>":1439,"Ω</w>":1440,"振</w>":1441,"請</w>":1442,"Ä</w>":1443,"柱</w>":1444,"撮</w>":1445,"√</w>":1446,"囧</w>":1447,"呀</w>":1448,"ד</w>":1449,"Ő</w>":1450,"」</w>":1451,"陶</w>":1452,"û</w>":1453,"ű</w>":1454,"ί</w>":1455,"合</w>":1456,"書</w>":1457,"天</w>":1458,"λ</w>":1459,"去</w>":1460,"安</w>":1461,"Ç</w>":1462,"付</w>":1463,"ф</w>":1464,"õ</w>":1465,"↔</w>":1466,"Ž</w>":1467,"ﬂ</w>":1468,"ه</w>":1469,";</w>":1470,"臨</w>":1471,"心</w>":1472,"}</w>":1473,"啤</w>":1474,"ά</w>":1475,"承</w>":1476,"γ</w>":1477,"止</w>":1478,"貢</w>":1479,"บ</w>":1480,"っ</w>":1481,"「</w>":1482,"¿</w>":1483,"⇢</w>":1484,"中</w>":1485,"/</w>":1486,"川</w>":1487,"壮</w>":1488,"号</w>":1489,"‹</w>":1490,"І</w>":1491,"の</w>":1492,"ธ</w>":1493,"²</w>":1494,"↓</w>":1495,"𐍃</w>":1496,"修</w>":1497,"翁</w>":1498,"ל</w>":1499,"明</w>":1500,"‛</w>":1501,"◙</w>":1502,"語</w>":1503,"̈</w>":1504,",</w>":1505,"ų</w>":1506,"架</w>":1507,"。</w>":1508,"€</w>":1509,"书</w>":1510,"θ</w>":1511,"주</w>":1512,"ĺ</w>":1513,"来</w>":1514,"●</w>":1515,"終</w>":1516,"ī</w>":1517,"(</w>":1518,"이</w>":1519,"°</w>":1520,"φ</w>":1521,"ǎ</w>":1522,"Я</w>":1523,"京</w>":1524,"牙</w>":1525,"木</w>":1526,"尾</w>":1527,"手</w>":1528,"➲</w>":1529,"▪</w>":1530,"ŭ</w>":1531,"江</w>":1532,"绞</w>":1533,"‐</w>":1534,"寄</w>":1535,"𢥲</w>":1536,"屋</w>":1537,"П</w>":1538,"李</w>":1539,"比</w>":1540,"로</w>":1541,"ї</w>":1542,"高</w>":1543,"角</w>":1544,"贡</w>":1545,"圆</w>":1546,"♣</w>":1547,"憶</w>":1548,"&</w>":1549,"Ò</w>":1550,"掻</w>":1551,"行</w>":1552,"剑</w>":1553,"若</w>":1554,"‟</w>":1555,"■</w>":1556,"¶</w>":1557,"思</w>":1558,"美</w>":1559,"ツ</w>":1560,"①</w>":1561,"舁</w>":1562,"南</w>":1563,"悩</w>":1564,"吊</w>":1565,"神</w>":1566,"鹈</w>":1567,"ľ</w>":1568,"裕</w>":1569,"Ð</w>":1570,"治</w>":1571,"¥</w>":1572,"¦</w>":1573,"ى</w>":1574,"د</w>":1575,"想</w>":1576,"眼</w>":1577,"折</w>":1578,"開</w>":1579,"歩</w>":1580,"邊</w>":1581,"る</w>":1582,"ღ</w>":1583,"飲</w>":1584,"匡</w>":1585,"ρ</w>":1586,"カ</w>":1587,"名</w>":1588,"Ω</w>":1589,"立</w>":1590,"ป</w>":1591,"味</w>":1592,"ー</w>":1593,"考</w>":1594,"俊</w>":1595,"≈</w>":1596,"钟</w>":1597,"出</w>":1598,"○</w>":1599,"、</w>":1600,"金</w>":1601,"ื</w>":1602,"【</w>":1603,"η</w>":1604,"‒</w>":1605,"▼</w>":1606,"Б</w>":1607,"送</w>":1608,"見</w>":1609,"降</w>":1610,"÷</w>":1611,"\\</w>":1612,"势</w>":1613,"摇</w>":1614,"ረ</w>":1615,"城</w>":1616,"悠</w>":1617,"¯</w>":1618,"舅</w>":1619,"•</w>":1620,"珠</w>":1621,"申</w>":1622,"Ѓ</w>":1623,")</w>":1624,"坐</w>":1625,"⁄</w>":1626,"加</w>":1627,"њ</w>":1628,"Т</w>":1629,"ت</w>":1630,"ζ</w>":1631,"戴</w>":1632,"排</w>":1633,"Р</w>":1634,"広</w>":1635,"ह</w>":1636,"区</w>":1637,"习</w>":1638,"塗</w>":1639,"板</w>":1640,"足</w>":1641,"［</w>":1642,"ֳ</w>":1643,"市</w>":1644,"ν</w>":1645,"传</w>":1646,"£</w>":1647,"吹</w>":1648,"ี</w>":1649,"О</w>":1650,"如</w>":1651,"ồ</w>":1652,"賢</w>":1653,"紧</w>":1654,"ا</w>":1655,"♀</w>":1656,"陵</w>":1657,"油</w>":1658,"Ǵ</w>":1659,"س</w>":1660,"头</w>":1661,"₪</w>":1662,"応</w>":1663,"円</w>":1664,"取</w>":1665,"情</w>":1666,"直</w>":1667,"馬</w>":1668,"๊</w>":1669,"ʒ</w>":1670,"举</w>":1671,"飛</w>":1672,"镜</w>":1673,"목</w>":1674,"˚</w>":1675,"・</w>":1676,"楽</w>":1677,"妻</w>":1678,"銀</w>":1679,"匿</w>":1680,"呼</w>":1681,"辞</w>":1682,"،</w>":1683,"ƒ</w>":1684,"三</w>":1685,"娥</w>":1686,"¤</w>":1687,"Ђ</w>":1688,"站</w>":1689,"−</w>":1690,"鏡</w>":1691,"↑</w>":1692,"½</w>":1693,"便</w>":1694,"利</w>":1695,"凄</w>":1696,"熨</w>":1697,"█</w>":1698,"蒸</w>":1699,"五</w>":1700,"眩</w>":1701,"能</w>":1702,"遇</w>":1703,"는</w>":1704,"ỹ</w>":1705,"貮</w>":1706,"⇒</w>":1707,"อ</w>":1708,"水</w>":1709,"✿</w>":1710,"№</w>":1711,"ĩ</w>":1712,"ｅ</w>":1713,"德</w>":1714,"∞</w>":1715,"Ф</w>":1716,"食</w>":1717,"╚</w>":1718,"备</w>":1719,"顯</w>":1720,"東</w>":1721,"聞</w>":1722,"ļ</w>":1723,"ト</w>":1724,"十</w>":1725,"☎</w>":1726,"是</w>":1727,"林</w>":1728,"学</w>":1729,"西</w>":1730,"¡</w>":1731,"$</w>":1732,"连</w>":1733,"雄</w>":1734,"二</w>":1735,"仁</w>":1736,"流</w>":1737,"街</w>":1738,"找</w>":1739,"戸</w>":1740,"伸</w>":1741,"越</w>":1742,"媛</w>":1743,"ư</w>":1744,"』</w>":1745,"上</w>":1746,"何</w>":1747,"Ń</w>":1748,"˛</w>":1749,"Ћ</w>":1750,"Ć</w>":1751,"済</w>":1752,"卡</w>":1753,"臓</w>":1754,"%</w>":1755,"ی</w>":1756,"δ</w>":1757,"死</w>":1758,"어</w>":1759,"ț</w>":1760,"่</w>":1761,"連</w>":1762,"‼</w>":1763,"深</w>":1764,"挡</w>":1765,"鎚</w>":1766,"©</w>":1767,"╩</w>":1768,"―</w>":1769,"ˆ</w>":1770,"±</w>":1771,"士</w>":1772,"ง</w>":1773,"¬</w>":1774,"า</w>":1775,"嘛</w>":1776,"物</w>":1777,"奚</w>":1778,"~</w>":1779,"原</w>":1780,"好</w>":1781,"込</w>":1782,"⌃</w>":1783,"※</w>":1784,"难</w>":1785,"₂</w>":1786,"了</w>":1787,"回</w>":1788,"辱</w>":1789,"†</w>":1790,"頑</w>":1791,"呑</w>":1792,"：</w>":1793,"浙</w>":1794,"ə</w>":1795,"話</w>":1796,"¹</w>":1797,"波</w>":1798,"『</w>":1799,"鄂</w>":1800,"Ï</w>":1801,"¸</w>":1802,"者</w>":1803,"〜</w>":1804,"酒</w>":1805,"】</w>":1806,"Ø</w>":1807,".</w>":1808,"碁</w>":1809,"空</w>":1810,"+</w>":1811,"ε</w>":1812,"►</w>":1813,"喜</w>":1814,"￥</w>":1815,"解</w>":1816,"お</w>":1817,"฿</w>":1818,"ц</w>":1819,"祖</w>":1820,"题</w>":1821,"#</w>":1822,"en</w>":1823,"er":1824,"in":1825,"th":1826,"ch":1827,"en":1828,"er</w>":1829,"an":1830,"un":1831,"ti":1832,"es":1833,"ei":1834,"ar":1835,"the</w>":1836,"di":1837,"or":1838,"on</w>":1839,"on":1840,"li":1841,"es</w>":1842,"st":1843,"ch</w>":1844,"al":1845,"ro":1846,"el":1847,"is":1848,"in</w>":1849,"re":1850,"si":1851,"wi":1852,"au":1853,"der</w>":1854,"is</w>":1855,"at":1856,"ein":1857,"to</w>":1858,"of</w>":1859,"and</w>":1860,"ed</w>":1861,"ou":1862,"om":1863,"as</w>":1864,"die</w>":1865,"und</w>":1866,"den</w>":1867,"ing</w>":1868,"ra":1869,"at</w>":1870,"ri":1871,"sch":1872,"an</w>":1873,"te</w>":1874,"ati":1875,"be":1876,"ge":1877,"as":1878,"or</w>":1879,"de":1880,"ur":1881,"ung</w>":1882,"ten</w>":1883,"Th":1884,"ab":1885,"gen</w>":1886,"ie</w>":1887,"it":1888,"ol":1889,"ver":1890,"us":1891,"al</w>":1892,"men":1893,"ter":1894,"le":1895,"le</w>":1896,"po":1897,"it</w>":1898,"te":1899,"ve</w>":1900,"ge</w>":1901,"ts</w>":1902,"ne":1903,"fü":1904,"pro":1905,"der":1906,"no":1907,"ly</w>":1908,"ac":1909,"am":1910,"hr":1911,"cht</w>":1912,"ni":1913,"ist</w>":1914,"se":1915,"de</w>":1916,"vi":1917,"chen</w>":1918,"zu</w>":1919,"for</w>":1920,"lo":1921,"sp":1922,"qu":1923,"con":1924,"are</w>":1925,"ff":1926,"The</w>":1927,"res":1928,"ation</w>":1929,"wer":1930,"for":1931,"that</w>":1932,"tion</w>":1933,"ent":1934,"omm":1935,"il":1936,"th</w>":1937,"von</w>":1938,"eine</w>":1939,"für</w>":1940,"ce</w>":1941,"be</w>":1942,"tz":1943,"hi":1944,"se</w>":1945,"Sie</w>":1946,"su":1947,"ma":1948,"ha":1949,"la":1950,"ein</w>":1951,"op":1952,"ent</w>":1953,"em":1954,"our</w>":1955,"ec":1956,"zu":1957,"ment</w>":1958,"rop":1959,"gen":1960,"ta":1961,"che</w>":1962,"urop":1963,"auf</w>":1964,"ou</w>":1965,"ie":1966,"dies":1967,"da":1968,"ber":1969,"eit</w>":1970,"ere</w>":1971,"st</w>":1972,"ll</w>":1973,"ber</w>":1974,"Ver":1975,"em</w>":1976,"gi":1977,"this</w>":1978,"das</w>":1979,"mit</w>":1980,"ter</w>":1981,"ell":1982,"ar</w>":1983,"des</w>":1984,"Die</w>":1985,"im":1986,"ges":1987,"with</w>":1988,"ul":1989,"ungen</w>":1990,"ons</w>":1991,"nen</w>":1992,"Europ":1993,"ex":1994,"com":1995,"tr":1996,"ho":1997,"lich</w>":1998,"por":1999,"so</w>":2000,"eh":2001,"you</w>":2002,"ci":2003,"not</w>":2004,"sen</w>":2005,"In":2006,"ind</w>":2007,"nicht</w>":2008,"du":2009,"ld</w>":2010,"fi":2011,"ck":2012,"werden</w>":2013,"An":2014,"co":2015,"wor":2016,"wir":2017,"um</w>":2018,"have</w>":2019,"we</w>":2020,"all</w>":2021,"mo":2022,"rei":2023,"ad":2024,"eri":2025,"and":2026,"wei":2027,"ke</w>":2028,"will</w>":2029,"ah":2030,"sion</w>":2031,"wir</w>":2032,"tu":2033,"im</w>":2034,"dem</w>":2035,"af":2036,"ag":2037,"bes":2038,"tra":2039,"apo":2040,"we":2041,"än":2042,"sh":2043,"apos</w>":2044,"par":2045,"ould</w>":2046,"ate</w>":2047,"tim":2048,"gh":2049,"wh":2050,"ot</w>":2051,"ser":2052,"ed":2053,"ung":2054,"ru":2055,"was</w>":2056,"ass</w>":2057,"sich</w>":2058,"to":2059,"by</w>":2060,"sind</w>":2061,"ty</w>":2062,"Re":2063,"bu":2064,"ap":2065,"Wi":2066,"me":2067,"all":2068,"den":2069,"hab":2070,"eb":2071,"ommis":2072,"auch</w>":2073,"Pro":2074,"Ho":2075,"gt</w>":2076,"zi":2077,"men</w>":2078,"als</w>":2079,"dass</w>":2080,"Au":2081,"ali":2082,"ach":2083,"ach</w>":2084,"ich</w>":2085,"ation":2086,"so":2087,"Sch":2088,"um":2089,"Di":2090,"quot</w>":2091,"Un":2092,"tel</w>":2093,"can</w>":2094,"wird</w>":2095,"ischen</w>":2096,"rom</w>":2097,"has</w>":2098,"aus":2099,"St":2100,"ön":2101,"ted</w>":2102,"ers</w>":2103,"Par":2104,"Be":2105,"ut":2106,"In</w>":2107,"pl":2108,"fin":2109,"ungs":2110,"gu":2111,"from</w>":2112,"out</w>":2113,"hal":2114,"oo":2115,"ur</w>":2116,"able</w>":2117,"We</w>":2118,"En":2119,"20":2120,"Das</w>":2121,"einen</w>":2122,"lie":2123,"ant</w>":2124,"ing":2125,"über</w>":2126,"sol":2127,"ann</w>":2128,"lei":2129,"per":2130,"wen":2131,"ure</w>":2132,"ther</w>":2133,"ahr":2134,"form":2135,"hat</w>":2136,"ver</w>":2137,"tion":2138,"ten":2139,"lu":2140,"geb":2141,"ess</w>":2142,"mus":2143,"one</w>":2144,"ke":2145,"ir":2146,"ese</w>":2147,"ert</w>":2148,"do":2149,"ts":2150,"haben</w>":2151,"also</w>":2152,"inter":2153,"Ich</w>":2154,"sa":2155,"aus</w>":2156,"ommission</w>":2157,"your</w>":2158,"bei":2159,"ür":2160,"kön":2161,"einer</w>":2162,"This</w>":2163,"pe":2164,"us</w>":2165,"gra":2166,"hr</w>":2167,"Er":2168,"tri":2169,"ds</w>":2170,"whi":2171,"poli":2172,"gan":2173,"Wir</w>":2174,"dent</w>":2175,"our":2176,"ili":2177,"gr":2178,"Ar":2179,"any</w>":2180,"schaf":2181,"Her":2182,"eren</w>":2183,"ally</w>":2184,"vor":2185,"Ein":2186,"mö":2187,"gli":2188,"am</w>":2189,"est":2190,"sel":2191,"bei</w>":2192,"me</w>":2193,"är":2194,"ore</w>":2195,"sten</w>":2196,"rä":2197,"ak":2198,"ig":2199,"len</w>":2200,"very</w>":2201,"It</w>":2202,"Aus":2203,"which</w>":2204,"rec":2205,"eu":2206,"hen</w>":2207,"wel":2208,"tet</w>":2209,"ean</w>":2210,"ments</w>":2211,"kt</w>":2212,"ran":2213,"tions</w>":2214,"lin":2215,"gel":2216,"je":2217,"port</w>":2218,"el</w>":2219,"können</w>":2220,"wa":2221,"sti":2222,"200":2223,"sen":2224,"wie</w>":2225,"ated</w>":2226,"age</w>":2227,"est</w>":2228,"auf":2229,"European</w>":2230,"et":2231,"oder</w>":2232,"ck</w>":2233,"vo":2234,"ity</w>":2235,"ght</w>":2236,"chte</w>":2237,"Al":2238,"ep":2239,"comp":2240,"dur":2241,"ssen</w>":2242,"stell":2243,"chti":2244,"king</w>":2245,"gro":2246,"sie</w>":2247,"cht":2248,"mer</w>":2249,"sta":2250,"ern</w>":2251,"ft</w>":2252,"war":2253,"zur</w>":2254,"fol":2255,"Es</w>":2256,"und":2257,"cu":2258,"Uni":2259,"Ab":2260,"min":2261,"uns</w>":2262,"pos":2263,"more</w>":2264,"Mit":2265,"ey</w>":2266,"Fra":2267,"Der</w>":2268,"wur":2269,"cal</w>":2270,"duc":2271,"ken</w>":2272,"ün":2273,"its</w>":2274,"ast</w>":2275,"oh":2276,"dar":2277,"Ma":2278,"would</w>":2279,"ely</w>":2280,"end</w>":2281,"tive</w>":2282,"ations</w>":2283,"schen</w>":2284,"off":2285,"ting</w>":2286,"ces</w>":2287,"ische</w>":2288,"yst":2289,"mar":2290,"keit</w>":2291,"Sp":2292,"diese</w>":2293,"00</w>":2294,"coun":2295,"zei":2296,"ates</w>":2297,"erung</w>":2298,"Vor":2299,"einem</w>":2300,"et</w>":2301,"pres":2302,"mü":2303,"br":2304,"ase</w>":2305,"ess":2306,"been</w>":2307,"Union</w>":2308,"Hotel</w>":2309,"lichen</w>":2310,"dern</w>":2311,"should</w>":2312,"unter":2313,"must</w>":2314,"aten</w>":2315,"do</w>":2316,"tzt</w>":2317,"kann</w>":2318,"ne</w>":2319,"cre":2320,"nation":2321,"pp":2322,"ble":2323,"bt</w>":2324,"liche</w>":2325,"ob":2326,"tei":2327,"pri":2328,"fu":2329,"ance</w>":2330,"tel":2331,"ear":2332,"mit":2333,"ger</w>":2334,"politi":2335,"über":2336,"up</w>":2337,"Pres":2338,"str":2339,"hre</w>":2340,"ev":2341,"cy</w>":2342,"Ent":2343,"ommen</w>":2344,"port":2345,"bo":2346,"Mr</w>":2347,"iel":2348,"des":2349,"ander":2350,"mi":2351,"ble</w>":2352,"fer":2353,"ous</w>":2354,"av":2355,"ties</w>":2356,"ger":2357,"ad</w>":2358,"nach</w>":2359,"ste</w>":2360,"pu":2361,"führ":2362,"ary</w>":2363,"dieser</w>":2364,"noch</w>":2365,"cher</w>":2366,"ding</w>":2367,"nur</w>":2368,"neu":2369,"eir</w>":2370,"lan":2371,"tre":2372,"neh":2373,"Ges":2374,"now</w>":2375,"ks</w>":2376,"day</w>":2377,"ör":2378,"mu":2379,"eg":2380,"pr":2381,"fen</w>":2382,"tw":2383,"fre":2384,"ect</w>":2385,"ehr</w>":2386,"acc":2387,"zum</w>":2388,"müssen</w>":2389,"unser":2390,"their</w>":2391,"räsi":2392,"hin":2393,"ws</w>":2394,"like</w>":2395,"EU</w>":2396,"tro":2397,"Presi":2398,"Unter":2399,"dis":2400,"gh</w>":2401,"about</w>":2402,"ame</w>":2403,"Kon":2404,"but</w>":2405,"ic":2406,"ben</w>":2407,"wn</w>":2408,"fac":2409,"tung</w>":2410,"vor</w>":2411,"isi":2412,"tä":2413,"gesch":2414,"heit</w>":2415,"sehr</w>":2416,"man</w>":2417,"vol":2418,"there</w>":2419,"Europä":2420,"other</w>":2421,"som":2422,"Gr":2423,"eiten</w>":2424,"immer</w>":2425,"mp":2426,"her":2427,"Herr</w>":2428,"Commission</w>":2429,"time</w>":2430,"cher":2431,"ann":2432,"son":2433,"tzen</w>":2434,"ben":2435,"sein</w>":2436,"kon":2437,"uns":2438,"ort</w>":2439,"he</w>":2440,"bli":2441,"ord":2442,"Ber":2443,"Präsi":2444,"clu":2445,"Kommission</w>":2446,"fe":2447,"go":2448,"new</w>":2449,"ück":2450,"gram":2451,"comm":2452,"ari":2453,"äl":2454,"President</w>":2455,"stri":2456,"Beri":2457,"rel":2458,"lä":2459,"ass":2460,"hnen</w>":2461,"ember</w>":2462,"ori":2463,"ys</w>":2464,"durch</w>":2465,"kl":2466,"fore</w>":2467,"ings</w>":2468,"Inter":2469,"geh":2470,"timm":2471,"only</w>":2472,"ence</w>":2473,"these</w>":2474,"qui":2475,"pre":2476,"For":2477,"tur":2478,"tiv":2479,"chn":2480,"wurde</w>":2481,"bet":2482,"schaft</w>":2483,"Bu":2484,"19":2485,"war</w>":2486,"ard</w>":2487,"vie":2488,"ens":2489,"det</w>":2490,"ded</w>":2491,"mon":2492,"wis":2493,"Po":2494,"stru":2495,"ale</w>":2496,"gung</w>":2497,"chten</w>":2498,"work</w>":2499,"ood</w>":2500,"sion":2501,"man":2502,"eff":2503,"bi":2504,"produc":2505,"steh":2506,"syst":2507,"alle</w>":2508,"Co":2509,"diesem</w>":2510,"elt</w>":2511,"aber</w>":2512,"rit":2513,"mehr</w>":2514,"inform":2515,"ple":2516,"Zu":2517,"fir":2518,"nah":2519,"eci":2520,"no</w>":2521,"wä":2522,"tran":2523,"ini":2524,"lung</w>":2525,"weiter":2526,"sche</w>":2527,"Jahr":2528,"soll":2529,"sup":2530,"import":2531,"vel":2532,"net</w>":2533,"stat":2534,"ris":2535,"inn":2536,"tes</w>":2537,"ace</w>":2538,"they</w>":2539,"Bes":2540,"gre":2541,"wick":2542,"ank</w>":2543,"exp":2544,"ms</w>":2545,"ust</w>":2546,"tn":2547,"cial</w>":2548,"stü":2549,"way</w>":2550,"ther":2551,"gem":2552,"Ge":2553,"chan":2554,"Auf":2555,"kommen</w>":2556,"spe":2557,"Parla":2558,"om</w>":2559,"are":2560,"come</w>":2561,"daß</w>":2562,"berei":2563,"ction</w>":2564,"ved</w>":2565,"lia":2566,"ong</w>":2567,"cont":2568,"need</w>":2569,"kte</w>":2570,"10</w>":2571,"ment":2572,"dung</w>":2573,"Me":2574,"gibt</w>":2575,"fahr":2576,"olo":2577,"what</w>":2578,"resp":2579,"land</w>":2580,"wenn</w>":2581,"ern":2582,"ine</w>":2583,"dies</w>":2584,"möchte</w>":2585,"gest":2586,"elle</w>":2587,"hotel</w>":2588,"here</w>":2589,"nehmen</w>":2590,"hand":2591,"Sta":2592,"servi":2593,"ic</w>":2594,"fra":2595,"hel":2596,"ationen</w>":2597,"fun":2598,"ility</w>":2599,"Mar":2600,"my</w>":2601,"wichti":2602,"leg":2603,"ai":2604,"posi":2605,"many</w>":2606,"Europe</w>":2607,"ant":2608,"ople</w>":2609,"Men":2610,"her</w>":2611,"So":2612,"entr":2613,"ful</w>":2614,"use</w>":2615,"ves</w>":2616,"arbei":2617,"erg":2618,"ste":2619,"diff":2620,"halten</w>":2621,"hier</w>":2622,"lau":2623,"alen</w>":2624,"ges</w>":2625,"report</w>":2626,"with":2627,"ens</w>":2628,"ließ":2629,"ail":2630,"usam":2631,"bie":2632,"sub":2633,"You</w>":2634,"ative</w>":2635,"sible</w>":2636,"liament</w>":2637,"cri":2638,"schie":2639,"dr":2640,"regi":2641,"Ihnen</w>":2642,"devel":2643,"most</w>":2644,"ans</w>":2645,"were</w>":2646,"och</w>":2647,"lar</w>":2648,"eines</w>":2649,"he":2650,"Diese</w>":2651,"important</w>":2652,"onder":2653,"Um":2654,"ba":2655,"ral</w>":2656,"amp":2657,"tzung</w>":2658,"ors</w>":2659,"thing</w>":2660,"people</w>":2661,"Parliament</w>":2662,"cle":2663,"assen</w>":2664,"national</w>":2665,"glich</w>":2666,"poin":2667,"if</w>":2668,"bar":2669,"ist":2670,"muss</w>":2671,"Präsident</w>":2672,"proc":2673,"viel":2674,"Su":2675,"fe</w>":2676,"tho":2677,"lich":2678,"get</w>":2679,"Bei":2680,"unsere</w>":2681,"lar":2682,"ue</w>":2683,"aff":2684,"Si":2685,"geben</w>":2686,"speci":2687,"mat":2688,"proble":2689,"fo":2690,"keine</w>":2691,"There</w>":2692,"erk":2693,"tigen</w>":2694,"Li":2695,"hei":2696,"Con":2697,"emp":2698,"under":2699,"tig</w>":2700,"Ch":2701,"Regi":2702,"reg":2703,"zw":2704,"oper":2705,"cation</w>":2706,"ause</w>":2707,"take</w>":2708,"bar</w>":2709,"cul":2710,"star":2711,"glei":2712,"wever</w>":2713,"make</w>":2714,"mis":2715,"bis</w>":2716,"ellen</w>":2717,"econ":2718,"into</w>":2719,"gkeit</w>":2720,"ement</w>":2721,"Mitgli":2722,"information</w>":2723,"Ihre</w>":2724,"zen</w>":2725,"ell</w>":2726,"stän":2727,"stitu":2728,"aga":2729,"finden</w>":2730,"halb</w>":2731,"than</w>":2732,"De":2733,"develop":2734,"hren</w>":2735,"some</w>":2736,"Mo":2737,"uni":2738,"Über":2739,"ster</w>":2740,"conc":2741,"fri":2742,"ques":2743,"dieses</w>":2744,"ron":2745,"provi":2746,"Bericht</w>":2747,"stellen</w>":2748,"ven":2749,"If</w>":2750,"nis":2751,"wer</w>":2752,"il</w>":2753,"well</w>":2754,"rou":2755,"first</w>":2756,"nu":2757,"ven</w>":2758,"app":2759,"Qu":2760,"form</w>":2761,"deut":2762,"ktion":2763,"tt":2764,"Inform":2765,"site</w>":2766,"lt</w>":2767,"schließ":2768,"enden</w>":2769,"usammen":2770,"europ":2771,"That</w>":2772,"No":2773,"ins</w>":2774,"cc":2775,"Proble":2776,"groß":2777,"enn</w>":2778,"parti":2779,"ateg":2780,"direc":2781,"ving</w>":2782,"can":2783,"jo":2784,"ze</w>":2785,"forder":2786,"efore</w>":2787,"line</w>":2788,"how</w>":2789,"Per":2790,"Ri":2791,"ating</w>":2792,"Europäischen</w>":2793,"them</w>":2794,"agre":2795,"tries</w>":2796,"ality</w>":2797,"Member</w>":2798,"publi":2799,"ory</w>":2800,"red</w>":2801,"sch</w>":2802,"ko":2803,"propos":2804,"beit</w>":2805,"hrer</w>":2806,"States</w>":2807,"good</w>":2808,"atz</w>":2809,"europä":2810,"ige</w>":2811,"unden</w>":2812,"rü":2813,"pa":2814,"same</w>":2815,"ack":2816,"ack</w>":2817,"iel</w>":2818,"spre":2819,"enn":2820,"support</w>":2821,"Mitglied":2822,"issu":2823,"illi":2824,"countries</w>":2825,"eben</w>":2826,"tor</w>":2827,"dec":2828,"Coun":2829,"trag</w>":2830,"tät</w>":2831,"system</w>":2832,"ures</w>":2833,"Ne":2834,"nach":2835,"zah":2836,"Ta":2837,"da</w>":2838,"kom":2839,"ph":2840,"ihre</w>":2841,"see</w>":2842,"right</w>":2843,"col":2844,"room</w>":2845,"Parlament</w>":2846,"diesen</w>":2847,"ide":2848,"xt</w>":2849,"over</w>":2850,"ende</w>":2851,"eute</w>":2852,"who</w>":2853,"woh":2854,"vom</w>":2855,"stand":2856,"wie":2857,"just</w>":2858,"unter</w>":2859,"beg":2860,"nat":2861,"Produ":2862,"Europa</w>":2863,"trä":2864,"marke":2865,"avail":2866,"yp":2867,"econom":2868,"Wenn</w>":2869,"äch":2870,"ser</w>":2871,"when</w>":2872,"bin":2873,"two</w>":2874,"rati":2875,"up":2876,"cil</w>":2877,"inclu":2878,"dam":2879,"ghts</w>":2880,"Fü":2881,"ler</w>":2882,"Or":2883,"Ser":2884,"oms</w>":2885,"made</w>":2886,"indi":2887,"clo":2888,"ears</w>":2889,"such</w>":2890,"Im</w>":2891,"les</w>":2892,"Entwick":2893,"For</w>":2894,"Council</w>":2895,"Ex":2896,"loo":2897,"Des":2898,"read":2899,"Gesch":2900,"Ger":2901,"eing</w>":2902,"habe</w>":2903,"ye":2904,"einf":2905,"respon":2906,"wür":2907,"Str":2908,"ele":2909,"num":2910,"olog":2911,"ßer":2912,"gegen</w>":2913,"dat":2914,"sts</w>":2915,"zwischen</w>":2916,"Mitgliedsta":2917,"place</w>":2918,"besonder":2919,"years</w>":2920,"ht</w>":2921,"öff":2922,"differ":2923,"Se":2924,"lus":2925,"program":2926,"Arbei":2927,"mal</w>":2928,"unserer</w>":2929,"äu":2930,"ahr</w>":2931,"jed":2932,"Berei":2933,"vis":2934,"Fin":2935,"itä":2936,"Hau":2937,"ater</w>":2938,"tschaf":2939,"wirk":2940,"act</w>":2941,"ween</w>":2942,"possible</w>":2943,"unkt</w>":2944,"ture</w>":2945,"nung</w>":2946,"cur":2947,"Vorsch":2948,"sed</w>":2949,"keiten</w>":2950,"glich":2951,"ös":2952,"ga":2953,"alls</w>":2954,"deb":2955,"id</w>":2956,"wal":2957,"ents</w>":2958,"policy</w>":2959,"schei":2960,"ased</w>":2961,"appro":2962,"between</w>":2963,"ink</w>":2964,"therefore</w>":2965,"amen</w>":2966,"tom":2967,"cour":2968,"finan":2969,"Nach":2970,"want</w>":2971,"Am":2972,"per</w>":2973,"gab":2974,"may</w>":2975,"Wei":2976,"jec":2977,"Dies":2978,"tern</w>":2979,"ently</w>":2980,"zeu":2981,"jedoch</w>":2982,"available</w>":2983,"Ein</w>":2984,"low</w>":2985,"brau":2986,"tige</w>":2987,"inu":2988,"ff</w>":2989,"ani":2990,"end":2991,"tional</w>":2992,"bre":2993,"ok":2994,"pla":2995,"view</w>":2996,"ften</w>":2997,"Mitgliedstaaten</w>":2998,"20</w>":2999,"char":3000,"try</w>":3001,"mich</w>":3002,"bewer":3003,"ying</w>":3004,"ject</w>":3005,"fur":3006,"sho":3007,"world</w>":3008,"Dies</w>":3009,"sive</w>":3010,"weise</w>":3011,"wn":3012,"Län":3013,"Frau</w>":3014,"fort":3015,"ft":3016,"Mon":3017,"lic":3018,"medi":3019,"allen</w>":3020,"Än":3021,"pf":3022,"ast":3023,"län":3024,"shi":3025,"organ":3026,"enti":3027,"order</w>":3028,"ktion</w>":3029,"comple":3030,"situ":3031,"Zeit</w>":3032,"Zusammen":3033,"ses</w>":3034,"Wir":3035,"errei":3036,"vern":3037,"his</w>":3038,"dann</w>":3039,"where</w>":3040,"eig":3041,"vel</w>":3042,"But</w>":3043,"cust":3044,"Dat":3045,"anderen</w>":3046,"ange":3047,"Te":3048,"find</w>":3049,"gement</w>":3050,"used</w>":3051,"zie":3052,"Änder":3053,"eng":3054,"itte</w>":3055,"consi":3056,"ution</w>":3057,"cause</w>":3058,"As</w>":3059,"wurden</w>":3060,"erte</w>":3061,"pen":3062,"sehen</w>":3063,"area</w>":3064,"lob":3065,"does</w>":3066,"sur":3067,"throu":3068,"part</w>":3069,"wär":3070,"exc":3071,"ren":3072,"Bil":3073,"denen</w>":3074,"eite</w>":3075,"had</w>":3076,"ffen</w>":3077,"cli":3078,"Ko":3079,"All</w>":3080,"ice</w>":3081,"neue</w>":3082,"dan":3083,"car":3084,"rooms</w>":3085,"being</w>":3086,"rau":3087,"cer":3088,"Frage</w>":3089,"enth":3090,"ters</w>":3091,"mend":3092,"after</w>":3093,"ill":3094,"We":3095,"sk":3096,"techn":3097,"sollten</w>":3098,"199":3099,"ems</w>":3100,"stehen</w>":3101,"tly</w>":3102,"tain</w>":3103,"com</w>":3104,"nec":3105,"unterstü":3106,"sollte</w>":3107,"denti":3108,"cken</w>":3109,"utz":3110,"ress</w>":3111,"sm":3112,"gs</w>":3113,"tieren</w>":3114,"much</w>":3115,"ready</w>":3116,"stay</w>":3117,"Tei":3118,"inst":3119,"Comm":3120,"gar":3121,"nahmen</w>":3122,"demo":3123,"unity</w>":3124,"ision</w>":3125,"So</w>":3126,"ätz":3127,"ßen</w>":3128,"gemein":3129,"ful":3130,"year</w>":3131,"need":3132,"gestell":3133,"kt":3134,"ang</w>":3135,"geht</w>":3136,"usin":3137,"ausge":3138,"äf":3139,"els</w>":3140,"Our</w>":3141,"hol":3142,"last</w>":3143,"Bo":3144,"chts</w>":3145,"besch":3146,"ll":3147,"then</w>":3148,"sig":3149,"fast</w>":3150,"kun":3151,"tain":3152,"wei</w>":3153,"cor":3154,"wol":3155,"Sit":3156,"tic":3157,"Kom":3158,"own</w>":3159,"Syst":3160,"24</w>":3161,"arly</w>":3162,"point</w>":3163,"lage</w>":3164,"ouse</w>":3165,"custom":3166,"stand</w>":3167,"schn":3168,"ungsan":3169,"Ro":3170,"heute</w>":3171,"Europäische</w>":3172,"mm":3173,"bed":3174,"Wie</w>":3175,"ommission":3176,"views</w>":3177,"Eine</w>":3178,"even</w>":3179,"Informationen</w>":3180,"know</w>":3181,"beste":3182,"resul":3183,"What</w>":3184,"wing</w>":3185,"pi":3186,"air":3187,"ways</w>":3188,"30</w>":3189,"fied</w>":3190,"val":3191,"too</w>":3192,"bereits</w>":3193,"fahren</w>":3194,"belie":3195,"ages</w>":3196,"Hi":3197,"chts":3198,"Für</w>":3199,"50</w>":3200,"ca</w>":3201,"Poli":3202,"free</w>":3203,"lassen</w>":3204,"ise</w>":3205,"nt</w>":3206,"ome</w>":3207,"cannot</w>":3208,"Menschen</w>":3209,"those</w>":3210,"Gen":3211,"äh":3212,"hum":3213,"eln</w>":3214,"enen</w>":3215,"sor":3216,"eigen":3217,"2009</w>":3218,"legen</w>":3219,"Web":3220,"antwor":3221,"market</w>":3222,"tungen</w>":3223,"fes":3224,"liegt</w>":3225,"Mö":3226,"gele":3227,"great</w>":3228,"Program":3229,"sis</w>":3230,"trans":3231,"ftw":3232,"au</w>":3233,"Bür":3234,"Mit</w>":3235,"inv":3236,"incre":3237,"spar":3238,"ftware</w>":3239,"debate</w>":3240,"ganz</w>":3241,"Gro":3242,"service</w>":3243,"Lei":3244,"Kol":3245,"eld</w>":3246,"Geb":3247,"gehen</w>":3248,"hö":3249,"ps</w>":3250,"öß":3251,"findet</w>":3252,"self</w>":3253,"could</w>":3254,"tens</w>":3255,"gener":3256,"bil":3257,"12</w>":3258,"spiel":3259,"jetzt</w>":3260,"gri":3261,"prote":3262,"ough</w>":3263,"tionen</w>":3264,"selb":3265,"zwei</w>":3266,"different</w>":3267,"spra":3268,"stimm":3269,"ked</w>":3270,"go</w>":3271,"bility</w>":3272,"because</w>":3273,"sc":3274,"Lo":3275,"amp</w>":3276,"dra":3277,"bietet</w>":3278,"bri":3279,"ign":3280,"währ":3281,"seine</w>":3282,"esen</w>":3283,"vote</w>":3284,"letz":3285,"alo":3286,"pers":3287,"gew":3288,"damit</w>":3289,"page</w>":3290,"prin":3291,"Jahr</w>":3292,"Herr":3293,"Wor":3294,"However</w>":3295,"stra":3296,"har":3297,"pra":3298,"ähr":3299,"machen</w>":3300,"To":3301,"think</w>":3302,"verschie":3303,"still</w>":3304,"ability</w>":3305,"ve":3306,"quality</w>":3307,"clear</w>":3308,"Rei":3309,"Maß":3310,"gend</w>":3311,"part":3312,"stan":3313,"andere</w>":3314,"political</w>":3315,"course</w>":3316,"inst</w>":3317,"public</w>":3318,"ches</w>":3319,"re</w>":3320,"tic</w>":3321,"Pri":3322,"alt</w>":3323,"tels</w>":3324,"lü":3325,"change</w>":3326,"lat":3327,"Sicher":3328,"indu":3329,"zeit</w>":3330,"They</w>":3331,"cip":3332,"igen</w>":3333,"ests</w>":3334,"dig</w>":3335,"cent":3336,"del</w>":3337,"number</w>":3338,"fil":3339,"sh</w>":3340,"ih":3341,"tee</w>":3342,"Jahren</w>":3343,"ingen</w>":3344,"zur":3345,"Gem":3346,"against</w>":3347,"Da":3348,"Richt":3349,"Mi":3350,"set</w>":3351,"viele</w>":3352,"Res":3353,"wohl</w>":3354,"ince</w>":3355,"side</w>":3356,"development</w>":3357,"usiness</w>":3358,"kes</w>":3359,"vidu":3360,"führt</w>":3361,"buil":3362,"without</w>":3363,"already</w>":3364,"sions</w>":3365,"hän":3366,"curr":3367,"ree</w>":3368,"nis</w>":3369,"through</w>":3370,"fully</w>":3371,"uture</w>":3372,"grei":3373,"ef":3374,"ohne</w>":3375,"neuen</w>":3376,"fam":3377,"Tra":3378,"Rat</w>":3379,"stu":3380,"international</w>":3381,"enz</w>":3382,"lag</w>":3383,"out":3384,"000</w>":3385,"komm":3386,"Them":3387,"economic</w>":3388,"politik</w>":3389,"viel</w>":3390,"within</w>":3391,"ct</w>":3392,"Zei":3393,"Gä":3394,"Ad":3395,"question</w>":3396,"Zimmer</w>":3397,"bers</w>":3398,"both</w>":3399,"Grund":3400,"reas":3401,"ope</w>":3402,"under</w>":3403,"gegen":3404,"ced</w>":3405,"sowie</w>":3406,"Und</w>":3407,"ster":3408,"issue</w>":3409,"very":3410,"15</w>":3411,"tiert</w>":3412,"some":3413,"believe</w>":3414,"frei":3415,"mer":3416,"ately</w>":3417,"ous":3418,"gese":3419,"gut</w>":3420,"future</w>":3421,"utes</w>":3422,"rights</w>":3423,"verfü":3424,"problem</w>":3425,"unseren</w>":3426,"cated</w>":3427,"dre":3428,"möglich</w>":3429,"best</w>":3430,"Commission":3431,"gestellt</w>":3432,"besser":3433,"ab</w>":3434,"products</w>":3435,"concern":3436,"Verfü":3437,"durch":3438,"einige</w>":3439,"high</w>":3440,"klär":3441,"long</w>":3442,"services</w>":3443,"zus":3444,"genommen</w>":3445,"sicht</w>":3446,"boo":3447,"fic":3448,"viron":3449,"europäischen</w>":3450,"data</w>":3451,"wäh":3452,"requ":3453,"pt</w>":3454,"offers</w>":3455,"succ":3456,"Dur":3457,"wieder</w>":3458,"Besch":3459,"Gu":3460,"erten</w>":3461,"fle":3462,"operation</w>":3463,"bin</w>":3464,"nte</w>":3465,"Bed":3466,"Fran":3467,"öl":3468,"ner</w>":3469,"sec":3470,"Prei":3471,"steht</w>":3472,"mir</w>":3473,"sten":3474,"innen</w>":3475,"onen</w>":3476,"Bar":3477,"Kin":3478,"internation":3479,"bal":3480,"meas":3481,"today</w>":3482,"before</w>":3483,"case</w>":3484,"individu":3485,"zep":3486,"etwas</w>":3487,"Chin":3488,"ker</w>":3489,"Com":3490,"aur":3491,"bel":3492,"air</w>":3493,"falls</w>":3494,"Was</w>":3495,"öffent":3496,"chter":3497,"country</w>":3498,"say</w>":3499,"eben":3500,"zwei":3501,"tal":3502,"kten</w>":3503,"These</w>":3504,"cus":3505,"position</w>":3506,"fas":3507,"hist":3508,"alität</w>":3509,"lungen</w>":3510,"struc":3511,"main</w>":3512,"assi":3513,"ards</w>":3514,"accep":3515,"bur":3516,"ited</w>":3517,"Commissioner</w>":3518,"offer</w>":3519,"satz</w>":3520,"person":3521,"alisi":3522,"ommiss":3523,"glob":3524,"schon</w>":3525,"Viel":3526,"Möglich":3527,"ss</w>":3528,"vice</w>":3529,"kur":3530,"consu":3531,"typ":3532,"situation</w>":3533,"Kommiss":3534,"dition</w>":3535,"führen</w>":3536,"chni":3537,"macht</w>":3538,"Finan":3539,"mental</w>":3540,"tern":3541,"To</w>":3542,"Boo":3543,"rest":3544,"bek":3545,"dafür</w>":3546,"atte</w>":3547,"compe":3548,"Entwicklung</w>":3549,"mei":3550,"Gemein":3551,"nisse</w>":3552,"leist":3553,"Wel":3554,"ler":3555,"Le":3556,"city</w>":3557,"process</w>":3558,"tem":3559,"high":3560,"wollen</w>":3561,"Ihr</w>":3562,"dazu</w>":3563,"größ":3564,"Ni":3565,"Stand":3566,"kti":3567,"11</w>":3568,"Lage</w>":3569,"experi":3570,"resol":3571,"kunft</w>":3572,"ged</w>":3573,"old</w>":3574,"Fir":3575,"rupp":3576,"tschaft</w>":3577,"Unternehmen</w>":3578,"every</w>":3579,"Welt</w>":3580,"Dis":3581,"institu":3582,"requi":3583,"ig</w>":3584,"ders</w>":3585,"inten":3586,"simp":3587,"Stad":3588,"help</w>":3589,"Lu":3590,"put</w>":3591,"dy</w>":3592,"licher</w>":3593,"Tran":3594,"aurant</w>":3595,"uro</w>":3596,"cap":3597,"When</w>":3598,"alle":3599,"rap":3600,"ands</w>":3601,"gesam":3602,"Man":3603,"erhalten</w>":3604,"wirtschaf":3605,"enz":3606,"ürlich</w>":3607,"mittel":3608,"alten</w>":3609,"Bereich</w>":3610,"Ter":3611,"ign</w>":3612,"priv":3613,"Rus":3614,"emplo":3615,"mögli":3616,"isch</w>":3617,"less</w>":3618,"lossen</w>":3619,"ici":3620,"bieten</w>":3621,"environ":3622,"chil":3623,"Auch</w>":3624,"govern":3625,"änder":3626,"why</w>":3627,"impro":3628,"tial</w>":3629,"And</w>":3630,"fer</w>":3631,"sagen</w>":3632,"stellung</w>":3633,"meine</w>":3634,"bro":3635,"Aber</w>":3636,"Arbeit</w>":3637,"sicher":3638,"nun</w>":3639,"dam</w>":3640,"pur":3641,"Hin":3642,"ahl</w>":3643,"mor":3644,"Seite</w>":3645,"Person":3646,"elec":3647,"einfach</w>":3648,"ität</w>":3649,"Problem</w>":3650,"dru":3651,"happ":3652,"enst":3653,"Internet</w>":3654,"erfol":3655,"ihrer</w>":3656,"contro":3657,"Bei</w>":3658,"however</w>":3659,"cl":3660,"US":3661,"Lös":3662,"entwick":3663,"every":3664,"ol</w>":3665,"regul":3666,"energ":3667,"Dar":3668,"achie":3669,"nov":3670,"lagen</w>":3671,"deu":3672,"gang</w>":3673,"richti":3674,"Fragen</w>":3675,"zel":3676,"arbeit</w>":3677,"selbst</w>":3678,"möchten</w>":3679,"ins":3680,"kno":3681,"ning</w>":3682,"On":3683,"fäl":3684,"rity</w>":3685,"recei":3686,"sing</w>":3687,"win":3688,"stellt</w>":3689,"ship</w>":3690,"sam":3691,"level</w>":3692,"tail":3693,"os</w>":3694,"ily</w>":3695,"ward</w>":3696,"inte":3697,"Nat":3698,"tt</w>":3699,"Hier</w>":3700,"Kli":3701,"blei":3702,"hin</w>":3703,"ien</w>":3704,"next</w>":3705,"sere</w>":3706,"chen":3707,"tun</w>":3708,"dings</w>":3709,"proposal</w>":3710,"Hand":3711,"back</w>":3712,"effec":3713,"each</w>":3714,"business</w>":3715,"appli":3716,"feh":3717,"saf":3718,"ask</w>":3719,"ital</w>":3720,"War":3721,"Politi":3722,"Sa":3723,"träge</w>":3724,"tliche</w>":3725,"vari":3726,"Abstimm":3727,"begr":3728,"wes":3729,"always</w>":3730,"present":3731,"commit":3732,"Änderungsan":3733,"sto":3734,"secu":3735,"twen":3736,"isl":3737,"partn":3738,"again</w>":3739,"give</w>":3740,"setzung</w>":3741,"Maßnahmen</w>":3742,"nahme</w>":3743,"zeich":3744,"tivi":3745,"tragen</w>":3746,"taken</w>":3747,"fact</w>":3748,"On</w>":3749,"said</w>":3750,"necess":3751,"tsch":3752,"imple":3753,"ample</w>":3754,"trau":3755,"2010</w>":3756,"Auf</w>":3757,"dem":3758,"rem</w>":3759,"tig":3760,"web":3761,"worden</w>":3762,"Alle</w>":3763,"small</w>":3764,"further</w>":3765,"At</w>":3766,"social</w>":3767,"versi":3768,"discus":3769,"means</w>":3770,"häl":3771,"bud":3772,"date</w>":3773,"eck</w>":3774,"text</w>":3775,"tlichen</w>":3776,"sport</w>":3777,"Nu":3778,"Proje":3779,"lungs":3780,"action</w>":3781,"Je":3782,"Verfügung</w>":3783,"Dem":3784,"agement</w>":3785,"Vi":3786,"sondern</w>":3787,"defin":3788,"wichtig</w>":3789,"cra":3790,"embers</w>":3791,"tural</w>":3792,"needs</w>":3793,"Ben":3794,"Uhr</w>":3795,"unde</w>":3796,"ehen</w>":3797,"key</w>":3798,"ats":3799,"sprache</w>":3800,"days</w>":3801,"ining</w>":3802,"yn":3803,"allo":3804,"Fun":3805,"xi":3806,"que</w>":3807,"wnlo":3808,"verwen":3809,"Nor":3810,"yment</w>":3811,"autom":3812,"led</w>":3813,"ish":3814,"get":3815,"cally</w>":3816,"maj":3817,"darauf</w>":3818,"Ihrer</w>":3819,"access</w>":3820,"schen":3821,"Deb":3822,"Er</w>":3823,"ihr</w>":3824,"auth":3825,"far</w>":3826,"over":3827,"bitte</w>":3828,"hope</w>":3829,"problems</w>":3830,"essen":3831,"amend":3832,"human</w>":3833,"present</w>":3834,"customers</w>":3835,"zeigt</w>":3836,"net":3837,"arbeiten</w>":3838,"Ba":3839,"seri":3840,"dire":3841,"Herrn</w>":3842,"sei":3843,"wissen</w>":3844,"würde</w>":3845,"few</w>":3846,"ism</w>":3847,"tiz":3848,"ade</w>":3849,"Win":3850,"Unterstü":3851,"Fre":3852,"setzen</w>":3853,"kün":3854,"deli":3855,"Frei":3856,"dig":3857,"mati":3858,"Fo":3859,"shall</w>":3860,"ports</w>":3861,"sure</w>":3862,"fic</w>":3863,"Ameri":3864,"company</w>":3865,"ologi":3866,"Min":3867,"ilities</w>":3868,"Ple":3869,"three</w>":3870,"schri":3871,"oren</w>":3872,"gent":3873,"staf":3874,"prä":3875,"ith</w>":3876,"punkt</w>":3877,"Pl":3878,"genden</w>":3879,"count</w>":3880,"Bedeut":3881,"during</w>":3882,"2008</w>":3883,"provide</w>":3884,"ma</w>":3885,"Ru":3886,"tlich</w>":3887,"staff</w>":3888,"look</w>":3889,"necessary</w>":3890,"spezi":3891,"Tre":3892,"ority</w>":3893,"energy</w>":3894,"Ihren</w>":3895,"Kar":3896,"schein":3897,"Stu":3898,"akfast</w>":3899,"wo</w>":3900,"Jahre</w>":3901,"sprechen</w>":3902,"lug":3903,"Go":3904,"condi":3905,"dly</w>":3906,"secon":3907,"dlich</w>":3908,"gehör":3909,"ate":3910,"Ur":3911,"EU":3912,"Bedeutung</w>":3913,"Do":3914,"solu":3915,"ob</w>":3916,"besondere</w>":3917,"prü":3918,"ischer</w>":3919,"produ":3920,"common</w>":3921,"dungen</w>":3922,"ieren</w>":3923,"aran":3924,"waren</w>":3925,"Please</w>":3926,"ordnung</w>":3927,"Mu":3928,"Medi":3929,"Stra":3930,"financial</w>":3931,"ish</w>":3932,"Pal":3933,"iert</w>":3934,"agt</w>":3935,"ants</w>":3936,"entre</w>":3937,"Unterstützung</w>":3938,"Is":3939,"adop":3940,"ek</w>":3941,"aro":3942,"zü":3943,"ffe</w>":3944,"example</w>":3945,"opp":3946,"ole</w>":3947,"fort</w>":3948,"gesetzt</w>":3949,"Deut":3950,"bestimm":3951,"Rah":3952,"gar</w>":3953,"Land</w>":3954,"sibility</w>":3955,"gabe</w>":3956,"areas</w>":3957,"ases</w>":3958,"einmal</w>":3959,"muß</w>":3960,"wort</w>":3961,"bringen</w>":3962,"nor":3963,"Arbeits":3964,"Fall</w>":3965,"kel</w>":3966,"large</w>":3967,"No</w>":3968,"zed</w>":3969,"Rest":3970,"glau":3971,"lichkeit</w>":3972,"Haush":3973,"peri":3974,"stär":3975,"voll":3976,"Op":3977,"los</w>":3978,"annt</w>":3979,"Ste":3980,"sprech":3981,"ours</w>":3982,"Af":3983,"follo":3984,"gration</w>":3985,"agreement</w>":3986,"Hil":3987,"location</w>":3988,"Ju":3989,"China</w>":3990,"Daten</w>":3991,"heits":3992,"did</w>":3993,"gef":3994,"kan":3995,"ktionen</w>":3996,"dren</w>":3997,"wäre</w>":3998,"aller</w>":3999,"Kri":4000,"colle":4001,"rüh":4002,"ellent</w>":4003,"better</w>":4004,"tur</w>":4005,"ia</w>":4006,"del":4007,"kein</w>":4008,"adv":4009,"läs":4010,"mul":4011,"Thema</w>":4012,"Ergeb":4013,"promis":4014,"ences</w>":4015,"Land":4016,"Vorschlag</w>":4017,"legal</w>":4018,"ak</w>":4019,"inde":4020,"contin":4021,"daher</w>":4022,"Abstimmung</w>":4023,"ka</w>":4024,"iger</w>":4025,"linie</w>":4026,"ules</w>":4027,"With</w>":4028,"cular</w>":4029,"Energ":4030,"open</w>":4031,"sozi":4032,"verb":4033,"Ant":4034,"seiner</w>":4035,"essen</w>":4036,"oll":4037,"weitere</w>":4038,"besteht</w>":4039,"Ti":4040,"add":4041,"ihren</w>":4042,"lick</w>":4043,"chtet</w>":4044,"zun":4045,"Aussprache</w>":4046,"ett":4047,"Länder</w>":4048,"Gre":4049,"wach":4050,"System</w>":4051,"aly":4052,"sel</w>":4053,"pack":4054,"using</w>":4055,"online</w>":4056,"utz</w>":4057,"ähi":4058,"yer</w>":4059,"mb":4060,"Partn":4061,"ennen</w>":4062,"richt":4063,"ans":4064,"ology</w>":4065,"sse</w>":4066,"opport":4067,"geschlossen</w>":4068,"security</w>":4069,"Art</w>":4070,"Proz":4071,"really</w>":4072,"heiten</w>":4073,"ene</w>":4074,"Verein":4075,"nten</w>":4076,"done</w>":4077,"iet</w>":4078,"Spiel":4079,"Nach</w>":4080,"fli":4081,"drei</w>":4082,"enjo":4083,"soll</w>":4084,"citiz":4085,"mä":4086,"measures</w>":4087,"til</w>":4088,"beim</w>":4089,"illion</w>":4090,"Kunden</w>":4091,"doch</w>":4092,"equi":4093,"näch":4094,"pro</w>":4095,"Pa":4096,"matter</w>":4097,"weiter</w>":4098,"Bel":4099,"atten":4100,"ktiv":4101,"alles</w>":4102,"stre":4103,"gs":4104,"special</w>":4105,"Por":4106,"ously</w>":4107,"dabei</w>":4108,"tal</w>":4109,"gende</w>":4110,"darf</w>":4111,"große</w>":4112,"cti":4113,"genheit</w>":4114,"trol":4115,"ditional</w>":4116,"mehr":4117,"unser</w>":4118,"fession":4119,"Zusammenarbeit</w>":4120,"legisl":4121,"aktu":4122,"Unsere</w>":4123,"times</w>":4124,"minist":4125,"table</w>":4126,"seit</w>":4127,"tribu":4128,"sam</w>":4129,"luss</w>":4130,"fft</w>":4131,"reser":4132,"mente</w>":4133,"objec":4134,"flo":4135,"sic</w>":4136,"Beh":4137,"omen</w>":4138,"Teil</w>":4139,"ep</w>":4140,"25</w>":4141,"stim":4142,"Mein":4143,"full</w>":4144,"cho":4145,"chterstat":4146,"particular</w>":4147,"consider":4148,"fte</w>":4149,"tors</w>":4150,"spor":4151,"La":4152,"competi":4153,"Dieses</w>":4154,"entlich</w>":4155,"based</w>":4156,"Mr":4157,"moder":4158,"kommt</w>":4159,"Deshalb</w>":4160,"Probleme</w>":4161,"life</w>":4162,"porte":4163,"allem</w>":4164,"Arti":4165,"alth</w>":4166,"uation</w>":4167,"assung</w>":4168,"völ":4169,"sequ":4170,"version</w>":4171,"Ziel</w>":4172,"kri":4173,"cies</w>":4174,"Rechts":4175,"located</w>":4176,"ima":4177,"cooperation</w>":4178,"tte</w>":4179,"son</w>":4180,"group</w>":4181,"erforder":4182,"Hotels</w>":4183,"stry</w>":4184,"techni":4185,"Best":4186,"izi":4187,"abli":4188,"betri":4189,"earch</w>":4190,"thank</w>":4191,"list</w>":4192,"current</w>":4193,"ersten</w>":4194,"since</w>":4195,"working</w>":4196,"ßt</w>":4197,"ry</w>":4198,"affen</w>":4199,"dri":4200,"aler</w>":4201,"esse</w>":4202,"Woh":4203,"sever":4204,"icul":4205,"Wo":4206,"Geschäf":4207,"Anwen":4208,"citizens</w>":4209,"Tur":4210,"word</w>":4211,"gaben</w>":4212,"ße</w>":4213,"wirklich</w>":4214,"ware</w>":4215,"fest":4216,"2007</w>":4217,"strateg":4218,"welcome</w>":4219,"mail</w>":4220,"Umwel":4221,"reviews</w>":4222,"Wer":4223,"tru":4224,"children</w>":4225,"ness</w>":4226,"difficul":4227,"Tag</w>":4228,"mitted</w>":4229,"Kommissar</w>":4230,"gleich":4231,"tigt</w>":4232,"How</w>":4233,"erungs":4234,"going</w>":4235,"frage</w>":4236,"EUR</w>":4237,"tsp":4238,"wish</w>":4239,"Um</w>":4240,"Entschei":4241,"yed</w>":4242,"extre":4243,"tten</w>":4244,"entschei":4245,"organis":4246,"bel</w>":4247,"around</w>":4248,"user</w>":4249,"handelt</w>":4250,"ration</w>":4251,"hear":4252,"systems</w>":4253,"Dank</w>":4254,"ations":4255,"appe":4256,"Gi":4257,"Gäste":4258,"ging</w>":4259,"dge</w>":4260,"Euro</w>":4261,"hau":4262,"ilit":4263,"treten</w>":4264,"ensure</w>":4265,"Haup":4266,"second</w>":4267,"100</w>":4268,"House</w>":4269,"excellent</w>":4270,"cou":4271,"sum":4272,"unterstützen</w>":4273,"ßerdem</w>":4274,"tze</w>":4275,"Fol":4276,"sicht":4277,"Dieser</w>":4278,"Berichterstat":4279,"something</w>":4280,"wards</w>":4281,"Aussch":4282,"Parlaments</w>":4283,"issues</w>":4284,"Tex":4285,"ected</w>":4286,"Ziel":4287,"invol":4288,"materi":4289,"kre":4290,"given</w>":4291,"become</w>":4292,"lea":4293,"brauchen</w>":4294,"rin":4295,"esses</w>":4296,"Menschen":4297,"dür":4298,"rise</w>":4299,"automati":4300,"real</w>":4301,"rapporte":4302,"Bi":4303,"statt</w>":4304,"denn</w>":4305,"fall</w>":4306,"els":4307,"aid</w>":4308,"gether</w>":4309,"iety</w>":4310,"xim":4311,"124</w>":4312,"start</w>":4313,"kauf":4314,"isti":4315,"ea":4316,"fav":4317,"spiel</w>":4318,"ingungen</w>":4319,"fan":4320,"geri":4321,"Eben":4322,"Eu":4323,"bl":4324,"digen</w>":4325,"einzi":4326,"aller":4327,"Zukunft</w>":4328,"teil</w>":4329,"hil":4330,"zo":4331,"sichti":4332,"geführt</w>":4333,"Fri":4334,"merk":4335,"Service</w>":4336,"supp":4337,"contact</w>":4338,"ats</w>":4339,"suchen</w>":4340,"compani":4341,"Pu":4342,"another</w>":4343,"ritte</w>":4344,"liegen</w>":4345,"Leb":4346,"davon</w>":4347,"ju":4348,"sage</w>":4349,"Mrs</w>":4350,"Booking</w>":4351,"entfer":4352,"Fam":4353,"asy</w>":4354,"ilt</w>":4355,"down</w>":4356,"natürlich</w>":4357,"software</w>":4358,"genen</w>":4359,"Recht</w>":4360,"Mor":4361,"notwen":4362,"Ländern</w>":4363,"Bürger</w>":4364,"programme</w>":4365,"dence</w>":4366,"Rol":4367,"plac":4368,"turn</w>":4369,"erreichen</w>":4370,"weil</w>":4371,"Sicherheit</w>":4372,"practi":4373,"ference</w>":4374,"result</w>":4375,"bewertungen</w>":4376,"Stadt</w>":4377,"ening</w>":4378,"dou":4379,"questions</w>":4380,"mus</w>":4381,"An</w>":4382,"Ob":4383,"Lie":4384,"range</w>":4385,"pas":4386,"Fahr":4387,"comes</w>":4388,"Gästebewertungen</w>":4389,"hängi":4390,"sy":4391,"fa":4392,"Sk":4393,"anzu":4394,"fizi":4395,"forward</w>":4396,"wed</w>":4397,"du</w>":4398,"13</w>":4399,"initi":4400,"protection</w>":4401,"inf":4402,"ingle</w>":4403,"zieh":4404,"14</w>":4405,"tungs":4406,"letzten</w>":4407,"Lin":4408,"ird</w>":4409,"ei</w>":4410,"unserem</w>":4411,"close</w>":4412,"art</w>":4413,"atten</w>":4414,"gebo":4415,"streng":4416,"ttle</w>":4417,"website</w>":4418,"docu":4419,"hä":4420,"politischen</w>":4421,"pho":4422,"partment</w>":4423,"gress</w>":4424,"kehr":4425,"imp":4426,"whe":4427,"alled</w>":4428,"Kollegen</w>":4429,"wieri":4430,"US</w>":4431,"Entschließ":4432,"han":4433,"production</w>":4434,"experience</w>":4435,"att":4436,"az":4437,"Flug":4438,"resolution</w>":4439,"establi":4440,"reco":4441,"modern</w>":4442,"lin</w>":4443,"erste</w>":4444,"18</w>":4445,"ources</w>":4446,"sia</w>":4447,"könnte</w>":4448,"coming</w>":4449,"Ira":4450,"Früh":4451,"Fu":4452,"üh":4453,"tains</w>":4454,"bau":4455,"leich":4456,"Punkt</w>":4457,"innov":4458,"breakfast</w>":4459,"centre</w>":4460,"fung</w>":4461,"Als</w>":4462,"wün":4463,"though</w>":4464,"zurück":4465,"whole</w>":4466,"fül":4467,"Neu":4468,"law</w>":4469,"gute</w>":4470,"wide</w>":4471,"Milli":4472,"direkt</w>":4473,"begrü":4474,"führung</w>":4475,"fortable</w>":4476,"ja</w>":4477,"together</w>":4478,"cris":4479,"Möglichkeit</w>":4480,"continue</w>":4481,"money</w>":4482,"Wett":4483,"One</w>":4484,"darüber</w>":4485,"price</w>":4486,"las":4487,"Software</w>":4488,"ban":4489,"örder":4490,"main":4491,"meiner</w>":4492,"ator</w>":4493,"inner":4494,"während</w>":4495,"gern</w>":4496,"them":4497,"cel":4498,"management</w>":4499,"profession":4500,"cultural</w>":4501,"langu":4502,"please</w>":4503,"vention</w>":4504,"weit</w>":4505,"optim":4506,"Lan":4507,"ämp":4508,"40</w>":4509,"Ele":4510,"wan":4511,"unic":4512,"eicht</w>":4513,"ual</w>":4514,"He</w>":4515,"Wirtschaf":4516,"found</w>":4517,"Weg</w>":4518,"stribu":4519,"lot</w>":4520,"contribu":4521,"dows</w>":4522,"Lis":4523,"gilt</w>":4524,"befindet</w>":4525,"Artikel</w>":4526,"Haushal":4527,"Host":4528,"light</w>":4529,"ire</w>":4530,"ctions</w>":4531,"mentation</w>":4532,"Website</w>":4533,"Kre":4534,"any":4535,"Organ":4536,"int</w>":4537,"16</w>":4538,"trade</w>":4539,"Group</w>":4540,"enter</w>":4541,"conditions</w>":4542,"leben</w>":4543,"basis</w>":4544,"seinen</w>":4545,"od</w>":4546,"guaran":4547,"ies</w>":4548,"Ap":4549,"product</w>":4550,"dentin</w>":4551,"großen</w>":4552,"Off":4553,"tes":4554,"Sel":4555,"things</w>":4556,"Mini":4557,"kosten":4558,"Produkte</w>":4559,"top</w>":4560,"ines</w>":4561,"Wh":4562,"blo":4563,"gelegt</w>":4564,"arch":4565,"welche</w>":4566,"wnload</w>":4567,"Grupp":4568,"file</w>":4569,"grund</w>":4570,"Geschäfts":4571,"points</w>":4572,"gleich</w>":4573,"exten":4574,"Politik</w>":4575,"Zwei":4576,"continu":4577,"ths</w>":4578,"beau":4579,"entrum</w>":4580,"tz</w>":4581,"tali":4582,"kra":4583,"fy</w>":4584,"wahr":4585,"stance</w>":4586,"account</w>":4587,"Grün":4588,"ues</w>":4589,"power</w>":4590,"orities</w>":4591,"specific</w>":4592,"rän":4593,"besonders</w>":4594,"tually</w>":4595,"budget</w>":4596,"selves</w>":4597,"eigenen</w>":4598,"ritt</w>":4599,"rapporteur</w>":4600,"industri":4601,"vielen</w>":4602,"role</w>":4603,"enzen</w>":4604,"costs</w>":4605,"hör":4606,"Pe":4607,"la</w>":4608,"feat":4609,"Frau":4610,"grund":4611,"use":4612,"control</w>":4613,"rechte</w>":4614,"Spra":4615,"Seiten</w>":4616,"several</w>":4617,"exist":4618,"Dienst":4619,"Rahmen</w>":4620,"tex":4621,"mel":4622,"schaften</w>":4623,"lig":4624,"let</w>":4625,"industry</w>":4626,"don</w>":4627,"zeigen</w>":4628,"km</w>":4629,"ales</w>":4630,"Famili":4631,"private</w>":4632,"fähi":4633,"genu":4634,"zug</w>":4635,"bung</w>":4636,"Ende</w>":4637,"making</w>":4638,"eller</w>":4639,"tage</w>":4640,"tives</w>":4641,"dio</w>":4642,"quite</w>":4643,"ably</w>":4644,"ismus</w>":4645,"äm":4646,"mes</w>":4647,"Weise</w>":4648,"region":4649,"verschieden":4650,"press</w>":4651,"Programm</w>":4652,"Situation</w>":4653,"terms</w>":4654,"oth":4655,"orig":4656,"bedeu":4657,"Wettbewer":4658,"geord":4659,"benö":4660,"gesagt</w>":4661,"lig</w>":4662,"Bitte</w>":4663,"personal</w>":4664,"project</w>":4665,"agree</w>":4666,"ath</w>":4667,"ek":4668,"goti":4669,"scher</w>":4670,"certain</w>":4671,"entsprech":4672,"Jun":4673,"Kinder</w>":4674,"easy</w>":4675,"burg</w>":4676,"versch":4677,"decision</w>":4678,"At":4679,"USA</w>":4680,"Bal":4681,"Lösung</w>":4682,"soli":4683,"gue</w>":4684,"europäische</w>":4685,"ieder":4686,"little</w>":4687,"Rolle</w>":4688,"name</w>":4689,"hand</w>":4690,"ingt</w>":4691,"ta</w>":4692,"tails</w>":4693,"Bri":4694,"companies</w>":4695,"safe":4696,"ls</w>":4697,"ned</w>":4698,"grat":4699,"Madam</w>":4700,"single</w>":4701,"face</w>":4702,"Meinung</w>":4703,"water</w>":4704,"via</w>":4705,"ency</w>":4706,"cularly</w>":4707,"Pla":4708,"verschiedenen</w>":4709,"design":4710,"holi":4711,"Pra":4712,"abo":4713,"ain</w>":4714,"läge</w>":4715,"äre</w>":4716,"nal</w>":4717,"erst</w>":4718,"Ih":4719,"Br":4720,"usti":4721,"tor":4722,"modi":4723,"erwar":4724,"spec":4725,"respect</w>":4726,"Präsidentin</w>":4727,"tting</w>":4728,"agen":4729,"negoti":4730,"Inv":4731,"region</w>":4732,"Beispiel</w>":4733,"play</w>":4734,"pul":4735,"zimmer</w>":4736,"help":4737,"abhängi":4738,"Wes":4739,"gestimm":4740,"Institu":4741,"disp":4742,"United</w>":4743,"Ther":4744,"state</w>":4745,"verstän":4746,"persön":4747,"jects</w>":4748,"Vol":4749,"nific":4750,"wegen</w>":4751,"isions</w>":4752,"Daten":4753,"Schlus":4754,"value</w>":4755,"friend":4756,"ritten</w>":4757,"ordin":4758,"identi":4759,"dürfen</w>":4760,"entfernt</w>":4761,"ror":4762,"sieh":4763,"fragen</w>":4764,"ebenfalls</w>":4765,"perf":4766,"following</w>":4767,"ever</w>":4768,"voll</w>":4769,"Richtlinie</w>":4770,"various</w>":4771,"subject</w>":4772,"politische</w>":4773,"los":4774,"ets</w>":4775,"unkte</w>":4776,"Haupt":4777,"Verantwor":4778,"off</w>":4779,"often</w>":4780,"mäß":4781,"liches</w>":4782,"ols</w>":4783,"itself</w>":4784,"tter</w>":4785,"Grund</w>":4786,"far":4787,"lieren</w>":4788,"particularly</w>":4789,"shed</w>":4790,"left</w>":4791,"ised</w>":4792,"vely</w>":4793,"including</w>":4794,"glie":4795,"od":4796,"Fraktion</w>":4797,"Kun":4798,"cs</w>":4799,"innerhalb</w>":4800,"nichts</w>":4801,"away</w>":4802,"After</w>":4803,"amendments</w>":4804,"einzel":4805,"Besu":4806,"tag</w>":4807,"ellschaft</w>":4808,"guest</w>":4809,"crisis</w>":4810,"while</w>":4811,"lear":4812,"dency</w>":4813,"mosp":4814,"def":4815,"third</w>":4816,"Commit":4817,"confi":4818,"lon":4819,"weisen</w>":4820,"create</w>":4821,"proced":4822,"directive</w>":4823,"Techn":4824,"major</w>":4825,"gel</w>":4826,"Gra":4827,"ziehen</w>":4828,"individual</w>":4829,"Dah":4830,"aty</w>":4831,"ool</w>":4832,"Rück":4833,"Finanz":4834,"kar":4835,"blick</w>":4836,"zahl":4837,"60</w>":4838,"food</w>":4839,"hervor":4840,"unterschie":4841,"positive</w>":4842,"lab":4843,"Benutz":4844,"women</w>":4845,"Erfol":4846,"invest":4847,"ross</w>":4848,"erungen</w>":4849,"2000</w>":4850,"Germany</w>":4851,"samen</w>":4852,"pose</w>":4853,"itäten</w>":4854,"ätze</w>":4855,"ession</w>":4856,"ational</w>":4857,"night</w>":4858,"Regel":4859,"allen":4860,"promo":4861,"iz":4862,"sector</w>":4863,"Demok":4864,"neten</w>":4865,"plan":4866,"ering</w>":4867,"Ihrem</w>":4868,"conclu":4869,"effici":4870,"Spe":4871,"global</w>":4872,"local</w>":4873,"ermögli":4874,"sicher</w>":4875,"nei":4876,"keinen</w>":4877,"metho":4878,"German</w>":4879,"alog</w>":4880,"Committee</w>":4881,"Community</w>":4882,"Indi":4883,"recom":4884,"Daher</w>":4885,"enter":4886,"edi":4887,"quali":4888,"fication</w>":4889,"dlichen</w>":4890,"verbesser":4891,"gestimmt</w>":4892,"Aus</w>":4893,"ina</w>":4894,"tual</w>":4895,"Kur":4896,"chung</w>":4897,"tos</w>":4898,"ligen</w>":4899,"Gar":4900,"bed</w>":4901,"opini":4902,"solution</w>":4903,"advan":4904,"dessen</w>":4905,"transport</w>":4906,"benef":4907,"esp":4908,"health</w>":4909,"tigung</w>":4910,"Char":4911,"partments</w>":4912,"reason</w>":4913,"wth</w>":4914,"schließlich</w>":4915,"uss</w>":4916,"jeder</w>":4917,"ury</w>":4918,"research</w>":4919,"krati":4920,"beiden</w>":4921,"LA":4922,"row</w>":4923,"Frauen</w>":4924,"zer":4925,"ihnen</w>":4926,"whether</w>":4927,"Haus</w>":4928,"yo":4929,"suff":4930,"ku":4931,"teil":4932,"bor":4933,"hinaus</w>":4934,"deal</w>":4935,"Im":4936,"mil":4937,"ite</w>":4938,"gsten</w>":4939,"reli":4940,"vision</w>":4941,"ories</w>":4942,"Rom":4943,"approach</w>":4944,"rules</w>":4945,"Weiter":4946,"wri":4947,"glaube</w>":4948,"instru":4949,"mom":4950,"wieder":4951,"Regierung</w>":4952,"Hilfe</w>":4953,"atz":4954,"Zah":4955,"Dam":4956,"finanzi":4957,"land":4958,"design</w>":4959,"hang</w>":4960,"läu":4961,"tation</w>":4962,"Staaten</w>":4963,"Version</w>":4964,"Afri":4965,"Gener":4966,"setz":4967,"gebra":4968,"eme</w>":4969,"aci":4970,"richt</w>":4971,"Here</w>":4972,"insbesondere</w>":4973,"ling</w>":4974,"ander</w>":4975,"zusammen":4976,"family</w>":4977,"outh</w>":4978,"Du":4979,"ente</w>":4980,"forderungen</w>":4981,"halte</w>":4982,"Verbrau":4983,"gin":4984,"prochen</w>":4985,"enjoy</w>":4986,"freu":4987,"Währ":4988,"drück":4989,"ends</w>":4990,"cks</w>":4991,"gän":4992,"favour</w>":4993,"meet":4994,"Strateg":4995,"danken</w>":4996,"abili":4997,"vers</w>":4998,"ading</w>":4999,"work":5000,"cted</w>":5001,"mers</w>":5002,"closed</w>":5003,"million</w>":5004,"attra":5005,"voted</w>":5006,"submitted</w>":5007,"Let</w>":5008,"complete</w>":5009,"contra":5010,"Mittel":5011,"anti":5012,"ckt</w>":5013,"flexi":5014,"freund":5015,"results</w>":5016,"friendly</w>":5017,"tures</w>":5018,"Dok":5019,"derzeit</w>":5020,"Lebens":5021,"Indu":5022,"Sol":5023,"pool</w>":5024,"ativen</w>":5025,"enten</w>":5026,"gegeben</w>":5027,"erzi":5028,"comfortable</w>":5029,"Demokrati":5030,"Windows</w>":5031,"general</w>":5032,"half</w>":5033,"until</w>":5034,"works</w>":5035,"werde</w>":5036,"recht</w>":5037,"onn":5038,"once</w>":5039,"yet</w>":5040,"proposals</w>":5041,"require":5042,"Sub":5043,"regard</w>":5044,"Deutsch":5045,"cing</w>":5046,"elleicht</w>":5047,"environment</w>":5048,"wo":5049,"tra</w>":5050,"manu":5051,"Qualität</w>":5052,"ements</w>":5053,"Air":5054,"aum</w>":5055,"gemacht</w>":5056,"short</w>":5057,"tar":5058,"Namen</w>":5059,"least</w>":5060,"sowohl</w>":5061,"dar</w>":5062,"Restaurant</w>":5063,"responsibility</w>":5064,"gere":5065,"gest</w>":5066,"unterstützt</w>":5067,"makes</w>":5068,"Forsch":5069,"difficult</w>":5070,"field</w>":5071,"17</w>":5072,"19</w>":5073,"ames</w>":5074,"rants</w>":5075,"progress</w>":5076,"Thank</w>":5077,"teilen</w>":5078,"jeden</w>":5079,"Nä":5080,"schi":5081,"the":5082,"fel":5083,"tioned</w>":5084,"transpar":5085,"Doch</w>":5086,"Ban":5087,"required</w>":5088,"reduc":5089,"anges":5090,"New</w>":5091,"town</w>":5092,"bereich</w>":5093,"Emp":5094,"particip":5095,"intro":5096,"credi":5097,"ian</w>":5098,"Engli":5099,"technology</w>":5100,"call</w>":5101,"18":5102,"minutes</w>":5103,"Erfahr":5104,"communic":5105,"funktion":5106,"internationalen</w>":5107,"gegenüber</w>":5108,"besten</w>":5109,"Feh":5110,"employment</w>":5111,"sation</w>":5112,"Euro":5113,"home</w>":5114,"sites</w>":5115,"ars</w>":5116,"fang</w>":5117,"ened</w>":5118,"weniger</w>":5119,"TV</w>":5120,"restaurant</w>":5121,"deren</w>":5122,"Mehr":5123,"standards</w>":5124,"kommen":5125,"teile</w>":5126,"ino</w>":5127,"vement</w>":5128,"fron":5129,"oun":5130,"ined</w>":5131,"tivities</w>":5132,"certain":5133,"arbeitet</w>":5134,"hoffe</w>":5135,"kol":5136,"umfas":5137,"Steu":5138,"prepar":5139,"sionen</w>":5140,"step</w>":5141,"wichtige</w>":5142,"gui":5143,"check</w>":5144,"proper":5145,"Personen</w>":5146,"zahl</w>":5147,"opportunity</w>":5148,"trei":5149,"soci":5150,"Man</w>":5151,"term</w>":5152,"tan":5153,"Schul":5154,"Mittel</w>":5155,"akzep":5156,"brei":5157,"especi":5158,"ples</w>":5159,"Betri":5160,"era</w>":5161,"Doku":5162,"pass":5163,"schnell</w>":5164,"ständig</w>":5165,"Sitz":5166,"reali":5167,"termin":5168,"Abgeord":5169,"kul":5170,"Sep":5171,"enough</w>":5172,"simply</w>":5173,"gend":5174,"grün":5175,"meisten</w>":5176,"Proto":5177,"cracy</w>":5178,"21</w>":5179,"2006</w>":5180,"hatte</w>":5181,"ard":5182,"Mitarbei":5183,"Fe":5184,"ical</w>":5185,"genau</w>":5186,"tron":5187,"signific":5188,"komple":5189,"ändert</w>":5190,"druck</w>":5191,"especially</w>":5192,"wle":5193,"sichtlich</w>":5194,"chern</w>":5195,"send</w>":5196,"Fil":5197,"attention</w>":5198,"crati":5199,"growth</w>":5200,"beauti":5201,"Dienstleist":5202,"lang</w>":5203,"bs":5204,"spä":5205,"easi":5206,"ground</w>":5207,"00":5208,"ute</w>":5209,"Kü":5210,"regel":5211,"Jan":5212,"princip":5213,"co</w>":5214,"links</w>":5215,"teilung</w>":5216,"aurants</w>":5217,"atives</w>":5218,"building</w>":5219,"Minu":5220,"ideal</w>":5221,"rela":5222,"zent":5223,"looking</w>":5224,"Bem":5225,"towards</w>":5226,"zuneh":5227,"reichen</w>":5228,"schrei":5229,"ads</w>":5230,"Pol":5231,"anst":5232,"anim":5233,"Far":5234,"tober</w>":5235,"provides</w>":5236,"Priv":5237,"bindung</w>":5238,"Antwort</w>":5239,"bank</w>":5240,"gehört</w>":5241,"bili":5242,"Frank":5243,"provided</w>":5244,"words</w>":5245,"deci":5246,"IN":5247,"beginn":5248,"betrifft</w>":5249,"adopted</w>":5250,"ächlich</w>":5251,"kind</w>":5252,"dungs":5253,"perform":5254,"culture</w>":5255,"Gleich":5256,"request</w>":5257,"needed</w>":5258,"recog":5259,"Members</w>":5260,"ects</w>":5261,"As":5262,"mework</w>":5263,"Bau":5264,"mittel</w>":5265,"Von</w>":5266,"ording</w>":5267,"Zus":5268,"activities</w>":5269,"house</w>":5270,"asp":5271,"plan</w>":5272,"dort</w>":5273,"interest</w>":5274,"bedeutet</w>":5275,"halt</w>":5276,"ago</w>":5277,"bleiben</w>":5278,"Kul":5279,"stor":5280,"fortun":5281,"increase</w>":5282,"altung</w>":5283,"lang":5284,"daran</w>":5285,"Leist":5286,"application</w>":5287,"Gesund":5288,"benu":5289,"ups</w>":5290,"öh":5291,"verk":5292,"ichte</w>":5293,"prec":5294,"vers":5295,"chs</w>":5296,"correc":5297,"ona</w>":5298,"taking</w>":5299,"challen":5300,"Industri":5301,"TE":5302,"Europas</w>":5303,"pic":5304,"Fortsch":5305,"ption</w>":5306,"changes</w>":5307,"Cas":5308,"solche</w>":5309,"My</w>":5310,"Region</w>":5311,"tember</w>":5312,"safety</w>":5313,"mmt</w>":5314,"Wann</w>":5315,"Nov":5316,"effective</w>":5317,"struk":5318,"mach":5319,"tour":5320,"Fi":5321,"zusätz":5322,"government</w>":5323,"möglich":5324,"Mat":5325,"host":5326,"klar</w>":5327,"show</w>":5328,"Wirtschafts":5329,"Fis":5330,"Erklär":5331,"gentle":5332,"legislation</w>":5333,"Ini":5334,"analy":5335,"unver":5336,"Zeit":5337,"val</w>":5338,"speak":5339,"prei":5340,"dent":5341,"ton</w>":5342,"distribu":5343,"success":5344,"September</w>":5345,"dest":5346,"projects</w>":5347,"occ":5348,"tischen</w>":5349,"bau</w>":5350,"address</w>":5351,"Pi":5352,"opinion</w>":5353,"poten":5354,"importance</w>":5355,"einzu":5356,"Treaty</w>":5357,"sle":5358,"tete</w>":5359,"gebung</w>":5360,"lauf":5361,"spr":5362,"Jav":5363,"Da</w>":5364,"ihn</w>":5365,"solutions</w>":5366,"gebracht</w>":5367,"esting</w>":5368,"ome":5369,"Zusammenhang</w>":5370,"Unser</w>":5371,"esti":5372,"person</w>":5373,"Leben</w>":5374,"extrem":5375,"directly</w>":5376,"card</w>":5377,"Verhand":5378,"mod":5379,"Car":5380,"gentlemen</w>":5381,"ücksichti":5382,"besser</w>":5383,"erklär":5384,"allerdings</w>":5385,"resources</w>":5386,"achten</w>":5387,"kor":5388,"Initi":5389,"equ":5390,"Sh":5391,"eless</w>":5392,"Konta":5393,"nachten</w>":5394,"nimmt</w>":5395,"gestat":5396,"guests</w>":5397,"institutions</w>":5398,"Itali":5399,"addition</w>":5400,"Damit</w>":5401,"Hei":5402,"ächst</w>":5403,"gebot</w>":5404,"alisierung</w>":5405,"Inst":5406,"soc":5407,"suppor":5408,"gram</w>":5409,"lö":5410,"Preis</w>":5411,"activ":5412,"allation</w>":5413,"erfolgrei":5414,"sci":5415,"best":5416,"bis":5417,"Ac":5418,"Cor":5419,"Energie":5420,"sty":5421,"einigen</w>":5422,"gewi":5423,"TO</w>":5424,"wa</w>":5425,"Wil":5426,"Deutschland</w>":5427,"ra</w>":5428,"origin":5429,"Außerdem</w>":5430,"lüs":5431,"include</w>":5432,"concerned</w>":5433,"Verantwortung</w>":5434,"ül":5435,"nete</w>":5436,"never</w>":5437,"Den":5438,"sogar</w>":5439,"amoun":5440,"scht</w>":5441,"cript</w>":5442,"beautiful</w>":5443,"weiterhin</w>":5444,"body</w>":5445,"vil":5446,"aussch":5447,"CO":5448,"ech":5449,"dien":5450,"funda":5451,"appropri":5452,"ück</w>":5453,"iting</w>":5454,"senden</w>":5455,"rate</w>":5456,"car</w>":5457,"antly</w>":5458,"adt</w>":5459,"Bro":5460,"ecu":5461,"digkeit</w>":5462,"pped</w>":5463,"wert</w>":5464,"extremely</w>":5465,"aufge":5466,"applic":5467,"tin":5468,"hen":5469,"longer</w>":5470,"Schlussel":5471,"live</w>":5472,"leisten</w>":5473,"baren</w>":5474,"currently</w>":5475,"ahn":5476,"interes":5477,"receive</w>":5478,"Mitglie":5479,"Stru":5480,"content</w>":5481,"proz":5482,"forms</w>":5483,"schön":5484,"cat":5485,"nutzen</w>":5486,"nü":5487,"bew":5488,"Sor":5489,"dau":5490,"Millionen</w>":5491,"kli":5492,"nationalen</w>":5493,"kus":5494,"ought</w>":5495,"essential</w>":5496,"ändern</w>":5497,"facilities</w>":5498,"clearly</w>":5499,"Nachfol":5500,"visit</w>":5501,"sollen</w>":5502,"allow</w>":5503,"exclu":5504,"fris":5505,"economy</w>":5506,"contains</w>":5507,"eien</w>":5508,"gerne</w>":5509,"success</w>":5510,"lück":5511,"eign</w>":5512,"called</w>":5513,"orts</w>":5514,"ource</w>":5515,"answer</w>":5516,"heb":5517,"strategy</w>":5518,"stet</w>":5519,"member</w>":5520,"künf":5521,"Ort</w>":5522,"World</w>":5523,"nächsten</w>":5524,"move</w>":5525,"zeitig</w>":5526,"einge":5527,"known</w>":5528,"ones</w>":5529,"feel</w>":5530,"di</w>":5531,"22</w>":5532,"Dec":5533,"arti":5534,"Schutz</w>":5535,"agri":5536,"füh":5537,"onds</w>":5538,"Berlin</w>":5539,"ket</w>":5540,"80</w>":5541,"achieve</w>":5542,"cratic</w>":5543,"principle</w>":5544,"test</w>":5545,"zeichn":5546,"Ebene</w>":5547,"From</w>":5548,"Vorschläge</w>":5549,"dliche</w>":5550,"phi":5551,"groups</w>":5552,"might</w>":5553,"dom":5554,"Zim":5555,"schö":5556,"Gegen":5557,"scheint</w>":5558,"Organis":5559,"Gol":5560,"usammen</w>":5561,"coura":5562,"einander</w>":5563,"spi":5564,"Kosten</w>":5565,"prices</w>":5566,"nice</w>":5567,"ehr":5568,"für":5569,"deshalb</w>":5570,"verwendet</w>":5571,"Kl":5572,"ops</w>":5573,"Selb":5574,"Ansicht</w>":5575,"kenn":5576,"öffentlichen</w>":5577,"Isra":5578,"Dru":5579,"mate</w>":5580,"members</w>":5581,"Durch</w>":5582,"Richtung</w>":5583,"ßen":5584,"Am</w>":5585,"Dan":5586,"team</w>":5587,"him</w>":5588,"gewähr":5589,"asser":5590,"above</w>":5591,"Nähe</w>":5592,"station</w>":5593,"Wis":5594,"unding</w>":5595,"represent":5596,"yers</w>":5597,"kung</w>":5598,"Janu":5599,"Ak":5600,"reich":5601,"Can":5602,"arri":5603,"non</w>":5604,"Schi":5605,"dige</w>":5606,"Do</w>":5607,"lange</w>":5608,"übernachten</w>":5609,"teilt</w>":5610,"files</w>":5611,"Kor":5612,"charac":5613,"keep</w>":5614,"accept</w>":5615,"everything</w>":5616,"za</w>":5617,"2004</w>":5618,"Sozi":5619,"Wach":5620,"bereit</w>":5621,"Bild</w>":5622,"verschiedene</w>":5623,"pages</w>":5624,"additional</w>":5625,"requirements</w>":5626,"notwendig</w>":5627,"spru":5628,"rather</w>":5629,"redu":5630,"Entwicklungs":5631,"tiv</w>":5632,"connec":5633,"Möglichkeiten</w>":5634,"Ra":5635,"erle":5636,"Ide":5637,"bus</w>":5638,"IS":5639,"verfügt</w>":5640,"na":5641,"schwieri":5642,"road</w>":5643,"read</w>":5644,"wers</w>":5645,"stoff":5646,"demokrati":5647,"choo":5648,"clean</w>":5649,"Tür":5650,"educ":5651,"technical</w>":5652,"Aspe":5653,"ums</w>":5654,"separ":5655,"milit":5656,"Instru":5657,"2005</w>":5658,"gerade</w>":5659,"language</w>":5660,"stück</w>":5661,"responsible</w>":5662,"schafts":5663,"standard</w>":5664,"period</w>":5665,"Ei":5666,"Erweiter":5667,"Schritt</w>":5668,"cus</w>":5669,"Seit</w>":5670,"Kap":5671,"vation</w>":5672,"cost</w>":5673,"eg</w>":5674,"Durch":5675,"enthalt</w>":5676,"Komm":5677,"ir</w>":5678,"ender</w>":5679,"folgen</w>":5680,"included</w>":5681,"cop":5682,"denke</w>":5683,"Musi":5684,"bare</w>":5685,"soon</w>":5686,"Änderungsantrag</w>":5687,"erforderlich</w>":5688,"Some</w>":5689,"multi":5690,"zeichnet</w>":5691,"ural</w>":5692,"related</w>":5693,"Sicherheits":5694,"rele":5695,"care</w>":5696,"allgem":5697,"modified</w>":5698,"ming</w>":5699,"hält</w>":5700,"Now</w>":5701,"IT</w>":5702,"events</w>":5703,"lands</w>":5704,"He":5705,"hier":5706,"accomm":5707,"markt</w>":5708,"wenig</w>":5709,"deutlich</w>":5710,"sted</w>":5711,"Form</w>":5712,"23</w>":5713,"Sü":5714,"training</w>":5715,"AR":5716,"gesehen</w>":5717,"bit":5718,"Strategie</w>":5719,"treffen</w>":5720,"hunder":5721,"shar":5722,"Heraus":5723,"cal":5724,"schaffen</w>":5725,"züglich</w>":5726,"big</w>":5727,"Haushalts":5728,"tory</w>":5729,"ategi":5730,"ume</w>":5731,"zäh":5732,"Erfolg</w>":5733,"ow</w>":5734,"true</w>":5735,"Demokratie</w>":5736,"helfen</w>":5737,"nature</w>":5738,"key":5739,"Debatte</w>":5740,"siert</w>":5741,"others</w>":5742,"jewei":5743,"cle</w>":5744,"stens</w>":5745,"fortunately</w>":5746,"vious</w>":5747,"Minuten</w>":5748,"zeh":5749,"depen":5750,"Mal":5751,"Sy":5752,"lose</w>":5753,"maxim":5754,"ruhi":5755,"ologie</w>":5756,"DE</w>":5757,"categ":5758,"auszu":5759,"vent</w>":5760,"nel</w>":5761,"Nachfolgend</w>":5762,"prüfen</w>":5763,"Verbesser":5764,"force</w>":5765,"manufac":5766,"Gese":5767,"Liste</w>":5768,"tigkeit</w>":5769,"Russia</w>":5770,"ater":5771,"Bre":5772,"Zum</w>":5773,"pfli":5774,"viol":5775,"zentr":5776,"wahl</w>":5777,"hon":5778,"active</w>":5779,"serious</w>":5780,"Sti":5781,"ok</w>":5782,"Änderungsanträge</w>":5783,"November</w>":5784,"verständlich</w>":5785,"pay</w>":5786,"fl":5787,"swi":5788,"Zu</w>":5789,"pat":5790,"lieb":5791,"außer":5792,"compu":5793,"bon</w>":5794,"kit":5795,"Mär":5796,"refer":5797,"framework</w>":5798,"concerns</w>":5799,"democracy</w>":5800,"erneu":5801,"bleibt</w>":5802,"hres</w>":5803,"erreicht</w>":5804,"inge</w>":5805,"lines</w>":5806,"Interesse</w>":5807,"type</w>":5808,"sib":5809,"anks</w>":5810,"understand</w>":5811,"greater</w>":5812,"Sal":5813,"zahlen</w>":5814,"ambi":5815,"International</w>":5816,"ießen</w>":5817,"heu":5818,"Kra":5819,"wirtschaft</w>":5820,"book</w>":5821,"either</w>":5822,"near</w>":5823,"igung</w>":5824,"internet</w>":5825,"environmental</w>":5826,"rema":5827,"gemeinsame</w>":5828,"tst":5829,"program</w>":5830,"setzt</w>":5831,"moun":5832,"Ha":5833,"tritt</w>":5834,"Therefore</w>":5835,"Sto":5836,"spielen</w>":5837,"freed":5838,"susta":5839,"eth":5840,"zusammen</w>":5841,"Ziele</w>":5842,"schrift":5843,"Vide":5844,"proposed</w>":5845,"Fur":5846,"ffet</w>":5847,"darin</w>":5848,"würden</w>":5849,"befinden</w>":5850,"came</w>":5851,"bs</w>":5852,"asser</w>":5853,"drin":5854,"customer</w>":5855,"Vertrag</w>":5856,"Na":5857,"trolle</w>":5858,"gratul":5859,"nothing</w>":5860,"certainly</w>":5861,"Diskus":5862,"völk":5863,"Vor</w>":5864,"ables</w>":5865,"club</w>":5866,"Wort</w>":5867,"mem":5868,"nit":5869,"reach":5870,"200</w>":5871,"bring</w>":5872,"ingly</w>":5873,"verfüg":5874,"EC":5875,"richten</w>":5876,"spo":5877,"tely</w>":5878,"Wirtschaft</w>":5879,"famili":5880,"Geld</w>":5881,"hours</w>":5882,"Wachst":5883,"mind</w>":5884,"mend</w>":5885,"ade":5886,"Markt</w>":5887,"äd":5888,"atis":5889,"strong</w>":5890,"increas":5891,"users</w>":5892,"cir":5893,"198":5894,"log":5895,"society</w>":5896,"tweit</w>":5897,"tzu":5898,"mern</w>":5899,"nehmer</w>":5900,"hoch":5901,"Berichterstatter</w>":5902,"rich</w>":5903,"due</w>":5904,"barkeit</w>":5905,"perfect</w>":5906,"dition":5907,"wledge</w>":5908,"tent</w>":5909,"alogue</w>":5910,"Umsetzung</w>":5911,"vorgesch":5912,"doing</w>":5913,"Groß":5914,"Urlau":5915,"mentioned</w>":5916,"policies</w>":5917,"richtig</w>":5918,"ord</w>":5919,"gets</w>":5920,"Zugang</w>":5921,"standing</w>":5922,"conven":5923,"Ergebnis</w>":5924,"höch":5925,"folgt</w>":5926,"fern</w>":5927,"sea</w>":5928,"web</w>":5929,"Vielen</w>":5930,"months</w>":5931,"Posi":5932,"Of</w>":5933,"dates</w>":5934,"unities</w>":5935,"monit":5936,"liert</w>":5937,"Your</w>":5938,"ns</w>":5939,"introduc":5940,"Bedingungen</w>":5941,"click</w>":5942,"Up":5943,"ktor</w>":5944,"500</w>":5945,"having</w>":5946,"past</w>":5947,"stly</w>":5948,"central</w>":5949,"Teil":5950,"vices</w>":5951,"Angele":5952,"hu":5953,"Drit":5954,"ner":5955,"herr":5956,"berücksichti":5957,"bald</w>":5958,"reasons</w>":5959,"hof</w>":5960,"space</w>":5961,"All":5962,"Tages":5963,"run</w>":5964,"kei</w>":5965,"zwar</w>":5966,"meeting</w>":5967,"itz":5968,"laden</w>":5969,"administ":5970,"ausgestat":5971,"justi":5972,"Har":5973,"chtung</w>":5974,"competition</w>":5975,"share</w>":5976,"parties</w>":5977,"platz</w>":5978,"stron":5979,"EN</w>":5980,"etwa</w>":5981,"Russ":5982,"ER":5983,"recht":5984,"ktions":5985,"vered</w>":5986,"four</w>":5987,"mes":5988,"Öff":5989,"ihm</w>":5990,"involved</w>":5991,"Bezieh":5992,"maß":5993,"tnis</w>":5994,"bekannt</w>":5995,"immedi":5996,"reiche</w>":5997,"code</w>":5998,"Apri":5999,"Feri":6000,"week</w>":6001,"ko</w>":6002,"among</w>":6003,"internal</w>":6004,"Col":6005,"Geri":6006,"limit":6007,"Gel":6008,"Mail</w>":6009,"oft</w>":6010,"natural</w>":6011,"implemen":6012,"risk</w>":6013,"expres":6014,"Darüber</w>":6015,"cases</w>":6016,"Verfahren</w>":6017,"Jap":6018,"zogen</w>":6019,"aden</w>":6020,"Einzel":6021,"ält</w>":6022,"gerä":6023,"bekommen</w>":6024,"weiß</w>":6025,"histori":6026,"Kenn":6027,"ro</w>":6028,"ine":6029,"konkre":6030,"Beschäf":6031,"will":6032,"Kamp":6033,"relev":6034,"rep":6035,"total</w>":6036,"Online</w>":6037,"betra":6038,"sug":6039,"Kan":6040,"Is</w>":6041,"dents</w>":6042,"enthalten</w>":6043,"cherweise</w>":6044,"cover</w>":6045,"ände</w>":6046,"10":6047,"pleas":6048,"tische</w>":6049,"erfül":6050,"Rechn":6051,"beach</w>":6052,"Wah":6053,"holiday</w>":6054,"helpful</w>":6055,"stimmen</w>":6056,"mbH</w>":6057,"Prin":6058,"lies</w>":6059,"details</w>":6060,"popul":6061,"center</w>":6062,"Arbeitsp":6063,"Sin":6064,"eption</w>":6065,"hard</w>":6066,"April</w>":6067,"ef</w>":6068,"own":6069,"descri":6070,"ünsti":6071,"Tro":6072,"Inte":6073,"annten</w>":6074,"jedem</w>":6075,"structure</w>":6076,"ziert</w>":6077,"partner</w>":6078,"quick":6079,"Aufgabe</w>":6080,"pan":6081,"ame":6082,"mitt":6083,"ungs</w>":6084,"takes</w>":6085,"created</w>":6086,"trag":6087,"Geschichte</w>":6088,"sha":6089,"CA":6090,"Why</w>":6091,"uren</w>":6092,"vier</w>":6093,"congratul":6094,"mechan":6095,"mark":6096,"Cu":6097,"improve</w>":6098,"fün":6099,"unded</w>":6100,"history</w>":6101,"posed</w>":6102,"GmbH</w>":6103,"tical</w>":6104,"Gesellschaft</w>":6105,"unique</w>":6106,"kämp":6107,"Fern":6108,"atsächlich</w>":6109,"ld":6110,"pris":6111,"Anfrage</w>":6112,"weltweit</w>":6113,"completely</w>":6114,"ier":6115,"care":6116,"fair</w>":6117,"raum</w>":6118,"appropriate</w>":6119,"State</w>":6120,"negotiations</w>":6121,"game</w>":6122,"Secon":6123,"reform</w>":6124,"Klima":6125,"entsp":6126,"II</w>":6127,"manag":6128,"70</w>":6129,"verantwor":6130,"floor</w>":6131,"Click</w>":6132,"Whi":6133,"apply</w>":6134,"Mod":6135,"effizi":6136,"Presidency</w>":6137,"bra":6138,"choose</w>":6139,"eden</w>":6140,"ail</w>":6141,"simple</w>":6142,"moment</w>":6143,"exam":6144,"network</w>":6145,"Also</w>":6146,"offen":6147,"gab</w>":6148,"Mitarbeiter</w>":6149,"hy":6150,"äußer":6151,"accommod":6152,"board</w>":6153,"gle</w>":6154,"dd":6155,"Reihe</w>":6156,"consider</w>":6157,"entwickelt</w>":6158,"vide":6159,"By</w>":6160,"Struk":6161,"Rechte</w>":6162,"Rates</w>":6163,"Kolleg":6164,"material</w>":6165,"entscheiden":6166,"Kat":6167,"Punkte</w>":6168,"remain</w>":6169,"gene</w>":6170,"back":6171,"samkeit</w>":6172,"ladies</w>":6173,"EA":6174,"haps</w>":6175,"xed</w>":6176,"versity</w>":6177,"download</w>":6178,"seite</w>":6179,"Tat":6180,"fal":6181,"event</w>":6182,"regar":6183,"idea</w>":6184,"abled</w>":6185,"bz":6186,"schä":6187,"tem</w>":6188,"aut</w>":6189,"seen</w>":6190,"shown</w>":6191,"Anwendung</w>":6192,"wählen</w>":6193,"Prä":6194,"English</w>":6195,"Bürger":6196,"developed</w>":6197,"Bra":6198,"ath":6199,"cen</w>":6200,"markets</w>":6201,"conf":6202,"minim":6203,"27</w>":6204,"tail</w>":6205,"var":6206,"democratic</w>":6207,"Partner</w>":6208,"ires</w>":6209,"standen</w>":6210,"sab":6211,"gleichen</w>":6212,"Finally</w>":6213,"ynam":6214,"14":6215,"sear":6216,"könnten</w>":6217,"efforts</w>":6218,"schließen</w>":6219,"Menschenrechte</w>":6220,"meinen</w>":6221,"pment</w>":6222,"ihrem</w>":6223,"indepen":6224,"Tri":6225,"procedure</w>":6226,"jede</w>":6227,"weiteren</w>":6228,"internationale</w>":6229,"heart</w>":6230,"peace</w>":6231,"displa":6232,"ctive</w>":6233,"timmen</w>":6234,"mean":6235,"regulation</w>":6236,"climate</w>":6237,"Jo":6238,"implementation</w>":6239,"fundamental</w>":6240,"frei</w>":6241,"ched</w>":6242,"recent</w>":6243,"ya</w>":6244,"note</w>":6245,"meet</w>":6246,"oc":6247,"Lösungen</w>":6248,"vic":6249,"Du</w>":6250,"eness</w>":6251,"altern":6252,"enthält</w>":6253,"wirkungen</w>":6254,"Web</w>":6255,"vo</w>":6256,"teten</w>":6257,"weder</w>":6258,"Han":6259,"Debian</w>":6260,"vielleicht</w>":6261,"bath":6262,"Welt":6263,"choice</w>":6264,"nection</w>":6265,"gelei":6266,"features</w>":6267,"Angebot</w>":6268,"aper</w>":6269,"Sam":6270,"Protokol":6271,"Fäl":6272,"mark</w>":6273,"pon":6274,"carri":6275,"eli":6276,"Zw":6277,"Blick</w>":6278,"satis":6279,"denken</w>":6280,"Dien":6281,"einzelnen</w>":6282,"Stell":6283,"Information</w>":6284,"sende</w>":6285,"fail":6286,"san":6287,"bzw</w>":6288,"tou":6289,"gesamten</w>":6290,"seinem</w>":6291,"actually</w>":6292,"Gemeinschaft</w>":6293,"Mis":6294,"Zi":6295,"ferenz</w>":6296,"equipped</w>":6297,"Nur</w>":6298,"acy</w>":6299,"verbunden</w>":6300,"human":6301,"Hol":6302,"almost</w>":6303,"absolu":6304,"istan</w>":6305,"Klicken</w>":6306,"obs</w>":6307,"upon</w>":6308,"below</w>":6309,"AG</w>":6310,"Many</w>":6311,"El":6312,"charge</w>":6313,"combin":6314,"mehrere</w>":6315,"crimin":6316,"Govern":6317,"actions</w>":6318,"rank":6319,"image</w>":6320,"denten</w>":6321,"richtung</w>":6322,"designed</w>":6323,"funden</w>":6324,"va</w>":6325,"Investi":6326,"amount</w>":6327,"ES":6328,"alitä":6329,"haltung</w>":6330,"gerichtet</w>":6331,"Linu":6332,"Pre":6333,"togra":6334,"ameri":6335,"authorities</w>":6336,"Server</w>":6337,"zlich</w>":6338,"ered</w>":6339,"package</w>":6340,"uses</w>":6341,"Lassen</w>":6342,"benötigen</w>":6343,"Verhandlungen</w>":6344,"Platz</w>":6345,"ativ</w>":6346,"geneh":6347,"server</w>":6348,"size</w>":6349,"final</w>":6350,"Benutzer</w>":6351,"liber":6352,"young</w>":6353,"innen":6354,"cking</w>":6355,"effect</w>":6356,"je</w>":6357,"sucht</w>":6358,"parts</w>":6359,"Spei":6360,"themselves</w>":6361,"tics</w>":6362,"writing</w>":6363,"oods</w>":6364,"soft</w>":6365,"quickly</w>":6366,"Since</w>":6367,"freedom</w>":6368,"gemeinsamen</w>":6369,"stin":6370,"La</w>":6371,"mentary</w>":6372,"Today</w>":6373,"ghout</w>":6374,"zurück</w>":6375,"verwenden</w>":6376,"öffnet</w>":6377,"outside</w>":6378,"added</w>":6379,"Vereinig":6380,"Entschließung</w>":6381,"unternehmen</w>":6382,"Dienstleistungen</w>":6383,"wenden</w>":6384,"programm</w>":6385,"existing</w>":6386,"extra</w>":6387,"situated</w>":6388,"verfahren</w>":6389,"unik":6390,"exper":6391,"Änderungen</w>":6392,"connection</w>":6393,"isches</w>":6394,"stellungen</w>":6395,"Dabei</w>":6396,"wirtschaftlichen</w>":6397,"Bezug</w>":6398,"interests</w>":6399,"gemä":6400,"rates</w>":6401,"rase</w>":6402,"direct</w>":6403,"sent</w>":6404,"ersch":6405,"Compu":6406,"Fl":6407,"ffe":6408,"reach</w>":6409,"she</w>":6410,"jen":6411,"Barcel":6412,"surro":6413,"received</w>":6414,"Auswahl</w>":6415,"Entscheidung</w>":6416,"race</w>":6417,"ection</w>":6418,"Gebiet</w>":6419,"Text</w>":6420,"handeln</w>":6421,"CD</w>":6422,"reich</w>":6423,"Amend":6424,"kleinen</w>":6425,"neg":6426,"Arch":6427,"schnit":6428,"UN":6429,"op</w>":6430,"harmon":6431,"Turkey</w>":6432,"guarantee</w>":6433,"beri":6434,"Lon":6435,"mitteln</w>":6436,"histor":6437,"Chi":6438,"2003</w>":6439,"Aktiv":6440,"tained</w>":6441,"Vis":6442,"along</w>":6443,"Austri":6444,"etc</w>":6445,"sustain":6446,"klu":6447,"Clu":6448,"developing</w>":6449,"lack</w>":6450,"Park":6451,"search</w>":6452,"werk</w>":6453,"Park</w>":6454,"Acc":6455,"apartment</w>":6456,"ref":6457,"stverständlich</w>":6458,"flä":6459,"First</w>":6460,"Abkommen</w>":6461,"speciali":6462,"ticle</w>":6463,"tax</w>":6464,"refle":6465,"Verwal":6466,"Grundlage</w>":6467,"beru":6468,"allows</w>":6469,"suit":6470,"communication</w>":6471,"geeig":6472,"glichen</w>":6473,"unseres</w>":6474,"cke</w>":6475,"Bevölk":6476,"wise</w>":6477,"lässt</w>":6478,"oring</w>":6479,"Gef":6480,"staat":6481,"griff</w>":6482,"Institutionen</w>":6483,"fordert</w>":6484,"wichtigen</w>":6485,"Projekt</w>":6486,"tions":6487,"regional</w>":6488,"grupp":6489,"ological</w>":6490,"determin":6491,"Guest</w>":6492,"Spezi":6493,"ada</w>":6494,"hätte</w>":6495,"professional</w>":6496,"Fest":6497,"Oc":6498,"illa</w>":6499,"parking</w>":6500,"2001</w>":6501,"RA":6502,"wand":6503,"erhö":6504,"double</w>":6505,"Direc":6506,"Tour":6507,"enor":6508,"Tage</w>":6509,"verein":6510,"statt":6511,"held</w>":6512,"confir":6513,"constitu":6514,"trägt</w>":6515,"sweise</w>":6516,"gl":6517,"pol":6518,"hotels</w>":6519,"äufi":6520,"Linux</w>":6521,"Ergebnisse</w>":6522,"treat":6523,"promise</w>":6524,"inen</w>":6525,"Türkei</w>":6526,"focus</w>":6527,"danke</w>":6528,"park</w>":6529,"cru":6530,"orrow</w>":6531,"schul":6532,"aware</w>":6533,"Förder":6534,"Krise</w>":6535,"tax":6536,"gesp":6537,"fish":6538,"add</w>":6539,"PC</w>":6540,"Sozial":6541,"mini":6542,"volle</w>":6543,"Protokoll</w>":6544,"Prior":6545,"lead</w>":6546,"Warum</w>":6547,"ana</w>":6548,"ept</w>":6549,"Natürlich</w>":6550,"Mitglieder</w>":6551,"arian</w>":6552,"mission</w>":6553,"enlar":6554,"Wieder":6555,"Erweiterung</w>":6556,"bour":6557,"gkeiten</w>":6558,"ics</w>":6559,"nehmen":6560,"Programme</w>":6561,"ämlich</w>":6562,"pati":6563,"Person</w>":6564,"transl":6565,"mals</w>":6566,"encoura":6567,"verfügen</w>":6568,"buffet</w>":6569,"kleine</w>":6570,"Dinge</w>":6571,"Meine</w>":6572,"schließend</w>":6573,"prakti":6574,"Herren</w>":6575,"everyone</w>":6576,"partners</w>":6577,"amendment</w>":6578,"wünschen</w>":6579,"Schla":6580,"funds</w>":6581,"investment</w>":6582,"ech</w>":6583,"mean</w>":6584,"einfa":6585,"keyword</w>":6586,"atisti":6587,"Kop":6588,"unge</w>":6589,"elling</w>":6590,"reports</w>":6591,"foreign</w>":6592,"berg</w>":6593,"bad</w>":6594,"stop</w>":6595,"music</w>":6596,"kehrs":6597,"Zur</w>":6598,"linien</w>":6599,"phrase</w>":6600,"sei</w>":6601,"inves":6602,"nämlich</w>":6603,"entire</w>":6604,"initiative</w>":6605,"Bar</w>":6606,"new":6607,"concern</w>":6608,"arbeitung</w>":6609,"ring":6610,"Beitrag</w>":6611,"airs</w>":6612,"civi":6613,"Frühstück</w>":6614,"fordern</w>":6615,"Zentrum</w>":6616,"eigene</w>":6617,"weis</w>":6618,"neu</w>":6619,"Tele":6620,"consul":6621,"Cour":6622,"28</w>":6623,"ganze</w>":6624,"Finanzi":6625,"successful</w>":6626,"beispiel":6627,"Gruppe</w>":6628,"Reser":6629,"rund</w>":6630,"esi":6631,"völlig</w>":6632,"values</w>":6633,"una</w>":6634,"angem":6635,"Wohn":6636,"Auswirkungen</w>":6637,"ker":6638,"aria</w>":6639,"Verbindung</w>":6640,"mal":6641,"five</w>":6642,"significant</w>":6643,"RO":6644,"Publi":6645,"integr":6646,"sieht</w>":6647,"early</w>":6648,"morgen</w>":6649,"later</w>":6650,"lik":6651,"Arbeit":6652,"vin":6653,"oom</w>":6654,"lässi":6655,"Dann</w>":6656,"dap":6657,"Mal</w>":6658,"door</w>":6659,"schle":6660,"CH":6661,"Mob":6662,"wesent":6663,"ton":6664,"job</w>":6665,"hatten</w>":6666,"Verk":6667,"Script</w>":6668,"throughout</w>":6669,"schluss</w>":6670,"vorzu":6671,"aufgenommen</w>":6672,"zweite</w>":6673,"education</w>":6674,"asked</w>":6675,"France</w>":6676,"atmosp":6677,"verti":6678,"darum</w>":6679,"Gäste</w>":6680,"expen":6681,"ligh":6682,"Era":6683,"Blo":6684,"demon":6685,"Heute</w>":6686,"San":6687,"follow</w>":6688,"Design</w>":6689,"wichtigsten</w>":6690,"auses</w>":6691,"Portu":6692,"speak</w>":6693,"achieved</w>":6694,"Jahrhunder":6695,"MA":6696,"ermöglicht</w>":6697,"formen</w>":6698,"gangen</w>":6699,"Umwelt":6700,"easily</w>":6701,"basic</w>":6702,"häre</w>":6703,"Netz":6704,"Plan":6705,"living</w>":6706,"troffen</w>":6707,"eps</w>":6708,"gesamt</w>":6709,"besu":6710,"run":6711,"link</w>":6712,"erlau":6713,"wunder":6714,"Spiel</w>":6715,"adi":6716,"Veranst":6717,"90</w>":6718,"atory</w>":6719,"licht</w>":6720,"gust</w>":6721,"Sie":6722,"computer</w>":6723,"Verf":6724,"Glob":6725,"amera</w>":6726,"knowledge</w>":6727,"Gele":6728,"seems</w>":6729,"Damen</w>":6730,"Woche</w>":6731,"gegenwär":6732,"dro":6733,"daten</w>":6734,"temp":6735,"dest</w>":6736,"Innov":6737,"camp":6738,"met</w>":6739,"tomorrow</w>":6740,"Adres":6741,"Paris</w>":6742,"decisions</w>":6743,"anten</w>":6744,"Preise</w>":6745,"gei":6746,"guten</w>":6747,"front</w>":6748,"Schwei":6749,"gnisse</w>":6750,"aktivi":6751,"shows</w>":6752,"bedingungen</w>":6753,"EN":6754,"Risi":6755,"Red</w>":6756,"applications</w>":6757,"welt":6758,"inner</w>":6759,"Agen":6760,"item</w>":6761,"original</w>":6762,"Einsatz</w>":6763,"eb</w>":6764,"stei":6765,"performance</w>":6766,"committee</w>":6767,"comb":6768,"Team</w>":6769,"ebru":6770,"jedes</w>":6771,"rest</w>":6772,"dentschaft</w>":6773,"schü":6774,"noti":6775,"lux":6776,"IS</w>":6777,"genau":6778,"Gri":6779,"Pat":6780,"jobs</w>":6781,"coordin":6782,"includes</w>":6783,"anz</w>":6784,"sache</w>":6785,"practice</w>":6786,"colleag":6787,"Binnen":6788,"top":6789,"ieten</w>":6790,"votes</w>":6791,"35</w>":6792,"purch":6793,"Barcelona</w>":6794,"across</w>":6795,"Dol":6796,"scre":6797,"gessen</w>":6798,"cla":6799,"Haf":6800,"wendung</w>":6801,"majority</w>":6802,"rench</w>":6803,"len":6804,"Ukra":6805,"avo":6806,"sense</w>":6807,"IP</w>":6808,"Partner":6809,"regions</w>":6810,"ators</w>":6811,"zone</w>":6812,"Bus":6813,"lte</w>":6814,"plann":6815,"Net":6816,"schriften</w>":6817,"Vertrau":6818,"Bank</w>":6819,"vir":6820,"August</w>":6821,"don":6822,"latest</w>":6823,"Office</w>":6824,"ahn</w>":6825,"direction</w>":6826,"Febru":6827,"vorsch":6828,"Only</w>":6829,"grammati":6830,"reibung</w>":6831,"constru":6832,"Israel</w>":6833,"walk</w>":6834,"acceptable</w>":6835,"stead</w>":6836,"Hotel":6837,"Behör":6838,"affung</w>":6839,"option</w>":6840,"wissen":6841,"remains</w>":6842,"Stre":6843,"gefunden</w>":6844,"pe</w>":6845,"lige</w>":6846,"verbin":6847,"emand</w>":6848,"beh":6849,"eries</w>":6850,"überzeu":6851,"sta</w>":6852,"Inn":6853,"gemeinsam</w>":6854,"Russland</w>":6855,"terror":6856,"happy</w>":6857,"Verbraucher</w>":6858,"stück":6859,"Einige</w>":6860,"accommodation</w>":6861,"bildung</w>":6862,"Viele</w>":6863,"my":6864,"thus</w>":6865,"urch</w>":6866,"America</w>":6867,"nien</w>":6868,"gesetz":6869,"wser</w>":6870,"perat":6871,"strategi":6872,"took</w>":6873,"ganzen</w>":6874,"Stat":6875,"zunehmen</w>":6876,"interess":6877,"Wahl</w>":6878,"media</w>":6879,"message</w>":6880,"built</w>":6881,"heißt</w>":6882,"limited</w>":6883,"300</w>":6884,"Pan":6885,"Bereichen</w>":6886,"eindeu":6887,"Beziehungen</w>":6888,"Ph":6889,"erwäh":6890,"nie</w>":6891,"zation</w>":6892,"according</w>":6893,"pleased</w>":6894,"Mic":6895,"disku":6896,"angezeigt</w>":6897,"model</w>":6898,"tnis":6899,"fähigkeit</w>":6900,"Sitzung</w>":6901,"Plat":6902,"smo":6903,"ams</w>":6904,"benefit</w>":6905,"bit</w>":6906,"Soli":6907,"super":6908,"tol":6909,"Somm":6910,"Stabili":6911,"meinem</w>":6912,"equipment</w>":6913,"bein":6914,"sich":6915,"rable</w>":6916,"26</w>":6917,"verur":6918,"stag</w>":6919,"Amster":6920,"instal":6921,"Ferien":6922,"euro</w>":6923,"Kontrolle</w>":6924,"angebo":6925,"stage</w>":6926,"Kolleginnen</w>":6927,"29</w>":6928,"gehören</w>":6929,"App":6930,"Einf":6931,"zer</w>":6932,"Abgeordneten</w>":6933,"ey":6934,"Rat":6935,"restri":6936,"Nutz":6937,"Lux":6938,"wech":6939,"dor":6940,"zes</w>":6941,"Bestimm":6942,"konnte</w>":6943,"thre":6944,"context</w>":6945,"Wert</w>":6946,"fest</w>":6947,"integri":6948,"dient</w>":6949,"French</w>":6950,"community</w>":6951,"Mas":6952,"Themen</w>":6953,"Ist</w>":6954,"dienen</w>":6955,"wirtschaftliche</w>":6956,"sting</w>":6957,"relations</w>":6958,"Fehler</w>":6959,"schriftlich</w>":6960,"unds</w>":6961,"ple</w>":6962,"erheb":6963,"bedeut":6964,"indem</w>":6965,"ternal</w>":6966,"style</w>":6967,"cro":6968,"tively</w>":6969,"arin</w>":6970,"May</w>":6971,"leading</w>":6972,"großer</w>":6973,"Hö":6974,"hinzu":6975,"oppel":6976,"gangenen</w>":6977,"fassen</w>":6978,"länder</w>":6979,"Pf":6980,"ss":6981,"chtens</w>":6982,"Lisbon</w>":6983,"Hoch":6984,"unabhängi":6985,"lier</w>":6986,"century</w>":6987,"priority</w>":6988,"ba</w>":6989,"fs":6990,"sm</w>":6991,"remo":6992,"Stunden</w>":6993,"viously</w>":6994,"2002</w>":6995,"stable</w>":6996,"stances</w>":6997,"Rec":6998,"hoben</w>":6999,"map</w>":7000,"lok":7001,"consequ":7002,"Spain</w>":7003,"bezüglich</w>":7004,"gesprochen</w>":7005,"häufi":7006,"Site</w>":7007,"regarding</w>":7008,"gte</w>":7009,"sitting</w>":7010,"graphi":7011,"ebenso</w>":7012,"enable</w>":7013,"spräsi":7014,"Fischer":7015,"derung</w>":7016,"Personal</w>":7017,"garan":7018,"Inde":7019,"ürf":7020,"gefähr":7021,"Flugha":7022,"bestä":7023,"ually</w>":7024,"geändert</w>":7025,"section</w>":7026,"Wal":7027,"Tim":7028,"thermore</w>":7029,"commer":7030,"Cent":7031,"gliche</w>":7032,"function</w>":7033,"interesting</w>":7034,"Kö":7035,"jour":7036,"offi":7037,"Erachtens</w>":7038,"demand</w>":7039,"atmosphere</w>":7040,"nachhal":7041,"Natur":7042,"Materi":7043,"45</w>":7044,"Aller":7045,"erc":7046,"Java":7047,"matters</w>":7048,"mein</w>":7049,"sorgen</w>":7050,"guarante":7051,"Sprache</w>":7052,"Muse":7053,"itali":7054,"Cre":7055,"Kredi":7056,"äußerst</w>":7057,"gieren</w>":7058,"kosten</w>":7059,"Werk":7060,"wat":7061,"concerning</w>":7062,"leicht</w>":7063,"31</w>":7064,"Del":7065,"impact</w>":7066,"employe":7067,"sozialen</w>":7068,"develop</w>":7069,"ond</w>":7070,"return</w>":7071,"Formu":7072,"NA":7073,"belieb":7074,"cket</w>":7075,"London</w>":7076,"vent":7077,"objectives</w>":7078,"objective</w>":7079,"turen</w>":7080,"changed</w>":7081,"Bilder</w>":7082,"process":7083,"cy":7084,"credit</w>":7085,"quo":7086,"Liber":7087,"echti":7088,"vig":7089,"Wasser":7090,"corpor":7091,"leider</w>":7092,"states</w>":7093,"klicken</w>":7094,"acks</w>":7095,"hold</w>":7096,"cts</w>":7097,"manufactur":7098,"Umgebung</w>":7099,"mas":7100,"anien</w>":7101,"Fer":7102,"Lissab":7103,"Slo":7104,"Transpar":7105,"travel</w>":7106,"gül":7107,"ausgestattet</w>":7108,"aim</w>":7109,"ban</w>":7110,"satz":7111,"Bewer":7112,"letzt</w>":7113,"aches</w>":7114,"grundle":7115,"Bur":7116,"agreements</w>":7117,"suffici":7118,"Zweitens</w>":7119,"diglich</w>":7120,"erst":7121,"Ir":7122,"programmes</w>":7123,"eover</w>":7124,"shop</w>":7125,"Erfahrung</w>":7126,"Fortschritte</w>":7127,"conflic":7128,"ction":7129,"wichtiger</w>":7130,"erkenn":7131,"innovative</w>":7132,"JavaScript</w>":7133,"elli":7134,"ania</w>":7135,"potential</w>":7136,"joint</w>":7137,"Karte</w>":7138,"SA":7139,"The":7140,"sag":7141,"anderer</w>":7142,"cas":7143,"traditional</w>":7144,"hes</w>":7145,"My":7146,"party</w>":7147,"capital</w>":7148,"verbessern</w>":7149,"ländern</w>":7150,"tin</w>":7151,"bestehen</w>":7152,"mous</w>":7153,"ose</w>":7154,"karte</w>":7155,"riften</w>":7156,"Prozess</w>":7157,"hervorra":7158,"Iran</w>":7159,"frü":7160,"vels</w>":7161,"Gebäu":7162,"increased</w>":7163,"Wettbewerbs":7164,"relevant</w>":7165,"response</w>":7166,"weg</w>":7167,"begrüße</w>":7168,"Verpfli":7169,"Trans":7170,"June</w>":7171,"ama</w>":7172,"construction</w>":7173,"conveni":7174,"gste</w>":7175,"fran":7176,"kurz</w>":7177,"reno":7178,"supported</w>":7179,"Gesetz":7180,"integration</w>":7181,"langen</w>":7182,"eks</w>":7183,"Aufmerk":7184,"ski</w>":7185,"menten</w>":7186,"ungsp":7187,"mäßig</w>":7188,"complex</w>":7189,"för":7190,"abzu":7191,"comments</w>":7192,"fit":7193,"Swi":7194,"Kommissarin</w>":7195,"angenommen</w>":7196,"Micro":7197,"Nutzung</w>":7198,"preci":7199,"Chan":7200,"wil":7201,"absol":7202,"leave</w>":7203,"Küche</w>":7204,"Markt":7205,"requires</w>":7206,"haup":7207,"freuen</w>":7208,"Regionen</w>":7209,"beispielsweise</w>":7210,"Auff":7211,"Dateien</w>":7212,"dialogue</w>":7213,"klar":7214,"med</w>":7215,"Den</w>":7216,"airport</w>":7217,"Minutes</w>":7218,"Außen":7219,"Forschung</w>":7220,"office</w>":7221,"sches</w>":7222,"nissen</w>":7223,"defini":7224,"hor":7225,"uri":7226,"fight</w>":7227,"Are</w>":7228,"Western</w>":7229,"beginning</w>":7230,"agricultural</w>":7231,"nö":7232,"your":7233,"associ":7234,"orien</w>":7235,"Unternehmen":7236,"Steuer":7237,"gst</w>":7238,"sett":7239,"Fle":7240,"erwarten</w>":7241,"cell":7242,"Zeitpunkt</w>":7243,"Then</w>":7244,"Geh":7245,"previous</w>":7246,"indeed</w>":7247,"richtungen</w>":7248,"Management</w>":7249,"oblig":7250,"gesamte</w>":7251,"ination</w>":7252,"sters</w>":7253,"Anzahl</w>":7254,"Datei</w>":7255,"Erklärung</w>":7256,"places</w>":7257,"prepared</w>":7258,"genießen</w>":7259,"Nun</w>":7260,"sugges":7261,"vorschriften</w>":7262,"Autom":7263,"1999</w>":7264,"Aufmerksamkeit</w>":7265,"Hand</w>":7266,"compar":7267,"opping</w>":7268,"ks":7269,"ony":7270,"Amsterdam</w>":7271,"stic</w>":7272,"established</w>":7273,"teili":7274,"enlargement</w>":7275,"Wer</w>":7276,"photo</w>":7277,"types</w>":7278,"Sache</w>":7279,"American</w>":7280,"günsti":7281,"Cli":7282,"kultur":7283,"popu":7284,"bisher</w>":7285,"verfügbar</w>":7286,"tool</w>":7287,"ER</w>":7288,"aim":7289,"rea":7290,"higher</w>":7291,"rist":7292,"sofort</w>":7293,"Anfang</w>":7294,"Solidar":7295,"verstehen</w>":7296,"reached</w>":7297,"congratulate</w>":7298,"richtige</w>":7299,"treatment</w>":7300,"ddle</w>":7301,"efficient</w>":7302,"summer</w>":7303,"bauen</w>":7304,"zieren</w>":7305,"news</w>":7306,"highly</w>":7307,"Each</w>":7308,"gres":7309,"lediglich</w>":7310,"Schließ":7311,"solchen</w>":7312,"Secondly</w>":7313,"Bevölkerung</w>":7314,"Gesam":7315,"subsi":7316,"Ukraine</w>":7317,"Cop":7318,"Verbesserung</w>":7319,"Ok":7320,"erfolgt</w>":7321,"opportunities</w>":7322,"ils</w>":7323,"sicherheit</w>":7324,"übri":7325,"Court</w>":7326,"discussion</w>":7327,"simil":7328,"require</w>":7329,"consumers</w>":7330,"New":7331,"Fach":7332,"Gelegenheit</w>":7333,"folgenden</w>":7334,"balance</w>":7335,"ette</w>":7336,"compre":7337,"agreed</w>":7338,"sterrei":7339,"auber":7340,"distribution</w>":7341,"Gewal":7342,"Wissen":7343,"October</w>":7344,"San</w>":7345,"Urlaub</w>":7346,"Ober":7347,"DV":7348,"More</w>":7349,"sian</w>":7350,"alisation</w>":7351,"Metho":7352,"atic</w>":7353,"oben</w>":7354,"gives</w>":7355,"statement</w>":7356,"addres":7357,"min</w>":7358,"verhin":7359,"möglichkeiten</w>":7360,"dynam":7361,"Beifall</w>":7362,"influ":7363,"ay</w>":7364,"mm</w>":7365,"Furthermore</w>":7366,"hed</w>":7367,"aufgrund</w>":7368,"gal</w>":7369,"Voraus":7370,"Tagesordnung</w>":7371,"City</w>":7372,"Dev":7373,"Japan</w>":7374,"Hal":7375,"apartments</w>":7376,"quiet</w>":7377,"entwickeln</w>":7378,"kaufen</w>":7379,"Tab":7380,"compromise</w>":7381,"prov":7382,"ergi":7383,"terran":7384,"elen</w>":7385,"benutzt</w>":7386,"Tu":7387,"stration</w>":7388,"Lissabon</w>":7389,"obser":7390,"payment</w>":7391,"lesen</w>":7392,"ror</w>":7393,"sibilities</w>":7394,"fünf</w>":7395,"chter</w>":7396,"Koso":7397,"aktuellen</w>":7398,"Allerdings</w>":7399,"digung</w>":7400,"kann":7401,"Bestell":7402,"Arbeitsplä":7403,"Mai</w>":7404,"PH":7405,"Vertra":7406,"feld</w>":7407,"zufri":7408,"Dialog</w>":7409,"gehend</w>":7410,"tradition":7411,"zip</w>":7412,"Verwendung</w>":7413,"restaurants</w>":7414,"versuchen</w>":7415,"xis</w>":7416,"setzungen</w>":7417,"inc":7418,"weis":7419,"plause</w>":7420,"Aktivitäten</w>":7421,"aspects</w>":7422,"safe</w>":7423,"presented</w>":7424,"humanit":7425,"Vereinigten</w>":7426,"Stelle</w>":7427,"Bild":7428,"Government</w>":7429,"kei":7430,"task</w>":7431,"behind</w>":7432,"kein":7433,"stark</w>":7434,"OR":7435,"tell</w>":7436,"sustainable</w>":7437,"fig":7438,"Dazu</w>":7439,"Jetzt</w>":7440,"gelten</w>":7441,"religi":7442,"organisi":7443,"agenda</w>":7444,"Mul":7445,"außerdem</w>":7446,"compli":7447,"hostels</w>":7448,"learn</w>":7449,"Download</w>":7450,"tiger</w>":7451,"sieren</w>":7452,"mobi":7453,"Nieder":7454,"zunächst</w>":7455,"terien</w>":7456,"ano</w>":7457,"appoin":7458,"commitment</w>":7459,"ager</w>":7460,"comprehen":7461,"ored</w>":7462,"Unfortunately</w>":7463,"braucht</w>":7464,"Familie</w>":7465,"OS</w>":7466,"17":7467,"Eing":7468,"Ham":7469,"schutz":7470,"Entschließungsan":7471,"zahlreiche</w>":7472,"sound</w>":7473,"empfeh":7474,"thanks</w>":7475,"Anforderungen</w>":7476,"sul":7477,"Gerä":7478,"rieren</w>":7479,"Bü":7480,"See</w>":7481,"Kommunik":7482,"beschäf":7483,"Projekte</w>":7484,"larger</w>":7485,"draw</w>":7486,"video</w>":7487,"options</w>":7488,"getan</w>":7489,"intel":7490,"Behörden</w>":7491,"dow</w>":7492,"talk</w>":7493,"zös":7494,"Wasser</w>":7495,"Führ":7496,"uss":7497,"allowed</w>":7498,"box</w>":7499,"acity</w>":7500,"organiz":7501,"materials</w>":7502,"Öffent":7503,"Ander":7504,"document</w>":7505,"workers</w>":7506,"rieben</w>":7507,"lag":7508,"Bul":7509,"Room</w>":7510,"astrop":7511,"einzige</w>":7512,"Mitglied</w>":7513,"population</w>":7514,"legi":7515,"91</w>":7516,"unsch</w>":7517,"lernen</w>":7518,"Ausdruck</w>":7519,"spruch</w>":7520,"charged</w>":7521,"mobili":7522,"voting</w>":7523,"St</w>":7524,"Jahres</w>":7525,"Umwelt</w>":7526,"ery</w>":7527,"tle</w>":7528,"argu":7529,"auen</w>":7530,"traff":7531,"shor":7532,"chec":7533,"plant</w>":7534,"zieht</w>":7535,"zz":7536,"erweiter":7537,"levels</w>":7538,"presents</w>":7539,"Bemerk":7540,"onnen</w>":7541,"rechts":7542,"PD":7543,"Can</w>":7544,"hören</w>":7545,"Auto":7546,"bringt</w>":7547,"Strand</w>":7548,"Initiative</w>":7549,"Vo":7550,"verkehr</w>":7551,"recogni":7552,"base</w>":7553,"cut</w>":7554,"urg":7555,"utely</w>":7556,"variety</w>":7557,"elek":7558,"Not</w>":7559,"quis</w>":7560,"vehi":7561,"Hostels":7562,"spezif":7563,"radi":7564,"ausgezeich":7565,"archit":7566,"Hostelsclub</w>":7567,"ante</w>":7568,"fik":7569,"ti</w>":7570,"verstär":7571,"started</w>":7572,"bathroom</w>":7573,"repe":7574,"hohe</w>":7575,"expect</w>":7576,"Angelegenheit</w>":7577,"kür":7578,"dep":7579,"tik</w>":7580,"ähn":7581,"presi":7582,"Vie":7583,"got</w>":7584,"menu</w>":7585,"goes</w>":7586,"goods</w>":7587,"ciples</w>":7588,"grenz":7589,"Natur</w>":7590,"Vereinbar":7591,"Fak":7592,"placed</w>":7593,"source</w>":7594,"gemäß</w>":7595,"Star":7596,"beds</w>":7597,"ähri":7598,"Prü":7599,"Gipf":7600,"ME":7601,"fit</w>":7602,"immediately</w>":7603,"tatsächlich</w>":7604,"ental</w>":7605,"Gründen</w>":7606,"Span":7607,"email</w>":7608,"teria</w>":7609,"Fried":7610,"chert</w>":7611,"Behand":7612,"evi":7613,"yourself</w>":7614,"sletter</w>":7615,"Central</w>":7616,"visit":7617,"eigentlich</w>":7618,"Wahr":7619,"Position</w>":7620,"ourselves</w>":7621,"fallen</w>":7622,"Vertre":7623,"Hinblick</w>":7624,"Diskussion</w>":7625,"Sum":7626,"setting</w>":7627,"konzent":7628,"Leider</w>":7629,"Hinter":7630,"Welche</w>":7631,"Musik</w>":7632,"Goo":7633,"gebaut</w>":7634,"197":7635,"thern</w>":7636,"secure</w>":7637,"seits</w>":7638,"UN</w>":7639,"alling</w>":7640,"aufzu":7641,"supply</w>":7642,"bewus":7643,"beste</w>":7644,"teu":7645,"Lauf":7646,"Wäh":7647,"Zun":7648,"anno":7649,"gelö":7650,"Schlüs":7651,"gol":7652,"amerikan":7653,"employees</w>":7654,"Transparenz</w>":7655,"Amendment</w>":7656,"Mil":7657,"Kompromis":7658,"Förderung</w>":7659,"Tä":7660,"alisiert</w>":7661,"Balk":7662,"Son":7663,"Techni":7664,"Eigen":7665,"Nr</w>":7666,"irgend":7667,"pli":7668,"Verordnung</w>":7669,"lief":7670,"fru":7671,"written</w>":7672,"erster</w>":7673,"Kosovo</w>":7674,"who":7675,"Flughafen</w>":7676,"IC":7677,"tiveness</w>":7678,"Minister</w>":7679,"roati":7680,"angeneh":7681,"TA":7682,"decken</w>":7683,"terin</w>":7684,"siehe</w>":7685,"erinn":7686,"schutz</w>":7687,"behalten</w>":7688,"jenigen</w>":7689,"amen":7690,"meines</w>":7691,"anner</w>":7692,"Even</w>":7693,"Konzep":7694,"vali":7695,"behalf</w>":7696,"Koh":7697,"mbo":7698,"automatisch</w>":7699,"Wettbewerb</w>":7700,"tary</w>":7701,"reques":7702,"jähri":7703,"Masch":7704,"Swe":7705,"ished</w>":7706,"Produkt</w>":7707,"Club</w>":7708,"useful</w>":7709,"relax":7710,"behandelt</w>":7711,"correct</w>":7712,"Ged":7713,"tish</w>":7714,"wiss</w>":7715,"Terror":7716,"Kultur</w>":7717,"ologies</w>":7718,"property</w>":7719,"challenge</w>":7720,"Män":7721,"zt</w>":7722,"erkennen</w>":7723,"usses</w>":7724,"documents</w>":7725,"bru":7726,"carried</w>":7727,"Standpunkt</w>":7728,"fügen</w>":7729,"marks</w>":7730,"tempor":7731,"Business</w>":7732,"Sen":7733,"Very</w>":7734,"impres":7735,"Nicht</w>":7736,"Bon":7737,"compon":7738,"thy</w>":7739,"bedingt</w>":7740,"ssi":7741,"nehm":7742,"Mark":7743,"Juni</w>":7744,"independent</w>":7745,"mobile</w>":7746,"ckets</w>":7747,"steller</w>":7748,"consumer</w>":7749,"bestimmte</w>":7750,"haus</w>":7751,"friends</w>":7752,"Wachstum</w>":7753,"stung</w>":7754,"nuclear</w>":7755,"military</w>":7756,"verse</w>":7757,"ategorien</w>":7758,"Ques":7759,"Services</w>":7760,"ills</w>":7761,"principles</w>":7762,"zeuge</w>":7763,"Atmosp":7764,"Ihres</w>":7765,"mension</w>":7766,"Ausschuss</w>":7767,"paar</w>":7768,"Aufenthalt</w>":7769,"scienti":7770,"sätze</w>":7771,"During</w>":7772,"recently</w>":7773,"Bad</w>":7774,"soziale</w>":7775,"solidar":7776,"covered</w>":7777,"Energie</w>":7778,"categories</w>":7779,"fair":7780,"migration</w>":7781,"Geor":7782,"selection</w>":7783,"South</w>":7784,"Notwen":7785,"Frankreich</w>":7786,"steps</w>":7787,"conference</w>":7788,"ldwide</w>":7789,"sent":7790,"Ven":7791,"external</w>":7792,"exchange</w>":7793,"cles</w>":7794,"haupt</w>":7795,"01</w>":7796,"parlia":7797,"smus</w>":7798,"Entscheidungen</w>":7799,"gten</w>":7800,"round</w>":7801,"allein</w>":7802,"gas</w>":7803,"arran":7804,"Africa</w>":7805,"fördern</w>":7806,"reifen</w>":7807,"Ori":7808,"considered</w>":7809,"slo":7810,"Meer</w>":7811,"yl":7812,"93</w>":7813,"tenden</w>":7814,"prevent</w>":7815,"exhi":7816,"expla":7817,"freien</w>":7818,"Moreover</w>":7819,"Erstens</w>":7820,"öhn":7821,"wider":7822,"popular</w>":7823,"Integration</w>":7824,"fis":7825,"ending</w>":7826,"grö":7827,"Sonn":7828,"wonder":7829,"sitz</w>":7830,"Analy":7831,"clients</w>":7832,"distance</w>":7833,"Bas":7834,"Altern":7835,"betre":7836,"Gesundheit</w>":7837,"ichts</w>":7838,"Red":7839,"installation</w>":7840,"system":7841,"wr":7842,"Veränder":7843,"Krank":7844,"pass</w>":7845,"tiven</w>":7846,"DS</w>":7847,"alone</w>":7848,"daily</w>":7849,"famous</w>":7850,"emis":7851,"reservation</w>":7852,"assess":7853,"hom":7854,"Kampf</w>":7855,"insgesamt</w>":7856,"pressure</w>":7857,"spiri":7858,"bevor</w>":7859,"astic</w>":7860,"transparency</w>":7861,"Mad":7862,"MS</w>":7863,"reduce</w>":7864,"Falls</w>":7865,"uß</w>":7866,"interested</w>":7867,"Zahl</w>":7868,"peten":7869,"Airport</w>":7870,"datab":7871,"samm":7872,"wurf</w>":7873,"status</w>":7874,"WTO</w>":7875,"prise</w>":7876,"maßnahmen</w>":7877,"Ress":7878,"nam":7879,"größte</w>":7880,"gelan":7881,"ault</w>":7882,"Inhalt</w>":7883,"prob":7884,"reality</w>":7885,"etzen</w>":7886,"verth":7887,"Konfli":7888,"capacity</w>":7889,"gleichzeitig</w>":7890,"union</w>":7891,"besteh":7892,"vergessen</w>":7893,"erous</w>":7894,"vertheless</w>":7895,"einzigar":7896,"zehn</w>":7897,"urs</w>":7898,"lösen</w>":7899,"lös":7900,"16":7901,"Angebo":7902,"äuß":7903,"32</w>":7904,"SQ":7905,"nommen</w>":7906,"später</w>":7907,"similar</w>":7908,"wid":7909,"crucial</w>":7910,"Imp":7911,"tools</w>":7912,"15":7913,"aling</w>":7914,"Vorschriften</w>":7915,"anything</w>":7916,"forderung</w>":7917,"quar":7918,"shops</w>":7919,"March</w>":7920,"Industrie</w>":7921,"rely</w>":7922,"trägen</w>":7923,"East</w>":7924,"accord":7925,"protect</w>":7926,"effects</w>":7927,"Its</w>":7928,"Villa</w>":7929,"Sho":7930,"dischen</w>":7931,"profi":7932,"cker</w>":7933,"regulations</w>":7934,"Über</w>":7935,"metr":7936,"scri":7937,"acts</w>":7938,"Raum</w>":7939,"Ku":7940,"therwise</w>":7941,"automatically</w>":7942,"challenges</w>":7943,"erzeu":7944,"funding</w>":7945,"plätze</w>":7946,"huge</w>":7947,"tisch</w>":7948,"folge</w>":7949,"recognis":7950,"sex":7951,"hinsichtlich</w>":7952,"Kunden":7953,"ourcen</w>":7954,"governments</w>":7955,"verstanden</w>":7956,"hohen</w>":7957,"prüft</w>":7958,"acious</w>":7959,"legislative</w>":7960,"Verkehrs":7961,"genug</w>":7962,"eval":7963,"fasst</w>":7964,"purpose</w>":7965,"Atmosphäre</w>":7966,"Ansatz</w>":7967,"availability</w>":7968,"session</w>":7969,"phy":7970,"rasse</w>":7971,"Applause</w>":7972,"const":7973,"perfe":7974,"warum</w>":7975,"illed</w>":7976,"December</w>":7977,"speed</w>":7978,"geleg":7979,"pite</w>":7980,"begrüßen</w>":7981,"Einw":7982,"fonds</w>":7983,"produced</w>":7984,"überhaupt</w>":7985,"Regierungen</w>":7986,"einhei":7987,"einfach":7988,"ermöglichen</w>":7989,"ring</w>":7990,"exac":7991,"ebs":7992,"proce":7993,"sions":7994,"Standard</w>":7995,"oni":7996,"fine</w>":7997,"absolutely</w>":7998,"accoun":7999,"Firma</w>":8000,"Restaurants</w>":8001,"Microsoft</w>":8002,"vorlie":8003,"ideas</w>":8004,"PS</w>":8005,"fän":8006,"rech":8007,"anders</w>":8008,"wanted</w>":8009,"Herzen</w>":8010,"Interessen</w>":8011,"erfolgreich</w>":8012,"LE":8013,"uring</w>":8014,"Bedürf":8015,"Rau":8016,"Regeln</w>":8017,"increasing</w>":8018,"loss</w>":8019,"geworden</w>":8020,"Sim":8021,"gers</w>":8022,"dule</w>":8023,"Vertrauen</w>":8024,"lten</w>":8025,"erstellt</w>":8026,"Tatsache</w>":8027,"perhaps</w>":8028,"lim":8029,"possibility</w>":8030,"instrument</w>":8031,"January</w>":8032,"Spieler</w>":8033,"Telef":8034,"Grenzen</w>":8035,"Hinsicht</w>":8036,"morning</w>":8037,"Ara":8038,"heben</w>":8039,"ball</w>":8040,"Systems</w>":8041,"eher</w>":8042,"durchgeführt</w>":8043,"Kir":8044,"figu":8045,"Computer</w>":8046,"paid</w>":8047,"Städ":8048,"frequ":8049,"Während</w>":8050,"Kern":8051,"kin":8052,"comfort</w>":8053,"Formular</w>":8054,"Center</w>":8055,"mann</w>":8056,"zustellen</w>":8057,"neigh":8058,"toren</w>":8059,"Les":8060,"produce</w>":8061,"ktieren</w>":8062,"butt":8063,"Handels":8064,"promote</w>":8065,"hou":8066,"hung</w>":8067,"syn":8068,"intensi":8069,"Funktion</w>":8070,"stability</w>":8071,"conduc":8072,"rought</w>":8073,"lossen":8074,"Adresse</w>":8075,"AS":8076,"ww":8077,"regu":8078,"wrong</w>":8079,"bestimmten</w>":8080,"Google</w>":8081,"Zimmer":8082,"Köni":8083,"Free</w>":8084,"Val":8085,"build</w>":8086,"Bec":8087,"kontrol":8088,"happen</w>":8089,"krä":8090,"Reform</w>":8091,"organisation</w>":8092,"Kredit":8093,"Ital":8094,"falt</w>":8095,"mming</w>":8096,"July</w>":8097,"Mom":8098,"ktiv</w>":8099,"partner":8100,"nationale</w>":8101,"highest</w>":8102,"tailed</w>":8103,"big":8104,"Handel</w>":8105,"Ka":8106,"plat":8107,"Produktion</w>":8108,"www</w>":8109,"decided</w>":8110,"sou":8111,"Sehr</w>":8112,"nungen</w>":8113,"six</w>":8114,"gewäh":8115,"alternative</w>":8116,"power":8117,"Dez":8118,"letzte</w>":8119,"assistance</w>":8120,"Informations":8121,"oph":8122,"eingesch":8123,"worldwide</w>":8124,"lauf</w>":8125,"train</w>":8126,"commercial</w>":8127,"ären</w>":8128,"ordini":8129,"Übernach":8130,"funktioniert</w>":8131,"zusetzen</w>":8132,"Apartments</w>":8133,"enheit</w>":8134,"images</w>":8135,"Flü":8136,"hne</w>":8137,"trit":8138,"präsen":8139,"contribution</w>":8140,"ca":8141,"ense</w>":8142,"vollständig</w>":8143,"lan</w>":8144,"alte</w>":8145,"zweiten</w>":8146,"vertrau":8147,"neben</w>":8148,"Tat</w>":8149,"cr":8150,"fs</w>":8151,"gender</w>":8152,"player</w>":8153,"testen</w>":8154,"ki":8155,"ized</w>":8156,"somit</w>":8157,"Best</w>":8158,"vements</w>":8159,"Italy</w>":8160,"mess":8161,"begin</w>":8162,"veröffent":8163,"rule</w>":8164,"Einführung</w>":8165,"IM":8166,"fres":8167,"Buch":8168,"ober":8169,"Agr":8170,"tenen</w>":8171,"sorg":8172,"establish":8173,"mag":8174,"zeug</w>":8175,"pun":8176,"eil</w>":8177,"gewöhn":8178,"Dor":8179,"border</w>":8180,"Zudem</w>":8181,"kennen</w>":8182,"lege</w>":8183,"lichkeiten</w>":8184,"implemented</w>":8185,"Gewalt</w>":8186,"stands</w>":8187,"Oktober</w>":8188,"stadt</w>":8189,"zeit":8190,"Organisation</w>":8191,"span":8192,"Most</w>":8193,"laufen</w>":8194,"Chr":8195,"eingesetzt</w>":8196,"post":8197,"jederzeit</w>":8198,"activity</w>":8199,"SQL</w>":8200,"cum":8201,"Notwendigkeit</w>":8202,"beantwor":8203,"appreci":8204,"poses</w>":8205,"maximum</w>":8206,"erseits</w>":8207,"minute</w>":8208,"Ca":8209,"Empfeh":8210,"nä":8211,"elles</w>":8212,"Präsidentschaft</w>":8213,"Devel":8214,"Überein":8215,"chtungen</w>":8216,"Portugal</w>":8217,"sales</w>":8218,"lash</w>":8219,"wiederhol":8220,"child</w>":8221,"plom":8222,"benefits</w>":8223,"terrace</w>":8224,"Pap":8225,"verty</w>":8226,"Berichts</w>":8227,"ly":8228,"dert</w>":8229,"bedau":8230,"talking</w>":8231,"gla":8232,"aben</w>":8233,"machine</w>":8234,"operating</w>":8235,"rene":8236,"Sup":8237,"Liefer":8238,"solidarity</w>":8239,"AL":8240,"applies</w>":8241,"Blu":8242,"Pho":8243,"tzdem</w>":8244,"vergangenen</w>":8245,"Schwieri":8246,"ange</w>":8247,"Stär":8248,"ätzlich</w>":8249,"ulation</w>":8250,"geschü":8251,"effort</w>":8252,"sufficient</w>":8253,"Camp":8254,"oil</w>":8255,"Folgen</w>":8256,"schieden</w>":8257,"sely</w>":8258,"taining</w>":8259,"Hostels</w>":8260,"Zentr":8261,"gem</w>":8262,"relation":8263,"Mehrheit</w>":8264,"Schaffung</w>":8265,"timmung</w>":8266,"sprün":8267,"Wirk":8268,"Webseite</w>":8269,"practical</w>":8270,"ativ":8271,"chem":8272,"Spanien</w>":8273,"has":8274,"unch</w>":8275,"Installation</w>":8276,"LAN</w>":8277,"sports</w>":8278,"zuletzt</w>":8279,"weeks</w>":8280,"class</w>":8281,"drücklich</w>":8282,"Just</w>":8283,"vollen</w>":8284,"annte</w>":8285,"ght":8286,"Dezember</w>":8287,"motion</w>":8288,"criteria</w>":8289,"ison</w>":8290,"fahrt</w>":8291,"persönlichen</w>":8292,"ausreich":8293,"joy</w>":8294,"Investitionen</w>":8295,"Soll":8296,"Bekämp":8297,"Besonder":8298,"Aff":8299,"offered</w>":8300,"strict</w>":8301,"ML</w>":8302,"Luft":8303,"Gruppen</w>":8304,"wissenschaf":8305,"Develop":8306,"hoch</w>":8307,"appear</w>":8308,"marquis</w>":8309,"Afgh":8310,"Ster":8311,"stets</w>":8312,"processes</w>":8313,"aries</w>":8314,"scheinlich</w>":8315,"Ratspräsi":8316,"Gest":8317,"Sil":8318,"effe":8319,"zeiten</w>":8320,"Gefahr</w>":8321,"überprüfen</w>":8322,"Produkt":8323,"bitten</w>":8324,"drive</w>":8325,"pal":8326,"ites</w>":8327,"ologien</w>":8328,"raised</w>":8329,"Foto</w>":8330,"erneut</w>":8331,"review</w>":8332,"efficiency</w>":8333,"Doppel":8334,"ik</w>":8335,"largest</w>":8336,"sets</w>":8337,"accepted</w>":8338,"British</w>":8339,"Austria</w>":8340,"erfahren</w>":8341,"Rahmen":8342,"Indeed</w>":8343,"konnten</w>":8344,"Gal":8345,"genannten</w>":8346,"gbarkeit</w>":8347,"nied":8348,"Insel</w>":8349,"isierung</w>":8350,"Schließlich</w>":8351,"größer":8352,"dated</w>":8353,"sus":8354,"announ":8355,"Every</w>":8356,"interpre":8357,"bio":8358,"gens</w>":8359,"growing</w>":8360,"neues</w>":8361,"reading</w>":8362,"Gesundheits":8363,"ce":8364,"Frühstück":8365,"comprehensive</w>":8366,"neuer</w>":8367,"Secu":8368,"Costa</w>":8369,"Bekämpfung</w>":8370,"ut</w>":8371,"island</w>":8372,"advantage</w>":8373,"ON</w>":8374,"Tagen</w>":8375,"suitable</w>":8376,"declar":8377,"benutzen</w>":8378,"Gei":8379,"reib":8380,"seln</w>":8381,"chem</w>":8382,"sitz":8383,"select</w>":8384,"verage</w>":8385,"transfer</w>":8386,"elements</w>":8387,"Fällen</w>":8388,"phone</w>":8389,"integrated</w>":8390,"gnis</w>":8391,"größten</w>":8392,"förder":8393,"emo":8394,"industrial</w>":8395,"hour</w>":8396,"great":8397,"greifen</w>":8398,"tlicher</w>":8399,"Privat":8400,"zen":8401,"wiesen</w>":8402,"conver":8403,"enced</w>":8404,"aktuelle</w>":8405,"fläche</w>":8406,"adequ":8407,"brought</w>":8408,"unbedingt</w>":8409,"bemü":8410,"languages</w>":8411,"digt</w>":8412,"steu":8413,"eingehen</w>":8414,"gesell":8415,"endet</w>":8416,"publik</w>":8417,"Gemeinschafts":8418,"pleasant</w>":8419,"berücksichtigt</w>":8420,"Bestimmungen</w>":8421,"Eig":8422,"aging</w>":8423,"Unter</w>":8424,"hinter</w>":8425,"passi":8426,"Geg":8427,"noon</w>":8428,"garden</w>":8429,"separate</w>":8430,"niedri":8431,"che":8432,"bequ":8433,"Kontakt</w>":8434,"sagte</w>":8435,"Agrar":8436,"beginnen</w>":8437,"minimum</w>":8438,"Wochen</w>":8439,"Oper":8440,"thin":8441,"doubt</w>":8442,"erwartet</w>":8443,"spacious</w>":8444,"Erei":8445,"befür":8446,"Berat":8447,"applied</w>":8448,"method</w>":8449,"ünf":8450,"fällt</w>":8451,"Will":8452,"altet</w>":8453,"seas":8454,"sels</w>":8455,"concept</w>":8456,"entsprechenden</w>":8457,"verm":8458,"reason":8459,"draft</w>":8460,"late</w>":8461,"zügi":8462,"character":8463,"school</w>":8464,"tter":8465,"jeweiligen</w>":8466,"procedures</w>":8467,"demonstr":8468,"bür":8469,"damage</w>":8470,"elections</w>":8471,"Yor":8472,"kostenlos</w>":8473,"Dom":8474,"statisti":8475,"legt</w>":8476,"ausschließlich</w>":8477,"less":8478,"ching</w>":8479,"geo":8480,"mention</w>":8481,"ile</w>":8482,"verantwortlich</w>":8483,"Opf":8484,"leben":8485,"entscheiden</w>":8486,"Hum":8487,"ea</w>":8488,"colleagues</w>":8489,"Joh":8490,"enster</w>":8491,"deten</w>":8492,"shopping</w>":8493,"gran":8494,"players</w>":8495,"Bulg":8496,"Jeder</w>":8497,"systeme</w>":8498,"yond</w>":8499,"construc":8500,"wenige</w>":8501,"Qualitä":8502,"zusätzliche</w>":8503,"Veranstal":8504,"rus</w>":8505,"eingerichtet</w>":8506,"fiel":8507,"ständigen</w>":8508,"Comp":8509,"curren":8510,"eindeutig</w>":8511,"star</w>":8512,"Ord":8513,"games</w>":8514,"ney</w>":8515,"etary</w>":8516,"Breakfast</w>":8517,"pursu":8518,"Landwirtschaft</w>":8519,"na</w>":8520,"persons</w>":8521,"classi":8522,"instruments</w>":8523,"gewährleisten</w>":8524,"warm</w>":8525,"starting</w>":8526,"gewün":8527,"Freiheit</w>":8528,"offizi":8529,"Kraft</w>":8530,"by":8531,"With":8532,"teien</w>":8533,"schöne</w>":8534,"Werte</w>":8535,"detailed</w>":8536,"übernehmen</w>":8537,"schönen</w>":8538,"Met":8539,"RO</w>":8540,"Such</w>":8541,"1998</w>":8542,"haf":8543,"creation</w>":8544,"series</w>":8545,"Belgi":8546,"supports</w>":8547,"dnis</w>":8548,"ktiven</w>":8549,"bahn":8550,"near":8551,"Bud":8552,"Ja</w>":8553,"Landes</w>":8554,"Herausforderungen</w>":8555,"Linie</w>":8556,"mut</w>":8557,"sigkeit</w>":8558,"ader</w>":8559,"gewis":8560,"flu":8561,"Studi":8562,"Aspekte</w>":8563,"violence</w>":8564,"Hel":8565,"verpf":8566,"certi":8567,"SS</w>":8568,"asse</w>":8569,"Bereiche</w>":8570,"RE":8571,"quare</w>":8572,"März</w>":8573,"release</w>":8574,"civil</w>":8575,"hoffen</w>":8576,"esten</w>":8577,"AC":8578,"electri":8579,"norm":8580,"Hy":8581,"loc":8582,"electron":8583,"Fel":8584,"Hung":8585,"adverti":8586,"terranean</w>":8587,"elten</w>":8588,"Sicht</w>":8589,"ena</w>":8590,"bedarf</w>":8591,"akzeptieren</w>":8592,"Tit":8593,"cent</w>":8594,"reise</w>":8595,"target</w>":8596,"exactly</w>":8597,"decide</w>":8598,"keits":8599,"Vergan":8600,"SE</w>":8601,"sin":8602,"Sat":8603,"tiges</w>":8604,"ros</w>":8605,"Bade":8606,"häufig</w>":8607,"Tag":8608,"dadurch</w>":8609,"Convention</w>":8610,"Volks":8611,"Schu":8612,"tau":8613,"attemp":8614,"genutzt</w>":8615,"Dennoch</w>":8616,"else</w>":8617,"Zunächst</w>":8618,"post</w>":8619,"erlaubt</w>":8620,"ley</w>":8621,"nor</w>":8622,"eph":8623,"ships</w>":8624,"DI":8625,"Once</w>":8626,"ella</w>":8627,"offen</w>":8628,"Untersu":8629,"Bemüh":8630,"selbstverständlich</w>":8631,"ented</w>":8632,"furnis":8633,"masch":8634,"Basis</w>":8635,"worten</w>":8636,"comment</w>":8637,"format</w>":8638,"selected</w>":8639,"Bahn":8640,"werk":8641,"Wunsch</w>":8642,"perman":8643,"recommend":8644,"gungen</w>":8645,"Grand</w>":8646,"equal</w>":8647,"infra":8648,"Tr":8649,"substan":8650,"PL</w>":8651,"consequences</w>":8652,"Pass":8653,"territ":8654,"evening</w>":8655,"balan":8656,"gic</w>":8657,"fields</w>":8658,"thought</w>":8659,"unmittel":8660,"transpor":8661,"feature</w>":8662,"entsprechend</w>":8663,"Erfahrungen</w>":8664,"Obje":8665,"probably</w>":8666,"uli</w>":8667,"primar":8668,"europäischer</w>":8669,"fangen</w>":8670,"erlei</w>":8671,"Video</w>":8672,"Denn</w>":8673,"Reg":8674,"gesellschaft</w>":8675,"tili":8676,"vertreten</w>":8677,"prozess</w>":8678,"jün":8679,"Nutzen</w>":8680,"ki</w>":8681,"beschrän":8682,"ßer</w>":8683,"auer</w>":8684,"Änderung</w>":8685,"official</w>":8686,"reicht</w>":8687,"System":8688,"werte</w>":8689,"Leute</w>":8690,"Nation":8691,"Rel":8692,"relation</w>":8693,"booking</w>":8694,"Wider":8695,"Links</w>":8696,"poverty</w>":8697,"Tor":8698,"respec":8699,"Irel":8700,"verpflich":8701,"sierung</w>":8702,"sensi":8703,"Rechtsvorschriften</w>":8704,"fant":8705,"endlich</w>":8706,"Interne":8707,"Well":8708,"walking</w>":8709,"Casino</w>":8710,"riffen</w>":8711,"abge":8712,"wirken</w>":8713,"Ireland</w>":8714,"movement</w>":8715,"mt</w>":8716,"Januar</w>":8717,"avoid</w>":8718,"leb":8719,"Stim":8720,"zudem</w>":8721,"ständige</w>":8722,"visitors</w>":8723,"Energi":8724,"Frankfur":8725,"caus":8726,"lives</w>":8727,"warten</w>":8728,"Besuch</w>":8729,"schreiben</w>":8730,"poor</w>":8731,"fixed</w>":8732,"basi":8733,"technischen</w>":8734,"Firstly</w>":8735,"innovation</w>":8736,"flexible</w>":8737,"undes":8738,"win</w>":8739,"Schritte</w>":8740,"timate</w>":8741,"event":8742,"französ":8743,"ka":8744,"erter</w>":8745,"arge</w>":8746,"audi":8747,"Pen":8748,"dete</w>":8749,"Weitere</w>":8750,"Kinder":8751,"37</w>":8752,"Cal":8753,"goal</w>":8754,"heard</w>":8755,"improved</w>":8756,"erfüllen</w>":8757,"Agenda</w>":8758,"heraus":8759,"dringend</w>":8760,"sal":8761,"published</w>":8762,"Inn</w>":8763,"öffentliche</w>":8764,"valu":8765,"Erklärungen</w>":8766,"sil":8767,"adul":8768,"dom</w>":8769,"buch</w>":8770,"stimme</w>":8771,"tigungs":8772,"modernen</w>":8773,"Berichterstatterin</w>":8774,"chance</w>":8775,"love</w>":8776,"bekämp":8777,"Bemühungen</w>":8778,"stes</w>":8779,"carry</w>":8780,"Form":8781,"month</w>":8782,"veau</w>":8783,"thous":8784,"delivery</w>":8785,"analysis</w>":8786,"indic":8787,"sub</w>":8788,"Kapit":8789,"utting</w>":8790,"Cl":8791,"billion</w>":8792,"gewesen</w>":8793,"Verfügbarkeit</w>":8794,"database</w>":8795,"Kör":8796,"Spa":8797,"PDF</w>":8798,"rechts</w>":8799,"legung</w>":8800,"verl":8801,"Inhalte</w>":8802,"rat</w>":8803,"destens</w>":8804,"nahe</w>":8805,"Jahres":8806,"rück":8807,"sinn":8808,"ries</w>":8809,"downlo":8810,"saying</w>":8811,"General</w>":8812,"Tem":8813,"Vergangenheit</w>":8814,"lost</w>":8815,"Eis":8816,"tabled</w>":8817,"kat":8818,"cards</w>":8819,"Druck</w>":8820,"PHP</w>":8821,"circum":8822,"Aufgaben</w>":8823,"decor":8824,"tac":8825,"beitragen</w>":8826,"afft</w>":8827,"Mediterranean</w>":8828,"herunter":8829,"recommend</w>":8830,"Solidarität</w>":8831,"provisions</w>":8832,"visi":8833,"ilome":8834,"alien</w>":8835,"1997</w>":8836,"Kommission":8837,"served</w>":8838,"wine</w>":8839,"Swiss</w>":8840,"fangrei":8841,"confidence</w>":8842,"Praxis</w>":8843,"tritts":8844,"rent</w>":8845,"wahrscheinlich</w>":8846,"bessere</w>":8847,"Auffassung</w>":8848,"save</w>":8849,"turned</w>":8850,"langfris":8851,"Sinne</w>":8852,"liefert</w>":8853,"tour</w>":8854,"vital</w>":8855,"orie</w>":8856,"ele</w>":8857,"Öffentlichkeit</w>":8858,"fun</w>":8859,"terrorism</w>":8860,"passen</w>":8861,"parte":8862,"operate</w>":8863,"Spanish</w>":8864,"mensch":8865,"suite</w>":8866,"chs":8867,"Afghan":8868,"busin":8869,"jähr":8870,"artige</w>":8871,"hätten</w>":8872,"kannst</w>":8873,"tations</w>":8874,"gekommen</w>":8875,"krise</w>":8876,"aded</w>":8877,"Macht</w>":8878,"richtigen</w>":8879,"expected</w>":8880,"Fort":8881,"discussed</w>":8882,"methods</w>":8883,"chmal</w>":8884,"titu":8885,"SP":8886,"engen</w>":8887,"Monaten</w>":8888,"berechti":8889,"express</w>":8890,"Gebäude</w>":8891,"Wa":8892,"cting</w>":8893,"ursprün":8894,"gelt</w>":8895,"ype</w>":8896,"temporary</w>":8897,"Code</w>":8898,"Funktionen</w>":8899,"Liz":8900,"freie</w>":8901,"erwähnt</w>":8902,"occa":8903,"tzer":8904,"Premi":8905,"beide</w>":8906,"Suche</w>":8907,"ash":8908,"abri":8909,"administra":8910,"Vorteile</w>":8911,"running</w>":8912,"ising</w>":8913,"undation</w>":8914,"stered</w>":8915,"Behandlung</w>":8916,"exist</w>":8917,"Erzeu":8918,"monitoring</w>":8919,"ically</w>":8920,"Pake":8921,"Arbeitsplätze</w>":8922,"Beschäftigung</w>":8923,"kers</w>":8924,"waste</w>":8925,"screen</w>":8926,"Gesprä":8927,"numerous</w>":8928,"Pak":8929,"kaum</w>":8930,"verwal":8931,"gagement</w>":8932,"meaning":8933,"Hause</w>":8934,"Sonder":8935,"genheiten</w>":8936,"discrimin":8937,"begrenz":8938,"Herausforderung</w>":8939,"schnitt</w>":8940,"enha":8941,"Fa":8942,"ktive</w>":8943,"spricht</w>":8944,"extra":8945,"fel</w>":8946,"sechs</w>":8947,"Juli</w>":8948,"stehenden</w>":8949,"creating</w>":8950,"zustimmen</w>":8951,"150</w>":8952,"GN":8953,"ode</w>":8954,"erfolgen</w>":8955,"York</w>":8956,"reception</w>":8957,"gleiche</w>":8958,"Wahl":8959,"Mün":8960,"worth</w>":8961,"Proc":8962,"Schwer":8963,"Freu":8964,"läuft</w>":8965,"DVD</w>":8966,"fla":8967,"worked</w>":8968,"priorities</w>":8969,"arrival</w>":8970,"approved</w>":8971,"gemü":8972,"protected</w>":8973,"09</w>":8974,"schwer":8975,"spei":8976,"cross</w>":8977,"aktiv</w>":8978,"technologies</w>":8979,"industrie</w>":8980,"National</w>":8981,"van</w>":8982,"schwer</w>":8983,"handen</w>":8984,"entsprechende</w>":8985,"Pas":8986,"client</w>":8987,"vorgeschla":8988,"utions</w>":8989,"North</w>":8990,"getting</w>":8991,"digital</w>":8992,"Geschäftsordnung</w>":8993,"Question</w>":8994,"Hoff":8995,"bab":8996,"disa":8997,"Hier":8998,"demands</w>":8999,"umb":9000,"Agent":9001,"sektor</w>":9002,"critic":9003,"Cap":9004,"wachsen":9005,"reference</w>":9006,"resi":9007,"Welcome</w>":9008,"swimming</w>":9009,"plans</w>":9010,"Book</w>":9011,"ID</w>":9012,"Vari":9013,"bran":9014,"conflict</w>":9015,"Kün":9016,"institution":9017,"Technologie</w>":9018,"ourable</w>":9019,"Geschä":9020,"ameter</w>":9021,"Get</w>":9022,"ester":9023,"ont</w>":9024,"cia</w>":9025,"Flexi":9026,"Lab":9027,"candi":9028,"Open</w>":9029,"instead</w>":9030,"Wohl":9031,"Ressourcen</w>":9032,"dagegen</w>":9033,"Republic</w>":9034,"Produc":9035,"gements</w>":9036,"join</w>":9037,"medium</w>":9038,"Fischerei":9039,"Reservi":9040,"teren</w>":9041,"umfangrei":9042,"eds</w>":9043,"buy</w>":9044,"cities</w>":9045,"geschehen</w>":9046,"button</w>":9047,"beyond</w>":9048,"advis":9049,"Speci":9050,"spiele</w>":9051,"spann":9052,"acces":9053,"Nachbar":9054,"giving</w>":9055,"adap":9056,"stä":9057,"farmers</w>":9058,"Sommer</w>":9059,"yright</w>":9060,"regards</w>":9061,"leistet</w>":9062,"benötigt</w>":9063,"pictures</w>":9064,"MP":9065,"tious</w>":9066,"Finanzierung</w>":9067,"physi":9068,"zeichen</w>":9069,"bereit":9070,"Reise":9071,"kurz":9072,"geeignet</w>":9073,"losigkeit</w>":9074,"normal</w>":9075,"Pun":9076,"dise":9077,"mindestens</w>":9078,"Museum</w>":9079,"finally</w>":9080,"sign</w>":9081,"07</w>":9082,"oo</w>":9083,"stelle</w>":9084,"Eng":9085,"fishing</w>":9086,"vorhanden</w>":9087,"hear</w>":9088,"study</w>":9089,"Italien</w>":9090,"ini</w>":9091,"tabel</w>":9092,"Verb":9093,"specific":9094,"film</w>":9095,"sometimes</w>":9096,"Yet</w>":9097,"zukünf":9098,"diar":9099,"gyp":9100,"Antrag</w>":9101,"transparent</w>":9102,"Kann</w>":9103,"stattung</w>":9104,"scho":9105,"sobald</w>":9106,"Begin":9107,"Wün":9108,"explo":9109,"losen</w>":9110,"functions</w>":9111,"She</w>":9112,"orienti":9113,"tier":9114,"village</w>":9115,"historic</w>":9116,"dic":9117,"Frühstücks":9118,"Produkten</w>":9119,"öße</w>":9120,"sprü":9121,"Selbst":9122,"Beru":9123,"Eff":9124,"zung</w>":9125,"erzielt</w>":9126,"bewusst</w>":9127,"providing</w>":9128,"picture</w>":9129,"esion</w>":9130,"Hig":9131,"muse":9132,"empfehlen</w>":9133,"Article</w>":9134,"zeichnung</w>":9135,"üb":9136,"Enjoy</w>":9137,"verbessert</w>":9138,"zahlt</w>":9139,"AN":9140,"De</w>":9141,"scope</w>":9142,"Beginn</w>":9143,"Schwierigkeiten</w>":9144,"wants</w>":9145,"beachten</w>":9146,"Konferenz</w>":9147,"verpflichtet</w>":9148,"grade</w>":9149,"08</w>":9150,"Abschließend</w>":9151,"Bildung</w>":9152,"aktivieren</w>":9153,"druck":9154,"gain</w>":9155,"Bürgern</w>":9156,"Meiner</w>":9157,"affected</w>":9158,"nungs":9159,"programs</w>":9160,"Cle":9161,"unten</w>":9162,"Christ":9163,"rein":9164,"196":9165,"weist</w>":9166,"natür":9167,"tnisse</w>":9168,"Chance</w>":9169,"digkeiten</w>":9170,"aged</w>":9171,"Flu":9172,"discuss</w>":9173,"anderes</w>":9174,"struktur</w>":9175,"winn":9176,"items</w>":9177,"implement</w>":9178,"Bestand":9179,"Rats":9180,"Österrei":9181,"brechen</w>":9182,"annual</w>":9183,"SE":9184,"Spa</w>":9185,"wonderful</w>":9186,"West</w>":9187,"trust</w>":9188,"vorgelegt</w>":9189,"Einrichtung</w>":9190,"labour</w>":9191,"lle</w>":9192,"usually</w>":9193,"appear":9194,"vac":9195,"sichten</w>":9196,"Italian</w>":9197,"heutigen</w>":9198,"opened</w>":9199,"gewiesen</w>":9200,"historical</w>":9201,"wünsche</w>":9202,"pping</w>":9203,"fr":9204,"sachen</w>":9205,"statements</w>":9206,"sla":9207,"geschaffen</w>":9208,"schützen</w>":9209,"Mand":9210,"although</w>":9211,"troff":9212,"laub":9213,"likely</w>":9214,"versucht</w>":9215,"ace":9216,"regre":9217,"gratu":9218,"giert</w>":9219,"Frieden</w>":9220,"ero</w>":9221,"vier":9222,"Termin":9223,"75</w>":9224,"Wol":9225,"zeichnen</w>":9226,"stress</w>":9227,"serve</w>":9228,"Staats":9229,"bilden</w>":9230,"Belar":9231,"Zustimmung</w>":9232,"Barro":9233,"preis</w>":9234,"install</w>":9235,"Because</w>":9236,"bahn</w>":9237,"influence</w>":9238,"Afghanistan</w>":9239,"Mer":9240,"die":9241,"Voll":9242,"ierung</w>":9243,"ular</w>":9244,"exerc":9245,"Präsidenten</w>":9246,"entry</w>":9247,"organisations</w>":9248,"cherung</w>":9249,"Mehr</w>":9250,"negative</w>":9251,"Kam":9252,"demokratischen</w>":9253,"elte</w>":9254,"degre":9255,"freue</w>":9256,"function":9257,"TI":9258,"lower</w>":9259,"Bundes":9260,"nächste</w>":9261,"erklärt</w>":9262,"iete</w>":9263,"graph":9264,"High</w>":9265,"proper</w>":9266,"Both</w>":9267,"Tou":9268,"kü":9269,"gutes</w>":9270,"sively</w>":9271,"institutional</w>":9272,"Schlaf":9273,"Haushalt</w>":9274,"Centre</w>":9275,"Bürgerinnen</w>":9276,"Ano":9277,"nali":9278,"dische</w>":9279,"accession</w>":9280,"Menschenrechts":9281,"Switzer":9282,"Private</w>":9283,"gerungen</w>":9284,"sorgung</w>":9285,"calls</w>":9286,"UR":9287,"serv":9288,"traum</w>":9289,"Ins":9290,"sun":9291,"stör":9292,"tival</w>":9293,"installed</w>":9294,"bestimmt</w>":9295,"Any</w>":9296,"getary</w>":9297,"sli":9298,"ravel</w>":9299,"Komfort</w>":9300,"Fes":9301,"isine</w>":9302,"proje":9303,"respond</w>":9304,"temperat":9305,"gelöst</w>":9306,"Every":9307,"ee</w>":9308,"umgesetzt</w>":9309,"Berichte</w>":9310,"Reformen</w>":9311,"angesprochen</w>":9312,"sagt</w>":9313,"fügt</w>":9314,"Systeme</w>":9315,"scap":9316,"Höhe</w>":9317,"verlässi":9318,"erhäl":9319,"Universi":9320,"Idee</w>":9321,"difference</w>":9322,"Wikit":9323,"Econ":9324,"campa":9325,"element</w>":9326,"Stadt":9327,"Palest":9328,"tages</w>":9329,"Wichti":9330,"craft</w>":9331,"gerecht</w>":9332,"mehreren</w>":9333,"developments</w>":9334,"überzeugt</w>":9335,"Republik</w>":9336,"eping</w>":9337,"moderne</w>":9338,"außerhalb</w>":9339,"reforms</w>":9340,"Kunst":9341,"Use</w>":9342,"entspricht</w>":9343,"engli":9344,"refer</w>":9345,"clean":9346,"Switzerland</w>":9347,"Kal":9348,"seh":9349,"wait</w>":9350,"Seh":9351,"Wikitravel</w>":9352,"geöffnet</w>":9353,"critical</w>":9354,"distin":9355,"strength":9356,"extensive</w>":9357,"Verfassung</w>":9358,"Archit":9359,"traffic</w>":9360,"expec":9361,"strengungen</w>":9362,"planning</w>":9363,"carefully</w>":9364,"head</w>":9365,"committed</w>":9366,"uner":9367,"Menge</w>":9368,"stoffe</w>":9369,"erfüllt</w>":9370,"plu":9371,"Exper":9372,"Rule</w>":9373,"Frankfurt</w>":9374,"cha":9375,"ises</w>":9376,"asks</w>":9377,"Auto</w>":9378,"Parteien</w>":9379,"nütz":9380,"currency</w>":9381,"rat":9382,"Conference</w>":9383,"Bewe":9384,"Econom":9385,"foo":9386,"allgemeinen</w>":9387,"enty</w>":9388,"barer</w>":9389,"overall</w>":9390,"happened</w>":9391,"xes</w>":9392,"Another</w>":9393,"ons":9394,"Armut</w>":9395,"bilität</w>":9396,"Instrument</w>":9397,"Bl":9398,"technische</w>":9399,"400</w>":9400,"Leg":9401,"rid</w>":9402,"emals</w>":9403,"tuell</w>":9404,"street</w>":9405,"geräum":9406,"Support</w>":9407,"Cha":9408,"wesentlich</w>":9409,"thaf":9410,"vermei":9411,"Sign":9412,"bett</w>":9413,"Mag":9414,"getroffen</w>":9415,"became</w>":9416,"strategic</w>":9417,"zufrieden</w>":9418,"SI":9419,"bition</w>":9420,"signed</w>":9421,"folgende</w>":9422,"bia</w>":9423,"Ren":9424,"behör":9425,"haft</w>":9426,"tar</w>":9427,"zig</w>":9428,"informieren</w>":9429,"Wahlen</w>":9430,"Hu":9431,"Hä":9432,"elegan":9433,"packages</w>":9434,"Roma</w>":9435,"lien</w>":9436,"heal":9437,"bereitet</w>":9438,"Quar":9439,"zö":9440,"hot</w>":9441,"Brü":9442,"tch</w>":9443,"Alb":9444,"ritan":9445,"circumstances</w>":9446,"Verhäl":9447,"offering</w>":9448,"rali":9449,"konta":9450,"Where</w>":9451,"fish</w>":9452,"Reak":9453,"derungen</w>":9454,"tot":9455,"klare</w>":9456,"emphas":9457,"excep":9458,"Nacht</w>":9459,"bir":9460,"erstellen</w>":9461,"klein":9462,"05</w>":9463,"sicherlich</w>":9464,"window</w>":9465,"mainly</w>":9466,"unterschiedliche</w>":9467,"ga</w>":9468,"treiben</w>":9469,"older</w>":9470,"zipi":9471,"verhindern</w>":9472,"säm":9473,"processing</w>":9474,"Pati":9475,"ruption</w>":9476,"Minder":9477,"unterschiedlichen</w>":9478,"initiatives</w>":9479,"update</w>":9480,"tari":9481,"Stimme</w>":9482,"paper</w>":9483,"verfolgen</w>":9484,"zentrale</w>":9485,"kostet</w>":9486,"ior</w>":9487,"ühr":9488,"businesses</w>":9489,"mand":9490,"tei</w>":9491,"reduction</w>":9492,"vorgeschlagen</w>":9493,"unacceptable</w>":9494,"Stabilität</w>":9495,"Nationen</w>":9496,"ead</w>":9497,"vill":9498,"trying</w>":9499,"Vielleicht</w>":9500,"Dro":9501,"kam</w>":9502,"fälle</w>":9503,"Eigent":9504,"well":9505,"selben</w>":9506,"bezieh":9507,"egation</w>":9508,"55</w>":9509,"isation</w>":9510,"beein":9511,"green</w>":9512,"schwierig</w>":9513,"Gesamt":9514,"closely</w>":9515,"architec":9516,"minister</w>":9517,"Tsch":9518,"gelegen</w>":9519,"limit</w>":9520,"luß</w>":9521,"enthal":9522,"Tun":9523,"anlage</w>":9524,"Worte</w>":9525,"Fähi":9526,"fill</w>":9527,"adopt</w>":9528,"Kriterien</w>":9529,"rufen</w>":9530,"Development</w>":9531,"Sprachen</w>":9532,"Cz":9533,"Nevertheless</w>":9534,"Völ":9535,"former</w>":9536,"ergän":9537,"passen":9538,"Opfer</w>":9539,"Start</w>":9540,"erkannt</w>":9541,"passt</w>":9542,"Gleichzeitig</w>":9543,"mentar":9544,"claim":9545,"Bis</w>":9546,"zin":9547,"Stand</w>":9548,"winter</w>":9549,"elektron":9550,"raten</w>":9551,"deckt</w>":9552,"Anstrengungen</w>":9553,"konkrete</w>":9554,"conten":9555,"ausch</w>":9556,"shower</w>":9557,"Terrorismus</w>":9558,"regular</w>":9559,"represents</w>":9560,"Note</w>":9561,"Anwendungen</w>":9562,"Qualitäts":9563,"teilig":9564,"Paket</w>":9565,"labor":9566,"cuisine</w>":9567,"größere</w>":9568,"delines</w>":9569,"verab":9570,"collection</w>":9571,"Binnenmarkt</w>":9572,"HT":9573,"Dre":9574,"scale</w>":9575,"Chinese</w>":9576,"deser":9577,"Sport</w>":9578,"mär":9579,"configu":9580,"Jahrhundert</w>":9581,"ques</w>":9582,"gestellten</w>":9583,"spielt</w>":9584,"Vereinbarung</w>":9585,"anzuzeigen</w>":9586,"hochwer":9587,"registri":9588,"ausgewäh":9589,"blu":9590,"Beschreibung</w>":9591,"Mei":9592,"tere</w>":9593,"cast":9594,"illegal</w>":9595,"archi":9596,"Forschungs":9597,"Entschließungsantrag</w>":9598,"Krieg</w>":9599,"families</w>":9600,"absolut</w>":9601,"besuchen</w>":9602,"Schweiz</w>":9603,"2011</w>":9604,"Zeichen</w>":9605,"assu":9606,"entirely</w>":9607,"scientific</w>":9608,"bes</w>":9609,"reduced</w>":9610,"speaking</w>":9611,"angemessen":9612,"informed</w>":9613,"Those</w>":9614,"hängt</w>":9615,"forget</w>":9616,"aving</w>":9617,"Saf":9618,"dens</w>":9619,"perspec":9620,"täglich</w>":9621,"bourg</w>":9622,"kts</w>":9623,"Alli":9624,"tioning</w>":9625,"registered</w>":9626,"adequate</w>":9627,"defined</w>":9628,"valid</w>":9629,"contex":9630,"wollte</w>":9631,"Mac":9632,"Milliar":9633,"berücksichtigen</w>":9634,"LI":9635,"dt</w>":9636,"sources</w>":9637,"stärker</w>":9638,"Aspekt</w>":9639,"investig":9640,"gin</w>":9641,"lierung</w>":9642,"Vertei":9643,"cked</w>":9644,"Constitu":9645,"gezeigt</w>":9646,"Great</w>":9647,"bü":9648,"death</w>":9649,"Besucher</w>":9650,"Gast":9651,"bon":9652,"ester</w>":9653,"detail</w>":9654,"photogra":9655,"February</w>":9656,"path</w>":9657,"Invest":9658,"weit":9659,"ständen</w>":9660,"unterstütze</w>":9661,"measure</w>":9662,"browser</w>":9663,"glauben</w>":9664,"ema":9665,"forces</w>":9666,"aspect</w>":9667,"33</w>":9668,"transi":9669,"1996</w>":9670,"Apartment</w>":9671,"kap":9672,"inger</w>":9673,"camera</w>":9674,"discussions</w>":9675,"Le</w>":9676,"kategorien</w>":9677,"unemployment</w>":9678,"register</w>":9679,"eingeschrän":9680,"Angaben</w>":9681,"fresh</w>":9682,"divi":9683,"Rezep":9684,"isely</w>":9685,"consist":9686,"listen</w>":9687,"pay":9688,"Neben</w>":9689,"euch</w>":9690,"angeboten</w>":9691,"atively</w>":9692,"animals</w>":9693,"hop":9694,"geschie":9695,"Pau":9696,"etz</w>":9697,"fei":9698,"Fotos</w>":9699,"establish</w>":9700,"Ten":9701,"rejec":9702,"kitchen</w>":9703,"properly</w>":9704,"Grie":9705,"weiten</w>":9706,"contribute</w>":9707,"Bran":9708,"ty":9709,"Player</w>":9710,"Ferienwoh":9711,"jahr":9712,"derzei":9713,"astern</w>":9714,"Übernachtung</w>":9715,"Anfragen</w>":9716,"zuführen</w>":9717,"Parti":9718,"competitive</w>":9719,"Iraq</w>":9720,"Der":9721,"48</w>":9722,"ON":9723,"vereinbar":9724,"conclusion</w>":9725,"display</w>":9726,"Details</w>":9727,"Betriebs":9728,"ece</w>":9729,"Salz":9730,"gruppe</w>":9731,"fts":9732,"print</w>":9733,"vations</w>":9734,"relationship</w>":9735,"increasingly</w>":9736,"Gipfel</w>":9737,"ide</w>":9738,"achtet</w>":9739,"Innovation</w>":9740,"Vil":9741,"teleph":9742,"öffnen</w>":9743,"genü":9744,"voice</w>":9745,"studi":9746,"Option</w>":9747,"jahr</w>":9748,"DA":9749,"Good</w>":9750,"Home</w>":9751,"zahlreichen</w>":9752,"contract</w>":9753,"Sur":9754,"fa</w>":9755,"volution</w>":9756,"Design":9757,"Prozent</w>":9758,"Veränderungen</w>":9759,"coh":9760,"Bio":9761,"Argu":9762,"Check</w>":9763,"chi":9764,"Fron":9765,"UK</w>":9766,"une</w>":9767,"gerich":9768,"Distribu":9769,"ness":9770,"People</w>":9771,"rail":9772,"beha":9773,"expl":9774,"understanding</w>":9775,"entwicklung</w>":9776,"extent</w>":9777,"gewinnen</w>":9778,"Garan":9779,"Exc":9780,"justice</w>":9781,"eng</w>":9782,"FR</w>":9783,"tori":9784,"maintain</w>":9785,"Sport":9786,"id":9787,"un</w>":9788,"partnership</w>":9789,"britan":9790,"Resort</w>":9791,"Priorität</w>":9792,"korre":9793,"sale</w>":9794,"besonderen</w>":9795,"ize</w>":9796,"entschieden</w>":9797,"numbers</w>":9798,"easier</w>":9799,"größeres</w>":9800,"trav":9801,"aufmerk":9802,"Mex":9803,"spie":9804,"inside</w>":9805,"enze</w>":9806,"Russian</w>":9807,"Will</w>":9808,"Kenntnis</w>":9809,"gewünsch":9810,"ffer</w>":9811,"Absch":9812,"components</w>":9813,"Belarus</w>":9814,"remember</w>":9815,"geln</w>":9816,"Meer":9817,"err":9818,"ausführ":9819,"finde</w>":9820,"seriously</w>":9821,"track</w>":9822,"igkeit</w>":9823,"member":9824,"ecken</w>":9825,"peace":9826,"Forum</w>":9827,"agriculture</w>":9828,"students</w>":9829,"Struktur":9830,"diplom":9831,"beziehen</w>":9832,"advance</w>":9833,"mountain</w>":9834,"ported</w>":9835,"Mus":9836,"wood</w>":9837,"36</w>":9838,"gency</w>":9839,"Regierungs":9840,"2020</w>":9841,"Stock":9842,"thinking</w>":9843,"Last</w>":9844,"cians</w>":9845,"Stellen</w>":9846,"purposes</w>":9847,"komplett</w>":9848,"profitieren</w>":9849,"Haltung</w>":9850,"purchase</w>":9851,"Ty":9852,"Schri":9853,"plus</w>":9854,"wishes</w>":9855,"Mel":9856,"voller</w>":9857,"kungen</w>":9858,"abkommen</w>":9859,"color</w>":9860,"Although</w>":9861,"spend</w>":9862,"Public</w>":9863,"gelangen</w>":9864,"enswür":9865,"Monate</w>":9866,"historischen</w>":9867,"enhagen</w>":9868,"Zer":9869,"encourage</w>":9870,"Ern":9871,"kompli":9872,"suppli":9873,"nearby</w>":9874,"controll":9875,"lern</w>":9876,"tims</w>":9877,"Refer":9878,"Station</w>":9879,"billi":9880,"nern</w>":9881,"Take</w>":9882,"gly</w>":9883,"atur</w>":9884,"eleg":9885,"berüh":9886,"guide</w>":9887,"ihres</w>":9888,"adju":9889,"therap":9890,"intended</w>":9891,"she":9892,"alisieren</w>":9893,"fizierung</w>":9894,"willkommen</w>":9895,"Dad":9896,"waiting</w>":9897,"considerable</w>":9898,"veröffentlicht</w>":9899,"umbn":9900,"Sei":9901,"musi":9902,"coffe":9903,"epage</w>":9904,"acht</w>":9905,"band</w>":9906,"administration</w>":9907,"Coo":9908,"NE":9909,"convin":9910,"anti</w>":9911,"Organisationen</w>":9912,"El</w>":9913,"sat":9914,"urs":9915,"Hom":9916,"Link</w>":9917,"Aben":9918,"Großbritan":9919,"Verwaltung</w>":9920,"dol":9921,"clari":9922,"accordance</w>":9923,"schung</w>":9924,"record</w>":9925,"Überwach":9926,"Standards</w>":9927,"getragen</w>":9928,"Augen</w>":9929,"gründet</w>":9930,"erscheint</w>":9931,"mindest</w>":9932,"crete</w>":9933,"cin":9934,"Zweifel</w>":9935,"Technologien</w>":9936,"Directive</w>":9937,"Angebote</w>":9938,"reasonable</w>":9939,"34</w>":9940,"tende</w>":9941,"competen":9942,"jeweils</w>":9943,"06</w>":9944,"kommenden</w>":9945,"Flash</w>":9946,"Justi":9947,"Mitteilung</w>":9948,"Terrasse</w>":9949,"introduced</w>":9950,"titude</w>":9951,"gangs":9952,"02</w>":9953,"Schutz":9954,"occu":9955,"erkennung</w>":9956,"zumindest</w>":9957,"freut</w>":9958,"precisely</w>":9959,"Brus":9960,"relax</w>":9961,"Dadurch</w>":9962,"Elek":9963,"satisfac":9964,"semb":9965,"playing</w>":9966,"expressed</w>":9967,"groß</w>":9968,"borders</w>":9969,"Ima":9970,"wischen":9971,"garantiert</w>":9972,"week":9973,"ungsh":9974,"white</w>":9975,"Super":9976,"vernünf":9977,"istischen</w>":9978,"dum</w>":9979,"Annahme</w>":9980,"umen</w>":9981,"seem</w>":9982,"linked</w>":9983,"stände</w>":9984,"sau":9985,"Erwachsen":9986,"NATO</w>":9987,"Em":9988,"deutschen</w>":9989,"financing</w>":9990,"tourist</w>":9991,"geschützt</w>":9992,"attractive</w>":9993,"3D</w>":9994,"becoming</w>":9995,"flexibility</w>":9996,"Familien</w>":9997,"Before</w>":9998,"generation</w>":9999,"ausreichend</w>":10000,"erfordert</w>":10001,"Sun":10002,"Beim</w>":10003,"Kompon":10004,"Verpflichtungen</w>":10005,"Thus</w>":10006,"stieg</w>":10007,"herzlich</w>":10008,"licherweise</w>":10009,"appears</w>":10010,"Charak":10011,"presidency</w>":10012,"Security</w>":10013,"Sou":10014,"werke</w>":10015,"fühl</w>":10016,"ny</w>":10017,"Num":10018,"lam":10019,"istic</w>":10020,"Produktions":10021,"electronic</w>":10022,"effectively</w>":10023,"mbol</w>":10024,"Barroso</w>":10025,"elegant</w>":10026,"tests</w>":10027,"deck":10028,"Greece</w>":10029,"Garanti":10030,"Syn":10031,"Vorberei":10032,"crime</w>":10033,"opening</w>":10034,"geschieht</w>":10035,"erleben</w>":10036,"konzentrieren</w>":10037,"Staat</w>":10038,"surance</w>":10039,"Flor":10040,"emissions</w>":10041,"schlä":10042,"mens</w>":10043,"Engagement</w>":10044,"Erd":10045,"holidays</w>":10046,"Immobili":10047,"Newsletter</w>":10048,"connected</w>":10049,"Fund</w>":10050,"Berg":10051,"born</w>":10052,"Ci":10053,"Lit":10054,"Buchung</w>":10055,"Hinweis</w>":10056,"Infra":10057,"schön</w>":10058,"schu":10059,"trip</w>":10060,"guidelines</w>":10061,"reply</w>":10062,"Abend</w>":10063,"corporate</w>":10064,"Zentral":10065,"esterday</w>":10066,"Akti":10067,"kontex":10068,"Mein</w>":10069,"rob":10070,"desi":10071,"consideration</w>":10072,"sectors</w>":10073,"Jugend":10074,"thumbn":10075,"zahlung</w>":10076,"ergreifen</w>":10077,"Plan</w>":10078,"victims</w>":10079,"Cam":10080,"after":10081,"globalen</w>":10082,"kaufs":10083,"administrative</w>":10084,"stab":10085,"ologischen</w>":10086,"machines</w>":10087,"Prioritäten</w>":10088,"Luxem":10089,"core</w>":10090,"modern":10091,"translation</w>":10092,"troffenen</w>":10093,"99</w>":10094,"Identi":10095,"Pfli":10096,"avi":10097,"gence</w>":10098,"season</w>":10099,"Ratsvor":10100,"wortern</w>":10101,"Dokument</w>":10102,"gespei":10103,"pil":10104,"Czech</w>":10105,"Regel</w>":10106,"managed</w>":10107,"sü":10108,"Wissen</w>":10109,"Time</w>":10110,"ISO</w>":10111,"risks</w>":10112,"lüsse</w>":10113,"leaders</w>":10114,"cohesion</w>":10115,"rechten</w>":10116,"represent</w>":10117,"lichung</w>":10118,"lymp":10119,"geber</w>":10120,"Vers":10121,"says</w>":10122,"erzielen</w>":10123,"FA":10124,"tend</w>":10125,"coffee</w>":10126,"speech</w>":10127,"Gedan":10128,"telephone</w>":10129,"facing</w>":10130,"Ambi":10131,"enfalls</w>":10132,"Marke":10133,"Moder":10134,"einfache</w>":10135,"Dra":10136,"lia</w>":10137,"marketing</w>":10138,"courses</w>":10139,"recommen":10140,"Leistungen</w>":10141,"calcul":10142,"luxuri":10143,"Künst":10144,"ature</w>":10145,"Einrichtungen</w>":10146,"earlier</w>":10147,"troll":10148,"stock</w>":10149,"password</w>":10150,"guter</w>":10151,"Unterkategorien</w>":10152,"kauft</w>":10153,"powers</w>":10154,"gebenen</w>":10155,"führungen</w>":10156,"banks</w>":10157,"Abgeordnete</w>":10158,"convenient</w>":10159,"exter":10160,"Vielfalt</w>":10161,"Name</w>":10162,"tstadt</w>":10163,"furnished</w>":10164,"Plu":10165,"bewe":10166,"prises</w>":10167,"erhältlich</w>":10168,"führten</w>":10169,"durchaus</w>":10170,"03</w>":10171,"eans</w>":10172,"sus</w>":10173,"weite</w>":10174,"ken":10175,"Green</w>":10176,"Poland</w>":10177,"Verstän":10178,"Anspruch</w>":10179,"Fuß</w>":10180,"Garten</w>":10181,"pain":10182,"Apparte":10183,"India</w>":10184,"Griechen":10185,"reisen</w>":10186,"mption</w>":10187,"maler":10188,"Arbeitnehmer</w>":10189,"Agre":10190,"experienced</w>":10191,"meaningfully</w>":10192,"Feder":10193,"Cust":10194,"onymous</w>":10195,"liefer":10196,"Leit":10197,"Bor":10198,"emer":10199,"ausdrücklich</w>":10200,"Moment</w>":10201,"Affairs</w>":10202,"SM":10203,"Tau":10204,"positions</w>":10205,"spezielle</w>":10206,"nötig</w>":10207,"schw":10208,"Bedar":10209,"ES</w>":10210,"festgelegt</w>":10211,"referred</w>":10212,"ón</w>":10213,"thi":10214,"Party</w>":10215,"founded</w>":10216,"myself</w>":10217,"tro</w>":10218,"subscri":10219,"structural</w>":10220,"freundlich</w>":10221,"diejenigen</w>":10222,"contain</w>":10223,"suche</w>":10224,"rup":10225,"write</w>":10226,"beginnt</w>":10227,"yal</w>":10228,"zählen</w>":10229,"Origin":10230,"melden</w>":10231,"ald</w>":10232,"forced</w>":10233,"Konzept</w>":10234,"powerful</w>":10235,"caused</w>":10236,"contextually</w>":10237,"estic</w>":10238,"positiv</w>":10239,"Dire":10240,"Board</w>":10241,"gruppen</w>":10242,"grammatically</w>":10243,"engine":10244,"persönlich</w>":10245,"Wettbewerbsfähigkeit</w>":10246,"kontextuell</w>":10247,"Studio</w>":10248,"Schlusselwortern</w>":10249,"grammatisch</w>":10250,"Gent":10251,"viert</w>":10252,"parag":10253,"Schlusselwort</w>":10254,"Schlusselphrase</w>":10255,"article</w>":10256,"stam":10257,"besitz":10258,"benach":10259,"ahead</w>":10260,"Irak</w>":10261,"becomes</w>":10262,"load</w>":10263,"bring":10264,"weiterer</w>":10265,"assessment</w>":10266,"Folge</w>":10267,"Christi":10268,"xe</w>":10269,"Ideen</w>":10270,"Out":10271,"photos</w>":10272,"coordination</w>":10273,"cen":10274,"went</w>":10275,"Asia</w>":10276,"Bru":10277,"zweifel":10278,"Unterkunft</w>":10279,"Ski":10280,"Fuß":10281,"gehalten</w>":10282,"Verbin":10283,"Einfluss</w>":10284,"bequem</w>":10285,"windi":10286,"buchen</w>":10287,"interface</w>":10288,"schlagen</w>":10289,"meetings</w>":10290,"Mess":10291,"chungen</w>":10292,"anda</w>":10293,"His</w>":10294,"einger":10295,"mitten</w>":10296,"leh":10297,"plants</w>":10298,"Arbeiten</w>":10299,"Gründe</w>":10300,"exclusive</w>":10301,"ums":10302,"broad</w>":10303,"spunkt</w>":10304,"enteil</w>":10305,"welches</w>":10306,"impossible</w>":10307,"schied</w>":10308,"Modell</w>":10309,"Fit":10310,"stein</w>":10311,"Two</w>":10312,"hood</w>":10313,"seiten</w>":10314,"Größe</w>":10315,"Region":10316,"diskutieren</w>":10317,"ditions</w>":10318,"istics</w>":10319,"ator":10320,"fried":10321,"celeb":10322,"vermeiden</w>":10323,"nie":10324,"simpli":10325,"Hän":10326,"Nahr":10327,"Wege</w>":10328,"Kultur":10329,"Fac":10330,"Gan":10331,"Rules</w>":10332,"erns":10333,"fro":10334,"ologische</w>":10335,"Yes</w>":10336,"succe":10337,"teach":10338,"Star</w>":10339,"Emis":10340,"WLAN</w>":10341,"unk":10342,"cos":10343,"played</w>":10344,"awar":10345,"tured</w>":10346,"danger":10347,"Manager</w>":10348,"einschließlich</w>":10349,"Anti":10350,"endor":10351,"break":10352,"differences</w>":10353,"improvement</w>":10354,"Olymp":10355,"concrete</w>":10356,"compati":10357,"anyone</w>":10358,"kö":10359,"ilfe</w>":10360,"militär":10361,"fying</w>":10362,"Ausschuß</w>":10363,"Lag":10364,"empha":10365,"1995</w>":10366,"budgetary</w>":10367,"beglück":10368,"trotz</w>":10369,"Wo</w>":10370,"won</w>":10371,"Internet":10372,"möglichen</w>":10373,"Ebenso</w>":10374,"tert</w>":10375,"Großbritannien</w>":10376,"thumbnail</w>":10377,"possibilities</w>":10378,"relating</w>":10379,"Initiativen</w>":10380,"zählt</w>":10381,"Wählen</w>":10382,"Aktion":10383,"Mc":10384,"names</w>":10385,"Press</w>":10386,"Dritt":10387,"gebiet</w>":10388,"dish</w>":10389,"losoph":10390,"dele":10391,"regime</w>":10392,"Hauses</w>":10393,"tinu":10394,"actual</w>":10395,"ines":10396,"Anerkennung</w>":10397,"Ausschusses</w>":10398,"reliable</w>":10399,"Kompromiss</w>":10400,"TH":10401,"punkte</w>":10402,"dienst":10403,"voc":10404,"keinerlei</w>":10405,"Rede</w>":10406,"followed</w>":10407,"geschrieben</w>":10408,"Kommunikation</w>":10409,"Osten</w>":10410,"anspru":10411,"registration</w>":10412,"Ohne</w>":10413,"Abschluss</w>":10414,"vielfäl":10415,"bestehenden</w>":10416,"Preis":10417,"mas</w>":10418,"advice</w>":10419,"Phi":10420,"anischen</w>":10421,"stausch</w>":10422,"alter</w>":10423,"condition</w>":10424,"möglicherweise</w>":10425,"infrastructure</w>":10426,"wären</w>":10427,"drawn</w>":10428,"stärken</w>":10429,"Süd":10430,"betreff":10431,"staaten</w>":10432,"Leistungs":10433,"Wein":10434,"bet</w>":10435,"Rights</w>":10436,"spartn":10437,"dramati":10438,"strengthen</w>":10439,"Gegenteil</w>":10440,"schli":10441,"Klein":10442,"Stellung":10443,"sum</w>":10444,"Zeiten</w>":10445,"seeing</w>":10446,"großes</w>":10447,"expensive</w>":10448,"Sant":10449,"quanti":10450,"alist</w>":10451,"Resi":10452,"Bedürfnisse</w>":10453,"laws</w>":10454,"later":10455,"listed</w>":10456,"geladen</w>":10457,"Nord":10458,"manner</w>":10459,"duty</w>":10460,"Instrumente</w>":10461,"totally</w>":10462,"hinter":10463,"speaker</w>":10464,"diversity</w>":10465,"Konz":10466,"außer</w>":10467,"preser":10468,"abgeschlossen</w>":10469,"kept</w>":10470,"geschä":10471,"Cat":10472,"leng":10473,"konom":10474,"accessible</w>":10475,"Allgem":10476,"urgent</w>":10477,"University</w>":10478,"politics</w>":10479,"stake</w>":10480,"foli":10481,"fiziert</w>":10482,"finanzielle</w>":10483,"Social</w>":10484,"Österreich</w>":10485,"Medien</w>":10486,"krimini":10487,"summit</w>":10488,"centr":10489,"tie":10490,"Irland</w>":10491,"länger</w>":10492,"relaxing</w>":10493,"reden</w>":10494,"spit":10495,"Brussels</w>":10496,"Georgi":10497,"Nah":10498,"vorliegenden</w>":10499,"beteili":10500,"iten</w>":10501,"completed</w>":10502,"bilater":10503,"Datenbank</w>":10504,"landscap":10505,"Java</w>":10506,"examples</w>":10507,"Milliarden</w>":10508,"Seine</w>":10509,"Teile</w>":10510,"structures</w>":10511,"brand</w>":10512,"Kindern</w>":10513,"erinnern</w>":10514,"discrimination</w>":10515,"überall</w>":10516,"participation</w>":10517,"geleistet</w>":10518,"möglichst</w>":10519,"privaten</w>":10520,"mögliche</w>":10521,"hilfen</w>":10522,"eck":10523,"medical</w>":10524,"explan":10525,"character</w>":10526,"informiert</w>":10527,"früh":10528,"richtet</w>":10529,"bezo":10530,"serviert</w>":10531,"fellow</w>":10532,"ecutive</w>":10533,"Som":10534,"tief":10535,"Tari":10536,"wah":10537,"ints</w>":10538,"atta":10539,"prior</w>":10540,"Zahlen</w>":10541,"95</w>":10542,"Mol":10543,"erhöhen</w>":10544,"Audi":10545,"Entwicklungen</w>":10546,"sorgfäl":10547,"Falle</w>":10548,"Schön":10549,"ticles</w>":10550,"wert":10551,"Sektor</w>":10552,"approxim":10553,"Karten</w>":10554,"schrän":10555,"Vier":10556,"Pool</w>":10557,"Meter</w>":10558,"absolute</w>":10559,"Ds</w>":10560,"stated</w>":10561,"break</w>":10562,"Verbraucher":10563,"Cer":10564,"Augen":10565,"Regelung</w>":10566,"touch</w>":10567,"Nice</w>":10568,"versions</w>":10569,"brary</w>":10570,"Sem":10571,"righ":10572,"bert</w>":10573,"fand</w>":10574,"miteinander</w>":10575,"freiheit</w>":10576,"Jedes</w>":10577,"38</w>":10578,"Aktu":10579,"Stil</w>":10580,"ingdom</w>":10581,"ah</w>":10582,"dacht</w>":10583,"dangerous</w>":10584,"Kno":10585,"ästin":10586,"schir":10587,"contents</w>":10588,"Ker":10589,"Schwe":10590,"politischer</w>":10591,"Harmon":10592,"background</w>":10593,"cious</w>":10594,"shes</w>":10595,"speziell</w>":10596,"default</w>":10597,"geleitet</w>":10598,"39</w>":10599,"Bucht</w>":10600,"competitiveness</w>":10601,"eap</w>":10602,"Card</w>":10603,"trol</w>":10604,"kommens</w>":10605,"Fr":10606,"konferenz</w>":10607,"bul":10608,"zugän":10609,"strongly</w>":10610,"vorhand":10611,"natur":10612,"Wird</w>":10613,"experts</w>":10614,"65</w>":10615,"98</w>":10616,"starke</w>":10617,"notwendigen</w>":10618,"propor":10619,"sa</w>":10620,"cheap</w>":10621,"weak":10622,"hinweisen</w>":10623,"grunds":10624,"Mittelme":10625,"Fortschritt</w>":10626,"tis</w>":10627,"tasks</w>":10628,"Madrid</w>":10629,"TO":10630,"dealing</w>":10631,"hands</w>":10632,"persönliche</w>":10633,"balanced</w>":10634,"Funktion":10635,"dedi":10636,"Defin":10637,"stärk":10638,"dorf</w>":10639,"Palestini":10640,"Vertreter</w>":10641,"esday</w>":10642,"kop":10643,"Poker</w>":10644,"Polen</w>":10645,"flü":10646,"wall</w>":10647,"Post":10648,"vents</w>":10649,"italien":10650,"Ale":10651,"pel</w>":10652,"täu":10653,"Kompeten":10654,"Zweck</w>":10655,"Sehenswür":10656,"ara</w>":10657,"Stunde</w>":10658,"scen":10659,"bericht</w>":10660,"Such":10661,"generally</w>":10662,"hund":10663,"zentrum</w>":10664,"gewal":10665,"Holi":10666,"changing</w>":10667,"buildings</w>":10668,"EL":10669,"gn":10670,"Alles</w>":10671,"empf":10672,"began</w>":10673,"Gentoo</w>":10674,"erhält</w>":10675,"enken</w>":10676,"dia</w>":10677,"outcome</w>":10678,"inform</w>":10679,"pper</w>":10680,"Transport</w>":10681,"Middle</w>":10682,"prüfung</w>":10683,"chosen</w>":10684,"obwohl</w>":10685,"Fenster</w>":10686,"ere":10687,"Golf</w>":10688,"gewährleistet</w>":10689,"ufen</w>":10690,"verlassen</w>":10691,"Plen":10692,"perfec":10693,"released</w>":10694,"qualität</w>":10695,"ells</w>":10696,"gestalten</w>":10697,"digit":10698,"Ausbildung</w>":10699,"hard":10700,"Glück":10701,"anding</w>":10702,"assungs":10703,"raph</w>":10704,"42</w>":10705,"fall":10706,"abilities</w>":10707,"stak":10708,"gefordert</w>":10709,"prefer":10710,"Landwir":10711,"quick</w>":10712,"cars</w>":10713,"models</w>":10714,"reis</w>":10715,"Realität</w>":10716,"wagen</w>":10717,"anderem</w>":10718,"klusive</w>":10719,"proto":10720,"obo":10721,"deep":10722,"kro":10723,"wirkt</w>":10724,"betten</w>":10725,"meldung</w>":10726,"otherwise</w>":10727,"agno":10728,"Dienste</w>":10729,"Februar</w>":10730,"Pro</w>":10731,"rural</w>":10732,"Unabhängi":10733,"figures</w>":10734,"unfortunately</w>":10735,"fragt</w>":10736,"difficulties</w>":10737,"sides</w>":10738,"Sorge</w>":10739,"immigration</w>":10740,"Dig":10741,"Antworten</w>":10742,"intenance</w>":10743,"toler":10744,"ssel</w>":10745,"Recht":10746,"brauch</w>":10747,"oriz":10748,"Kunst</w>":10749,"Lat":10750,"Bestellung</w>":10751,"bild</w>":10752,"west":10753,"wann</w>":10754,"verring":10755,"illeg":10756,"Afrika</w>":10757,"Sinn</w>":10758,"tätig</w>":10759,"feel":10760,"Film</w>":10761,"metres</w>":10762,"Their</w>":10763,"houses</w>":10764,"einverstanden</w>":10765,"abgel":10766,"Hersteller</w>":10767,"Durchführung</w>":10768,"Blog</w>":10769,"AK":10770,"Air</w>":10771,"pie":10772,"Forderung</w>":10773,"Vielzahl</w>":10774,"lation</w>":10775,"aming</w>":10776,"Reise</w>":10777,"animal</w>":10778,"CO2</w>":10779,"category</w>":10780,"weight</w>":10781,"sofern</w>":10782,"Partnerschaft</w>":10783,"gang":10784,"Problemen</w>":10785,"Transpor":10786,"installiert</w>":10787,"Beitritts":10788,"parliamentary</w>":10789,"ernsthaf":10790,"russ":10791,"trenn":10792,"Leistung</w>":10793,"Hintergrund</w>":10794,"usi":10795,"chmals</w>":10796,"trading</w>":10797,"Währungs":10798,"betonen</w>":10799,"aufmerksam</w>":10800,"führte</w>":10801,"introduction</w>":10802,"Che":10803,"Botschaft</w>":10804,"sign":10805,"entstehen</w>":10806,"Alp":10807,"läng":10808,"offensichtlich</w>":10809,"Parkplätze</w>":10810,"renew":10811,"Mach":10812,"log</w>":10813,"duce</w>":10814,"Familien":10815,"mation</w>":10816,"error</w>":10817,"deta":10818,"facilit":10819,"fühlen</w>":10820,"Prote":10821,"wichtigste</w>":10822,"Programms</w>":10823,"Agreement</w>":10824,"Hor":10825,"orca</w>":10826,"wenigen</w>":10827,"Willkommen</w>":10828,"instruc":10829,"gave</w>":10830,"leistungen</w>":10831,"Druck":10832,"Katastrop":10833,"Flexibilität</w>":10834,"Enter":10835,"representatives</w>":10836,"Rechnung</w>":10837,"entlichen</w>":10838,"räume</w>":10839,"niture</w>":10840,"raise</w>":10841,"welcher</w>":10842,"Skype</w>":10843,"storage</w>":10844,"Rou":10845,"obach":10846,"degree</w>":10847,"Anmerk":10848,"sorgt</w>":10849,"average</w>":10850,"riert</w>":10851,"acking</w>":10852,"vorgesehen</w>":10853,"truly</w>":10854,"Volk</w>":10855,"MySQL</w>":10856,"cement</w>":10857,"rah":10858,"lement</w>":10859,"Innen":10860,"Est":10861,"lights</w>":10862,"utter":10863,"sequently</w>":10864,"shared</w>":10865,"amerikanischen</w>":10866,"balcon":10867,"ill</w>":10868,"Vir":10869,"chron":10870,"device</w>":10871,"Arbeitslosigkeit</w>":10872,"Europeans</w>":10873,"pension</w>":10874,"permanent</w>":10875,"verfolgt</w>":10876,"lec":10877,"haltet</w>":10878,"enna</w>":10879,"ausgewo":10880,"Palace</w>":10881,"Browser</w>":10882,"refu":10883,"beträgt</w>":10884,"Fisch":10885,"iling</w>":10886,"Unterschie":10887,"websites</w>":10888,"Sehenswürdigkeiten</w>":10889,"Nein</w>":10890,"flow</w>":10891,"pol</w>":10892,"happens</w>":10893,"Jede</w>":10894,"vehicles</w>":10895,"Caf":10896,"Rä":10897,"Thanks</w>":10898,"prosp":10899,"Austra":10900,"Sea</w>":10901,"Elemente</w>":10902,"passed</w>":10903,"regelmäßig</w>":10904,"Ost":10905,"marked</w>":10906,"Strei":10907,"finanziellen</w>":10908,"whose</w>":10909,"vul":10910,"ances</w>":10911,"ela</w>":10912,"rich":10913,"biggest</w>":10914,"Kön":10915,"Zy":10916,"acci":10917,"Archi":10918,"gezogen</w>":10919,"fil</w>":10920,"Straße</w>":10921,"optimal</w>":10922,"threat</w>":10923,"Einigung</w>":10924,"asses</w>":10925,"Schlüssel":10926,"membership</w>":10927,"Vene":10928,"Format</w>":10929,"tivity</w>":10930,"science</w>":10931,"Bus</w>":10932,"Effe":10933,"trän":10934,"hergestellt</w>":10935,"49</w>":10936,"chines":10937,"operations</w>":10938,"öri":10939,"Stor":10940,"continues</w>":10941,"erklären</w>":10942,"exis":10943,"dispos":10944,"Registri":10945,"combination</w>":10946,"thor":10947,"rish</w>":10948,"konstru":10949,"Dokumente</w>":10950,"Selbstverständlich</w>":10951,"Fire":10952,"weiteres</w>":10953,"Perhaps</w>":10954,"bedroom</w>":10955,"verbrei":10956,"ordinary</w>":10957,"supporting</w>":10958,"usual</w>":10959,"Bedarf</w>":10960,"EL</w>":10961,"erie</w>":10962,"kontaktieren</w>":10963,"enswert</w>":10964,"Soft":10965,"breite</w>":10966,"MO":10967,"fers</w>":10968,"anderung</w>":10969,"posite</w>":10970,"election</w>":10971,"ambitious</w>":10972,"berühm":10973,"Other</w>":10974,"Rum":10975,"ätzen</w>":10976,"stimmt</w>":10977,"Who</w>":10978,"Dr</w>":10979,"weap":10980,"schaft":10981,"einfachen</w>":10982,"Technik</w>":10983,"migr":10984,"Open":10985,"führer</w>":10986,"nutz":10987,"learning</w>":10988,"Vertri":10989,"copy</w>":10990,"schauen</w>":10991,"Mitte</w>":10992,"brings</w>":10993,"spirit</w>":10994,"gelegten</w>":10995,"BA":10996,"saw</w>":10997,"Finn":10998,"vertre":10999,"manage</w>":11000,"betrachtet</w>":11001,"Haben</w>":11002,"tradition</w>":11003,"Fonds</w>":11004,"itely</w>":11005,"verlei":11006,"vollkommen</w>":11007,"tourism</w>":11008,"gegensei":11009,"Zimmern</w>":11010,"04</w>":11011,"las</w>":11012,"enhan":11013,"cancell":11014,"teilweise</w>":11015,"Kür":11016,"ühren</w>":11017,"Log":11018,"Deutsche</w>":11019,"karten</w>":11020,"Grunde</w>":11021,"komme</w>":11022,"van":11023,"Veranstaltungen</w>":11024,"Mun":11025,"griffe</w>":11026,"betrachten</w>":11027,"constantly</w>":11028,"einsetzen</w>":11029,"sensitive</w>":11030,"kunden</w>":11031,"attle</w>":11032,"Geld":11033,"genannt</w>":11034,"down":11035,"Standard":11036,"Cur":11037,"west</w>":11038,"dennoch</w>":11039,"memory</w>":11040,"guarantees</w>":11041,"Irish</w>":11042,"tto":11043,"tially</w>":11044,"gegründet</w>":11045,"bieter</w>":11046,"behavi":11047,"black</w>":11048,"sort</w>":11049,"illu":11050,"trary</w>":11051,"gehöri":11052,"peaceful</w>":11053,"Schrift":11054,"Cook":11055,"Kind</w>":11056,"VA":11057,"dinner</w>":11058,"wichtiges</w>":11059,"Angelegenheiten</w>":11060,"respective</w>":11061,"wand</w>":11062,"Wet":11063,"blioth":11064,"Drittens</w>":11065,"stattfinden</w>":11066,"roman":11067,"Minister":11068,"Cho":11069,"told</w>":11070,"privacy</w>":11071,"combat</w>":11072,"alism</w>":11073,"Bemerkungen</w>":11074,"EM":11075,"Farben</w>":11076,"Nether":11077,"humanitarian</w>":11078,"advertising</w>":11079,"Tour</w>":11080,"Ausgaben</w>":11081,"Lesung</w>":11082,"woo":11083,"sun</w>":11084,"lo</w>":11085,"chbar</w>":11086,"füllen</w>":11087,"angesichts</w>":11088,"propose</w>":11089,"Herz":11090,"ktop</w>":11091,"istische</w>":11092,"chtigen</w>":11093,"improving</w>":11094,"specifically</w>":11095,"Sar":11096,"Gibt</w>":11097,"cm</w>":11098,"networks</w>":11099,"Vergleich</w>":11100,"Erhol":11101,"Monat</w>":11102,"garantieren</w>":11103,"teiligten</w>":11104,"lass</w>":11105,"ush</w>":11106,"Aussicht</w>":11107,"überra":11108,"factor</w>":11109,"looks</w>":11110,"Methode</w>":11111,"cer</w>":11112,"überschrei":11113,"typical</w>":11114,"Atlan":11115,"Netzwerk</w>":11116,"bath</w>":11117,"Versch":11118,"Beitritt</w>":11119,"While</w>":11120,"Croati":11121,"PE</w>":11122,"object</w>":11123,"Mio</w>":11124,"Betrieb</w>":11125,"Griechenland</w>":11126,"Fla":11127,"Sind</w>":11128,"obviously</w>":11129,"correspon":11130,"erhöht</w>":11131,"verloren</w>":11132,"Bestandteil</w>":11133,"Asy":11134,"Dem</w>":11135,"addressed</w>":11136,"compla":11137,"phase</w>":11138,"continued</w>":11139,"greatest</w>":11140,"War</w>":11141,"fund</w>":11142,"bear</w>":11143,"laun":11144,"starten</w>":11145,"berech":11146,"solcher</w>":11147,"Regelungen</w>":11148,"Or</w>":11149,"RI":11150,"successfully</w>":11151,"Globalisierung</w>":11152,"Bis":11153,"kraft":11154,"SD":11155,"monitor</w>":11156,"appointed</w>":11157,"mly</w>":11158,"story</w>":11159,"hafte</w>":11160,"Dafür</w>":11161,"Status</w>":11162,"Analyse</w>":11163,"teri":11164,"gelassen</w>":11165,"brief</w>":11166,"uten</w>":11167,"Lebensmittel":11168,"Prinzip</w>":11169,"perfectly</w>":11170,"bars</w>":11171,"akzeptiert</w>":11172,"Vom</w>":11173,"zing</w>":11174,"enables</w>":11175,"depends</w>":11176,"beglei":11177,"ather</w>":11178,"beschlossen</w>":11179,"Human</w>":11180,"ices</w>":11181,"tise</w>":11182,"advantages</w>":11183,"According</w>":11184,"fisheries</w>":11185,"lehnen</w>":11186,"Partei</w>":11187,"dium</w>":11188,"alty</w>":11189,"Forderungen</w>":11190,"Kingdom</w>":11191,"graf":11192,"Entwurf</w>":11193,"USD</w>":11194,"umfassende</w>":11195,"bereiten</w>":11196,"concentr":11197,"immediate</w>":11198,"endes</w>":11199,"participate</w>":11200,"1st</w>":11201,"bas":11202,"pap":11203,"sers</w>":11204,"access":11205,"route</w>":11206,"broad":11207,"answers</w>":11208,"edited</w>":11209,"bat":11210,"stro":11211,"arily</w>":11212,"unabhängig</w>":11213,"ai</w>":11214,"measu":11215,"Obwohl</w>":11216,"falsch</w>":11217,"Tätigkeit</w>":11218,"besitzt</w>":11219,"Thir":11220,"Mes":11221,"erenden</w>":11222,"ecke</w>":11223,"police</w>":11224,"compens":11225,"195":11226,"Update</w>":11227,"800</w>":11228,"Zü":11229,"sized</w>":11230,"diskutiert</w>":11231,"Pakistan</w>":11232,"Donn":11233,"tedly</w>":11234,"lokalen</w>":11235,"ier</w>":11236,"ight</w>":11237,"sichern</w>":11238,"veran":11239,"notice</w>":11240,"requests</w>":11241,"44</w>":11242,"binding</w>":11243,"Deswegen</w>":11244,"demokratische</w>":11245,"Netherlands</w>":11246,"Wür":11247,"zeugen</w>":11248,"Wech":11249,"unterschei":11250,"12":11251,"eist":11252,"firm</w>":11253,"agencies</w>":11254,"advanced</w>":11255,"übrigen</w>":11256,"64</w>":11257,"resolutions</w>":11258,"Währung</w>":11259,"mün":11260,"eingeführt</w>":11261,"tainment</w>":11262,"destro":11263,"enormous</w>":11264,"wind</w>":11265,"akt</w>":11266,"obvious</w>":11267,"ernst</w>":11268,"Koordini":11269,"books</w>":11270,"m2</w>":11271,"cook":11272,"euer</w>":11273,"künfte</w>":11274,"asking</w>":11275,"acqu":11276,"ziem":11277,"Beispiele</w>":11278,"elimin":11279,"mac":11280,"nennen</w>":11281,"Multi":11282,"Shop</w>":11283,"Krä":11284,"Lam":11285,"obtain</w>":11286,"ategorie</w>":11287,"umfasst</w>":11288,"anbieten</w>":11289,"maßen</w>":11290,"gradu":11291,"Gemeinsamen</w>":11292,"Shi":11293,"ktes</w>":11294,"pes</w>":11295,"Letz":11296,"Verständnis</w>":11297,"flight</w>":11298,"store</w>":11299,"tickets</w>":11300,"debt</w>":11301,"host</w>":11302,"Erwar":11303,"deliver</w>":11304,"hilft</w>":11305,"rement</w>":11306,"erende</w>":11307,"dered</w>":11308,"introduce</w>":11309,"aims</w>":11310,"perspective</w>":11311,"Ado":11312,"welchen</w>":11313,"höchste</w>":11314,"settings</w>":11315,"skills</w>":11316,"filled</w>":11317,"insurance</w>":11318,"Tradition</w>":11319,"Sterne</w>":11320,"passiert</w>":11321,"maintenance</w>":11322,"Reli":11323,"einflus":11324,"leistung</w>":11325,"villa</w>":11326,"eding</w>":11327,"appreciate</w>":11328,"ppe</w>":11329,"gegenwärtig</w>":11330,"limits</w>":11331,"disposal</w>":11332,"ideale</w>":11333,"gewicht</w>":11334,"Verwaltungs":11335,"approximately</w>":11336,"beauf":11337,"FI":11338,"displayed</w>":11339,"thousands</w>":11340,"devices</w>":11341,"Altstadt</w>":11342,"enterprises</w>":11343,"presence</w>":11344,"Europäer</w>":11345,"goals</w>":11346,"Worten</w>":11347,"fee</w>":11348,"evidence</w>":11349,"stabili":11350,"Arten</w>":11351,"sell</w>":11352,"illing</w>":11353,"Beschäftigungs":11354,"red":11355,"leiten</w>":11356,"Does</w>":11357,"honourable</w>":11358,"TA</w>":11359,"kbar</w>":11360,"Konfer":11361,"faces</w>":11362,"News</w>":11363,"Test</w>":11364,"behaup":11365,"mag</w>":11366,"Data</w>":11367,"exercise</w>":11368,"Klar":11369,"itation</w>":11370,"Mechan":11371,"endgül":11372,"extended</w>":11373,"Richtlinien</w>":11374,"Stadtz":11375,"Winter</w>":11376,"Oder</w>":11377,"ommen":11378,"lic</w>":11379,"Jahrzeh":11380,"speziellen</w>":11381,"Adobe</w>":11382,"600</w>":11383,"meters</w>":11384,"consumption</w>":11385,"mechanis":11386,"bestätigt</w>":11387,"volun":11388,"sprach":11389,"domestic</w>":11390,"utter</w>":11391,"Modu":11392,"Mau":11393,"haften</w>":11394,"dir</w>":11395,"tically</w>":11396,"guaranteed</w>":11397,"Distribution</w>":11398,"ener</w>":11399,"ablen</w>":11400,"mode</w>":11401,"fire</w>":11402,"piece</w>":11403,"ades</w>":11404,"trifft</w>":11405,"lieben</w>":11406,"serves</w>":11407,"liefern</w>":11408,"funktionieren</w>":11409,"gegangen</w>":11410,"Dimension</w>":11411,"Gesi":11412,"domin":11413,"Je</w>":11414,"gegenwärtigen</w>":11415,"orders</w>":11416,"simul":11417,"provision</w>":11418,"discover</w>":11419,"unge":11420,"nochmals</w>":11421,"surrounding</w>":11422,"welt</w>":11423,"failed</w>":11424,"ico</w>":11425,"Frühstücksbuffet</w>":11426,"alization</w>":11427,"Grenz":11428,"controls</w>":11429,"qualified</w>":11430,"Well</w>":11431,"convinced</w>":11432,"asing</w>":11433,"helps</w>":11434,"Bewertung</w>":11435,"veri":11436,"treated</w>":11437,"Nutzer</w>":11438,"Einstellungen</w>":11439,"relativ</w>":11440,"Proced":11441,"eß</w>":11442,"seines</w>":11443,"mittelt</w>":11444,"Kritik</w>":11445,"pleasure</w>":11446,"ticket</w>":11447,"turns</w>":11448,"USB</w>":11449,"Ladies</w>":11450,"owned</w>":11451,"failure</w>":11452,"rightly</w>":11453,"Would</w>":11454,"Gewi":11455,"Englisch</w>":11456,"authority</w>":11457,"res</w>":11458,"Anliegen</w>":11459,"described</w>":11460,"gene":11461,"updated</w>":11462,"Städte</w>":11463,"Königrei":11464,"platform</w>":11465,"verändert</w>":11466,"consists</w>":11467,"kunfts":11468,"testing</w>":11469,"Absatz</w>":11470,"oth</w>":11471,"tierung</w>":11472,"lets</w>":11473,"Profession":11474,"ttable</w>":11475,"kurze</w>":11476,"blog</w>":11477,"explain</w>":11478,"oram":11479,"Rooms</w>":11480,"Policy</w>":11481,"beinhaltet</w>":11482,"ook</w>":11483,"Post</w>":11484,"beteiligt</w>":11485,"Ram":11486,"resort</w>":11487,"jud":11488,"ssen":11489,"mel</w>":11490,"Kommissions":11491,"closer</w>":11492,"stimmung</w>":11493,"Diskrimini":11494,"Freunde</w>":11495,"alitäten</w>":11496,"export</w>":11497,"liebe</w>":11498,"yesterday</w>":11499,"bezogen</w>":11500,"moving</w>":11501,"sonst</w>":11502,"Projekt":11503,"Cham":11504,"Ereignisse</w>":11505,"SO":11506,"felt</w>":11507,"leitung</w>":11508,"counter":11509,"Ruhe</w>":11510,"ateful</w>":11511,"behoben</w>":11512,"definition</w>":11513,"frau":11514,"entsprechen</w>":11515,"entweder</w>":11516,"luxury</w>":11517,"stood</w>":11518,"tre</w>":11519,"middle</w>":11520,"reagieren</w>":11521,"deposi":11522,"conclusions</w>":11523,"Sach":11524,"fassung</w>":11525,"beschreibung</w>":11526,"Frem":11527,"tut</w>":11528,"evision</w>":11529,"hingewiesen</w>":11530,"engine</w>":11531,"articles</w>":11532,"eded</w>":11533,"außerord":11534,"exhibition</w>":11535,"Bab":11536,"lem</w>":11537,"ackno":11538,"signal</w>":11539,"agency</w>":11540,"Kandi":11541,"cription</w>":11542,"genuine</w>":11543,"Plaza</w>":11544,"Teilnehmer</w>":11545,"sien</w>":11546,"Architek":11547,"Suite</w>":11548,"greif":11549,"contrary</w>":11550,"abhängig</w>":11551,"Dollar</w>":11552,"wandel</w>":11553,"gratulieren</w>":11554,"Defini":11555,"hing</w>":11556,"ziemlich</w>":11557,"exec":11558,"recommended</w>":11559,"remove</w>":11560,"gä":11561,"versorgung</w>":11562,"entran":11563,"klass":11564,"zusätzlich</w>":11565,"Ul":11566,"Gästen</w>":11567,"targets</w>":11568,"lösung</w>":11569,"Kreditkarte</w>":11570,"lit</w>":11571,"einig":11572,"surface</w>":11573,"Dort</w>":11574,"Beach</w>":11575,"Märkte</w>":11576,"south</w>":11577,"ünen</w>":11578,"definitely</w>":11579,"dienst</w>":11580,"essi":11581,"liste</w>":11582,"condem":11583,"neither</w>":11584,"Turk":11585,"Indien</w>":11586,"Ab</w>":11587,"sehe</w>":11588,"Agentur</w>":11589,"Media</w>":11590,"architecture</w>":11591,"Besi":11592,"ington</w>":11593,"fertigt</w>":11594,"Unterschiede</w>":11595,"stol":11596,"gesund":11597,"Mann</w>":11598,"income</w>":11599,"Presse":11600,"Control</w>":11601,"solve</w>":11602,"haupts":11603,"fantastic</w>":11604,"41</w>":11605,"wobei</w>":11606,"Kombin":11607,"interessiert</w>":11608,"Empfehlungen</w>":11609,"spent</w>":11610,"Moun":11611,"gespeichert</w>":11612,"Aktionen</w>":11613,"ök":11614,"wider</w>":11615,"secre":11616,"lap":11617,"End":11618,"qualit":11619,"Associ":11620,"Unternehmens":11621,"Brüssel</w>":11622,"resist":11623,"medic":11624,"ski":11625,"beschäftigt</w>":11626,"requested</w>":11627,"Kaff":11628,"wett":11629,"gefä":11630,"utili":11631,"dimension</w>":11632,"dete":11633,"ehm":11634,"keeping</w>":11635,"schaftlichen</w>":11636,"fear</w>":11637,"Bedenken</w>":11638,"Holiday</w>":11639,"formed</w>":11640,"Effizi":11641,"verlieren</w>":11642,"manchmal</w>":11643,"Ausführungen</w>":11644,"technik</w>":11645,"Bahnhof</w>":11646,"wäl":11647,"reiben</w>":11648,"multiple</w>":11649,"gewählt</w>":11650,"zuverlässi":11651,"grateful</w>":11652,"grounds</w>":11653,"factors</w>":11654,"breiten</w>":11655,"behand":11656,"festzu":11657,"elected</w>":11658,"versal</w>":11659,"Voraussetzungen</w>":11660,"Flücht":11661,"disch":11662,"verhäl":11663,"complic":11664,"danach</w>":11665,"ästinens":11666,"Eink":11667,"Hon":11668,"tment</w>":11669,"lots</w>":11670,"vehicle</w>":11671,"ped</w>":11672,"taste</w>":11673,"outstanding</w>":11674,"globale</w>":11675,"stoff</w>":11676,"dedicated</w>":11677,"bewahr":11678,"schneller</w>":11679,"planned</w>":11680,"Sweden</w>":11681,"Sonnen":11682,"Rezeption</w>":11683,"Stellungnahme</w>":11684,"46</w>":11685,"ssel":11686,"taus":11687,"bekann":11688,"knows</w>":11689,"attractions</w>":11690,"dden</w>":11691,"Anrei":11692,"langt</w>":11693,"Gesell":11694,"instantly</w>":11695,"participants</w>":11696,"Bemerkung</w>":11697,"47</w>":11698,"lish</w>":11699,"Sprach":11700,"evalu":11701,"forum</w>":11702,"Herstellung</w>":11703,"Zustell":11704,"Vienna</w>":11705,"Umfang</w>":11706,"ertes</w>":11707,"wendet</w>":11708,"qualifizi":11709,"ehrte</w>":11710,"decorated</w>":11711,"Noch</w>":11712,"Vorteil</w>":11713,"Economic</w>":11714,"Tatsächlich</w>":11715,"betroffen</w>":11716,"tried</w>":11717,"müs":11718,"heav":11719,"fehlt</w>":11720,"nieder":11721,"Procedure</w>":11722,"initial</w>":11723,"someone</w>":11724,"happening</w>":11725,"ielt</w>":11726,"Material</w>":11727,"sammlung</w>":11728,"monetary</w>":11729,"fähig</w>":11730,"adults</w>":11731,"Schengen</w>":11732,"Mitgliedstaat</w>":11733,"High":11734,"Grundsatz</w>":11735,"Darum</w>":11736,"kraft</w>":11737,"implementing</w>":11738,"Niederlan":11739,"behandeln</w>":11740,"finance</w>":11741,"wesentlichen</w>":11742,"lovely</w>":11743,"Risiko</w>":11744,"museum</w>":11745,"studies</w>":11746,"Wirkung</w>":11747,"skin</w>":11748,"Websites</w>":11749,"Reservierung</w>":11750,"deine</w>":11751,"payments</w>":11752,"Überwachung</w>":11753,"won":11754,"Zeitraum</w>":11755,"Dep":11756,"feststellen</w>":11757,"Miss":11758,"BM":11759,"GB</w>":11760,"respe":11761,"Trotz</w>":11762,"Telefon</w>":11763,"rejected</w>":11764,"MI":11765,"einiger</w>":11766,"geg":11767,"utch</w>":11768,"internationaler</w>":11769,"ktivität</w>":11770,"staatlichen</w>":11771,"recommendations</w>":11772,"Edi":11773,"NG":11774,"Einhaltung</w>":11775,"Kris":11776,"este</w>":11777,"presentation</w>":11778,"atever</w>":11779,"block</w>":11780,"EADS</w>":11781,"leads</w>":11782,"Anlage</w>":11783,"ghted</w>":11784,"author":11785,"allery</w>":11786,"Liebe</w>":11787,"nia</w>":11788,"opposite</w>":11789,"dity</w>":11790,"emerg":11791,"Geträn":11792,"läss":11793,"stronom":11794,"Nahrungs":11795,"nights</w>":11796,"Situ":11797,"echte</w>":11798,"Aufnahme</w>":11799,"äufer</w>":11800,"speakers</w>":11801,"Achtung</w>":11802,"Live</w>":11803,"Work":11804,"delivered</w>":11805,"Gran":11806,"Haus":11807,"alar":11808,"wohner</w>":11809,"Unternehmens</w>":11810,"PC":11811,"niemals</w>":11812,"stone</w>":11813,"Treffen</w>":11814,"Badezimmer</w>":11815,"Wan":11816,"bus":11817,"Ref</w>":11818,"Kontakt":11819,"graphic</w>":11820,"glad</w>":11821,"Zwischen":11822,"fare</w>":11823,"mittag</w>":11824,"defence</w>":11825,"Friedens":11826,"Stimm":11827,"akzeptabel</w>":11828,"gg":11829,"Environ":11830,"allgemeine</w>":11831,"Struktur</w>":11832,"arten</w>":11833,"befassen</w>":11834,"Regu":11835,"Genehm":11836,"Mobili":11837,"nationaler</w>":11838,"vorgeschlagenen</w>":11839,"consistent</w>":11840,"97</w>":11841,"ökonom":11842,"endum</w>":11843,"Schü":11844,"Research</w>":11845,"sicherzustellen</w>":11846,"einzelne</w>":11847,"gendes</w>":11848,"ehema":11849,"Straßen":11850,"Samm":11851,"Hamburg</w>":11852,"Ambiente</w>":11853,"vated</w>":11854,"niemand</w>":11855,"besit":11856,"updates</w>":11857,"dishes</w>":11858,"lie</w>":11859,"Firmen</w>":11860,"Have</w>":11861,"Risiken</w>":11862,"orer</w>":11863,"bewegen</w>":11864,"ffs</w>":11865,"Bush</w>":11866,"head":11867,"holen</w>":11868,"National":11869,"sichts":11870,"Poten":11871,"discussing</w>":11872,"sämtliche</w>":11873,"Softwar":11874,"TE</w>":11875,"Schnit":11876,"mani":11877,"sequent</w>":11878,"praktisch</w>":11879,"rying</w>":11880,"atin</w>":11881,"spread</w>":11882,"Despite</w>":11883,"Nations</w>":11884,"mischen</w>":11885,"ye</w>":11886,"bezieht</w>":11887,"opposition</w>":11888,"SL</w>":11889,"Sec":11890,"despite</w>":11891,"expendi":11892,"Gesetzgebung</w>":11893,"Santa</w>":11894,"25":11895,"sn":11896,"dealt</w>":11897,"trum</w>":11898,"Kosten":11899,"Haushaltsp":11900,"ves":11901,"improvements</w>":11902,"expectations</w>":11903,"onto</w>":11904,"Politiker</w>":11905,"Constitution</w>":11906,"Gas":11907,"Thurs":11908,"Winter":11909,"causes</w>":11910,"ardi":11911,"urge</w>":11912,"prou":11913,"bodies</w>":11914,"Zugriff</w>":11915,"erer</w>":11916,"entsch":11917,"Betra":11918,"practices</w>":11919,"conclude</w>":11920,"gearbeitet</w>":11921,"daraus</w>":11922,"Without</w>":11923,"Over</w>":11924,"User</w>":11925,"übernommen</w>":11926,"Kollege</w>":11927,"Verpflichtung</w>":11928,"Voraussetzung</w>":11929,"inhab":11930,"estim":11931,"Anlagen</w>":11932,"beaches</w>":11933,"offici":11934,"Unterschied</w>":11935,"Spiele</w>":11936,"rt</w>":11937,"Corpor":11938,"Special</w>":11939,"lichem</w>":11940,"campaign</w>":11941,"fach</w>":11942,"drei":11943,"nd</w>":11944,"bien</w>":11945,"jemand</w>":11946,"Abschnitt</w>":11947,"ktoren</w>":11948,"Neue</w>":11949,"Pflan":11950,"Wünsche</w>":11951,"Mü":11952,"ebe</w>":11953,"Optim":11954,"beantworten</w>":11955,"cau":11956,"psy":11957,"rol</w>":11958,"noise</w>":11959,"Eindruck</w>":11960,"collabor":11961,"Diskussionen</w>":11962,"interessante</w>":11963,"tours</w>":11964,"äden</w>":11965,"atlan":11966,"risten</w>":11967,"sembly</w>":11968,"gone</w>":11969,"dich</w>":11970,"voraus":11971,"wachst":11972,"preise</w>":11973,"entit":11974,"eigenes</w>":11975,"Kraft":11976,"valuable</w>":11977,"Thirdly</w>":11978,"Ps</w>":11979,"tene</w>":11980,"Chil":11981,"origin</w>":11982,"Punkten</w>":11983,"semin":11984,"Einstellung</w>":11985,"steigen</w>":11986,"Zahlungs":11987,"Farb":11988,"Umständen</w>":11989,"license</w>":11990,"lasse</w>":11991,"safegu":11992,"paragraph</w>":11993,"Veröffent":11994,"Kunde</w>":11995,"dritte</w>":11996,"unit</w>":11997,"appar":11998,"Mindest":11999,"judi":12000,"regeln</w>":12001,"250</w>":12002,"43</w>":12003,"unterbro":12004,"wegs</w>":12005,"gelungen</w>":12006,"Komple":12007,"intensive</w>":12008,"organised</w>":12009,"GNU</w>":12010,"ctor</w>":12011,"zy</w>":12012,"inci":12013,"Anonymous</w>":12014,"fications</w>":12015,"Kohä":12016,"Custom":12017,"Ve":12018,"auff":12019,"col</w>":12020,"furniture</w>":12021,"tigkeiten</w>":12022,"see":12023,"wö":12024,"Kontin":12025,"economies</w>":12026,"responsibilities</w>":12027,"instance</w>":12028,"schätzen</w>":12029,"nation</w>":12030,"echischen</w>":12031,"installieren</w>":12032,"keiner</w>":12033,"pot</w>":12034,"Fälle</w>":12035,"regret</w>":12036,"conci":12037,"organization</w>":12038,"Ed":12039,"ang":12040,"lake</w>":12041,"PT</w>":12042,"oral</w>":12043,"ext</w>":12044,"Banken</w>":12045,"zugänglich</w>":12046,"erreichbar</w>":12047,"voran":12048,"refuge":12049,"ph</w>":12050,"enga":12051,"Zivil":12052,"railway</w>":12053,"calling</w>":12054,"behin":12055,"ings":12056,"trotzdem</w>":12057,"handel</w>":12058,"és</w>":12059,"counter</w>":12060,"pre</w>":12061,"Gesetz</w>":12062,"Genießen</w>":12063,"Häl":12064,"Zwei</w>":12065,"kn":12066,"Optionen</w>":12067,"erforderlichen</w>":12068,"schicken</w>":12069,"kern</w>":12070,"aces</w>":12071,"Ferner</w>":12072,"Dienst</w>":12073,"ray</w>":12074,"exists</w>":12075,"evaluation</w>":12076,"roo":12077,"Erhö":12078,"Zustän":12079,"zerstör":12080,"detailli":12081,"wettbewer":12082,"Ki":12083,"Roh":12084,"tto</w>":12085,"schwe":12086,"sensus</w>":12087,"telef":12088,"führenden</w>":12089,"rad</w>":12090,"verkehr":12091,"seek</w>":12092,"Anges":12093,"Gebieten</w>":12094,"Niveau</w>":12095,"Morgen</w>":12096,"Platt":12097,"ato</w>":12098,"gebil":12099,"merely</w>":12100,"sicherstellen</w>":12101,"Passwort</w>":12102,"Hist":12103,"Sc":12104,"Kategorie</w>":12105,"lägen</w>":12106,"Aufgrund</w>":12107,"venue</w>":12108,"Verbesserungen</w>":12109,"TP</w>":12110,"bezahlen</w>":12111,"übertragen</w>":12112,"deutsche</w>":12113,"constructive</w>":12114,"Thursday</w>":12115,"eröffnet</w>":12116,"medizin":12117,"bruch</w>":12118,"balcony</w>":12119,"Fraktionen</w>":12120,"größeren</w>":12121,"compatible</w>":12122,"Hard":12123,"Ausstattung</w>":12124,"Install":12125,"120</w>":12126,"Tan":12127,"richtlinie</w>":12128,"dauer":12129,"Vertrags</w>":12130,"Instead</w>":12131,"earn</w>":12132,"bereiche</w>":12133,"delay</w>":12134,"Ordnung</w>":12135,"hauptsächlich</w>":12136,"Jour":12137,"wesen</w>":12138,"strö":12139,"Trade</w>":12140,"Rumä":12141,"Gold</w>":12142,"satisfied</w>":12143,"fen":12144,"rokrati":12145,"spending</w>":12146,"Überprüfung</w>":12147,"correctly</w>":12148,"glass</w>":12149,"topic</w>":12150,"con</w>":12151,"asyl":12152,"eman":12153,"zuvor</w>":12154,"Puer":12155,"ha</w>":12156,"profile</w>":12157,"dership</w>":12158,"freundliche</w>":12159,"granted</w>":12160,"spa</w>":12161,"Prodi</w>":12162,"Statisti":12163,"Teilen</w>":12164,"allel</w>":12165,"Redner</w>":12166,"candidate</w>":12167,"DA</w>":12168,"Licht</w>":12169,"Apar":12170,"lautet</w>":12171,"GA":12172,"Some":12173,"truth</w>":12174,"Farbe</w>":12175,"unable</w>":12176,"absichti":12177,"Aufbau</w>":12178,"ausschuss</w>":12179,"zeichnis</w>":12180,"Austrian</w>":12181,"ehnt</w>":12182,"Konfigu":12183,"blin</w>":12184,"regionalen</w>":12185,"Patienten</w>":12186,"Stadtzentrum</w>":12187,"hl</w>":12188,"dead":12189,"Mitglieds":12190,"situations</w>":12191,"Tiere</w>":12192,"Vereinten</w>":12193,"ruhig</w>":12194,"Klimawandel</w>":12195,"erscheinen</w>":12196,"Schlafzimmer</w>":12197,"Strategi":12198,"VI":12199,"sole</w>":12200,"ließen</w>":12201,"Peti":12202,"asylum</w>":12203,"Nachrichten</w>":12204,"bedrooms</w>":12205,"consultation</w>":12206,"nachhaltige</w>":12207,"Eisen":12208,"seven</w>":12209,"bure":12210,"mögen</w>":12211,"independence</w>":12212,"Prop":12213,"vertei":12214,"realisti":12215,"Prüfung</w>":12216,"Fi</w>":12217,"onia</w>":12218,"Formen</w>":12219,"weisung</w>":12220,"Alternative</w>":12221,"näher</w>":12222,"healthy</w>":12223,"Croatia</w>":12224,"deep</w>":12225,"vite</w>":12226,"strategie</w>":12227,"Golf":12228,"messages</w>":12229,"Beratung</w>":12230,"Bör":12231,"vering</w>":12232,"Vermitt":12233,"darstellt</w>":12234,"gerufen</w>":12235,"ica</w>":12236,"samer</w>":12237,"Des</w>":12238,"mountains</w>":12239,"lück</w>":12240,"civili":12241,"teiligung</w>":12242,"ear</w>":12243,"les":12244,"gefügt</w>":12245,"Bedien":12246,"hes":12247,"doub":12248,"fi</w>":12249,"wom":12250,"destination</w>":12251,"combined</w>":12252,"lags</w>":12253,"Anteil</w>":12254,"prep":12255,"governmental</w>":12256,"Don":12257,"Essen</w>":12258,"zentral</w>":12259,"Sollten</w>":12260,"Freude</w>":12261,"HTML</w>":12262,"sauber</w>":12263,"affect</w>":12264,"Methoden</w>":12265,"golf</w>":12266,"Temperat":12267,"Cast":12268,"DP</w>":12269,"hängen</w>":12270,"criminal</w>":12271,"Be</w>":12272,"eim":12273,"watch</w>":12274,"Dutch</w>":12275,"SV</w>":12276,"iry</w>":12277,"Krieg":12278,"Romania</w>":12279,"kräfte</w>":12280,"Hälfte</w>":12281,"chtes</w>":12282,"info</w>":12283,"square</w>":12284,"stations</w>":12285,"Ausland</w>":12286,"worfen</w>":12287,"Stärkung</w>":12288,"announced</w>":12289,"fts</w>":12290,"deals</w>":12291,"dene</w>":12292,"television</w>":12293,"bildet</w>":12294,"Funda":12295,"Back":12296,"Simp":12297,"passung</w>":12298,"enge</w>":12299,"alt":12300,"smaller</w>":12301,"entscheidend</w>":12302,"0er</w>":12303,"Lim":12304,"ses":12305,"liter":12306,"esn</w>":12307,"org</w>":12308,"trags</w>":12309,"zeug":12310,"Kamera</w>":12311,"Erwartungen</w>":12312,"ony</w>":12313,"lists</w>":12314,"entliche</w>":12315,"Maße</w>":12316,"regularly</w>":12317,"Eigenschaften</w>":12318,"ala</w>":12319,"porting</w>":12320,"cient</w>":12321,"politisch</w>":12322,"brief":12323,"Prakti":12324,"Wiederauf":12325,"photograph":12326,"besor":12327,"zierung</w>":12328,"Mail":12329,"Bug":12330,"producers</w>":12331,"NO":12332,"facts</w>":12333,"highlight</w>":12334,"Element</w>":12335,"beauty</w>":12336,"beeinflus":12337,"Experi":12338,"virtu":12339,"compared</w>":12340,"Religi":12341,"dining</w>":12342,"Royal</w>":12343,"verabschie":12344,"hl":12345,"ühr</w>":12346,"Schn":12347,"commitments</w>":12348,"dler</w>":12349,"einander":12350,"sprachen</w>":12351,"Besonders</w>":12352,"vulner":12353,"Vit":12354,"geschi":12355,"Expl":12356,"institution</w>":12357,"ausgezeichnete</w>":12358,"competence</w>":12359,"Koordinierung</w>":12360,"ensuring</w>":12361,"symp":12362,"neighbour":12363,"runs</w>":12364,"foot</w>":12365,"court</w>":12366,"objects</w>":12367,"shape</w>":12368,"determined</w>":12369,"associated</w>":12370,"configuration</w>":12371,"unternommen</w>":12372,"Hoffnung</w>":12373,"aktive</w>":12374,"drink</w>":12375,"folio</w>":12376,"Mac</w>":12377,"perio":12378,"Dou":12379,"LO":12380,"stuff</w>":12381,"aimed</w>":12382,"Flo":12383,"verdient</w>":12384,"neuesten</w>":12385,"removed</w>":12386,"stehende</w>":12387,"begriffen</w>":12388,"schnell":12389,"eckt</w>":12390,"finished</w>":12391,"Notes</w>":12392,"besseren</w>":12393,"Last":12394,"Mitteln</w>":12395,"dauert</w>":12396,"Street</w>":12397,"substantial</w>":12398,"Spaß</w>":12399,"ordnungs":12400,"begonnen</w>":12401,"achieving</w>":12402,"kulturellen</w>":12403,"dynamic</w>":12404,"Aktionsp":12405,"hol</w>":12406,"weather</w>":12407,"recognition</w>":12408,"meist</w>":12409,"Dublin</w>":12410,"ausgezeichneten</w>":12411,"seg":12412,"regelmäß":12413,"attempt</w>":12414,"Unabhängigkeit</w>":12415,"üben</w>":12416,"district</w>":12417,"Day</w>":12418,"spezifische</w>":12419,"Todes":12420,"driving</w>":12421,"Biblioth":12422,"jur":12423,"Subject</w>":12424,"Körper</w>":12425,"Diskriminierung</w>":12426,"prepare</w>":12427,"darstellen</w>":12428,"schnelle</w>":12429,"Donner":12430,"dist":12431,"tigten</w>":12432,"verstärkt</w>":12433,"jährlich</w>":12434,"AI":12435,"moment":12436,"sprüche</w>":12437,"claims</w>":12438,"Rome</w>":12439,"estate</w>":12440,"hostel</w>":12441,"IV</w>":12442,"Sand":12443,"dance</w>":12444,"yes</w>":12445,"charges</w>":12446,"length</w>":12447,"Bou":12448,"veget":12449,"abgelehnt</w>":12450,"unanim":12451,"zuerst</w>":12452,"1994</w>":12453,"Nicht":12454,"gefallen</w>":12455,"Pakete</w>":12456,"Webseiten</w>":12457,"Wochen":12458,"Gesetze</w>":12459,"Glei":12460,"depar":12461,"assist</w>":12462,"personally</w>":12463,"Maschinen</w>":12464,"Company</w>":12465,"Bla":12466,"ay":12467,"irs</w>":12468,"griffen</w>":12469,"Foundation</w>":12470,"gewisse</w>":12471,"Email</w>":12472,"genie":12473,"Staff</w>":12474,"teuer</w>":12475,"Effizienz</w>":12476,"Sli":12477,"adds</w>":12478,"trags":12479,"ghting</w>":12480,"auslän":12481,"mittels</w>":12482,"Charakter</w>":12483,"Find</w>":12484,"rental</w>":12485,"edback</w>":12486,"nachdem</w>":12487,"individuals</w>":12488,"läufi":12489,"renovated</w>":12490,"nun":12491,"ücke</w>":12492,"Prime</w>":12493,"Zerti":12494,"NL</w>":12495,"equality</w>":12496,"Perspe":12497,"vorschlag</w>":12498,"früher</w>":12499,"Vorbereitung</w>":12500,"covers</w>":12501,"motor":12502,"Bedro":12503,"Verhältnis</w>":12504,"listen":12505,"river</w>":12506,"master</w>":12507,"boot</w>":12508,"Trotzdem</w>":12509,"establishment</w>":12510,"Cookies</w>":12511,"gical</w>":12512,"expenditure</w>":12513,"beendet</w>":12514,"gely</w>":12515,"kleiner</w>":12516,"governance</w>":12517,"tseite</w>":12518,"desired</w>":12519,"SA</w>":12520,"Versionen</w>":12521,"Donnerstag</w>":12522,"cei":12523,"tür":12524,"rapid</w>":12525,"Schluss":12526,"sold</w>":12527,"creates</w>":12528,"wäch":12529,"leader</w>":12530,"stored</w>":12531,"Wahrheit</w>":12532,"Gü":12533,"Test":12534,"tzei":12535,"Problems</w>":12536,"Wohnung</w>":12537,"windigkeit</w>":12538,"kilome":12539,"consensus</w>":12540,"aves</w>":12541,"Zustand</w>":12542,"intend</w>":12543,"Angesichts</w>":12544,"alter":12545,"derartige</w>":12546,"resolved</w>":12547,"einzigen</w>":12548,"satelli":12549,"ping</w>":12550,"mali":12551,"Gerichte</w>":12552,"sorgfältig</w>":12553,"gir":12554,"Jed":12555,"Kauf":12556,"Sci":12557,"fak":12558,"ero":12559,"Bos":12560,"couple</w>":12561,"ministr":12562,"doesn</w>":12563,"herrscht</w>":12564,"Lob":12565,"employed</w>":12566,"continuing</w>":12567,"mechanism</w>":12568,"wesentliche</w>":12569,"resolve</w>":12570,"reserve</w>":12571,"Führung</w>":12572,"96</w>":12573,"Kyo":12574,"contained</w>":12575,"mentally</w>":12576,"significantly</w>":12577,"Tal":12578,"peti":12579,"privi":12580,"ization</w>":12581,"nischen</w>":12582,"pac":12583,"Swedish</w>":12584,"asts</w>":12585,"ore":12586,"Nachricht</w>":12587,"Mittelpunkt</w>":12588,"invite</w>":12589,"plying</w>":12590,"Bay</w>":12591,"cast</w>":12592,"tagen</w>":12593,"shof</w>":12594,"ppen</w>":12595,"Phase</w>":12596,"heri":12597,"iniert</w>":12598,"documentation</w>":12599,"genauso</w>":12600,"Schweden</w>":12601,"defic":12602,"wachen</w>":12603,"erneuer":12604,"Sanktionen</w>":12605,"suggestions</w>":12606,"fiscal</w>":12607,"alismus</w>":12608,"overview</w>":12609,"produktion</w>":12610,"God</w>":12611,"EG</w>":12612,"reck":12613,"angemessen</w>":12614,"feeling</w>":12615,"treu":12616,"leistungs":12617,"entered</w>":12618,"Global</w>":12619,"präsentiert</w>":12620,"Bli":12621,"EC</w>":12622,"liability</w>":12623,"gener</w>":12624,"Umweltsch":12625,"Schlüssel</w>":12626,"gesellschaften</w>":12627,"eria</w>":12628,"nehmer":12629,"erheblich</w>":12630,"trop":12631,"Beteiligung</w>":12632,"prevention</w>":12633,"investments</w>":12634,"eventu":12635,"Gedanken</w>":12636,"nearly</w>":12637,"Obama</w>":12638,"expertise</w>":12639,"0s</w>":12640,"ffer":12641,"nummer</w>":12642,"zipien</w>":12643,"Express</w>":12644,"exclusively</w>":12645,"accounts</w>":12646,"weapons</w>":12647,"proud</w>":12648,"nar":12649,"aren</w>":12650,"diger</w>":12651,"läne</w>":12652,"Maßnahme</w>":12653,"extend</w>":12654,"repeat</w>":12655,"Summit</w>":12656,"Ear":12657,"opposed</w>":12658,"command</w>":12659,"talks</w>":12660,"kinds</w>":12661,"expression</w>":12662,"hervorragende</w>":12663,"Ke":12664,"Entwickl":12665,"Milit":12666,"dio":12667,"schwar":12668,"gestern</w>":12669,"igkeiten</w>":12670,"Gefühl</w>":12671,"starken</w>":12672,"1000</w>":12673,"Kroati":12674,"ME</w>":12675,"entdecken</w>":12676,"Verhalten</w>":12677,"conditioning</w>":12678,"Tier":12679,"Veranstaltung</w>":12680,"Reaktion</w>":12681,"Plä":12682,"theit</w>":12683,"attitude</w>":12684,"Mak":12685,"boat</w>":12686,"nahe":12687,"Motor":12688,"experiences</w>":12689,"adoption</w>":12690,"naturally</w>":12691,"Lev":12692,"ctional</w>":12693,"Konsequ":12694,"Beide</w>":12695,"proceed</w>":12696,"landscape</w>":12697,"non":12698,"him":12699,"individuelle</w>":12700,"anwes":12701,"orial</w>":12702,"Description</w>":12703,"malerweise</w>":12704,"Flä":12705,"beabsichti":12706,"Teilnahme</w>":12707,"selbe</w>":12708,"darunter</w>":12709,"England</w>":12710,"emphasise</w>":12711,"eras</w>":12712,"desire</w>":12713,"Katalog</w>":12714,"Fei":12715,"sinnvoll</w>":12716,"test":12717,"coast</w>":12718,"Kontroll":12719,"Christian</w>":12720,"Turkish</w>":12721,"Kyoto</w>":12722,"zufolge</w>":12723,"linge</w>":12724,"positiven</w>":12725,"ampi":12726,"decisi":12727,"recovery</w>":12728,"eye</w>":12729,"gestaltet</w>":12730,"Association</w>":12731,"BO":12732,"gas":12733,"wan</w>":12734,"insi":12735,"verlangen</w>":12736,"kehren</w>":12737,"Beihilfen</w>":12738,"Klima</w>":12739,"drücken</w>":12740,"Ware</w>":12741,"Anpassung</w>":12742,"super</w>":12743,"manager</w>":12744,"Bildschir":12745,"liked</w>":12746,"entgegen":12747,"grundlage</w>":12748,"manufacturing</w>":12749,"rats</w>":12750,"prefer</w>":12751,"straße</w>":12752,"Paper</w>":12753,"ri</w>":12754,"swe":12755,"Ausgang":12756,"unterst":12757,"geschlossen":12758,"Quality</w>":12759,"fordere</w>":12760,"recognise</w>":12761,"Ratsvorsitz</w>":12762,"Health</w>":12763,"Cul":12764,"zusätzlichen</w>":12765,"disaster</w>":12766,"Messe</w>":12767,"Tisch</w>":12768,"anded</w>":12769,"Beobach":12770,"Financial</w>":12771,"Mitgliedern</w>":12772,"bureau":12773,"habt</w>":12774,"sauna</w>":12775,"überprüft</w>":12776,"obligations</w>":12777,"13":12778,"reject</w>":12779,"gespielt</w>":12780,"Beiträge</w>":12781,"View</w>":12782,"EI":12783,"beraten</w>":12784,"Prüf":12785,"visible</w>":12786,"weg":12787,"Chem":12788,"Amerika</w>":12789,"reducing</w>":12790,"sanctions</w>":12791,"manufacturers</w>":12792,"schools</w>":12793,"beglückwünschen</w>":12794,"Munich</w>":12795,"agen</w>":12796,"beob":12797,"mar</w>":12798,"bike</w>":12799,"steel</w>":12800,"taxes</w>":12801,"zweifellos</w>":12802,"Cro":12803,"Ansch":12804,"essor</w>":12805,"Verkehr</w>":12806,"85</w>":12807,"directory</w>":12808,"befürwor":12809,"CI":12810,"Mall":12811,"than":12812,"heraus</w>":12813,"promotion</w>":12814,"Subsi":12815,"figure</w>":12816,"Kombination</w>":12817,"MB</w>":12818,"koh":12819,"pel":12820,"rasch</w>":12821,"vorgenommen</w>":12822,"arien</w>":12823,"expan":12824,"Landschaft</w>":12825,"strength</w>":12826,"realistic</w>":12827,"Korea</w>":12828,"geni":12829,"produkte</w>":12830,"whom</w>":12831,"gefähr</w>":12832,"berge</w>":12833,"alised</w>":12834,"Island</w>":12835,"herunterladen</w>":12836,"Wur":12837,"anerkannt</w>":12838,"trou":12839,"Geschm":12840,"suggest</w>":12841,"aktiviert</w>":12842,"Materialien</w>":12843,"Festival</w>":12844,"HO":12845,"fashi":12846,"suites</w>":12847,"CO</w>":12848,"Il":12849,"Leu":12850,"wered</w>":12851,"survi":12852,"primarily</w>":12853,"Jac":12854,"desk</w>":12855,"handling</w>":12856,"beruf":12857,"Oli":12858,"starts</w>":12859,"Lake</w>":12860,"navig":12861,"physical</w>":12862,"britischen</w>":12863,"authenti":12864,"temperature</w>":12865,"module</w>":12866,"mo</w>":12867,"output</w>":12868,"texts</w>":12869,"konkreten</w>":12870,"religious</w>":12871,"erweitert</w>":12872,"spür":12873,"nehmern</w>":12874,"colleague</w>":12875,"Sco":12876,"kas</w>":12877,"werten</w>":12878,"plenty</w>":12879,"Betrifft</w>":12880,"intelli":12881,"kümm":12882,"Betten</w>":12883,"Liberalisierung</w>":12884,"Lesen</w>":12885,"glück":12886,"öse</w>":12887,"criticism</w>":12888,"bour</w>":12889,"geprüft</w>":12890,"alisten</w>":12891,"bedeuten</w>":12892,"Phone</w>":12893,"keines":12894,"Lounge</w>":12895,"Generation</w>":12896,"Männer</w>":12897,"vacation</w>":12898,"accur":12899,"Übersetz":12900,"disease</w>":12901,"Landwirte</w>":12902,"Eli":12903,"roll":12904,"multilater":12905,"Vertrags":12906,"verbo":12907,"regionale</w>":12908,"equally</w>":12909,"Argent":12910,"ario</w>":12911,"Demo":12912,"caf":12913,"thers</w>":12914,"diverse</w>":12915,"leadership</w>":12916,"African</w>":12917,"ierte</w>":12918,"laut</w>":12919,"unterschied":12920,"klusi":12921,"Infrastruktur</w>":12922,"betreffen</w>":12923,"genommen":12924,"fif":12925,"colour</w>":12926,"Königreich</w>":12927,"Mem":12928,"Pic":12929,"angeht</w>":12930,"laid</w>":12931,"angegeben</w>":12932,"Top</w>":12933,"cling</w>":12934,"hinzufügen</w>":12935,"fabri":12936,"ren</w>":12937,"plate</w>":12938,"evol":12939,"Waren</w>":12940,"Benutzer":12941,"lounge</w>":12942,"intervention</w>":12943,"könnt</w>":12944,"begann</w>":12945,"approval</w>":12946,"atischen</w>":12947,"winden</w>":12948,"reflect</w>":12949,"entitled</w>":12950,"inary</w>":12951,"zeige</w>":12952,"olls</w>":12953,"Bahn</w>":12954,"TS</w>":12955,"tty</w>":12956,"audio</w>":12957,"beträ":12958,"werfen</w>":12959,"hospit":12960,"Make</w>":12961,"individuell</w>":12962,"attack</w>":12963,"eingeschränkt</w>":12964,"dank</w>":12965,"focus":12966,"renewable</w>":12967,"mented</w>":12968,"gigen</w>":12969,"1992</w>":12970,"ausgeführt</w>":12971,"Holz":12972,"claim</w>":12973,"grundlegende</w>":12974,"bun":12975,"sieben</w>":12976,"Erleb":12977,"preis":12978,"potenzi":12979,"Schule</w>":12980,"eingerich":12981,"proved</w>":12982,"Vorsitz":12983,"Änderungsanträgen</w>":12984,"geförder":12985,"journey</w>":12986,"perfekt</w>":12987,"verst":12988,"parla":12989,"täten</w>":12990,"obligation</w>":12991,"statistics</w>":12992,"cosy</w>":12993,"verlangt</w>":12994,"Innen</w>":12995,"undings</w>":12996,"depending</w>":12997,"leichter":12998,"stellungs":12999,"jüngsten</w>":13000,"putting</w>":13001,"tan</w>":13002,"rail</w>":13003,"höh":13004,"höher</w>":13005,"schönsten</w>":13006,"pollu":13007,"A4</w>":13008,"rauch</w>":13009,"Konto</w>":13010,"ishing</w>":13011,"fies</w>":13012,"folgerungen</w>":13013,"Sollte</w>":13014,"yle</w>":13015,"annen</w>":13016,"Begriff</w>":13017,"Menü</w>":13018,"barri":13019,"Agrarpolitik</w>":13020,"Anbieter</w>":13021,"Zusatz":13022,"künftig</w>":13023,"proof</w>":13024,"rechtlichen</w>":13025,"tonom":13026,"blue</w>":13027,"yout</w>":13028,"politicians</w>":13029,"prevent":13030,"Ferienwohnung</w>":13031,"700</w>":13032,"nations</w>":13033,"Market</w>":13034,"define</w>":13035,"dependent</w>":13036,"sibly</w>":13037,"primary</w>":13038,"PA":13039,"unless</w>":13040,"1990</w>":13041,"careful</w>":13042,"Eastern</w>":13043,"anische</w>":13044,"schafft</w>":13045,"stehe</w>":13046,"capable</w>":13047,"zunehmen":13048,"John</w>":13049,"CE</w>":13050,"tball</w>":13051,"vorange":13052,"Handeln</w>":13053,"Publik":13054,"Ob</w>":13055,"junge</w>":13056,"moved</w>":13057,"eriode</w>":13058,"relatively</w>":13059,"Location</w>":13060,
[...]
