{"<unk>":0,"<pad>":1,"<BOS>":2,"<EOS>":3,"!":4,"#":5,"$":6,"%":7,"&":8,"(":9,")":10,"*":11,"+":12,",":13,"-":14,".":15,"/":16,"0":17,"1":18,"2":19,"3":20,"4":21,"5":22,"6":23,"7":24,"8":25,"9":26,":":27,";":28,"=":29,"?":30,"@":31,"A":32,"B":33,"C":34,"D":35,"E":36,"F":37,"G":38,"H":39,"I":40,"J":41,"K":42,"L":43,"M":44,"N":45,"O":46,"P":47,"Q":48,"R":49,"S":50,"T":51,"U":52,"V":53,"W":54,"X":55,"Y":56,"Z":57,"\\":58,"^":59,"_":60,"a":61,"b":62,"c":63,"d":64,"e":65,"f":66,"g":67,"h":68,"i":69,"j":70,"k":71,"l":72,"m":73,"n":74,"o":75,"p":76,"q":77,"r":78,"s":79,"t":80,"u":81,"v":82,"w":83,"x":84,"y":85,"z":86,"{":87,"}":88,"~":89,"¡":90,"¢":91,"£":92,"¤":93,"¥":94,"¦":95,"§":96,"¨":97,"©":98,"ª":99,"¬":100,"®":101,"¯":102,"°":103,"±":104,"²":105,"³":106,"µ":107,"¶":108,"·":109,"¸":110,"¹":111,"º":112,"¼":113,"½":114,"¾":115,"¿":116,"À":117,"Á":118,"Â":119,"Ã":120,"Ä":121,"Å":122,"Æ":123,"Ç":124,"È":125,"É":126,"Ê":127,"Ë":128,"Ì":129,"Í":130,"Î":131,"Ï":132,"Ð":133,"Ñ":134,"Ò":135,"Ó":136,"Ô":137,"Õ":138,"Ö":139,"×":140,"Ø":141,"Ù":142,"Ú":143,"Û":144,"Ü":145,"Ý":146,"Þ":147,"ß":148,"à":149,"á":150,"â":151,"ã":152,"ä":153,"å":154,"æ":155,"ç":156,"è":157,"é":158,"ê":159,"ë":160,"ì":161,"í":162,"î":163,"ï":164,"ð":165,"ñ":166,"ò":167,"ó":168,"ô":169,"õ":170,"ö":171,"÷":172,"ø":173,"ù":174,"ú":175,"û":176,"ü":177,"ý":178,"þ":179,"ÿ":180,"Ā":181,"ā":182,"Ă":183,"ă":184,"Ą":185,"ą":186,"Ć":187,"ć":188,"Ĉ":189,"Č":190,"č":191,"Ď":192,"ď":193,"Đ":194,"đ":195,"ē":196,"ĕ":197,"Ė":198,"ė":199,"Ę":200,"ę":201,"Ě":202,"ě":203,"ĝ":204,"Ğ":205,"ğ":206,"ġ":207,"ģ":208,"ħ":209,"ĩ":210,"Ī":211,"ī":212,"Į":213,"į":214,"İ":215,"ı":216,"ķ":217,"Ĺ":218,"ĺ":219,"ļ":220,"Ľ":221,"ľ":222,"Ł":223,"ł":224,"Ń":225,"ń":226,"ņ":227,"Ň":228,"ň":229,"Ō":230,"ō":231,"ŏ":232,"Ő":233,"ő":234,"Œ":235,"œ":236,"ŕ":237,"Ř":238,"ř":239,"Ś":240,"ś":241,"Ş":242,"ş":243,"Š":244,"š":245,"Ţ":246,"ţ":247,"ť":248,"Ū":249,"ū":250,"ŭ":251,"Ů":252,"ů":253,"Ű":254,"ű":255,"Ų":256,"ų":257,"Ÿ":258,"ź":259,"Ż":260,"ż":261,"Ž":262,"ž":263,"ſ":264,"ƒ":265,"ơ":266,"ư":267,"ǎ":268,"ǐ":269,"ǔ":270,"ș":271,"ț":272,"ɐ":273,"ɑ":274,"ɔ":275,"ə":276,"ɛ":277,"ɨ":278,"ɪ":279,"ɾ":280,"ʃ":281,"ʒ":282,"ʿ":283,"ˆ":284,"ˈ":285,"ˌ":286,"ː":287,"˙":288,"˚":289,"˛":290,"˜":291,"˝":292,"́":293,"̃":294,"̈":295,"̍":296,"̤":297,"Ά":298,"Α":299,"Β":300,"Γ":301,"Δ":302,"Ε":303,"Η":304,"Θ":305,"Ι":306,"Κ":307,"Λ":308,"Μ":309,"Ν":310,"Ο":311,"Π":312,"Ρ":313,"Σ":314,"Τ":315,"Υ":316,"Φ":317,"Χ":318,"Ω":319,"ά":320,"έ":321,"ή":322,"ί":323,"α":324,"β":325,"γ":326,"δ":327,"ε":328,"ζ":329,"η":330,"θ":331,"ι":332,"κ":333,"λ":334,"μ":335,"ν":336,"ξ":337,"ο":338,"π":339,"ρ":340,"ς":341,"σ":342,"τ":343,"υ":344,"φ":345,"χ":346,"ψ":347,"ω":348,"ϋ":349,"ό":350,"ύ":351,"ώ":352,"Ё":353,"Ђ":354,"Ѓ":355,"Є":356,"І":357,"Ї":358,"Ј":359,"Љ":360,"Њ":361,"Ћ":362,"Ќ":363,"Ў":364,"Џ":365,"А":366,"Б":367,"В":368,"Г":369,"Д":370,"Е":371,"Ж":372,"З":373,"И":374,"Й":375,"К":376,"Л":377,"М":378,"Н":379,"О":380,"П":381,"Р":382,"С":383,"Т":384,"У":385,"Ф":386,"Х":387,"Ц":388,"Ч":389,"Ш":390,"Ы":391,"Ь":392,"Э":393,"Ю":394,"Я":395,"а":396,"б":397,"в":398,"г":399,"д":400,"е":401,"ж":402,"з":403,"и":404,"й":405,"к":406,"л":407,"м":408,"н":409,"о":410,"п":411,"р":412,"с":413,"т":414,"у":415,"ф":416,"х":417,"ц":418,"ч":419,"ш":420,"щ":421,"ъ":422,"ы":423,"ь":424,"э":425,"ю":426,"я":427,"ё":428,"ѓ":429,"є":430,"ѕ":431,"і":432,"ї":433,"ј":434,"љ":435,"њ":436,"ћ":437,"ќ":438,"ў":439,"џ":440,"Ґ":441,"ґ":442,"ғ":443,"қ":444,"ң":445,"ү":446,"ұ":447,"һ":448,"ә":449,"ֳ":450,"ִ":451,"ַ":452,"ָ":453,"ּ":454,"ֿ":455,"א":456,"ב":457,"ג":458,"ד":459,"ה":460,"ו":461,"ז":462,"ח":463,"ט":464,"י":465,"כ":466,"ל":467,"ם":468,"מ":469,"ן":470,"נ":471,"ס":472,"ע":473,"פ":474,"צ":475,"ק":476,"ר":477,"ש":478,"ת":479,"،":480,"ء":481,"آ":482,"أ":483,"إ":484,"ا":485,"ب":486,"ة":487,"ت":488,"ث":489,"ج":490,"ح":491,"خ":492,"د":493,"ذ":494,"ر":495,"ز":496,"س":497,"ش":498,"ص":499,"ض":500,"ط":501,"ع":502,"غ":503,"ف":504,"ق":505,"ك":506,"ل":507,"م":508,"ن":509,"ه":510,"و":511,"ى":512,"ي":513,"ً":514,"َ":515,"ُ":516,"ِ":517,"ّ":518,"ْ":519,"پ":520,"ک":521,"ی":522,"۰":523,"۱":524,"۲":525,"۹":526,"क":527,"त":528,"न":529,"प":530,"म":531,"य":532,"र":533,"ल":534,"स":535,"ह":536,"ा":537,"ि":538,"ु":539,"े":540,"्":541,"র":542,"ি":543,"্":544,"்":545,"ก":546,"ข":547,"ค":548,"ง":549,"จ":550,"ช":551,"ณ":552,"ด":553,"ต":554,"ถ":555,"ท":556,"ธ":557,"น":558,"บ":559,"ป":560,"ผ":561,"พ":562,"ม":563,"ย":564,"ร":565,"ล":566,"ว":567,"ศ":568,"ส":569,"ห":570,"อ":571,"ะ":572,"ั":573,"า":574,"ำ":575,"ิ":576,"ี":577,"ึ":578,"ื":579,"ุ":580,"ู":581,"เ":582,"แ":583,"โ":584,"ใ":585,"ไ":586,"ๆ":587,"็":588,"่":589,"้":590,"์":591,"ຸ":592,"ა":593,"ბ":594,"გ":595,"დ":596,"ე":597,"ვ":598,"ი":599,"ლ":600,"მ":601,"ნ":602,"ო":603,"რ":604,"ს":605,"ტ":606,"შ":607,"ረ":608,"በ":609,"ዓ":610,"የ":611,"ḥ":612,"ṭ":613,"ṳ":614,"ạ":615,"ả":616,"ế":617,"ề":618,"ệ":619,"ố":620,"ồ":621,"ộ":622,"ớ":623,"ờ":624,"ữ":625,"‐":626,"‑":627,"―":628,"‛":629,"‟":630,"†":631,"‡":632,"•":633,"‰":634,"′":635,"″":636,"‹":637,"›":638,"※":639,"⁄":640,"₂":641,"€":642,"№":643,"™":644,"Ω":645,"←":646,"↑":647,"→":648,"⇒":649,"⇢":650,"−":651,"√":652,"∞":653,"≈":654,"≤":655,"≥":656,"≪":657,"≫":658,"─":659,"│":660,"╚":661,"╩":662,"▒":663,"■":664,"▪":665,"►":666,"◆":667,"◊":668,"○":669,"◎":670,"●":671,"★":672,"☆":673,"♣":674,"♥":675,"♦":676,"♪":677,"、":678,"。":679,"「":680,"」":681,"『":682,"』":683,"【":684,"】":685,"あ":686,"い":687,"う":688,"え":689,"お":690,"か":691,"が":692,"き":693,"く":694,"け":695,"こ":696,"さ":697,"し":698,"じ":699,"す":700,"せ":701,"た":702,"だ":703,"ち":704,"っ":705,"つ":706,"て":707,"で":708,"と":709,"な":710,"に":711,"の":712,"は":713,"ば":714,"ま":715,"み":716,"め":717,"も":718,"よ":719,"ら":720,"り":721,"る":722,"れ":723,"わ":724,"を":725,"ん":726,"ア":727,"イ":728,"オ":729,"カ":730,"キ":731,"ク":732,"コ":733,"ジ":734,"ス":735,"タ":736,"チ":737,"ッ":738,"テ":739,"ト":740,"ド":741,"ナ":742,"バ":743,"フ":744,"プ":745,"マ":746,"メ":747,"ラ":748,"リ":749,"ル":750,"レ":751,"ン":752,"・":753,"ー":754,"一":755,"三":756,"上":757,"下":758,"不":759,"东":760,"个":761,"中":762,"为":763,"乐":764,"也":765,"了":766,"事":767,"二":768,"五":769,"亚":770,"交":771,"产":772,"京":773,"人":774,"仁":775,"以":776,"会":777,"伦":778,"但":779,"体":780,"元":781,"克":782,"免":783,"入":784,"全":785,"八":786,"公":787,"内":788,"农":789,"出":790,"分":791,"切":792,"刘":793,"到":794,"前":795,"加":796,"动":797,"北":798,"区":799,"匿":800,"十":801,"南":802,"博":803,"厂":804,"原":805,"去":806,"参":807,"发":808,"取":809,"口":810,"可":811,"台":812,"司":813,"合":814,"吉":815,"名":816,"吗":817,"和":818,"品":819,"啦":820,"四":821,"回":822,"国":823,"图":824,"國":825,"土":826,"在":827,"地":828,"场":829,"城":830,"增":831,"士":832,"多":833,"大":834,"天":835,"套":836,"女":837,"如":838,"娱":839,"婷":840,"子":841,"字":842,"学":843,"安":844,"定":845,"家":846,"容":847,"寺":848,"寿":849,"小":850,"少":851,"就":852,"山":853,"岛":854,"島":855,"州":856,"工":857,"市":858,"常":859,"平":860,"年":861,"应":862,"建":863,"式":864,"引":865,"当":866,"影":867,"得":868,"心":869,"思":870,"性":871,"情":872,"愛":873,"成":874,"我":875,"手":876,"持":877,"敏":878,"文":879,"料":880,"新":881,"方":882,"日":883,"明":884,"易":885,"是":886,"更":887,"最":888,"月":889,"有":890,"木":891,"本":892,"机":893,"李":894,"来":895,"杨":896,"東":897,"松":898,"林":899,"枫":900,"核":901,"楽":902,"模":903,"正":904,"武":905,"比":906,"民":907,"水":908,"江":909,"法":910,"洲":911,"海":912,"淫":913,"清":914,"漢":915,"爱":916,"片":917,"物":918,"王":919,"球":920,"理":921,"生":922,"用":923,"田":924,"电":925,"白":926,"的":927,"直":928,"相":929,"知":930,"石":931,"社":932,"神":933,"禅":934,"种":935,"科":936,"空":937,"站":938,"简":939,"管":940,"線":941,"网":942,"美":943,"而":944,"能":945,"自":946,"舞":947,"色":948,"艳":949,"茶":950,"行":951,"西":952,"要":953,"見":954,"见":955,"言":956,"語":957,"论":958,"语":959,"赌":960,"越":961,"路":962,"载":963,"迅":964,"过":965,"运":966,"近":967,"这":968,"通":969,"道":970,"都":971,"酒":972,"里":973,"重":974,"量":975,"金":976,"问":977,"雄":978,"雷":979,"青":980,"面":981,"音":982,"頂":983,"顶":984,"颖":985,"题":986,"風":987,"食":988,"馬":989,"马":990,"高":991,"국":992,"년":993,"어":994,"이":995,"한":996,"ﬁ":997,"ﬂ":998,"（":999,"）":1000,"，":1001,"－":1002,"：":1003,"s</w>":1004,"n</w>":1005,"e</w>":1006,"t</w>":1007,"l</w>":1008,"r</w>":1009,"i</w>":1010,"g</w>":1011,"А</w>":1012,"N</w>":1013,"O</w>":1014,"k</w>":1015,"u</w>":1016,"é</w>":1017,"d</w>":1018,"a</w>":1019,"y</w>":1020,"E</w>":1021,"L</w>":1022,"9</w>":1023,"S</w>":1024,"o</w>":1025,"A</w>":1026,"W</w>":1027,"j</w>":1028,"m</w>":1029,"h</w>":1030,"f</w>":1031,"T</w>":1032,"p</w>":1033,"ų</w>":1034,"z</w>":1035,"c</w>":1036,"w</w>":1037,"8</w>":1038,"5</w>":1039,"R</w>":1040,"ь</w>":1041,"6</w>":1042,"è</w>":1043,"ó</w>":1044,"0</w>":1045,"P</w>":1046,"ć</w>":1047,"3</w>":1048,"2</w>":1049,"п</w>":1050,"4</w>":1051,"и</w>":1052,"b</w>":1053,"H</w>":1054,"7</w>":1055,"л</w>":1056,"ß</w>":1057,"B</w>":1058,"K</w>":1059,"G</w>":1060,"x</w>":1061,"ã</w>":1062,"C</w>":1063,"X</w>":1064,"í</w>":1065,"е</w>":1066,"V</w>":1067,"я</w>":1068,"Ş</w>":1069,"о</w>":1070,"ы</w>":1071,"а</w>":1072,"1</w>":1073,"В</w>":1074,"č</w>":1075,"й</w>":1076,"ς</w>":1077,"ز</w>":1078,"Q</w>":1079,"ν</w>":1080,"M</w>":1081,"к</w>":1082,"н</w>":1083,"q</w>":1084,"ě</w>":1085,"น</w>":1086,"い</w>":1087,"Y</w>":1088,"ý</w>":1089,"D</w>":1090,"ă</w>":1091,"ε</w>":1092,"ą</w>":1093,"์</w>":1094,"С</w>":1095,"F</w>":1096,"I</w>":1097,"Ã</w>":1098,"і</w>":1099,"ő</w>":1100,"년</w>":1101,"v</w>":1102,"º</w>":1103,"х</w>":1104,"ú</w>":1105,"Z</w>":1106,"ś</w>":1107,"û</w>":1108,"U</w>":1109,"á</w>":1110,"в</w>":1111,"ю</w>":1112,"æ</w>":1113,"р</w>":1114,"м</w>":1115,"у</w>":1116,"ı</w>":1117,"ä</w>":1118,"â</w>":1119,"ن</w>":1120,"Â</w>":1121,"ा</w>":1122,"ā</w>":1123,"α</w>":1124,"ü</w>":1125,"þ</w>":1126,"т</w>":1127,"ż</w>":1128,"ت</w>":1129,"ů</w>":1130,"ι</w>":1131,"І</w>":1132,"ی</w>":1133,"は</w>":1134,"Г</w>":1135,"ш</w>":1136,"à</w>":1137,"ї</w>":1138,"ō</w>":1139,"О</w>":1140,"î</w>":1141,"ป</w>":1142,"ė</w>":1143,"β</w>":1144,"Č</w>":1145,"ò</w>":1146,"б</w>":1147,"ン</w>":1148,"ɑ</w>":1149,"φ</w>":1150,"Α</w>":1151,"ç</w>":1152,"ň</w>":1153,"μ</w>":1154,"ì</w>":1155,"щ</w>":1156,"ÿ</w>":1157,"ï</w>":1158,"ο</w>":1159,"θ</w>":1160,"ö</w>":1161,"ū</w>":1162,"ž</w>":1163,"ล</w>":1164,"管</w>":1165,"J</w>":1166,"Š</w>":1167,"å</w>":1168,"ث</w>":1169,"ę</w>":1170,"υ</w>":1171,"ύ</w>":1172,"ว</w>":1173,"ί</w>":1174,"ź</w>":1175,"η</w>":1176,"Ђ</w>":1177,"ť</w>":1178,"ŕ</w>":1179,"ë</w>":1180,"š</w>":1181,"ð</w>":1182,"д</w>":1183,"ة</w>":1184,"ด</w>":1185,"с</w>":1186,"ê</w>":1187,"ل</w>":1188,"ћ</w>":1189,"ł</w>":1190,"ğ</w>":1191,"Ê</w>":1192,"क</w>":1193,"ี</w>":1194,"ら</w>":1195,"¤</w>":1196,"た</w>":1197,"ń</w>":1198,"新</w>":1199,"õ</w>":1200,"る</w>":1201,"ს</w>":1202,"Ų</w>":1203,"ー</w>":1204,"か</w>":1205,"Ä</w>":1206,"ə</w>":1207,"京</w>":1208,"ω</w>":1209,"џ</w>":1210,"ُ</w>":1211,"Ă</w>":1212,"ό</w>":1213,"ά</w>":1214,"Í</w>":1215,"ะ</w>":1216,"Р</w>":1217,"个</w>":1218,"ª</w>":1219,"İ</w>":1220,"י</w>":1221,"م</w>":1222,"М</w>":1223,"ก</w>":1224,"Á</w>":1225,"量</w>":1226,"Į</w>":1227,"อ</w>":1228,"ű</w>":1229,"ד</w>":1230,"Д</w>":1231,"۰</w>":1232,"د</w>":1233,"स</w>":1234,"đ</w>":1235,"г</w>":1236,"τ</w>":1237,"ช</w>":1238,"ֳ</w>":1239,"س</w>":1240,"ή</w>":1241,"Î</w>":1242,"Ο</w>":1243,"ц</w>":1244,"ي</w>":1245,"ल</w>":1246,"ş</w>":1247,"Х</w>":1248,"ן</w>":1249,"ه</w>":1250,"ル</w>":1251,"ر</w>":1252,"言</w>":1253,"ù</w>":1254,"ŭ</w>":1255,"Ė</w>":1256,"ώ</w>":1257,"ู</w>":1258,"ك</w>":1259,"¨</w>":1260,"白</w>":1261,"Џ</w>":1262,"Ù</w>":1263,"ø</w>":1264,"お</w>":1265,"Δ</w>":1266,"ア</w>":1267,"œ</w>":1268,"ง</w>":1269,"Й</w>":1270,"会</w>":1271,"ق</w>":1272,"È</w>":1273,"と</w>":1274,"│</w>":1275,"ř</w>":1276,"ם</w>":1277,"°</w>":1278,"र</w>":1279,"จ</w>":1280,"ē</w>":1281,"Ç</w>":1282,"※</w>":1283,"ж</w>":1284,"σ</w>":1285,"ب</w>":1286,"É</w>":1287,"À</w>":1288,"ː</w>":1289,"ا</w>":1290,"κ</w>":1291,"(</w>":1292,"ั</w>":1293,"も</w>":1294,"ה</w>":1295,"Ω</w>":1296,"з</w>":1297,"キ</w>":1298,"า</w>":1299,"ô</w>":1300,"ǔ</w>":1301,"Љ</w>":1302,"ơ</w>":1303,"Ò</w>":1304,"ย</w>":1305,"す</w>":1306,"ĺ</w>":1307,"Þ</w>":1308,"ј</w>":1309,"Λ</w>":1310,"ً</w>":1311,"Н</w>":1312,"Ð</w>":1313,"家</w>":1314,"Ú</w>":1315,"容</w>":1316,"ф</w>":1317,"¿</w>":1318,"Ó</w>":1319,"ñ</w>":1320,"َ</w>":1321,"Л</w>":1322,"だ</w>":1323,"ى</w>":1324,"ม</w>":1325,"Ÿ</w>":1326,"：</w>":1327,"ī</w>":1328,"ħ</w>":1329,"Ѓ</w>":1330,"є</w>":1331,"而</w>":1332,"Ž</w>":1333,"ת</w>":1334,"ר</w>":1335,"海</w>":1336,"¸</w>":1337,"ส</w>":1338,"よ</w>":1339,"ศ</w>":1340,"ɪ</w>":1341,"ف</w>":1342,"路</w>":1343,"و</w>":1344,"ש</w>":1345,"µ</w>":1346,"Ü</w>":1347,"ď</w>":1348,"Е</w>":1349,"ѕ</w>":1350,"Σ</w>":1351,"К</w>":1352,"カ</w>":1353,"ע</w>":1354,"त</w>":1355,"ع</w>":1356,"ɔ</w>":1357,"ジ</w>":1358,"定</w>":1359,"ɐ</w>":1360,"_</w>":1361,"บ</w>":1362,"Ё</w>":1363,"Ы</w>":1364,"☆</w>":1365,"У</w>":1366,"ч</w>":1367,"ţ</w>":1368,"ļ</w>":1369,"ร</w>":1370,"出</w>":1371,"Å</w>":1372,"э</w>":1373,"种</w>":1374,"ح</w>":1375,"ห</w>":1376,"ﬂ</w>":1377,"ّ</w>":1378,"ა</w>":1379,"论</w>":1380,"ื</w>":1381,"ต</w>":1382,"Ì</w>":1383,"Ι</w>":1384,"士</w>":1385,"̤</w>":1386,"寿</w>":1387,"ص</w>":1388,"Ś</w>":1389,"ი</w>":1390,"社</w>":1391,"ɾ</w>":1392,"人</w>":1393,"Û</w>":1394,"λ</w>":1395,"Ø</w>":1396,"Ю</w>":1397,"ش</w>":1398,"Ë</w>":1399,"\\</w>":1400,"入</w>":1401,"れ</w>":1402,"刘</w>":1403,"Ý</w>":1404,"ќ</w>":1405,"コ</w>":1406,"≈</w>":1407,"ṭ</w>":1408,"岛</w>":1409,"ج</w>":1410,"ト</w>":1411,"农</w>":1412,"わ</w>":1413,"ท</w>":1414,"ʃ</w>":1415,"Э</w>":1416,"⁄</w>":1417,"都</w>":1418,"Ћ</w>":1419,"Õ</w>":1420,"ِ</w>":1421,"ิ</w>":1422,"র</w>":1423,"Ґ</w>":1424,"ْ</w>":1425,"ל</w>":1426,"न</w>":1427,"ط</w>":1428,"ġ</w>":1429,"ſ</w>":1430,"Μ</w>":1431,"Ö</w>":1432,"국</w>":1433,"ุ</w>":1434,"林</w>":1435,"Β</w>":1436,"て</w>":1437,"이</w>":1438,"顶</w>":1439,"ค</w>":1440,"み</w>":1441,"見</w>":1442,"²</w>":1443,"Ů</w>":1444,"杨</w>":1445,"ถ</w>":1446,"ĩ</w>":1447,"۹</w>":1448,"な</w>":1449,"Ć</w>":1450,"π</w>":1451,"½</w>":1452,"舞</w>":1453,"↑</w>":1454,"レ</w>":1455,"▒</w>":1456,"ま</w>":1457,"ľ</w>":1458,"њ</w>":1459,"Ő</w>":1460,"司</w>":1461,"غ</w>":1462,"で</w>":1463,"Т</w>":1464,"ข</w>":1465,"月</w>":1466,"♣</w>":1467,"χ</w>":1468,"į</w>":1469,"ʿ</w>":1470,"ס</w>":1471,"如</w>":1472,"产</w>":1473,"ɛ</w>":1474,"过</w>":1475,"ナ</w>":1476,"ң</w>":1477,"学</w>":1478,"民</w>":1479,"Я</w>":1480,"增</w>":1481,"ề</w>":1482,"敏</w>":1483,"ラ</w>":1484,"见</w>":1485,"ち</w>":1486,"行</w>":1487,"ѓ</w>":1488,"ض</w>":1489,"ג</w>":1490,"タ</w>":1491,"、</w>":1492,"う</w>":1493,"こ</w>":1494,"理</w>":1495,"語</w>":1496,"Ω</w>":1497,"#</w>":1498,";</w>":1499,"Ï</w>":1500,"●</w>":1501,"́</w>":1502,"最</w>":1503,"が</w>":1504,"И</w>":1505,"Ь</w>":1506,"ё</w>":1507,"ء</w>":1508,"雷</w>":1509,"П</w>":1510,"愛</w>":1511,"但</w>":1512,"日</w>":1513,"め</w>":1514,"ו</w>":1515,"フ</w>":1516,"어</w>":1517,"博</w>":1518,"ǎ</w>":1519,"Ж</w>":1520,"Τ</w>":1521,"ṳ</w>":1522,"プ</w>":1523,"Ľ</w>":1524,"⇒</w>":1525,"γ</w>":1526,"ረ</w>":1527,"δ</w>":1528,"题</w>":1529,"江</w>":1530,"ў</w>":1531,"ז</w>":1532,"可</w>":1533,"線</w>":1534,"易</w>":1535,"能</w>":1536,"ผ</w>":1537,"ک</w>":1538,"－</w>":1539,"市</w>":1540,"頂</w>":1541,"Ф</w>":1542,"म</w>":1543,"ๆ</w>":1544,"ク</w>":1545,"Æ</w>":1546,"に</w>":1547,"安</w>":1548,"州</w>":1549,"Ń</w>":1550,"ბ</w>":1551,"当</w>":1552,"風</w>":1553,"פ</w>":1554,"∞</w>":1555,"站</w>":1556,"έ</w>":1557,"/</w>":1558,"亚</w>":1559,"ρ</w>":1560,"颖</w>":1561,"ん</w>":1562,"ố</w>":1563,"持</w>":1564,"年</w>":1565,"大</w>":1566,"一</w>":1567,"ט</w>":1568,"Ô</w>":1569,"不</w>":1570,"ˆ</w>":1571,"Œ</w>":1572,"ำ</w>":1573,"े</w>":1574,"Ñ</w>":1575,"ह</w>":1576,"文</w>":1577,"イ</w>":1578,"@</w>":1579,"ス</w>":1580,"Ν</w>":1581,"李</w>":1582,"南</w>":1583,"№</w>":1584,"≫</w>":1585,"っ</w>":1586,"东</w>":1587,"~</w>":1588,"★</w>":1589,"仁</w>":1590,"Ρ</w>":1591,"Κ</w>":1592,"く</w>":1593,"{</w>":1594,"‛</w>":1595,"►</w>":1596,"の</w>":1597,"到</w>":1598,"Φ</w>":1599,"淫</w>":1600,"أ</w>":1601,"重</w>":1602,"ồ</w>":1603,"ﬁ</w>":1604,"Ę</w>":1605,"Ě</w>":1606,"З</w>":1607,"א</w>":1608,"ึ</w>":1609,"่</w>":1610,"ư</w>":1611,"¶</w>":1612,"+</w>":1613,"赌</w>":1614,"ɨ</w>":1615,"ב</w>":1616,"啦</w>":1617,"ъ</w>":1618,"⇢</w>":1619,"メ</w>":1620,"三</w>":1621,"™</w>":1622,"区</w>":1623,"神</w>":1624,"Ќ</w>":1625,"本</w>":1626,"馬</w>":1627,"金</w>":1628,"=</w>":1629,"მ</w>":1630,"二</w>":1631,"】</w>":1632,"ĕ</w>":1633,"Ű</w>":1634,"©</w>":1635,"ạ</w>":1636,"¹</w>":1637,"青</w>":1638,"ק</w>":1639,"さ</w>":1640,"道</w>":1641,"参</w>":1642,"╚</w>":1643,"洲</w>":1644,"Ō</w>":1645,"四</w>":1646,"去</w>":1647,"ド</w>":1648,"한</w>":1649,"ờ</w>":1650,"ә</w>":1651,"し</w>":1652,"「</w>":1653,"დ</w>":1654,"₂</w>":1655,"◊</w>":1656,"▪</w>":1657,"场</w>":1658,"ذ</w>":1659,"土</w>":1660,"†</w>":1661,"Б</w>":1662,"体</w>":1663,"×</w>":1664,"を</w>":1665,"明</w>":1666,"匿</w>":1667,"۲</w>":1668,"寺</w>":1669,"建</w>":1670,"运</w>":1671,"′</w>":1672,"♦</w>":1673,"城</w>":1674,"ि</w>":1675,"Њ</w>":1676,"ữ</w>":1677,"۱</w>":1678,"Ε</w>":1679,"生</w>":1680,"ณ</w>":1681,"田</w>":1682,"ḥ</w>":1683,"ʒ</w>":1684,"ү</w>":1685,"Χ</w>":1686,"简</w>":1687,"用</w>":1688,"木</w>":1689,"ế</w>":1690,"，</w>":1691,"็</w>":1692,"̃</w>":1693,"̈</w>":1694,"ば</w>":1695,"禅</w>":1696,"Η</w>":1697,"ח</w>":1698,"東</w>":1699,"え</w>":1700,"成</w>":1701,"ŏ</w>":1702,"子</w>":1703,"♪</w>":1704,"き</w>":1705,"影</w>":1706,"应</w>":1707,"』</w>":1708,"知</w>":1709,"¥</w>":1710,"片</w>":1711,"在</w>":1712,"-</w>":1713,"法</w>":1714,"ु</w>":1715,"来</w>":1716,"−</w>":1717,"相</w>":1718,"ґ</w>":1719,"‐</w>":1720,"்</w>":1721,"网</w>":1722,"平</w>":1723,"以</w>":1724,"ĝ</w>":1725,"下</w>":1726,"り</w>":1727,"为</w>":1728,"Ą</w>":1729,"要</w>":1730,"品</w>":1731,"Ш</w>":1732,"つ</w>":1733,"音</w>":1734,"◆</w>":1735,"ธ</w>":1736,"雄</w>":1737,"元</w>":1738,"─</w>":1739,"八</w>":1740,"Ř</w>":1741,"ζ</w>":1742,"←</w>":1743,"马</w>":1744,"რ</w>":1745,"Π</w>":1746,"食</w>":1747,"艳</w>":1748,"公</w>":1749,"酒</w>":1750,"้</w>":1751,"‟</w>":1752,"Ц</w>":1753,"Υ</w>":1754,"」</w>":1755,"山</w>":1756,"国</w>":1757,"手</w>":1758,"分</w>":1759,"小</w>":1760,"台</w>":1761,"خ</w>":1762,"套</w>":1763,"$</w>":1764,"的</w>":1765,"电</w>":1766,"¡</w>":1767,"ე</w>":1768,"问</w>":1769,"Ў</w>":1770,"ッ</w>":1771,"色</w>":1772,"・</w>":1773,"!</w>":1774,"多</w>":1775,"พ</w>":1776,"免</w>":1777,"我</w>":1778,"¢</w>":1779,"テ</w>":1780,"高</w>":1781,"≥</w>":1782,"Θ</w>":1783,"§</w>":1784,"名</w>":1785,"原</w>":1786,"ნ</w>":1787,"天</w>":1788,"漢</w>":1789,"ƒ</w>":1790,"Є</w>":1791,"Ł</w>":1792,"克</w>":1793,"³</w>":1794,"里</w>":1795,"切</w>":1796,"枫</w>":1797,"女</w>":1798,"せ</w>":1799,"性</w>":1800,"得</w>":1801,"̍</w>":1802,"‡</w>":1803,"^</w>":1804,"『</w>":1805,"島</w>":1806,"Ň</w>":1807,"±</w>":1808,"中</w>":1809,"バ</w>":1810,"式</w>":1811,"מ</w>":1812,"婷</w>":1813,"ি</w>":1814,"是</w>":1815,"Γ</w>":1816,"上</w>":1817,"%</w>":1818,"更</w>":1819,"内</w>":1820,"‹</w>":1821,"Ĺ</w>":1822,"爱</w>":1823,"˚</w>":1824,"科</w>":1825,"少</w>":1826,"十</w>":1827,"‰</w>":1828,"迅</w>":1829,")</w>":1830,"ả</w>":1831,"Ч</w>":1832,"Ї</w>":1833,"思</w>":1834,"有</w>":1835,"伦</w>":1836,"了</w>":1837,"ǐ</w>":1838,"越</w>":1839,"◎</w>":1840,"地</w>":1841,"交</w>":1842,"國</w>":1843,"·</w>":1844,"˝</w>":1845,"→</w>":1846,"प</w>":1847,"事</w>":1848,"吉</w>":1849,"Đ</w>":1850,"■</w>":1851,":</w>":1852,"西</w>":1853,"面</w>":1854,"水</w>":1855,"リ</w>":1856,"取</w>":1857,"य</w>":1858,"五</w>":1859,"ლ</w>":1860,"就</w>":1861,"ș</w>":1862,"美</w>":1863,"楽</w>":1864,"全</w>":1865,"マ</w>":1866,"回</w>":1867,"¾</w>":1868,"•</w>":1869,"厂</w>":1870,"£</w>":1871,"あ</w>":1872,"€</w>":1873,"オ</w>":1874,"¯</w>":1875,"吗</w>":1876,"‑</w>":1877,"ț</w>":1878,"方</w>":1879,"王</w>":1880,"›</w>":1881,",</w>":1882,"&</w>":1883,"צ</w>":1884,"♥</w>":1885,"্</w>":1886,"直</w>":1887,"工</w>":1888,"じ</w>":1889,"¼</w>":1890,"图</w>":1891,"╩</w>":1892,"情</w>":1893,"口</w>":1894,"也</w>":1895,"チ</w>":1896,"″</w>":1897,"˙</w>":1898,"清</w>":1899,"料</w>":1900,"ო</w>":1901,"?</w>":1902,"模</w>":1903,"球</w>":1904,"}</w>":1905,"比</w>":1906,"）</w>":1907,"≤</w>":1908,"け</w>":1909,"ψ</w>":1910,"*</w>":1911,"物</w>":1912,"÷</w>":1913,"自</w>":1914,".</w>":1915,"动</w>":1916,"―</w>":1917,"字</w>":1918,"核</w>":1919,"¦</w>":1920,"合</w>":1921,"引</w>":1922,"˜</w>":1923,"这</w>":1924,"机</w>":1925,"语</w>":1926,"≪</w>":1927,"。</w>":1928,"娱</w>":1929,"˛</w>":1930,"常</w>":1931,"和</w>":1932,"空</w>":1933,"发</w>":1934,"松</w>":1935,"¬</w>":1936,"前</w>":1937,"【</w>":1938,"्</w>":1939,"载</w>":1940,"（</w>":1941,"正</w>":1942,"北</w>":1943,"近</w>":1944,"加</w>":1945,"乐</w>":1946,"ዓ</w>":1947,"石</w>":1948,"®</w>":1949,"○</w>":1950,"武</w>":1951,"茶</w>":1952,"心</w>":1953,"√</w>":1954,"通</w>":1955,"،</w>":1956,"en</w>":1957,"er":1958,"in":1959,"th":1960,"ch":1961,"en":1962,"er</w>":1963,"an":1964,"un":1965,"ti":1966,"the</w>":1967,"re":1968,"st":1969,"di":1970,"on</w>":1971,"ar":1972,"on":1973,"li":1974,"or":1975,"ei":1976,"es</w>":1977,"al":1978,"ro":1979,"ch</w>":1980,"si":1981,"in</w>":1982,"el":1983,"es":1984,"der</w>":1985,"is":1986,"and</w>":1987,"au":1988,"of</w>":1989,"at":1990,"wi":1991,"ein":1992,"to</w>":1993,"und</w>":1994,"die</w>":1995,"ed</w>":1996,"is</w>":1997,"om":1998,"as</w>":1999,"ing</w>":2000,"ra":2001,"ou":2002,"den</w>":2003,"ri":2004,"sch":2005,"be":2006,"at</w>":2007,"de":2008,"ge":2009,"an</w>":2010,"ati":2011,"as":2012,"or</w>":2013,"ung</w>":2014,"it":2015,"ur":2016,"ten</w>":2017,"al</w>":2018,"po":2019,"te</w>":2020,"gen</w>":2021,"ab":2022,"ol":2023,"am":2024,"ver":2025,"us":2026,"le":2027,"ter":2028,"ent</w>":2029,"qu":2030,"ot</w>":2031,"le</w>":2032,"ent":2033,"it</w>":2034,"der":2035,"te":2036,"ve</w>":2037,"pro":2038,"ie</w>":2039,"eh":2040,"ac":2041,"fü":2042,"ge</w>":2043,"Th":2044,"ly</w>":2045,"sp":2046,"de</w>":2047,"ec":2048,"vi":2049,"ich":2050,"zu</w>":2051,"that</w>":2052,"et":2053,"chen</w>":2054,"hi":2055,"em":2056,"hr":2057,"for</w>":2058,"omm":2059,"ff":2060,"von</w>":2061,"ation</w>":2062,"th</w>":2063,"lo":2064,"tion</w>":2065,"su":2066,"quot</w>":2067,"con":2068,"ce</w>":2069,"ne":2070,"ist</w>":2071,"il":2072,"wer":2073,"se</w>":2074,"for":2075,"für</w>":2076,"are</w>":2077,"zu":2078,"eine</w>":2079,"rop":2080,"ar</w>":2081,"op":2082,"ts</w>":2083,"ma":2084,"des</w>":2085,"urop":2086,"ha":2087,"gen":2088,"ci":2089,"ul":2090,"be</w>":2091,"gi":2092,"st</w>":2093,"mit</w>":2094,"auf</w>":2095,"ein</w>":2096,"St":2097,"ber":2098,"Ver":2099,"apo":2100,"eit</w>":2101,"with</w>":2102,"apos</w>":2103,"das</w>":2104,"ber</w>":2105,"em</w>":2106,"The</w>":2107,"che</w>":2108,"Europ":2109,"im":2110,"ell":2111,"ad":2112,"icht</w>":2113,"ation":2114,"ex":2115,"ut":2116,"ser":2117,"dies":2118,"la":2119,"Un":2120,"ungen</w>":2121,"our</w>":2122,"du":2123,"In":2124,"da":2125,"ru":2126,"so</w>":2127,"ter</w>":2128,"tion":2129,"co":2130,"no":2131,"sion</w>":2132,"fi":2133,"ta":2134,"ck":2135,"dem</w>":2136,"lich</w>":2137,"por":2138,"ah":2139,"com":2140,"this</w>":2141,"mo":2142,"sh":2143,"im</w>":2144,"and":2145,"wh":2146,"nen</w>":2147,"ie":2148,"ll</w>":2149,"ag":2150,"wor":2151,"af":2152,"An":2153,"se":2154,"ld</w>":2155,"Sie</w>":2156,"um</w>":2157,"ass</w>":2158,"wir":2159,"sen</w>":2160,"ou</w>":2161,"wei":2162,"zi":2163,"nicht</w>":2164,"all</w>":2165,"tu":2166,"än":2167,"Re":2168,"by</w>":2169,"not</w>":2170,"um":2171,"werden</w>":2172,"ap":2173,"we</w>":2174,"ran":2175,"ind</w>":2176,"ung":2177,"gh":2178,"ate</w>":2179,"so":2180,"ere</w>":2181,"we":2182,"den":2183,"have</w>":2184,"dass</w>":2185,"tra":2186,"ke</w>":2187,"lie":2188,"par":2189,"als</w>":2190,"sich</w>":2191,"ment</w>":2192,"whi":2193,"ges":2194,"Die</w>":2195,"per":2196,"you</w>":2197,"tim":2198,"res":2199,"ischen</w>":2200,"ali":2201,"wir</w>":2202,"ho":2203,"bu":2204,"was</w>":2205,"ould</w>":2206,"will</w>":2207,"ach":2208,"men</w>":2209,"auch</w>":2210,"all":2211,"rom</w>":2212,"which</w>":2213,"ir":2214,"Sch":2215,"to":2216,"ommis":2217,"ich</w>":2218,"ty</w>":2219,"Be":2220,"eb":2221,"ing":2222,"do":2223,"aus":2224,"from</w>":2225,"me":2226,"ach</w>":2227,"Pro":2228,"ers</w>":2229,"ungs":2230,"Par":2231,"tz":2232,"20":2233,"hab":2234,"lu":2235,"sind</w>":2236,"ents</w>":2237,"cht</w>":2238,"ther</w>":2239,"gt</w>":2240,"En":2241,"einer</w>":2242,"rä":2243,"ds</w>":2244,"wen":2245,"wird</w>":2246,"bes":2247,"lei":2248,"Au":2249,"über</w>":2250,"hal":2251,"ts":2252,"wie</w>":2253,"einen</w>":2254,"fin":2255,"pl":2256,"has</w>":2257,"ure</w>":2258,"est":2259,"schaf":2260,"ön":2261,"out</w>":2262,"ic":2263,"ahr":2264,"ess</w>":2265,"one</w>":2266,"ur</w>":2267,"gan":2268,"tern":2269,"sa":2270,"able</w>":2271,"ig":2272,"bei":2273,"aus</w>":2274,"sten</w>":2275,"poli":2276,"ili":2277,"geb":2278,"stell":2279,"form":2280,"ür":2281,"el</w>":2282,"Ar":2283,"ommission</w>":2284,"sol":2285,"In</w>":2286,"can</w>":2287,"ver</w>":2288,"tel</w>":2289,"oo":2290,"ten":2291,"ean</w>":2292,"Ber":2293,"oder</w>":2294,"ted</w>":2295,"ir</w>":2296,"Ho":2297,"ert</w>":2298,"our":2299,"etz":2300,"gra":2301,"vor":2302,"bei</w>":2303,"Er":2304,"rec":2305,"hat</w>":2306,"us</w>":2307,"comp":2308,"et</w>":2309,"Di":2310,"ann</w>":2311,"gu":2312,"am</w>":2313,"ehr</w>":2314,"sti":2315,"Her":2316,"dent</w>":2317,"haben</w>":2318,"wel":2319,"also</w>":2320,"ak":2321,"lich":2322,"any</w>":2323,"European</w>":2324,"ally</w>":2325,"är":2326,"me</w>":2327,"dur":2328,"tri":2329,"200":2330,"ust</w>":2331,"eu":2332,"und":2333,"Aus":2334,"eren</w>":2335,"ion</w>":2336,"gr":2337,"ern</w>":2338,"sel":2339,"ine</w>":2340,"lichen</w>":2341,"gel":2342,"schen</w>":2343,"men":2344,"ated</w>":2345,"ity</w>":2346,"sen":2347,"ant</w>":2348,"tic":2349,"kön":2350,"auf":2351,"sie</w>":2352,"mö":2353,"len</w>":2354,"ey</w>":2355,"je":2356,"wa":2357,"ore</w>":2358,"sident</w>":2359,"ep":2360,"its</w>":2361,"tions</w>":2362,"ese</w>":2363,"ark":2364,"oh":2365,"pe":2366,"zur</w>":2367,"tet</w>":2368,"gro":2369,"min":2370,"Mit":2371,"vo":2372,"dar":2373,"tr":2374,"ght</w>":2375,"end</w>":2376,"dern</w>":2377,"sta":2378,"duc":2379,"port</w>":2380,"ger":2381,"einem</w>":2382,"Union</w>":2383,"Al":2384,"Das</w>":2385,"coun":2386,"ates</w>":2387,"ations</w>":2388,"Ein":2389,"wur":2390,"ft</w>":2391,"yst":2392,"war":2393,"pos":2394,"unser":2395,"tive</w>":2396,"sion":2397,"ün":2398,"your</w>":2399,"res</w>":2400,"ding</w>":2401,"very</w>":2402,"Ab":2403,"Pre":2404,"fre":2405,"king</w>":2406,"age</w>":2407,"tung</w>":2408,"off":2409,"erung</w>":2410,"aten</w>":2411,"ob":2412,"mer</w>":2413,"tel":2414,"est</w>":2415,"Ich</w>":2416,"ken</w>":2417,"ische</w>":2418,"bet":2419,"ck</w>":2420,"können</w>":2421,"ting</w>":2422,"liche</w>":2423,"ces</w>":2424,"chn":2425,"pre":2426,"but</w>":2427,"kt</w>":2428,"ann":2429,"up</w>":2430,"We</w>":2431,"keit</w>":2432,"more</w>":2433,"ary</w>":2434,"fol":2435,"ance</w>":2436,"inc":2437,"Vor":2438,"ess":2439,"ast</w>":2440,"Fra":2441,"geh":2442,"str":2443,"ander":2444,"19":2445,"zei":2446,"00</w>":2447,"pres":2448,"br":2449,"bo":2450,"pri":2451,"ament</w>":2452,"ties</w>":2453,"ous</w>":2454,"chti":2455,"vel":2456,"fer":2457,"comm":2458,"eir</w>":2459,"chte</w>":2460,"ven</w>":2461,"would</w>":2462,"inter":2463,"ger</w>":2464,"Sp":2465,"ör":2466,"ihr":2467,"their</w>":2468,"mit":2469,"son":2470,"gh</w>":2471,"führ":2472,"cy</w>":2473,"gn":2474,"lan":2475,"pp":2476,"komm":2477,"Ent":2478,"ari":2479,"Ma":2480,"nach</w>":2481,"ub":2482,"her":2483,"ssen</w>":2484,"been</w>":2485,"ste</w>":2486,"gre":2487,"ehen</w>":2488,"Europä":2489,"tei":2490,"zum</w>":2491,"uns</w>":2492,"This</w>":2493,"stri":2494,"hin":2495,"tre":2496,"diese</w>":2497,"It</w>":2498,"Wir</w>":2499,"wn</w>":2500,"eg":2501,"man</w>":2502,"durch</w>":2503,"EU</w>":2504,"über":2505,"nur</w>":2506,"pr":2507,"Ges":2508,"fac":2509,"other</w>":2510,"ne</w>":2511,"vor</w>":2512,"spec":2513,"Mr</w>":2514,"ad</w>":2515,"ase</w>":2516,"ear":2517,"dis":2518,"iel":2519,"vol":2520,"Kon":2521,"port":2522,"ble</w>":2523,"ih":2524,"should</w>":2525,"neu":2526,"mp":2527,"kann</w>":2528,"ben</w>":2529,"kl":2530,"tro":2531,"ame</w>":2532,"do</w>":2533,"ded</w>":2534,"stru":2535,"are":2536,"go":2537,"bt</w>":2538,"Der</w>":2539,"fen</w>":2540,"unter":2541,"ic</w>":2542,"lin":2543,"ble":2544,"mü":2545,"tw":2546,"ks</w>":2547,"eiten</w>":2548,"he</w>":2549,"sich":2550,"ence</w>":2551,"schaft</w>":2552,"Gr":2553,"av":2554,"ember</w>":2555,"dieser</w>":2556,"Prä":2557,"acc":2558,"ord":2559,"noch</w>":2560,"kon":2561,"Commission</w>":2562,"fu":2563,"ist":2564,"sec":2565,"som":2566,"ens</w>":2567,"ass":2568,"ort</w>":2569,"wä":2570,"Es</w>":2571,"time</w>":2572,"must</w>":2573,"mon":2574,"bi":2575,"Co":2576,"uss</w>":2577,"mu":2578,"ise</w>":2579,"Ge":2580,"daß</w>":2581,"ational</w>":2582,"ens":2583,"sche</w>":2584,"ück":2585,"day</w>":2586,"fe":2587,"tä":2588,"heit</w>":2589,"eri":2590,"Kommission</w>":2591,"ves</w>":2592,"ale</w>":2593,"mark":2594,"they</w>":2595,"man":2596,"there</w>":2597,"lt</w>":2598,"gem":2599,"lä":2600,"new</w>":2601,"war</w>":2602,"Po":2603,"syst":2604,"cial</w>":2605,"ms</w>":2606,"now</w>":2607,"ard</w>":2608,"ori":2609,"nah":2610,"gung</w>":2611,"like</w>":2612,"only</w>":2613,"stat":2614,"wurde</w>":2615,"olo":2616,"lung</w>":2617,"ings</w>":2618,"gesch":2619,"fo":2620,"eff":2621,"Hotel</w>":2622,"ben":2623,"jec":2624,"President</w>":2625,"Herr</w>":2626,"utz":2627,"aber</w>":2628,"inn":2629,"wick":2630,"cre":2631,"he":2632,"tn":2633,"tran":2634,"For":2635,"land</w>":2636,"ments</w>":2637,"about</w>":2638,"alen</w>":2639,"produc":2640,"elt</w>":2641,"ant":2642,"work</w>":2643,"wenn</w>":2644,"sein</w>":2645,"politi":2646,"fir":2647,"93</w>":2648,"gram":2649,"91</w>":2650,"ys</w>":2651,"Ih":2652,"rit":2653,"ehmen</w>":2654,"immer</w>":2655,"sehr</w>":2656,"ehr":2657,"ong</w>":2658,"cri":2659,"müssen</w>":2660,"ws</w>":2661,"intern":2662,"ütz":2663,"end":2664,"leg":2665,"De":2666,"det</w>":2667,"alle</w>":2668,"Mitg":2669,"way</w>":2670,"eines</w>":2671,"timm":2672,"ut</w>":2673,"Auf":2674,"ely</w>":2675,"Parl":2676,"ace</w>":2677,"qui":2678,"ubli":2679,"spe":2680,"ven":2681,"dung</w>":2682,"these</w>":2683,"ral</w>":2684,"ans</w>":2685,"tho":2686,"ern":2687,"Zu":2688,"Jahr":2689,"who</w>":2690,"ba":2691,"ause</w>":2692,"conc":2693,"fahr":2694,"no</w>":2695,"amp":2696,"chan":2697,"mehr</w>":2698,"usam":2699,"fore</w>":2700,"enden</w>":2701,"posi":2702,"berei":2703,"red</w>":2704,"So":2705,"with":2706,"onder":2707,"mer":2708,"id</w>":2709,"ple":2710,"if</w>":2711,"ors</w>":2712,"ved</w>":2713,"net</w>":2714,"diesem</w>":2715,"sup":2716,"regi":2717,"devel":2718,"zw":2719,"aff":2720,"reg":2721,"re</w>":2722,"cont":2723,"ative</w>":2724,"ople</w>":2725,"tes</w>":2726,"Mitglie":2727,"servi":2728,"most</w>":2729,"weiter":2730,"Men":2731,"dies</w>":2732,"Ihr":2733,"Regi":2734,"ther":2735,"10</w>":2736,"ility</w>":2737,"ood</w>":2738,"many</w>":2739,"Um":2740,"provi":2741,"reich":2742,"isch":2743,"tur":2744,"fra":2745,"rel":2746,"kommen</w>":2747,"hand":2748,"setz":2749,"ßen</w>":2750,"dr":2751,"Europäischen</w>":2752,"Ch":2753,"mög":2754,"hei":2755,"inform":2756,"mi":2757,"liament</w>":2758,"stitu":2759,"Mo":2760,"import":2761,"were</w>":2762,"ron":2763,"fe</w>":2764,"steh":2765,"kte</w>":2766,"vie":2767,"Bes":2768,"Europe</w>":2769,"glei":2770,"ges</w>":2771,"under":2772,"her</w>":2773,"da</w>":2774,"come</w>":2775,"use</w>":2776,"des":2777,"Parliament</w>":2778,"wis":2779,"into</w>":2780,"proc":2781,"ement</w>":2782,"people</w>":2783,"elle</w>":2784,"such</w>":2785,"onom":2786,"loc":2787,"ating</w>":2788,"soll":2789,"gkeit</w>":2790,"oper":2791,"ving</w>":2792,"arbei":2793,"my</w>":2794,"las":2795,"well</w>":2796,"lau":2797,"bis</w>":2798,"rou":2799,"il</w>":2800,"emp":2801,"schie":2802,"Con":2803,"what</w>":2804,"ationen</w>":2805,"äl":2806,"sible</w>":2807,"sub":2808,"europ":2809,"ni":2810,"publi":2811,"hel":2812,"Unter":2813,"develop":2814,"möchte</w>":2815,"rech":2816,"stän":2817,"up":2818,"rie":2819,"ction</w>":2820,"Me":2821,"ful</w>":2822,"ini":2823,"Ger":2824,"pa":2825,"diff":2826,"tigen</w>":2827,"lic":2828,"doch</w>":2829,"cent":2830,"Inter":2831,"States</w>":2832,"viel":2833,"unter</w>":2834,"om</w>":2835,"zen</w>":2836,"techn":2837,"fa":2838,"tries</w>":2839,"halten</w>":2840,"lar":2841,"ite</w>":2842,"speci":2843,"Coun":2844,"dam":2845,"than</w>":2846,"report</w>":2847,"usammen":2848,"stütz":2849,"cc":2850,"mat":2851,"Member</w>":2852,"tig</w>":2853,"inclu":2854,"wichti":2855,"stellen</w>":2856,"illi":2857,"enn":2858,"bec":2859,"countries</w>":2860,"tor</w>":2861,"ser</w>":2862,"vom</w>":2863,"cle":2864,"Präsident</w>":2865,"his</w>":2866,"when</w>":2867,"ory</w>":2868,"uni":2869,"sch</w>":2870,"europä":2871,"aga":2872,"ank</w>":2873,"tionen</w>":2874,"need</w>":2875,"gibt</w>":2876,"ende</w>":2877,"Mitglied":2878,"woh":2879,"cil</w>":2880,"poin":2881,"Über":2882,"stand":2883,"rei":2884,"ihre</w>":2885,"first</w>":2886,"fun":2887,"ellen</w>":2888,"some</w>":2889,"bre":2890,"bie":2891,"Bei":2892,"les</w>":2893,"lat":2894,"bar":2895,"Council</w>":2896,"sowie</w>":2897,"econom":2898,"ast":2899,"geben</w>":2900,"sis</w>":2901,"sign":2902,"direc":2903,"ze</w>":2904,"inu":2905,"kti":2906,"Comm":2907,"get</w>":2908,"hotel</w>":2909,"sk":2910,"Or":2911,"tical</w>":2912,"wer</w>":2913,"etzt</w>":2914,"Li":2915,"dieses</w>":2916,"col":2917,"schlie":2918,"make</w>":2919,"amen</w>":2920,"them</w>":2921,"24</w>":2922,"ween</w>":2923,"agre":2924,"ghts</w>":2925,"app":2926,"deut":2927,"zwischen</w>":2928,"No":2929,"besonder":2930,"ph":2931,"stellt</w>":2932,"form</w>":2933,"ins</w>":2934,"ateg":2935,"important</w>":2936,"thing</w>":2937,"ment":2938,"ell</w>":2939,"between</w>":2940,"vern":2941,"here</w>":2942,"ful":2943,"ien</w>":2944,"sho":2945,"Qu":2946,"eing</w>":2947,"ack</w>":2948,"star":2949,"denen</w>":2950,"beit</w>":2951,"system</w>":2952,"eng":2953,"take</w>":2954,"ality</w>":2955,"halb</w>":2956,"ack":2957,"over</w>":2958,"tschaf":2959,"rati":2960,"propos":2961,"jo":2962,"Entwick":2963,"exc":2964,"hier</w>":2965,"ler</w>":2966,"gy</w>":2967,"because</w>":2968,"Mitgliedsta":2969,"rü":2970,"ev":2971,"peri":2972,"tät</w>":2973,"cul":2974,"chten</w>":2975,"forder":2976,"exp":2977,"proble":2978,"iel</w>":2979,"where</w>":2980,"bin":2981,"Per":2982,"Arbei":2983,"same</w>":2984,"yp":2985,"ener":2986,"ster</w>":2987,"ye":2988,"bar</w>":2989,"ste":2990,"ide":2991,"ko":2992,"muss</w>":2993,"hen</w>":2994,"Bericht</w>":2995,"nat":2996,"ture</w>":2997,"mis":2998,"finan":2999,"nec":3000,"wal":3001,"ies</w>":3002,"enti":3003,"spon":3004,"eben</w>":3005,"wie":3006,"ears</w>":3007,"enn</w>":3008,"ses</w>":3009,"sions</w>":3010,"Hau":3011,"unsere</w>":3012,"sts</w>":3013,"wür":3014,"gegen</w>":3015,"fic":3016,"Parlament</w>":3017,"keine</w>":3018,"made</w>":3019,"zah":3020,"just</w>":3021,"Jah":3022,"reas":3023,"information</w>":3024,"ons</w>":3025,"line</w>":3026,"äch":3027,"Ro":3028,"ße</w>":3029,"ying</w>":3030,"Berei":3031,"indi":3032,"cu":3033,"organ":3034,"two</w>":3035,"Ko":3036,"Fin":3037,"xt</w>":3038,"Ihnen</w>":3039,"siden":3040,"Ex":3041,"Se":3042,"tlich</w>":3043,"order</w>":3044,"unden</w>":3045,"ail":3046,"shi":3047,"had</w>":3048,"Ser":3049,"ktion</w>":3050,"Mon":3051,"ed":3052,"ige</w>":3053,"öff":3054,"years</w>":3055,"Mitgliedstaaten</w>":3056,"throu":3057,"zeu":3058,"sm":3059,"can":3060,"sat":3061,"finden</w>":3062,"ll":3063,"support</w>":3064,"ris":3065,"sive</w>":3066,"eute</w>":3067,"anderen</w>":3068,"Gesch":3069,"medi":3070,"If</w>":3071,"itä":3072,"world</w>":3073,"Län":3074,"Inform":3075,"right</w>":3076,"ren":3077,"issu":3078,"Produ":3079,"pf":3080,"Fre":3081,"those</w>":3082,"ausge":3083,"ok":3084,"num":3085,"Mar":3086,"respon":3087,"län":3088,"ätz":3089,"steht</w>":3090,"Europa</w>":3091,"read":3092,"ular</w>":3093,"erte</w>":3094,"low</w>":3095,"sc":3096,"ften</w>":3097,"wirk":3098,"tain</w>":3099,"letz":3100,"schließ":3101,"Proble":3102,"site</w>":3103,"währ":3104,"weise</w>":3105,"Zusammen":3106,"20</w>":3107,"wever</w>":3108,"tional</w>":3109,"199":3110,"fri":3111,"try</w>":3112,"lichkeit</w>":3113,"being</w>":3114,"keiten</w>":3115,"trag</w>":3116,"Wir":3117,"ets</w>":3118,"unity</w>":3119,"äu":3120,"rau":3121,"tige</w>":3122,"beg":3123,"nung</w>":3124,"Wenn</w>":3125,"program":3126,"erk":3127,"oms</w>":3128,"ele":3129,"policy</w>":3130,"dann</w>":3131,"appro":3132,"amp</w>":3133,"Vorsch":3134,"ange":3135,"cal</w>":3136,"partic":3137,"Wei":3138,"consi":3139,"schei":3140,"gs</w>":3141,"Bo":3142,"un</w>":3143,"belie":3144,"ga":3145,"ff</w>":3146,"ill":3147,"ang</w>":3148,"enen</w>":3149,"clo":3150,"pla":3151,"ice</w>":3152,"mal</w>":3153,"car":3154,"Bet":3155,"Te":3156,"ater</w>":3157,"ently</w>":3158,"gement</w>":3159,"fall":3160,"nach":3161,"stehen</w>":3162,"diesen</w>":3163,"äf":3164,"gab":3165,"nahmen</w>":3166,"may</w>":3167,"Im</w>":3168,"damit</w>":3169,"place</w>":3170,"ems</w>":3171,"differ":3172,"lev":3173,"part</w>":3174,"ke":3175,"tee</w>":3176,"Bu":3177,"ßer":3178,"even</w>":3179,"Nach":3180,"see</w>":3181,"lob":3182,"deci":3183,"dat":3184,"ters</w>":3185,"wurden</w>":3186,"situ":3187,"year</w>":3188,"demo":3189,"view</w>":3190,"gemein":3191,"Gro":3192,"efore</w>":3193,"Ne":3194,"uri":3195,"sur":3196,"ures</w>":3197,"Frau</w>":3198,"cour":3199,"cer":3200,"tt":3201,"cur":3202,"pen":3203,"used</w>":3204,"room</w>":3205,"hum":3206,"good</w>":3207,"wing</w>":3208,"lage</w>":3209,"possible</w>":3210,"ress</w>":3211,"stra":3212,"sed</w>":3213,"then</w>":3214,"Tei":3215,"stand</w>":3216,"Sta":3217,"loo":3218,"Diese</w>":3219,"Zeit</w>":3220,"os</w>":3221,"area</w>":3222,"Kol":3223,"äh":3224,"ect</w>":3225,"inv":3226,"hol":3227,"stau":3228,"ased</w>":3229,"unkt</w>":3230,"omp":3231,"Bür":3232,"Poli":3233,"ough</w>":3234,"ject</w>":3235,"nis":3236,"We":3237,"ution</w>":3238,"Geb":3239,"dan":3240,"char":3241,"public</w>":3242,"stan":3243,"wär":3244,"own</w>":3245,"esti":3246,"how</w>":3247,"Herr":3248,"tungen</w>":3249,"act</w>":3250,"unserer</w>":3251,"wohl</w>":3252,"gener":3253,"gar":3254,"arly</w>":3255,"sei":3256,"tain":3257,"ques":3258,"comple":3259,"Sich":3260,"ffen</w>":3261,"fur":3262,"ähr":3263,"Ihre</w>":3264,"Gem":3265,"besch":3266,"habe</w>":3267,"fas":3268,"Untern":3269,"Rich":3270,"ia</w>":3271,"resu":3272,"prote":3273,"market</w>":3274,"au</w>":3275,"usin":3276,"genen</w>":3277,"lick</w>":3278,"sondern</w>":3279,"erten</w>":3280,"bil":3281,"del</w>":3282,"alle":3283,"through</w>":3284,"spiel":3285,"seine</w>":3286,"Ta":3287,"You</w>":3288,"legen</w>":3289,"50</w>":3290,"tly</w>":3291,"after</w>":3292,"ouse</w>":3293,"jedoch</w>":3294,"gri":3295,"Min":3296,"dra":3297,"Su":3298,"Europäische</w>":3299,"cor":3300,"ince</w>":3301,"alu":3302,"har":3303,"sto":3304,"fam":3305,"indu":3306,"per</w>":3307,"ink</w>":3308,"cip":3309,"Syst":3310,"000</w>":3311,"igen</w>":3312,"tlichen</w>":3313,"ster":3314,"political</w>":3315,"self</w>":3316,"Fü":3317,"Mark":3318,"gent":3319,"wn":3320,"neue</w>":3321,"que</w>":3322,"ety</w>":3323,"eln</w>":3324,"pra":3325,"economic</w>":3326,"As</w>":3327,"heute</w>":3328,"Menschen</w>":3329,"ingen</w>":3330,"hö":3331,"kun":3332,"ett":3333,"Fran":3334,"under</w>":3335,"ages</w>":3336,"ps</w>":3337,"124</w>":3338,"sor":3339,"ständi":3340,"enz</w>":3341,"Än":3342,"gele":3343,"brau":3344,"side</w>":3345,"ical</w>":3346,"gegen":3347,"There</w>":3348,"stauran":3349,"air":3350,"could</w>":3351,"ommission":3352,"development</w>":3353,"Bil":3354,"30</w>":3355,"fahren</w>":3356,"rights</w>":3357,"son</w>":3358,"within</w>":3359,"struc":3360,"trans":3361,"Rei":3362,"want</w>":3363,"deb":3364,"inst</w>":3365,"Wor":3366,"ös":3367,"ready</w>":3368,"sib":3369,"stu":3370,"selb":3371,"Jahr</w>":3372,"tern</w>":3373,"onen</w>":3374,"cher</w>":3375,"europäischen</w>":3376,"transp":3377,"Änder":3378,"besser":3379,"schn":3380,"nt</w>":3381,"eld</w>":3382,"For</w>":3383,"bereits</w>":3384,"wei</w>":3385,"gehen</w>":3386,"fl":3387,"bed":3388,"avail":3389,"Program":3390,"To":3391,"Lei":3392,"person":3393,"hist":3394,"ous":3395,"buil":3396,"Dat":3397,"prin":3398,"rich":3399,"ßnahmen</w>":3400,"Grund":3401,"Sicher":3402,"geht</w>":3403,"unterstütz":3404,"against</w>":3405,"iz":3406,"set</w>":3407,"öl":3408,"esen</w>":3409,"both</w>":3410,"ommen</w>":3411,"sh</w>":3412,"thre":3413,"wol":3414,"lassen</w>":3415,"mich</w>":3416,"ability</w>":3417,"country</w>":3418,"much</w>":3419,"US":3420,"tik":3421,"find</w>":3422,"therefore</w>":3423,"ihrer</w>":3424,"mittel":3425,"point</w>":3426,"ohne</w>":3427,"govern":3428,"cap":3429,"Gemein":3430,"ins":3431,"international</w>":3432,"tlin":3433,"eti":3434,"adt</w>":3435,"neuen</w>":3436,"go</w>":3437,"sollte</w>":3438,"ct</w>":3439,"bur":3440,"bers</w>":3441,"ss</w>":3442,"fort":3443,"enth":3444,"els</w>":3445,"tom":3446,"führt</w>":3447,"ier":3448,"viron":3449,"Jahren</w>":3450,"gew":3451,"Mö":3452,"high</w>":3453,"tliche</w>":3454,"bek":3455,"Lo":3456,"enz":3457,"does</w>":3458,"service</w>":3459,"stre":3460,"verschie":3461,"ktion":3462,"andere</w>":3463,"vari":3464,"Rat</w>":3465,"licher</w>":3466,"Sit":3467,"lag</w>":3468,"liegt</w>":3469,"fil":3470,"hän":3471,"Zei":3472,"glich</w>":3473,"Lu":3474,"free</w>":3475,"la</w>":3476,"politik</w>":3477,"Pri":3478,"öffent":3479,"kt":3480,"continu":3481,"Ri":3482,"soci":3483,"grö":3484,"fle":3485,"dri":3486,"Tra":3487,"tial</w>":3488,"without</w>":3489,"quality</w>":3490,"ittee</w>":3491,"durch":3492,"ationalen</w>":3493,"zwei</w>":3494,"ganz</w>":3495,"Besch":3496,"clear</w>":3497,"old</w>":3498,"dre":3499,"machen</w>":3500,"meas":3501,"land":3502,"Entwicklung</w>":3503,"institu":3504,"stellung</w>":3505,"ited</w>":3506,"nee":3507,"ome</w>":3508,"ards</w>":3509,"services</w>":3510,"Frage</w>":3511,"Finan":3512,"Rech":3513,"number</w>":3514,"last</w>":3515,"reichen</w>":3516,"great</w>":3517,"wirtschaf":3518,"sollten</w>":3519,"Bar":3520,"ders</w>":3521,"allen</w>":3522,"operation</w>":3523,"Str":3524,"bietet</w>":3525,"bewer":3526,"Berich":3527,"usiness</w>":3528,"Chin":3529,"alo":3530,"bel":3531,"position</w>":3532,"fest":3533,"isti":3534,"kten</w>":3535,"still</w>":3536,"dem":3537,"antwor":3538,"ways</w>":3539,"dru":3540,"innen</w>":3541,"ftw":3542,"tem":3543,"kre":3544,"long</w>":3545,"out":3546,"ftware</w>":3547,"available</w>":3548,"kno":3549,"social</w>":3550,"15</w>":3551,"fact</w>":3552,"say</w>":3553,"nte</w>":3554,"requi":3555,"fut":3556,"ced</w>":3557,"assi":3558,"rooms</w>":3559,"rap":3560,"leist":3561,"different</w>":3562,"sehen</w>":3563,"kes</w>":3564,"12</w>":3565,"tschaft</w>":3566,"change</w>":3567,"dy</w>":3568,"rupp":3569,"know</w>":3570,"ene</w>":3571,"besondere</w>":3572,"atte</w>":3573,"zus":3574,"Ein</w>":3575,"city</w>":3576,"Dur":3577,"elec":3578,"Go":3579,"zur":3580,"ici":3581,"satz</w>":3582,"Mit</w>":3583,"entsp":3584,"less</w>":3585,"findet</w>":3586,"curr":3587,"stal":3588,"lungen</w>":3589,"führen</w>":3590,"ship</w>":3591,"present":3592,"glob":3593,"gn</w>":3594,"dition</w>":3595,"ests</w>":3596,"ulation</w>":3597,"tural</w>":3598,"ner</w>":3599,"Nor":3600,"cken</w>":3601,"zwei":3602,"cust":3603,"fast</w>":3604,"typ":3605,"lagen</w>":3606,"Mög":3607,"viele</w>":3608,"sum":3609,"concern":3610,"ond</w>":3611,"ital</w>":3612,"Am":3613,"vidu":3614,"ament":3615,"Da":3616,"yn":3617,"ef":3618,"hä":3619,"course</w>":3620,"lim":3621,"environ":3622,"sicht</w>":3623,"Ter":3624,"already</w>":3625,"weil</w>":3626,"ration</w>":3627,"emplo":3628,"believe</w>":3629,"before</w>":3630,"zent":3631,"future</w>":3632,"alt</w>":3633,"anti":3634,"high":3635,"Welt</w>":3636,"sicher":3637,"ologi":3638,"inten":3639,"priv":3640,"einf":3641,"ig</w>":3642,"nehmen</w>":3643,"alisi":3644,"Unternehmen</w>":3645,"too</w>":3646,"dazu</w>":3647,"Intern":3648,"ry</w>":3649,"Dies":3650,"enst":3651,"Man":3652,"tal":3653,"fied</w>":3654,"ept</w>":3655,"auth":3656,"denn</w>":3657,"wäh":3658,"mar":3659,"bri":3660,"ft":3661,"utes</w>":3662,"uro</w>":3663,"today</w>":3664,"kur":3665,"zeit</w>":3666,"Kin":3667,"mei":3668,"fer</w>":3669,"Tre":3670,"inte":3671,"products</w>":3672,"Des":3673,"entwick":3674,"led</w>":3675,"Ba":3676,"wo</w>":3677,"case</w>":3678,"jetzt</w>":3679,"wieder</w>":3680,"Them":3681,"klär":3682,"contro":3683,"Commission":3684,"That</w>":3685,"Rah":3686,"Dem":3687,"main</w>":3688,"urity</w>":3689,"hop":3690,"lungs":3691,"boo":3692,"2009</w>":3693,"acti":3694,"tors</w>":3695,"level</w>":3696,"seiner</w>":3697,"ample</w>":3698,"hin</w>":3699,"some":3700,"zieh":3701,"Do":3702,"data</w>":3703,"ca</w>":3704,"sing</w>":3705,"Tran":3706,"gang</w>":3707,"kan":3708,"Ener":3709,"bal":3710,"process</w>":3711,"think</w>":3712,"ler":3713,"com</w>":3714,"Rus":3715,"sam":3716,"cannot</w>":3717,"prä":3718,"succ":3719,"Dis":3720,"darauf</w>":3721,"alität</w>":3722,"nahme</w>":3723,"Lage</w>":3724,"tiz":3725,"saf":3726,"Informationen</w>":3727,"effec":3728,"valu":3729,"ever":3730,"vice</w>":3731,"größ":3732,"Bereich</w>":3733,"olog":3734,"sozi":3735,"genommen</w>":3736,"arbeit</w>":3737,"imm":3738,"Is":3739,"agement</w>":3740,"ker</w>":3741,"gestellt</w>":3742,"fully</w>":3743,"Hin":3744,"isch</w>":3745,"Maßnahmen</w>":3746,"ism</w>":3747,"sear":3748,"put</w>":3749,"nov":3750,"ischer</w>":3751,"Web":3752,"ements</w>":3753,"individu":3754,"sign</w>":3755,"cra":3756,"Hand":3757,"Ad":3758,"einige</w>":3759,"Sa":3760,"trä":3761,"trau":3762,"human</w>":3763,"sagen</w>":3764,"schon</w>":3765,"offers</w>":3766,"twen":3767,"selbst</w>":3768,"schen":3769,"ente</w>":3770,"pur":3771,"pec":3772,"falls</w>":3773,"dafür</w>":3774,"ately</w>":3775,"macht</w>":3776,"ab</w>":3777,"embers</w>":3778,"Mi":3779,"Fo":3780,"ommiss":3781,"gesam":3782,"national</w>":3783,"adv":3784,"impro":3785,"ate":3786,"ität</w>":3787,"win":3788,"Commissioner</w>":3789,"Herrn</w>":3790,"situation</w>":3791,"respec":3792,"eben":3793,"11</w>":3794,"Stra":3795,"ats":3796,"imple":3797,"ob</w>":3798,"maj":3799,"mir</w>":3800,"ka</w>":3801,"gleich":3802,"But</w>":3803,"Medi":3804,"during</w>":3805,"Aussch":3806,"best</w>":3807,"Kommiss":3808,"sic</w>":3809,"spra":3810,"tragen</w>":3811,"Stand":3812,"minist":3813,"ier</w>":3814,"ked</w>":3815,"over":3816,"twendi":3817,"chil":3818,"eter</w>":3819,"call":3820,"oll":3821,"ining</w>":3822,"So</w>":3823,"ihr</w>":3824,"prof":3825,"small</w>":3826,"möglich</w>":3827,"stär":3828,"lü":3829,"ade</w>":3830,"financial</w>":3831,"fäl":3832,"aments</w>":3833,"nis</w>":3834,"ihren</w>":3835,"ged</w>":3836,"bud":3837,"vely</w>":3838,"allem</w>":3839,"abli":3840,"nor":3841,"Jahre</w>":3842,"said</w>":3843,"bin</w>":3844,"Pal":3845,"custom":3846,"ning</w>":3847,"ahl</w>":3848,"viel</w>":3849,"verk":3850,"bro":3851,"oren</w>":3852,"zeich":3853,"ish</w>":3854,"gend</w>":3855,"versi":3856,"Arbeit</w>":3857,"issue</w>":3858,"achie":3859,"debate</w>":3860,"means</w>":3861,"yment</w>":3862,"including</w>":3863,"pi":3864,"ve":3865,"tels</w>":3866,"meine</w>":3867,"example</w>":3868,"tsch":3869,"zel":3870,"Gu":3871,"proposal</w>":3872,"applic":3873,"mul":3874,"Ste":3875,"experi":3876,"ilit":3877,"US</w>":3878,"tt</w>":3879,"ward</w>":3880,"every</w>":3881,"produ":3882,"All</w>":3883,"disc":3884,"tsp":3885,"question</w>":3886,"condi":3887,"simp":3888,"genden</w>":3889,"text</w>":3890,"fic</w>":3891,"bit":3892,"since</w>":3893,"kunft</w>":3894,"Res":3895,"worden</w>":3896,"ging</w>":3897,"stimm":3898,"tig":3899,"isl":3900,"Vi":3901,"Sei":3902,"though</w>":3903,"resol":3904,"Eine</w>":3905,"gut</w>":3906,"az":3907,"business</w>":3908,"ma</w>":3909,"Dies</w>":3910,"verfü":3911,"wollen</w>":3912,"heits":3913,"lug":3914,"necess":3915,"ol</w>":3916,"Land</w>":3917,"essen":3918,"art</w>":3919,"tru":3920,"tik</w>":3921,"However</w>":3922,"Our</w>":3923,"würde</w>":3924,"unseren</w>":3925,"help</w>":3926,"ily</w>":3927,"based</w>":3928,"legal</w>":3929,"Fir":3930,"Verein":3931,"back</w>":3932,"ority</w>":3933,"tens</w>":3934,"each</w>":3935,"cl":3936,"Arbeits":3937,"tur</w>":3938,"taken</w>":3939,"Person":3940,"Wi":3941,"cum":3942,"Wel":3943,"deu":3944,"üh":3945,"access</w>":3946,"action</w>":3947,"adop":3948,"del":3949,"tin</w>":3950,"defin":3951,"Land":3952,"ual</w>":3953,"Nat":3954,"tic</w>":3955,"essen</w>":3956,"alth</w>":3957,"sten":3958,"mor":3959,"annt</w>":3960,"particular</w>":3961,"bestimm":3962,"Ju":3963,"use":3964,"Committee</w>":3965,"citiz":3966,"offer</w>":3967,"zun":3968,"Für</w>":3969,"kom":3970,"get":3971,"aly":3972,"problem</w>":3973,"illion</w>":3974,"visi":3975,"Haush":3976,"ek</w>":3977,"inst":3978,"ähi":3979,"kün":3980,"ences</w>":3981,"partn":3982,"ban":3983,"iger</w>":3984,"colle":3985,"ology</w>":3986,"Techn":3987,"bringen</w>":3988,"Zimmer</w>":3989,"Internet</w>":3990,"Proje":3991,"ilities</w>":3992,"art":3993,"gar</w>":3994,"three</w>":3995,"während</w>":3996,"etwas</w>":3997,"Lös":3998,"dig":3999,"sel</w>":4000,"lichkeiten</w>":4001,"setzung</w>":4002,"aro":4003,"feh":4004,"search</w>":4005,"Deut":4006,"large</w>":4007,"common</w>":4008,"requ":4009,"Le":4010,"xi":4011,"ats</w>":4012,"bieten</w>":4013,"give</w>":4014,"measures</w>":4015,"areas</w>":4016,"next</w>":4017,"Art</w>":4018,"Ur":4019,"utz</w>":4020,"accoun":4021,"Rechts":4022,"stry</w>":4023,"aler</w>":4024,"every":4025,"rem</w>":4026,"affen</w>":4027,"present</w>":4028,"organis":4029,"Aut":4030,"ssi":4031,"waren</w>":4032,"Länder</w>":4033,"nun</w>":4034,"derung</w>":4035,"dire":4036,"Und</w>":4037,"Beh":4038,"Gre":4039,"few</w>":4040,"energy</w>":4041,"staurant</w>":4042,"äm":4043,"spezi":4044,"ith</w>":4045,"Wie</w>":4046,"agreement</w>":4047,"Unterstütz":4048,"ches</w>":4049,"far</w>":4050,"deli":4051,"Cent":4052,"establi":4053,"dings</w>":4054,"while</w>":4055,"insbesondere</w>":4056,"inde":4057,"Mu":4058,"ßt</w>":4059,"spre":4060,"On</w>":4061,"located</w>":4062,"necessary</w>":4063,"provide</w>":4064,"recei":4065,"18":4066,"cies</w>":4067,"2010</w>":4068,"citizens</w>":4069,"erfol":4070,"sure</w>":4071,"iet</w>":4072,"gehör":4073,"ak</w>":4074,"China</w>":4075,"zü":4076,"ports</w>":4077,"pas":4078,"schri":4079,"omen</w>":4080,"histor":4081,"Kom":4082,"ktionen</w>":4083,"ordnung</w>":4084,"verwen":4085,"fore":4086,"wach":4087,"los</w>":4088,"alten</w>":4089,"erhalten</w>":4090,"punkt</w>":4091,"verb":4092,"sibility</w>":4093,"dungen</w>":4094,"ue</w>":4095,"using</w>":4096,"Fun":4097,"follo":4098,"ensure</w>":4099,"seit</w>":4100,"life</w>":4101,"Mad":4102,"begr":4103,"La":4104,"sy":4105,"Por":4106,"ürlich</w>":4107,"company</w>":4108,"gesetzt</w>":4109,"Bed":4110,"dge</w>":4111,"schein":4112,"ask</w>":4113,"Umwel":4114,"eting</w>":4115,"nten</w>":4116,"Änderungs":4117,"again</w>":4118,"Verfü":4119,"hil":4120,"aller</w>":4121,"systems</w>":4122,"sse</w>":4123,"licht</w>":4124,"date</w>":4125,"2008</w>":4126,"key</w>":4127,"Parlaments</w>":4128,"Rahmen</w>":4129,"opp":4130,"fund":4131,"tradi":4132,"security</w>":4133,"Hil":4134,"half</w>":4135,"gs":4136,"whe":4137,"tungs":4138,"ness</w>":4139,"nisse</w>":4140,"völ":4141,"Stu":4142,"equi":4143,"mä":4144,"wes":4145,"25</w>":4146,"wo":4147,"increas":4148,"fan":4149,"problems</w>":4150,"ersten</w>":4151,"wan":4152,"ularly</w>":4153,"voll":4154,"Unterstützung</w>":4155,"further</w>":4156,"shall</w>":4157,"scher</w>":4158,"heiten</w>":4159,"opport":4160,"autom":4161,"ieder":4162,"pop":4163,"arbeiten</w>":4164,"ju":4165,"ole</w>":4166,"trol":4167,"Namen</w>":4168,"tieren</w>":4169,"Menschen":4170,"Win":4171,"Zusammenarbeit</w>":4172,"assung</w>":4173,"Tur":4174,"ieren</w>":4175,"prac":4176,"att":4177,"net":4178,"du</w>":4179,"Teil</w>":4180,"fte</w>":4181,"compan":4182,"ations":4183,"moder":4184,"vote</w>":4185,"sequ":4186,"mm":4187,"Bel":4188,"Group</w>":4189,"Haup":4190,"competi":4191,"sia</w>":4192,"given</w>":4193,"agt</w>":4194,"Ländern</w>":4195,"Gar":4196,"Br":4197,"cou":4198,"politischen</w>":4199,"real</w>":4200,"Richtlin":4201,"tice</w>":4202,"sichti":4203,"leich":4204,"allo":4205,"Mr":4206,"beim</w>":4207,"Verk":4208,"zo":4209,"hear":4210,"utzen</w>":4211,"ules</w>":4212,"Vorschlag</w>":4213,"Vol":4214,"invol":4215,"setzen</w>":4216,"yer</w>":4217,"til</w>":4218,"Dar":4219,"Amer":4220,"objec":4221,"izi":4222,"wards</w>":4223,"why</w>":4224,"Sk":4225,"consider":4226,"however</w>":4227,"unde</w>":4228,"tz</w>":4229,"light</w>":4230,"di</w>":4231,"ja</w>":4232,"Fall</w>":4233,"soll</w>":4234,"Leb":4235,"Americ":4236,"dest":4237,"law</w>":4238,"zug</w>":4239,"besteht</w>":4240,"cooperation</w>":4241,"Fol":4242,"group</w>":4243,"stay</w>":4244,"eck</w>":4245,"IN":4246,"grund</w>":4247,"gether</w>":4248,"Op":4249,"Deb":4250,"zep":4251,"connec":4252,"down</w>":4253,"ish":4254,"To</w>":4255,"consu":4256,"the":4257,"Bürger</w>":4258,"did</w>":4259,"Uni":4260,"ennen</w>":4261,"vention</w>":4262,"On":4263,"lossen</w>":4264,"amend":4265,"sitz":4266,"Eng":4267,"cho":4268,"lea":4269,"Ben":4270,"führung</w>":4271,"tun</w>":4272,"ours</w>":4273,"dly</w>":4274,"Stadt</w>":4275,"Kar":4276,"ism":4277,"sam</w>":4278,"System</w>":4279,"rum</w>":4280,"gabe</w>":4281,"With</w>":4282,"hau":4283,"legisl":4284,"ously</w>":4285,"always</w>":4286,"wissen</w>":4287,"Ziel</w>":4288,"richti":4289,"int</w>":4290,"deren</w>":4291,"gende</w>":4292,"erungs":4293,"Proz":4294,"enten</w>":4295,"needs</w>":4296,"Gen":4297,"working</w>":4298,"Organ":4299,"happ":4300,"einfach</w>":4301,"atten":4302,"full</w>":4303,"views</w>":4304,"They</w>":4305,"glau":4306,"cultural</w>":4307,"initi":4308,"dert</w>":4309,"denti":4310,"Anwen":4311,"seinen</w>":4312,"appe":4313,"War":4314,"materi":4315,"blei":4316,"Geschäf":4317,"drei</w>":4318,"strateg":4319,"Fragen</w>":4320,"state</w>":4321,"dren</w>":4322,"United</w>":4323,"wichtig</w>":4324,"ession":4325,"Bei</w>":4326,"plan":4327,"Lan":4328,"implement":4329,"Ob":4330,"hope</w>":4331,"dlich</w>":4332,"iert</w>":4333,"ep</w>":4334,"production</w>":4335,"fung</w>":4336,"Präsiden":4337,"einmal</w>":4338,"lus":4339,"Fam":4340,"km</w>":4341,"mehr":4342,"welche</w>":4343,"ina</w>":4344,"At</w>":4345,"spiel</w>":4346,"ases</w>":4347,"Af":4348,"Euro</w>":4349,"flo":4350,"Partn":4351,"Gi":4352,"plac":4353,"lin</w>":4354,"guar":4355,"terstat":4356,"Problem</w>":4357,"stance</w>":4358,"days</w>":4359,"parti":4360,"main":4361,"od</w>":4362,"House</w>":4363,"Seite</w>":4364,"wäre</w>":4365,"ei</w>":4366,"better</w>":4367,"darf</w>":4368,"Kollegen</w>":4369,"teil</w>":4370,"esses</w>":4371,"ised</w>":4372,"Community</w>":4373,"Sec":4374,"porte":4375,"letzten</w>":4376,"100</w>":4377,"dabei</w>":4378,"reco":4379,"ettbewer":4380,"ird</w>":4381,"orts</w>":4382,"And</w>":4383,"Entschei":4384,"Ru":4385,"industri":4386,"ference</w>":4387,"times</w>":4388,"Tex":4389,"Milli":4390,"betri":4391,"USA</w>":4392,"EU":4393,"esse</w>":4394,"sever":4395,"bau":4396,"gaben</w>":4397,"treten</w>":4398,"open</w>":4399,"Wirtschaf":4400,"around</w>":4401,"them":4402,"ämp":4403,"imp":4404,"ER":4405,"13</w>":4406,"protection</w>":4407,"yed</w>":4408,"geführt</w>":4409,"tiert</w>":4410,"Institu":4411,"lied</w>":4412,"genheit</w>":4413,"Daten</w>":4414,"ine":4415,"2007</w>":4416,"Recht</w>":4417,"rechte</w>":4418,"ling</w>":4419,"power</w>":4420,"entfer":4421,"What</w>":4422,"dec":4423,"Bi":4424,"add":4425,"making</w>":4426,"ton</w>":4427,"rän":4428,"Fraktion</w>":4429,"together</w>":4430,"Woh":4431,"Wer":4432,"Mein":4433,"sing":4434,"großen</w>":4435,"zeigt</w>":4436,"Bedeut":4437,"pack":4438,"große</w>":4439,"rise</w>":4440,"tan":4441,"mes</w>":4442,"ingungen</w>":4443,"Ziel":4444,"tte</w>":4445,"programme</w>":4446,"enjo":4447,"Viel":4448,"Kre":4449,"schaften</w>":4450,"spar":4451,"ines</w>":4452,"mental</w>":4453,"ück</w>":4454,"ware</w>":4455,"ra</w>":4456,"gern</w>":4457,"plat":4458,"Rol":4459,"kommt</w>":4460,"Kri":4461,"occ":4462,"current</w>":4463,"streng":4464,"ima":4465,"Haushal":4466,"Spiel":4467,"gän":4468,"ources</w>":4469,"prü":4470,"ury</w>":4471,"Mrs</w>":4472,"Auf</w>":4473,"resul":4474,"hängi":4475,"special</w>":4476,"Was</w>":4477,"terms</w>":4478,"sha":4479,"unic":4480,"orig":4481,"fort</w>":4482,"Verfügung</w>":4483,"hand</w>":4484,"CO":4485,"Er</w>":4486,"abo":4487,"lig":4488,"för":4489,"Sicherheit</w>":4490,"Ergeb":4491,"einzi":4492,"weiter</w>":4493,"trade</w>":4494,"Bedeutung</w>":4495,"deta":4496,"Eu":4497,"Gener":4498,"sted</w>":4499,"Off":4500,"stä":4501,"ro</w>":4502,"region":4503,"2000</w>":4504,"extre":4505,"Situ":4506,"Ihr</w>":4507,"whether</w>":4508,"teil":4509,"Eben":4510,"inner":4511,"outh</w>":4512,"icul":4513,"become</w>":4514,"co</w>":4515,"particularly</w>":4516,"centre</w>":4517,"going</w>":4518,"enzen</w>":4519,"These</w>":4520,"Ira":4521,"orities</w>":4522,"zurück":4523,"Möglichkeit</w>":4524,"40</w>":4525,"discus":4526,"hr</w>":4527,"ss":4528,"management</w>":4529,"wed</w>":4530,"uter</w>":4531,"val</w>":4532,"promo":4533,"han":4534,"difficul":4535,"tali":4536,"lab":4537,"basis</w>":4538,"another</w>":4539,"air</w>":4540,"certain</w>":4541,"children</w>":4542,"ths</w>":4543,"außer":4544,"trac":4545,"18</w>":4546,"bel</w>":4547,"When</w>":4548,"commit":4549,"schließlich</w>":4550,"Berichterstat":4551,"ath</w>":4552,"Nach</w>":4553,"Wo":4554,"ffe</w>":4555,"ign</w>":4556,"location</w>":4557,"expres":4558,"range</w>":4559,"rapporte":4560,"met":4561,"web":4562,"fähi":4563,"ror":4564,"burg</w>":4565,"serv":4566,"supp":4567,"look</w>":4568,"Auch</w>":4569,"00":4570,"muß</w>":4571,"handelt</w>":4572,"notwendi":4573,"Lie":4574,"result</w>":4575,"aff</w>":4576,"He":4577,"gleich</w>":4578,"second</w>":4579,"contri":4580,"näch":4581,"Frau":4582,"conditions</w>":4583,"ator</w>":4584,"groß":4585,"eigenen</w>":4586,"iti":4587,"kri":4588,"arch":4589,"gene</w>":4590,"page</w>":4591,"Staaten</w>":4592,"ermög":4593,"rüh":4594,"Fahr":4595,"xim":4596,"dlichen</w>":4597,"table</w>":4598,"14</w>":4599,"region</w>":4600,"60</w>":4601,"issues</w>":4602,"Flug":4603,"tigt</w>":4604,"Ti":4605,"Als</w>":4606,"ales</w>":4607,"tal</w>":4608,"ellschaft</w>":4609,"Aber</w>":4610,"alles</w>":4611,"water</w>":4612,"Plat":4613,"inf":4614,"Regierung</w>":4615,"pflich":4616,"Thema</w>":4617,"rin":4618,"aller":4619,"Lis":4620,"kra":4621,"erforder":4622,"dio</w>":4623,"Ele":4624,"Service</w>":4625,"Energi":4626,"German</w>":4627,"Gra":4628,"Zent":4629,"Gä":4630,"Kommissar</w>":4631,"davon</w>":4632,"wahr":4633,"Indu":4634,"Rom":4635,"grei":4636,"ering</w>":4637,"exten":4638,"darüber</w>":4639,"turn</w>":4640,"Probleme</w>":4641,"bor":4642,"zer":4643,"espec":4644,"ific":4645,"weit</w>":4646,"Car":4647,"dom</w>":4648,"wegen</w>":4649,"control</w>":4650,"gress</w>":4651,"daher</w>":4652,"geord":4653,"coming</w>":4654,"ichte</w>":4655,"yo":4656,"companies</w>":4657,"los":4658,"women</w>":4659,"role</w>":4660,"fft</w>":4661,"Ant":4662,"decision</w>":4663,"close</w>":4664,"Kunden</w>":4665,"ute</w>":4666,"entschei":4667,"Weise</w>":4668,"ross</w>":4669,"Famili":4670,"soli":4671,"kein</w>":4672,"experience</w>":4673,"various</w>":4674,"beau":4675,"guaran":4676,"especi":4677,"cel":4678,"AT":4679,"wide</w>":4680,"establish":4681,"sowohl</w>":4682,"industry</w>":4683,"fizi":4684,"sage</w>":4685,"seri":4686,"whole</w>":4687,"selves</w>":4688,"ismus</w>":4689,"exist":4690,"blick</w>":4691,"weitere</w>":4692,"16</w>":4693,"Finanz":4694,"Politik</w>":4695,"Artik":4696,"ordin":4697,"pt</w>":4698,"Dienst":4699,"befindet</w>":4700,"health</w>":4701,"comes</w>":4702,"dou":4703,"design":4704,"non</w>":4705,"sector</w>":4706,"suchen</w>":4707,"gel</w>":4708,"weisen</w>":4709,"especially</w>":4710,"hör":4711,"ta</w>":4712,"AR":4713,"könnte</w>":4714,"tor":4715,"vis":4716,"modern</w>":4717,"Ihrer</w>":4718,"erreichen</w>":4719,"distri":4720,"innov":4721,"aty</w>":4722,"ire</w>":4723,"called</w>":4724,"goti":4725,"Kun":4726,"really</w>":4727,"hatte</w>":4728,"Bri":4729,"asi":4730,"samen</w>":4731,"local</w>":4732,"meiner</w>":4733,"far":4734,"anzu":4735,"matter</w>":4736,"enter":4737,"work":4738,"hang</w>":4739,"zed</w>":4740,"besonders</w>":4741,"Jun":4742,"ziehen</w>":4743,"entsprech":4744,"Minist":4745,"liegen</w>":4746,"Pra":4747,"word</w>":4748,"oth":4749,"done</w>":4750,"Ende</w>":4751,"name</w>":4752,"versch":4753,"account</w>":4754,"ils</w>":4755,"tten</w>":4756,"ellent</w>":4757,"wish</w>":4758,"fav":4759,"len":4760,"luss</w>":4761,"specific</w>":4762,"instru":4763,"wirklich</w>":4764,"ingt</w>":4765,"Lin":4766,"respect</w>":4767,"private</w>":4768,"mb":4769,"Grupp":4770,"Comp":4771,"leben</w>":4772,"Beispiel</w>":4773,"ek":4774,"def":4775,"budget</w>":4776,"ihnen</w>":4777,"Inv":4778,"Zukunft</w>":4779,"Richtlinie</w>":4780,"mati":4781,"invest":4782,"ritte</w>":4783,"2006</w>":4784,"don</w>":4785,"vision</w>":4786,"verschiedenen</w>":4787,"natürlich</w>":4788,"unser</w>":4789,"Mittel":4790,"ared</w>":4791,"docum":4792,"neten</w>":4793,"unterstützen</w>":4794,"aktu":4795,"third</w>":4796,"Indi":4797,"ationale</w>":4798,"chen":4799,"isi":4800,"cli":4801,"government</w>":4802,"profession":4803,"gelegt</w>":4804,"pose</w>":4805,"create</w>":4806,"innerhalb</w>":4807,"abhängi":4808,"negoti":4809,"blo":4810,"research</w>":4811,"vil":4812,"Haupt":4813,"face</w>":4814,"Währ":4815,"ably</w>":4816,"entfernt</w>":4817,"gl":4818,"Afri":4819,"AN":4820,"Wettbewer":4821,"staff</w>":4822,"öh":4823,"timmen</w>":4824,"Bal":4825,"feat":4826,"langu":4827,"fy</w>":4828,"vielen</w>":4829,"gegenüber</w>":4830,"wa</w>":4831,"Kli":4832,"zahl":4833,"sprechen</w>":4834,"lease</w>":4835,"At":4836,"incre":4837,"finanzi":4838,"ession</w>":4839,"nam":4840,"user</w>":4841,"tigung</w>":4842,"mil":4843,"reli":4844,"akti":4845,"fül":4846,"Forsch":4847,"Germany</w>":4848,"Rück":4849,"Grün":4850,"quali":4851,"Rolle</w>":4852,"ik</w>":4853,"hervor":4854,"sön":4855,"grund":4856,"Ban":4857,"software</w>":4858,"merk":4859,"start</w>":4860,"ls</w>":4861,"zwar</w>":4862,"gue</w>":4863,"dessen</w>":4864,"single</w>":4865,"Kul":4866,"Nutz":4867,"reduc":4868,"krati":4869,"eller</w>":4870,"Weg</w>":4871,"Frauen</w>":4872,"internationalen</w>":4873,"major</w>":4874,"accep":4875,"kul":4876,"rate</w>":4877,"employment</w>":4878,"project</w>":4879,"aci":4880,"term</w>":4881,"something</w>":4882,"ands</w>":4883,"Seiten</w>":4884,"million</w>":4885,"eme</w>":4886,"abili":4887,"off</w>":4888,"list</w>":4889,"vers":4890,"itself</w>":4891,"198":4892,"ency</w>":4893,"atten</w>":4894,"intro":4895,"cally</w>":4896,"tation</w>":4897,"automati":4898,"several</w>":4899,"racht</w>":4900,"away</w>":4901,"ain</w>":4902,"möchten</w>":4903,"tage</w>":4904,"ories</w>":4905,"bl":4906,"Industri":4907,"alis":4908,"eicht</w>":4909,"rapporteur</w>":4910,"resolution</w>":4911,"gest</w>":4912,"gerich":4913,"Lebens":4914,"druck</w>":4915,"found</w>":4916,"global</w>":4917,"ttle</w>":4918,"umfas":4919,"break":4920,"continue</w>":4921,"Fu":4922,"ording</w>":4923,"sprache</w>":4924,"ols</w>":4925,"stei":4926,"äre</w>":4927,"known</w>":4928,"fel":4929,"regard</w>":4930,"Tag</w>":4931,"ading</w>":4932,"EN</w>":4933,"untern":4934,"gebo":4935,"dort</w>":4936,"nich":4937,"Ihren</w>":4938,"via</w>":4939,"Bau":4940,"mäß":4941,"dür":4942,"gentle":4943,"No</w>":4944,"europäische</w>":4945,"tischen</w>":4946,"utions</w>":4947,"stimmung</w>":4948,"Im":4949,"fron":4950,"open":4951,"Hei":4952,"suff":4953,"wnlo":4954,"advan":4955,"jects</w>":4956,"ativen</w>":4957,"taking</w>":4958,"pro</w>":4959,"era</w>":4960,"wth</w>":4961,"onn":4962,"town</w>":4963,"tives</w>":4964,"liches</w>":4965,"regul":4966,"Hotels</w>":4967,"cks</w>":4968,"mework</w>":4969,"direkt</w>":4970,"politische</w>":4971,"ected</w>":4972,"ans":4973,"least</w>":4974,"Itali":4975,"version</w>":4976,"bs":4977,"gewähr":4978,"TV</w>":4979,"part":4980,"general</w>":4981,"top</w>":4982,"vement</w>":4983,"onds</w>":4984,"Demok":4985,"etc</w>":4986,"sischen</w>":4987,"ool</w>":4988,"EUR</w>":4989,"Je":4990,"following</w>":4991,"let</w>":4992,"Neu":4993,"Jan":4994,"dence</w>":4995,"gentlemen</w>":4996,"New</w>":4997,"fall</w>":4998,"often</w>":4999,"ander</w>":5000,"atives</w>":5001,"excellent</w>":5002,"transport</w>":5003,"but":5004,"family</w>":5005,"Regel":5006,"nei":5007,"any":5008,"Emp":5009,"asy</w>":5010,"Komm":5011,"pho":5012,"hunder":5013,"gration</w>":5014,"ilt</w>":5015,"urch</w>":5016,"erste</w>":5017,"zusammen":5018,"cing</w>":5019,"aufge":5020,"einzu":5021,"Artikel</w>":5022,"crisis</w>":5023,"lands</w>":5024,"struk":5025,"particip":5026,"sci":5027,"He</w>":5028,"ian</w>":5029,"food</w>":5030,"Fil":5031,"breit":5032,"Software</w>":5033,"rules</w>":5034,"benef":5035,"culture</w>":5036,"dungs":5037,"optim":5038,"directive</w>":5039,"works</w>":5040,"field</w>":5041,"West":5042,"II</w>":5043,"einzel":5044,"Geschäfts":5045,"ender</w>":5046,"Spra":5047,"grün":5048,"Gesund":5049,"personal</w>":5050,"erst</w>":5051,"drück":5052,"ahn":5053,"ehmen":5054,"Spe":5055,"lang</w>":5056,"itäten</w>":5057,"once</w>":5058,"bis":5059,"EC":5060,"subject</w>":5061,"metho":5062,"ones</w>":5063,"represent":5064,"Char":5065,"online</w>":5066,"od":5067,"ined</w>":5068,"Programm</w>":5069,"tron":5070,"fication</w>":5071,"Har":5072,"price</w>":5073,"lon":5074,"money</w>":5075,"sichtlich</w>":5076,"Hier</w>":5077,"conclu":5078,"environment</w>":5079,"Alle</w>":5080,"perform":5081,"Verbrau":5082,"gef":5083,"disp":5084,"tour":5085,"vers</w>":5086,"bution</w>":5087,"activi":5088,"wle":5089,"absol":5090,"welcome</w>":5091,"Mittel</w>":5092,"ino</w>":5093,"Meinung</w>":5094,"Um</w>":5095,"erungen</w>":5096,"towards</w>":5097,"EN":5098,"za</w>":5099,"tual</w>":5100,"verschieden":5101,"wri":5102,"lig</w>":5103,"ligen</w>":5104,"milit":5105,"recogn":5106,"Abgeord":5107,"wieder":5108,"little</w>":5109,"Pol":5110,"Deutsch":5111,"communic":5112,"edi":5113,"things</w>":5114,"danken</w>":5115,"ritten</w>":5116,"lies</w>":5117,"17</w>":5118,"Span":5119,"World</w>":5120,"mel":5121,"frage</w>":5122,"Kur":5123,"ES":5124,"tics</w>":5125,"him</w>":5126,"ktiv":5127,"spr":5128,"sting</w>":5129,"aussch":5130,"Situation</w>":5131,"oun":5132,"product</w>":5133,"phi":5134,"until</w>":5135,"forward</w>":5136,"19</w>":5137,"Steu":5138,"institutions</w>":5139,"gesagt</w>":5140,"gsten</w>":5141,"Sel":5142,"Uhr</w>":5143,"acht</w>":5144,"aufen</w>":5145,"statt</w>":5146,"Zusammenhang</w>":5147,"tigkeit</w>":5148,"Tag":5149,"tures</w>":5150,"bedeu":5151,"Boo":5152,"effici":5153,"Rau":5154,"beiden</w>":5155,"IS":5156,"unserem</w>":5157,"UN":5158,"Lösung</w>":5159,"technology</w>":5160,"tains</w>":5161,"agen":5162,"Fe":5163,"Madam</w>":5164,"mach":5165,"Pi":5166,"tex":5167,"manu":5168,"home</w>":5169,"2005</w>":5170,"Sep":5171,"läge</w>":5172,"bz":5173,"Sü":5174,"Wirtschafts":5175,"analy":5176,"agree</w>":5177,"spä":5178,"Unser":5179,"play</w>":5180,"IC":5181,"teilung</w>":5182,"ums</w>":5183,"Treaty</w>":5184,"individual</w>":5185,"customers</w>":5186,"Entschließ":5187,"Region</w>":5188,"Fisch":5189,"ßen":5190,"bau</w>":5191,"ever</w>":5192,"ago</w>":5193,"dic":5194,"Mat":5195,"Isra":5196,"design</w>":5197,"dom":5198,"verbesser":5199,"crati":5200,"21</w>":5201,"jen":5202,"increase</w>":5203,"lear":5204,"Hilfe</w>":5205,"17":5206,"ech":5207,"dows</w>":5208,"thank</w>":5209,"growth</w>":5210,"Zwei":5211,"short</w>":5212,"Präsidentin</w>":5213,"mosp":5214,"standards</w>":5215,"hy":5216,"asser":5217,"Verantwor":5218,"prev":5219,"schafts":5220,"house</w>":5221,"opportunity</w>":5222,"ER</w>":5223,"rather</w>":5224,"bzw</w>":5225,"bung</w>":5226,"Ra":5227,"ups</w>":5228,"Nov":5229,"Dieses</w>":5230,"Entwicklungs":5231,"Pla":5232,"recht</w>":5233,"Organis":5234,"Dienstleist":5235,"ritt</w>":5236,"tete</w>":5237,"ples</w>":5238,"activities</w>":5239,"building</w>":5240,"sidency</w>":5241,"value</w>":5242,"Sozi":5243,"dent":5244,"call</w>":5245,"anim":5246,"positive</w>":5247,"Mehr":5248,"Euro":5249,"Ni":5250,"quite</w>":5251,"aid</w>":5252,"begrü":5253,"Cor":5254,"baren</w>":5255,"Demokrati":5256,"weniger</w>":5257,"Produkte</w>":5258,"Strateg":5259,"ehm":5260,"voll</w>":5261,"lang":5262,"princip":5263,"origin":5264,"mittel</w>":5265,"poten":5266,"reicht</w>":5267,"mod":5268,"bed</w>":5269,"einge":5270,"provided</w>":5271,"erwar":5272,"perf":5273,"signific":5274,"resources</w>":5275,"erzi":5276,"Schul":5277,"ord</w>":5278,"tar":5279,"sätz":5280,"equ":5281,"wün":5282,"jeder</w>":5283,"identi":5284,"zimmer</w>":5285,"ht</w>":5286,"Stru":5287,"Haus</w>":5288,"gend":5289,"öffentlichen</w>":5290,"teilen</w>":5291,"unterschie":5292,"ose</w>":5293,"wort</w>":5294,"Sol":5295,"pic":5296,"Leben</w>":5297,"bili":5298,"ends</w>":5299,"progra":5300,"annten</w>":5301,"daran</w>":5302,"erh":5303,"gewi":5304,"ona</w>":5305,"approach</w>":5306,"IT</w>":5307,"Dec":5308,"gilt</w>":5309,"Air":5310,"Frie":5311,"els":5312,"file</w>":5313,"behalf</w>":5314,"sionen</w>":5315,"interest</w>":5316,"period</w>":5317,"ads</w>":5318,"State</w>":5319,"Deshalb</w>":5320,"persön":5321,"kung</w>":5322,"Members</w>":5323,"gute</w>":5324,"10":5325,"Initi":5326,"2004</w>":5327,"holi":5328,"gesehen</w>":5329,"fang</w>":5330,"Rates</w>":5331,"educ":5332,"tember</w>":5333,"lub</w>":5334,"ater":5335,"An</w>":5336,"ämlich</w>":5337,"yet</w>":5338,"having</w>":5339,"Kü":5340,"gin":5341,"mom":5342,"bitte</w>":5343,"tually</w>":5344,"fragen</w>":5345,"geschlossen</w>":5346,"include</w>":5347,"ckt</w>":5348,"inion</w>":5349,"zeitig</w>":5350,"nämlich</w>":5351,"forderungen</w>":5352,"Erfahr":5353,"ungs</w>":5354,"ersch":5355,"Schutz</w>":5356,"proper":5357,"indem</w>":5358,"September</w>":5359,"foc":5360,"members</w>":5361,"AS":5362,"ahr</w>":5363,"uli":5364,"solution</w>":5365,"viol":5366,"arti":5367,"sty":5368,"allen":5369,"require":5370,"pool</w>":5371,"bereich</w>":5372,"spi":5373,"Grund</w>":5374,"ladies</w>":5375,"völk":5376,"due</w>":5377,"sogar</w>":5378,"vity</w>":5379,"ars</w>":5380,"Pak":5381,"ücksichti":5382,"gemacht</w>":5383,"Europas</w>":5384,"might</w>":5385,"beauti":5386,"forms</w>":5387,"lish</w>":5388,"ctions</w>":5389,"points</w>":5390,"International</w>":5391,"antrag</w>":5392,"leisten</w>":5393,"One</w>":5394,"flexi":5395,"proposals</w>":5396,"bank</w>":5397,"zeichn":5398,"left</w>":5399,"exper":5400,"gebracht</w>":5401,"Can":5402,"confi":5403,"recomm":5404,"amendments</w>":5405,"Kinder</w>":5406,"Gleich":5407,"Zw":5408,"among</w>":5409,"elleicht</w>":5410,"fortable</w>":5411,"ategi":5412,"hinaus</w>":5413,"Millionen</w>":5414,"auszu":5415,"bindung</w>":5416,"zahl</w>":5417,"words</w>":5418,"etwa</w>":5419,"safety</w>":5420,"Gol":5421,"framework</w>":5422,"content</w>":5423,"isse</w>":5424,"cratic</w>":5425,"anträ":5426,"allow</w>":5427,"gui":5428,"minutes</w>":5429,"effective</w>":5430,"appropri":5431,"richt</w>":5432,"force</w>":5433,"alisierung</w>":5434,"pat":5435,"After</w>":5436,"zö":5437,"above</w>":5438,"tioned</w>":5439,"economy</w>":5440,"2003</w>":5441,"Früh":5442,"ächlich</w>":5443,"Gegen":5444,"costs</w>":5445,"transpar":5446,"läu":5447,"schaffen</w>":5448,"easy</w>":5449,"regel":5450,"Berlin</w>":5451,"erklär":5452,"member</w>":5453,"Pf":5454,"Mor":5455,"apart":5456,"dien":5457,"ath":5458,"cop":5459,"sites</w>":5460,"ground</w>":5461,"reali":5462,"Besu":5463,"Dok":5464,"ihn</w>":5465,"cracy</w>":5466,"others</w>":5467,"ständig</w>":5468,"Haushalts":5469,"ologie</w>":5470,"adopted</w>":5471,"sweise</w>":5472,"sieh":5473,"beginn":5474,"Personen</w>":5475,"Kap":5476,"Ther":5477,"usses</w>":5478,"ebenfalls</w>":5479,"Chi":5480,"show</w>":5481,"Verhand":5482,"einigen</w>":5483,"zeigen</w>":5484,"agri":5485,"nu":5486,"ural</w>":5487,"Daten":5488,"va</w>":5489,"Instru":5490,"ihm</w>":5491,"usammen</w>":5492,"charac":5493,"Deutschland</w>":5494,"Unsere</w>":5495,"clim":5496,"Dieser</w>":5497,"progress</w>":5498,"reason</w>":5499,"Leist":5500,"Janu":5501,"exclu":5502,"Ebene</w>":5503,"wesent":5504,"seinem</w>":5505,"stoff":5506,"Far":5507,"makes</w>":5508,"Website</w>":5509,"Kl":5510,"Durch":5511,"demokrati":5512,"ign":5513,"live</w>":5514,"deal</w>":5515,"opinion</w>":5516,"enjoy</w>":5517,"ko</w>":5518,"fundament":5519,"station</w>":5520,"Punkt</w>":5521,"tober</w>":5522,"website</w>":5523,"body</w>":5524,"gestimm":5525,"proz":5526,"rela":5527,"ül":5528,"ana</w>":5529,"application</w>":5530,"Form</w>":5531,"stens</w>":5532,"assen</w>":5533,"prec":5534,"Aussprache</w>":5535,"Wis":5536,"pass":5537,"Pe":5538,"bus</w>":5539,"legislation</w>":5540,"suppor":5541,"unterstützt</w>":5542,"Stre":5543,"Universi":5544,"halt</w>":5545,"ought</w>":5546,"arbeitet</w>":5547,"AL":5548,"teile</w>":5549,"favour</w>":5550,"hon":5551,"amoun":5552,"nete</w>":5553,"Jo":5554,"Schi":5555,"plan</w>":5556,"projects</w>":5557,"complete</w>":5558,"ktor</w>":5559,"brauchen</w>":5560,"zeichnet</w>":5561,"eth":5562,"road</w>":5563,"hu":5564,"sicher</w>":5565,"results</w>":5566,"difficult</w>":5567,"Nä":5568,"kind</w>":5569,"erweise</w>":5570,"Mal":5571,"je</w>":5572,"moun":5573,"provides</w>":5574,"Priv":5575,"groups</w>":5576,"Sal":5577,"staurants</w>":5578,"Musi":5579,"eli":5580,"darin</w>":5581,"responsibility</w>":5582,"äum":5583,"Qualität</w>":5584,"unver":5585,"künf":5586,"etzen</w>":5587,"DE</w>":5588,"multi":5589,"fli":5590,"attention</w>":5591,"Zeit":5592,"policies</w>":5593,"ehmer</w>":5594,"concerned</w>":5595,"contact</w>":5596,"Erfol":5597,"ises</w>":5598,"Kra":5599,"dd":5600,"cted</w>":5601,"gerade</w>":5602,"Tat":5603,"trav":5604,"Dru":5605,"AC":5606,"dliche</w>":5607,"regar":5608,"zung</w>":5609,"redu":5610,"glaube</w>":5611,"sea</w>":5612,"addi":5613,"power":5614,"nationalen</w>":5615,"emb":5616,"2001</w>":5617,"zeh":5618,"Wil":5619,"Wh":5620,"credi":5621,"airs</w>":5622,"halte</w>":5623,"ming</w>":5624,"addition</w>":5625,"Restaurant</w>":5626,"Ha":5627,"Rechte</w>":5628,"gegeben</w>":5629,"Bre":5630,"simply</w>":5631,"Mär":5632,"beautiful</w>":5633,"ahl":5634,"Ac":5635,"Bro":5636,"komple":5637,"allgem":5638,"prochen</w>":5639,"dürfen</w>":5640,"row</w>":5641,"Gemeinschaft</w>":5642,"proce":5643,"frie":5644,"Benutz":5645,"Sy":5646,"let":5647,"Jahrhunder":5648,"Col":5649,"gebung</w>":5650,"questions</w>":5651,"Sicherheits":5652,"Sub":5653,"she</w>":5654,"importance</w>":5655,"Beschäf":5656,"free":5657,"endly</w>":5658,"Weiter":5659,"grat":5660,"society</w>":5661,"chs</w>":5662,"ameri":5663,"kar":5664,"Zus":5665,"certain":5666,"administ":5667,"coura":5668,"cir":5669,"Hal":5670,"bon</w>":5671,"introduc":5672,"Da</w>":5673,"spru":5674,"success":5675,"sollen</w>":5676,"derzeit</w>":5677,"Jap":5678,"jeden</w>":5679,"nichts</w>":5680,"liber":5681,"yers</w>":5682,"ideal</w>":5683,"Kan":5684,"Cas":5685,"beispiel":5686,"genau</w>":5687,"markt</w>":5688,"Ak":5689,"lö":5690,"greater</w>":5691,"ihrem</w>":5692,"Abstimmung</w>":5693,"alog</w>":5694,"Schlus":5695,"training</w>":5696,"help":5697,"22</w>":5698,"keinen</w>":5699,"voted</w>":5700,"Vereinig":5701,"termin":5702,"Gel":5703,"una</w>":5704,"zusätz":5705,"directly</w>":5706,"freund":5707,"Wach":5708,"schi":5709,"mitt":5710,"meisten</w>":5711,"strategy</w>":5712,"cover":5713,"Wirtschaft</w>":5714,"siert</w>":5715,"environmental</w>":5716,"bare</w>":5717,"ption</w>":5718,"edure</w>":5719,"wirtschaft</w>":5720,"gehört</w>":5721,"denken</w>":5722,"gestimmt</w>":5723,"La</w>":5724,"night</w>":5725,"betrifft</w>":5726,"jus":5727,"mechan":5728,"zusammen</w>":5729,"fern</w>":5730,"ok</w>":5731,"anstal":5732,"step</w>":5733,"80</w>":5734,"interest":5735,"gie</w>":5736,"RO":5737,"ong":5738,"Ort</w>":5739,"principle</w>":5740,"zäh":5741,"cal":5742,"klar</w>":5743,"sei</w>":5744,"cs</w>":5745,"asser</w>":5746,"along</w>":5747,"Welt":5748,"weiterhin</w>":5749,"ächst</w>":5750,"Com":5751,"Dokum":5752,"trag":5753,"bs</w>":5754,"natural</w>":5755,"wledge</w>":5756,"hoch":5757,"utzt</w>":5758,"promis":5759,"immt</w>":5760,"tnis</w>":5761,"Fortsch":5762,"looking</w>":5763,"cat":5764,"ya</w>":5765,"Bezug</w>":5766,"unkte</w>":5767,"manufac":5768,"heart</w>":5769,"required</w>":5770,"ological</w>":5771,"500</w>":5772,"Kamp":5773,"tritt</w>":5774,"wirtschaftlichen</w>":5775,"sache</w>":5776,"responsible</w>":5777,"verstän":5778,"changes</w>":5779,"kämp":5780,"nel</w>":5781,"test</w>":5782,"2002</w>":5783,"tin":5784,"eig":5785,"Änderungsanträ":5786,"Groß":5787,"herr":5788,"avi":5789,"Tür":5790,"zustellen</w>":5791,"unities</w>":5792,"sug":5793,"extrem":5794,"Bem":5795,"century</w>":5796,"Minu":5797,"Direc":5798,"Gesellschaft</w>":5799,"Den":5800,"Bürger":5801,"bility</w>":5802,"setzt</w>":5803,"standing</w>":5804,"vic":5805,"kosten":5806,"Govern":5807,"bedeutet</w>":5808,"meeting</w>":5809,"vo</w>":5810,"ource</w>":5811,"wichtige</w>":5812,"clearly</w>":5813,"rank":5814,"für":5815,"Bezieh":5816,"san":5817,"benö":5818,"Kolleg":5819,"Windows</w>":5820,"197":5821,"breakfast</w>":5822,"ail</w>":5823,"solche</w>":5824,"deshalb</w>":5825,"trolle</w>":5826,"care</w>":5827,"refer":5828,"authorities</w>":5829,"pages</w>":5830,"schwi":5831,"famili":5832,"Stad":5833,"four</w>":5834,"easi":5835,"Kosten</w>":5836,"kenn":5837,"struction</w>":5838,"nutzen</w>":5839,"technical</w>":5840,"füh":5841,"mail</w>":5842,"steu":5843,"rest</w>":5844,"send</w>":5845,"hen":5846,"structure</w>":5847,"För":5848,"remo":5849,"swi":5850,"aufgrund</w>":5851,"kus":5852,"pped</w>":5853,"November</w>":5854,"Zugang</w>":5855,"amm":5856,"besser</w>":5857,"Aus</w>":5858,"conf":5859,"useum</w>":5860,"susta":5861,"recent</w>":5862,"spo":5863,"civi":5864,"besten</w>":5865,"car</w>":5866,"23</w>":5867,"stadt</w>":5868,"cr":5869,"stor":5870,"200</w>":5871,"posed</w>":5872,"cher":5873,"teilt</w>":5874,"temp":5875,"Si":5876,"mind</w>":5877,"ette</w>":5878,"dam</w>":5879,"achieve</w>":5880,"own":5881,"würden</w>":5882,"Sin":5883,"mitted</w>":5884,"uses</w>":5885,"address</w>":5886,"install":5887,"betre":5888,"ops</w>":5889,"challen":5890,"deutlich</w>":5891,"akzep":5892,"nature</w>":5893,"person</w>":5894,"schnell</w>":5895,"ticle</w>":5896,"Apri":5897,"derungen</w>":5898,"senden</w>":5899,"Sor":5900,"Markt</w>":5901,"active</w>":5902,"mem":5903,"staat":5904,"ada</w>":5905,"Gesetz":5906,"Hol":5907,"rich</w>":5908,"Fest":5909,"pan":5910,"rely</w>":5911,"dau":5912,"Bra":5913,"dents</w>":5914,"essential</w>":5915,"Fi":5916,"feel</w>":5917,"standen</w>":5918,"Ide":5919,"Menschenrechte</w>":5920,"Ap":5921,"komp":5922,"Bevölk":5923,"gemä":5924,"Strategie</w>":5925,"gran":5926,"Feh":5927,"Dank</w>":5928,"ned</w>":5929,"risk</w>":5930,"erfolgre":5931,"wert</w>":5932,"haltung</w>":5933,"Von</w>":5934,"kol":5935,"serious</w>":5936,"crimin":5937,"sport</w>":5938,"teten</w>":5939,"space</w>":5940,"dro":5941,"months</w>":5942,"Zi":5943,"longer</w>":5944,"standard</w>":5945,"El":5946,"facilities</w>":5947,"ames</w>":5948,"Ei":5949,"lot</w>":5950,"einander</w>":5951,"solutions</w>":5952,"Verbesser":5953,"op</w>":5954,"bekannt</w>":5955,"Richtung</w>":5956,"history</w>":5957,"sab":5958,"nächsten</w>":5959,"bring</w>":5960,"züglich</w>":5961,"past</w>":5962,"tische</w>":5963,"enough</w>":5964,"Rat":5965,"proposed</w>":5966,"reach":5967,"achten</w>":5968,"Struk":5969,"either</w>":5970,"Sti":5971,"type</w>":5972,"verein":5973,"carri":5974,"developed</w>":5975,"events</w>":5976,"zes</w>":5977,"Umsetzung</w>":5978,"ics</w>":5979,"April</w>":5980,"related</w>":5981,"currently</w>":5982,"ition</w>":5983,"near</w>":5984,"Ansicht</w>":5985,"Fern":5986,"mente</w>":5987,"ade":5988,"internal</w>":5989,"Du":5990,"vorgesch":5991,"interests</w>":5992,"träge</w>":5993,"oods</w>":5994,"direct</w>":5995,"lan</w>":5996,"lines</w>":5997,"guests</w>":5998,"Wachst":5999,"27</w>":6000,"ferenz</w>":6001,"needed</w>":6002,"cost</w>":6003,"restaurant</w>":6004,"ano</w>":6005,"berg</w>":6006,"requirements</w>":6007,"Han":6008,"regions</w>":6009,"hält</w>":6010,"pol":6011,"language</w>":6012,"visit</w>":6013,"Nähe</w>":6014,"limit":6015,"speak":6016,"Mitarbei":6017,"press</w>":6018,"vices</w>":6019,"uren</w>":6020,"fris":6021,"erneu":6022,"Vertrag</w>":6023,"tra</w>":6024,"parties</w>":6025,"fis":6026,"ingly</w>":6027,"ants</w>":6028,"neg":6029,"seits</w>":6030,"Verfahren</w>":6031,"Freih":6032,"manag":6033,"Dan":6034,"mbH</w>":6035,"allerdings</w>":6036,"weder</w>":6037,"scht</w>":6038,"peace</w>":6039,"Please</w>":6040,"Drit":6041,"involved</w>":6042,"zentr":6043,"combin":6044,"tag</w>":6045,"organiz":6046,"themselves</w>":6047,"sition</w>":6048,"Ziele</w>":6049,"young</w>":6050,"lange</w>":6051,"graph":6052,"raum</w>":6053,"affung</w>":6054,"Bedingungen</w>":6055,"human":6056,"Herren</w>":6057,"From</w>":6058,"beispielsweise</w>":6059,"16":6060,"regulation</w>":6061,"fün":6062,"betra":6063,"werde</w>":6064,"Anwendung</w>":6065,"hoffe</w>":6066,"round":6067,"central</w>":6068,"democracy</w>":6069,"Selb":6070,"team</w>":6071,"Verantwortung</w>":6072,"Komp":6073,"greifen</w>":6074,"competition</w>":6075,"Inn":6076,"separ":6077,"gesprochen</w>":6078,"comfortable</w>":6079,"wirkungen</w>":6080,"implementation</w>":6081,"never</w>":6082,"seen</w>":6083,"categ":6084,"Tri":6085,"tions":6086,"Russia</w>":6087,"vious</w>":6088,"markets</w>":6089,"upon</w>":6090,"gemeinsamen</w>":6091,"extremely</w>":6092,"Pa":6093,"wand":6094,"anks</w>":6095,"freedom</w>":6096,"richtung</w>":6097,"Tro":6098,"bra":6099,"Inte":6100,"notwendig</w>":6101,"terror":6102,"ku":6103,"ables</w>":6104,"IT":6105,"stet</w>":6106,"Vide":6107,"jewei":6108,"elli":6109,"funktion":6110,"leb":6111,"scheint</w>":6112,"Demokratie</w>":6113,"grupp":6114,"Dah":6115,"Version</w>":6116,"efforts</w>":6117,"Erweiter":6118,"igung</w>":6119,"schön":6120,"please</w>":6121,"network</w>":6122,"total</w>":6123,"sozialen</w>":6124,"genu":6125,"Aspe":6126,"big</w>":6127,"ww":6128,"cases</w>":6129,"Vorschläge</w>":6130,"caus":6131,"event</w>":6132,"GmbH</w>":6133,"atis":6134,"monit":6135,"alls</w>":6136,"gere":6137,"held</w>":6138,"Dam":6139,"arian</w>":6140,"ahn</w>":6141,"set":6142,"bew":6143,"vielleicht</w>":6144,"LA":6145,"As":6146,"kleinen</w>":6147,"antly</w>":6148,"OR":6149,"Grundlage</w>":6150,"Klima":6151,"strong</w>":6152,"beru":6153,"cht":6154,"Gebiet</w>":6155,"cla":6156,"iled</w>":6157,"Am</w>":6158,"ow</w>":6159,"Verwal":6160,"Sozial":6161,"Interesse</w>":6162,"ynam":6163,"verwendet</w>":6164,"Reihe</w>":6165,"tory</w>":6166,"serve</w>":6167,"atory</w>":6168,"Fl":6169,"www</w>":6170,"friendly</w>":6171,"lose</w>":6172,"berücksichti":6173,"demon":6174,"modi":6175,"arri":6176,"Geschichte</w>":6177,"offen":6178,"democratic</w>":6179,"Kön":6180,"aria</w>":6181,"keep</w>":6182,"Man</w>":6183,"Angele":6184,"relev":6185,"run</w>":6186,"gebot</w>":6187,"San":6188,"platz</w>":6189,"Arch":6190,"Ihrem</w>":6191,"Durch</w>":6192,"Teil":6193,"häl":6194,"14":6195,"vorsch":6196,"stly</w>":6197,"zogen</w>":6198,"ered</w>":6199,"inen</w>":6200,"innen":6201,"harmon":6202,"wnload</w>":6203,"maxim":6204,"prep":6205,"rench</w>":6206,"France</w>":6207,"appropriate</w>":6208,"1999</w>":6209,"regional</w>":6210,"erreicht</w>":6211,"material</w>":6212,"Möglichkeiten</w>":6213,"Daher</w>":6214,"Cour":6215,"Arbeitsp":6216,"music</w>":6217,"actions</w>":6218,"Sh":6219,"Publi":6220,"AG</w>":6221,"lack</w>":6222,"agi":6223,"schö":6224,"Mod":6225,"Kenn":6226,"bleiben</w>":6227,"hard</w>":6228,"negotiations</w>":6229,"cen</w>":6230,"center</w>":6231,"situated</w>":6232,"gets</w>":6233,"pay</w>":6234,"true</w>":6235,"depen":6236,"Zah":6237,"gleichen</w>":6238,"Debatte</w>":6239,"verfol":6240,"sucht</w>":6241,"Damen</w>":6242,"AD":6243,"schnit":6244,"Institutionen</w>":6245,"Office</w>":6246,"Öff":6247,"consider</w>":6248,"indepen":6249,"tem</w>":6250,"gesetz":6251,"book</w>":6252,"tos</w>":6253,"tained</w>":6254,"Aff":6255,"höch":6256,"seh":6257,"Erklär":6258,"Investi":6259,"sident":6260,"turel":6261,"everything</w>":6262,"isches</w>":6263,"altern":6264,"developing</w>":6265,"rist":6266,"Stell":6267,"created</w>":6268,"reiche</w>":6269,"RE":6270,"vide":6271,"fordert</w>":6272,"beach</w>":6273,"sst</w>":6274,"ks":6275,"request</w>":6276,"sprä":6277,"fundamental</w>":6278,"istan</w>":6279,"foreign</w>":6280,"alogue</w>":6281,"board</w>":6282,"vier</w>":6283,"early</w>":6284,"Wieder":6285,"lus</w>":6286,"richten</w>":6287,"Lon":6288,"Umwelt":6289,"Kir":6290,"oft</w>":6291,"Netz":6292,"fortun":6293,"All":6294,"unique</w>":6295,"wissen":6296,"spor":6297,"dar</w>":6298,"share</w>":6299,"thus</w>":6300,"che":6301,"education</w>":6302,"ators</w>":6303,"found":6304,"ünsti":6305,"stellungen</w>":6306,"according</w>":6307,"mal":6308,"states</w>":6309,"ambi":6310,"stehenden</w>":6311,"bereit</w>":6312,"conven":6313,"wenig</w>":6314,"don":6315,"descri":6316,"Nich":6317,"reiben</w>":6318,"funds</w>":6319,"ched</w>":6320,"French</w>":6321,"verschiedene</w>":6322,"Absch":6323,"entwickelt</w>":6324,"improve</w>":6325,"Rechn":6326,"Preis</w>":6327,"aut</w>":6328,"Hoch":6329,"refle":6330,"Presidency</w>":6331,"erfül":6332,"sian</w>":6333,"prices</w>":6334,"könnten</w>":6335,"tou":6336,"Hinblick</w>":6337,"accomm":6338,"almost</w>":6339,"aper</w>":6340,"tweit</w>":6341,"climate</w>":6342,"mission</w>":6343,"ring":6344,"minim":6345,"treat":6346,"reform</w>":6347,"correc":6348,"nimmt</w>":6349,"parts</w>":6350,"effect</w>":6351,"icro":6352,"American</w>":6353,"pment</w>":6354,"verantwor":6355,"rema":6356,"meet</w>":6357,"drin":6358,"Dienstleistungen</w>":6359,"living</w>":6360,"lätz":6361,"TO</w>":6362,"unik":6363,"famous</w>":6364,"immedi":6365,"spielen</w>":6366,"ay</w>":6367,"aim":6368,"ghout</w>":6369,"designed</w>":6370,"arbeitung</w>":6371,"konkre":6372,"digen</w>":6373,"graphi":6374,"oni":6375,"success</w>":6376,"additional</w>":6377,"griff</w>":6378,"erseits</w>":6379,"included</w>":6380,"befinden</w>":6381,"Bank</w>":6382,"15":6383,"San</w>":6384,"Berichterstatter</w>":6385,"card</w>":6386,"gelei":6387,"prise</w>":6388,"heu":6389,"gemeinsame</w>":6390,"Fischer":6391,"Park</w>":6392,"Diskus":6393,"mitteln</w>":6394,"rates</w>":6395,"soon</w>":6396,"Dien":6397,"Plan":6398,"actually</w>":6399,"Minuten</w>":6400,"later</w>":6401,"St</w>":6402,"statt":6403,"Frühst":6404,"hof</w>":6405,"verfügt</w>":6406,"ierung</w>":6407,"ehrs":6408,"kor":6409,"Behör":6410,"hier":6411,"CD</w>":6412,"idea</w>":6413,"ermöglicht</w>":6414,"log":6415,"Heraus":6416,"tax</w>":6417,"ski</w>":6418,"Auswirkungen</w>":6419,"Israel</w>":6420,"key":6421,"Außer":6422,"sichts</w>":6423,"haps</w>":6424,"Pat":6425,"Abkommen</w>":6426,"atsächlich</w>":6427,"effizi":6428,"Paris</w>":6429,"fallen</w>":6430,"lik":6431,"Konta":6432,"schrif":6433,"Tour":6434,"ruhi":6435,"exam":6436,"unternehmen</w>":6437,"70</w>":6438,"Regionen</w>":6439,"Met":6440,"encoura":6441,"erst":6442,"hatten</w>":6443,"Liber":6444,"Tele":6445,"Vertre":6446,"ishing</w>":6447,"reich</w>":6448,"bark":6449,"gte</w>":6450,"genie":6451,"elling</w>":6452,"links</w>":6453,"understand</w>":6454,"comb":6455,"ändern</w>":6456,"Doch</w>":6457,"pe</w>":6458,"five</w>":6459,"workers</w>":6460,"will":6461,"28</w>":6462,"Fer":6463,"enter</w>":6464,"Wal":6465,"lead</w>":6466,"investi":6467,"Frei":6468,"cover</w>":6469,"wil":6470,"werk</w>":6471,"associ":6472,"mentioned</w>":6473,"gle</w>":6474,"receive</w>":6475,"jenigen</w>":6476,"ee</w>":6477,"verfahren</w>":6478,"Austri":6479,"Kat":6480,"Führ":6481,"camp":6482,"abled</w>":6483,"acy</w>":6484,"accept</w>":6485,"Tatsache</w>":6486,"zation</w>":6487,"helfen</w>":6488,"Programme</w>":6489,"Zu</w>":6490,"Portu":6491,"stattet</w>":6492,"uring</w>":6493,"initiative</w>":6494,"itali":6495,"Mis":6496,"Verhandlungen</w>":6497,"ening</w>":6498,"erforderlich</w>":6499,"schul":6500,"fair</w>":6501,"capital</w>":6502,"check</w>":6503,"IP</w>":6504,"takes</w>":6505,"leading</w>":6506,"äußer":6507,"outside</w>":6508,"obs</w>":6509,"Proto":6510,"Mitglieder</w>":6511,"sustain":6512,"Del":6513,"fal":6514,"commer":6515,"Ka":6516,"pu":6517,"procedure</w>":6518,"Fäl":6519,"weltweit</w>":6520,"erhö":6521,"gestal":6522,"Kolleginnen</w>":6523,"bildung</w>":6524,"Mas":6525,"fran":6526,"ktions":6527,"amerikan":6528,"race</w>":6529,"med</w>":6530,"gesamten</w>":6531,"integr":6532,"Hö":6533,"Haf":6534,"adurch</w>":6535,"built</w>":6536,"knowledge</w>":6537,"ziert</w>":6538,"glichen</w>":6539,"back":6540,"Gef":6541,"reit":6542,"users</w>":6543,"dist":6544,"week</w>":6545,"ker":6546,"tely</w>":6547,"Kor":6548,"smus</w>":6549,"care":6550,"eigent":6551,"IM":6552,"ebenso</w>":6553,"sierung</w>":6554,"Bar</w>":6555,"majority</w>":6556,"schließen</w>":6557,"welt":6558,"Liste</w>":6559,"features</w>":6560,"Pan":6561,"einzelnen</w>":6562,"Finanzi":6563,"darum</w>":6564,"bezieh":6565,"amount</w>":6566,"program</w>":6567,"gum":6568,"served</w>":6569,"front</w>":6570,"denke</w>":6571,"13":6572,"hor":6573,"ually</w>":6574,"met</w>":6575,"lässi":6576,"zone</w>":6577,"communication</w>":6578,"cking</w>":6579,"aden</w>":6580,"surround":6581,"files</w>":6582,"tax":6583,"stead</w>":6584,"reach</w>":6585,"sta</w>":6586,"hours</w>":6587,"Gruppe</w>":6588,"took</w>":6589,"erwäh":6590,"Bit":6591,"Vertra":6592,"doing</w>":6593,"Mob":6594,"empha":6595,"eien</w>":6596,"Zentrum</w>":6597,"strategi":6598,"turen</w>":6599,"Vo":6600,"avo":6601,"Prin":6602,"throughout</w>":6603,"iting</w>":6604,"ländern</w>":6605,"satis":6606,"eption</w>":6607,"Chr":6608,"customer</w>":6609,"Schritt</w>":6610,"weiteren</w>":6611,"Mail</w>":6612,"Bestimm":6613,"super":6614,"guarantee</w>":6615,"ES</w>":6616,"Stat":6617,"ti</w>":6618,"ech</w>":6619,"angem":6620,"oring</w>":6621,"eless</w>":6622,"verur":6623,"Bur":6624,"26</w>":6625,"Außerdem</w>":6626,"web</w>":6627,"Binnen":6628,"connection</w>":6629,"Entscheidung</w>":6630,"90</w>":6631,"How</w>":6632,"Änderungsanträge</w>":6633,"Abgeordneten</w>":6634,"park</w>":6635,"UN</w>":6636,"unds</w>":6637,"party</w>":6638,"media</w>":6639,"Verf":6640,"door</w>":6641,"Außen":6642,"across</w>":6643,"frei":6644,"extern":6645,"gab</w>":6646,"bli":6647,"Bereichen</w>":6648,"dest</w>":6649,"aware</w>":6650,"final</w>":6651,"Verwen":6652,"add</w>":6653,"religi":6654,"Ergebnis</w>":6655,"sem":6656,"wahl</w>":6657,"IS</w>":6658,"context</w>":6659,"internationale</w>":6660,"writing</w>":6661,"attrac":6662,"inge</w>":6663,"stances</w>":6664,"certainly</w>":6665,"stic</w>":6666,"Russ":6667,"Pu":6668,"relations</w>":6669,"investment</w>":6670,"nation":6671,"elegan":6672,"The":6673,"consequ":6674,"jedem</w>":6675,"zunehmen</w>":6676,"erle":6677,"code</w>":6678,"ändert</w>":6679,"cy":6680,"dor":6681,"Web</w>":6682,"traditional</w>":6683,"vorzu":6684,"Änderungsantrag</w>":6685,"zer</w>":6686,"stage</w>":6687,"ST":6688,"Wasser":6689,"konnte</w>":6690,"significant</w>":6691,"samkeit</w>":6692,"flä":6693,"äd":6694,"indic":6695,"gten</w>":6696,"hätte</w>":6697,"Net":6698,"Einzel":6699,"lux":6700,"fähigkeit</w>":6701,"Bus":6702,"ban</w>":6703,"performance</w>":6704,"existing</w>":6705,"By</w>":6706,"ama</w>":6707,"isen</w>":6708,"gegenwär":6709,"Antwort</w>":6710,"Beziehungen</w>":6711,"wunder":6712,"Vereinigten</w>":6713,"although</w>":6714,"colleag":6715,"tent</w>":6716,"Ph":6717,"lässt</w>":6718,"soft</w>":6719,"Platz</w>":6720,"Aktiv":6721,"Fur":6722,"illa</w>":6723,"sische</w>":6724,"stelle</w>":6725,"original</w>":6726,"gres":6727,"programmes</w>":6728,"Blick</w>":6729,"licherweise</w>":6730,"Turkey</w>":6731,"Gele":6732,"gleichzeitig</w>":6733,"choo":6734,"alitä":6735,"anz</w>":6736,"game</w>":6737,"sent</w>":6738,"vels</w>":6739,"weiß</w>":6740,"formen</w>":6741,"atic</w>":6742,"Urlau":6743,"Bevölkerung</w>":6744,"heißt</w>":6745,"ination</w>":6746,"perfect</w>":6747,"timme</w>":6748,"English</w>":6749,"Geh":6750,"gei":6751,"concerns</w>":6752,"mend":6753,"coordin":6754,"prakti":6755,"mut":6756,"cke</w>":6757,"Acc":6758,"consum":6759,"ände</w>":6760,"gemeinsam</w>":6761,"Verordnung</w>":6762,"contra":6763,"cell":6764,"wat":6765,"vir":6766,"programm</w>":6767,"ising</w>":6768,"Ausdruck</w>":6769,"wichtigen</w>":6770,"igration</w>":6771,"walk</w>":6772,"Joh":6773,"Wohn":6774,"thern</w>":6775,"ebru":6776,"moment</w>":6777,"Geld</w>":6778,"ending</w>":6779,"shed</w>":6780,"my":6781,"anderer</w>":6782,"Government</w>":6783,"richtig</w>":6784,"mas":6785,"pleas":6786,"My</w>":6787,"adi":6788,"kei</w>":6789,"Risi":6790,"Erfolg</w>":6791,"America</w>":6792,"langen</w>":6793,"sag":6794,"ison</w>":6795,"ligh":6796,"volle</w>":6797,"smo":6798,"Inst":6799,"zen":6800,"speciali":6801,"quick":6802,"professional</w>":6803,"ams</w>":6804,"concerning</w>":6805,"ähri":6806,"Tages":6807,"consul":6808,"barkeit</w>":6809,"ativ</w>":6810,"jede</w>":6811,"apply</w>":6812,"Agen":6813,"Online</w>":6814,"committee</w>":6815,"read</w>":6816,"lok":6817,"population</w>":6818,"schriften</w>":6819,"yl":6820,"enor":6821,"Oc":6822,"accommod":6823,"size</w>":6824,"community</w>":6825,"eigen":6826,"Verpflich":6827,"sitz</w>":6828,"Krise</w>":6829,"Förderung</w>":6830,"seite</w>":6831,"military</w>":6832,"cru":6833,"länder</w>":6834,"gest":6835,"Ham":6836,"Türkei</w>":6837,"Verbindung</w>":6838,"erinn":6839,"reasons</w>":6840,"Sat":6841,"established</w>":6842,"Aufgabe</w>":6843,"agreements</w>":6844,"bekommen</w>":6845,"Schwi":6846,"zz":6847,"legi":6848,"kleine</w>":6849,"conflic":6850,"impact</w>":6851,"completely</w>":6852,"archit":6853,"nothing</w>":6854,"lte</w>":6855,"PC</w>":6856,"decisions</w>":6857,"Projekt</w>":6858,"richtungen</w>":6859,"ld":6860,"Febru":6861,"emer":6862,"ov":6863,"alisation</w>":6864,"bein":6865,"unabhängi":6866,"lieren</w>":6867,"includes</w>":6868,"beh":6869,"Barcel":6870,"new":6871,"erkenn":6872,"fordern</w>":6873,"nit":6874,"Minister</w>":6875,"South</w>":6876,"Court</w>":6877,"integri":6878,"tively</w>":6879,"Stabili":6880,"Konz":6881,"partner</w>":6882,"practice</w>":6883,"cle</w>":6884,"garanti":6885,"ey":6886,"basic</w>":6887,"Cre":6888,"mals</w>":6889,"Unser</w>":6890,"ält</w>":6891,"such":6892,"Schlussel":6893,"style</w>":6894,"mobili":6895,"Aug":6896,"ürz":6897,"London</w>":6898,"bedeut":6899,"Kontrolle</w>":6900,"Seit</w>":6901,"verbunden</w>":6902,"bleibt</w>":6903,"entscheiden":6904,"meinen</w>":6905,"quo":6906,"gerichtet</w>":6907,"ulate</w>":6908,"Slo":6909,"erlau":6910,"unseres</w>":6911,"Ausschusses</w>":6912,"Mal</w>":6913,"Zum</w>":6914,"Design</w>":6915,"equipped</w>":6916,"Einsatz</w>":6917,"Eff":6918,"Spezi":6919,"restri":6920,"funden</w>":6921,"rach":6922,"ddle</w>":6923,"star</w>":6924,"CH":6925,"Forschung</w>":6926,"jähri":6927,"constitu":6928,"allows</w>":6929,"bedingungen</w>":6930,"Jahres</w>":6931,"mes":6932,"ues</w>":6933,"terran":6934,"sense</w>":6935,"45</w>":6936,"cas":6937,"internet</w>":6938,"bath":6939,"29</w>":6940,"jobs</w>":6941,"gehören</w>":6942,"mise</w>":6943,"enthalten</w>":6944,"enlar":6945,"process":6946,"gangen</w>":6947,"Information</w>":6948,"sidentschaft</w>":6949,"echti":6950,"intel":6951,"verbin":6952,"model</w>":6953,"bad</w>":6954,"grenz":6955,"Partner":6956,"Ober":6957,"expen":6958,"ssel":6959,"gangenen</w>":6960,"plann":6961,"abzu":6962,"remain</w>":6963,"amera</w>":6964,"desi":6965,"itable</w>":6966,"Since</w>":6967,"äufi":6968,"preci":6969,"holiday</w>":6970,"choice</w>":6971,"Glob":6972,"figu":6973,"sidi":6974,"sieht</w>":6975,"confir":6976,"construction</w>":6977,"bit</w>":6978,"überzeu":6979,"Rec":6980,"values</w>":6981,"basi":6982,"atisti":6983,"partners</w>":6984,"objectives</w>":6985,"sches</w>":6986,"Apart":6987,"oblig":6988,"35</w>":6989,"Form":6990,"wirtschaftliche</w>":6991,"Schla":6992,"gefähr":6993,"package</w>":6994,"tle</w>":6995,"Lux":6996,"stop</w>":6997,"function</w>":6998,"integration</w>":6999,"received</w>":7000,"treffen</w>":7001,"hom":7002,"Partner</w>":7003,"Auff":7004,"Erweiterung</w>":7005,"wech":7006,"Ven":7007,"eich":7008,"gemäß</w>":7009,"anischen</w>":7010,"neu</w>":7011,"Wissen":7012,"ented</w>":7013,"Entschließung</w>":7014,"west":7015,"ieten</w>":7016,"eps</w>":7017,"dio":7018,"influ":7019,"regarding</w>":7020,"entation</w>":7021,"tary</w>":7022,"develop</w>":7023,"resi":7024,"schle":7025,"unge</w>":7026,"verständlich</w>":7027,"annte</w>":7028,"Lisbon</w>":7029,"Nutzung</w>":7030,"euro</w>":7031,"hinzu":7032,"wise</w>":7033,"haf":7034,"ume</w>":7035,"prüfen</w>":7036,"steller</w>":7037,"simple</w>":7038,"Behörden</w>":7039,"equipment</w>":7040,"tempor":7041,"guarante":7042,"rechts":7043,"applications</w>":7044,"ON</w>":7045,"August</w>":7046,"run":7047,"Mul":7048,"196":7049,"purch":7050,"Vor</w>":7051,"erc":7052,"ece</w>":7053,"Mil":7054,"Ausschuss</w>":7055,"fs":7056,"Geor":7057,"verhin":7058,"ns</w>":7059,"jedes</w>":7060,"displa":7061,"frü":7062,"ante</w>":7063,"gol":7064,"besu":7065,"image</w>":7066,"Let</w>":7067,"manufactur":7068,"300</w>":7069,"Beitrag</w>":7070,"sett":7071,"Lösungen</w>":7072,"demand</w>":7073,"agricultural</w>":7074,"move</w>":7075,"wichtigsten</w>":7076,"entire</w>":7077,"Natur":7078,"pal":7079,"perat":7080,"Japan</w>":7081,"tioning</w>":7082,"territ":7083,"31</w>":7084,"rable</w>":7085,"resse</w>":7086,"fight</w>":7087,"verti":7088,"App":7089,"Ukra":7090,"Damit</w>":7091,"Notwendi":7092,"tol":7093,"haup":7094,"Text</w>":7095,"pite</w>":7096,"ened</w>":7097,"aches</w>":7098,"gerne</w>":7099,"aim</w>":7100,"benefit</w>":7101,"safe</w>":7102,"xed</w>":7103,"Veranstal":7104,"stimmen</w>":7105,"mus":7106,"computer</w>":7107,"spiri":7108,"treatment</w>":7109,"Bitte</w>":7110,"objective</w>":7111,"Lissab":7112,"atmosp":7113,"rus":7114,"Schwei":7115,"sit":7116,"potential</w>":7117,"sou":7118,"series</w>":7119,"return</w>":7120,"ash":7121,"Aufenth":7122,"dep":7123,"genau":7124,"DV":7125,"leh":7126,"Host":7127,"concern</w>":7128,"liance</w>":7129,"mehrere</w>":7130,"reports</w>":7131,"East</w>":7132,"quickly</w>":7133,"limited</w>":7134,"fest</w>":7135,"digung</w>":7136,"below</w>":7137,"wobei</w>":7138,"elen</w>":7139,"hinsichtlich</w>":7140,"goods</w>":7141,"flü":7142,"Gewal":7143,"EL":7144,"ard":7145,"lier</w>":7146,"gesamt</w>":7147,"Soli":7148,"CA":7149,"gesp":7150,"Steuer":7151,"nice</w>":7152,"May</w>":7153,"sorgen</w>":7154,"nachhal":7155,"transl":7156,"Feri":7157,"ager</w>":7158,"focus</w>":7159,"Here</w>":7160,"Markt":7161,"laden</w>":7162,"anten</w>":7163,"daten</w>":7164,"Affairs</w>":7165,"zurück</w>":7166,"Buch":7167,"double</w>":7168,"kit":7169,"ganze</w>":7170,"hotels</w>":7171,"scre":7172,"ären</w>":7173,"promise</w>":7174,"ganzen</w>":7175,"fortunately</w>":7176,"Chan":7177,"enthält</w>":7178,"Kultur</w>":7179,"Wettbewerbs":7180,"bald</w>":7181,"scienti":7182,"Son":7183,"Gesam":7184,"Verbesserung</w>":7185,"ick</w>":7186,"betei":7187,"tish</w>":7188,"bezüglich</w>":7189,"fru":7190,"veh":7191,"anno":7192,"successful</w>":7193,"rund</w>":7194,"veness</w>":7195,"tradition":7196,"neben</w>":7197,"riften</w>":7198,"Innov":7199,"Management</w>":7200,"ermöglichen</w>":7201,"kulturel":7202,"handeln</w>":7203,"eigene</w>":7204,"phy":7205,"genannten</w>":7206,"Materi":7207,"job</w>":7208,"eks</w>":7209,"fs</w>":7210,"Whi":7211,"mm</w>":7212,"na</w>":7213,"guest</w>":7214,"achieved</w>":7215,"schwieri":7216,"contains</w>":7217,"sul":7218,"elten</w>":7219,"Sen":7220,"Bul":7221,"acity</w>":7222,"ühr":7223,"sicherheit</w>":7224,"Ara":7225,"seems</w>":7226,"ring</w>":7227,"Barcelona</w>":7228,"indeed</w>":7229,"velop":7230,"Eink":7231,"follow</w>":7232,"ental</w>":7233,"aufzu":7234,"ink":7235,"kei":7236,"Stunden</w>":7237,"Iran</w>":7238,"National</w>":7239,"June</w>":7240,"ciples</w>":7241,"Koh":7242,"recently</w>":7243,"frei</w>":7244,"Verbraucher</w>":7245,"Tä":7246,"Fri":7247,"chem":7248,"beein":7249,"loss</w>":7250,"Schaffung</w>":7251,"system":7252,"ref":7253,"sende</w>":7254,"Tim":7255,"Arbeitn":7256,"Umwelt</w>":7257,"mean</w>":7258,"rep":7259,"Amend":7260,"une</w>":7261,"weis</w>":7262,"zahlen</w>":7263,"weg</w>":7264,"prevent</w>":7265,"Cap":7266,"dates</w>":7267,"congrat":7268,"Somm":7269,"Wort</w>":7270,"levels</w>":7271,"highly</w>":7272,"beginning</w>":7273,"clean</w>":7274,"ites</w>":7275,"schließend</w>":7276,"rieg</w>":7277,"Finally</w>":7278,"Server</w>":7279,"verpflich":7280,"Flü":7281,"Mich":7282,"top":7283,"dialogue</w>":7284,"tlicher</w>":7285,"added</w>":7286,"Selbst":7287,"office</w>":7288,"Central</w>":7289,"Ergebnisse</w>":7290,"organisation</w>":7291,"inner</w>":7292,"angen":7293,"gek":7294,"presented</w>":7295,"places</w>":7296,"dynam":7297,"Yor":7298,"evi":7299,"Gelegenheit</w>":7300,"ständigen</w>":7301,"Amster":7302,"Ok":7303,"vorschriften</w>":7304,"Verwendung</w>":7305,"lück":7306,"tiger</w>":7307,"Betri":7308,"Bild</w>":7309,"Gebäu":7310,"everyone</w>":7311,"viously</w>":7312,"Krank":7313,"Jus":7314,"Bü":7315,"traff":7316,"erheb":7317,"Russland</w>":7318,"Landes</w>":7319,"Angebot</w>":7320,"völlig</w>":7321,"gas</w>":7322,"orien</w>":7323,"governments</w>":7324,"häre</w>":7325,"ürf":7326,"igkeiten</w>":7327,"Initiative</w>":7328,"huge</w>":7329,"closed</w>":7330,"Reg":7331,"elek":7332,"border</w>":7333,"City</w>":7334,"attemp":7335,"fördern</w>":7336,"ini</w>":7337,"Woche</w>":7338,"balance</w>":7339,"floor</w>":7340,"simil":7341,"ME":7342,"Val":7343,"soziale</w>":7344,"Notwendigkeit</w>":7345,"ple</w>":7346,"note</w>":7347,"Prof":7348,"whose</w>":7349,"urs</w>":7350,"grundle":7351,"verbessern</w>":7352,"Fach":7353,"acks</w>":7354,"Sam":7355,"agreed</w>":7356,"increased</w>":7357,"answer</w>":7358,"id":7359,"relevant</w>":7360,"Linu":7361,"pects</w>":7362,"Ir":7363,"slo":7364,"mean":7365,"sex":7366,"flu":7367,"carried</w>":7368,"jour":7369,"selec":7370,"organisi":7371,"großer</w>":7372,"asked</w>":7373,"Lissabon</w>":7374,"consumers</w>":7375,"guten</w>":7376,"OS</w>":7377,"Team</w>":7378,"shows</w>":7379,"covered</w>":7380,"Enter":7381,"bute</w>":7382,"Mitarbeiter</w>":7383,"higher</w>":7384,"enable</w>":7385,"ly":7386,"arin</w>":7387,"keyword</w>":7388,"suffici":7389,"Prior":7390,"principles</w>":7391,"entwickeln</w>":7392,"direction</w>":7393,"ón</w>":7394,"server</w>":7395,"ähn":7396,"positi":7397,"kreich</w>":7398,"Ca":7399,"Nieder":7400,"tei</w>":7401,"Interessen</w>":7402,"oph":7403,"bestä":7404,"verwenden</w>":7405,"Tage</w>":7406,"Themen</w>":7407,"servation</w>":7408,"verstär":7409,"film</w>":7410,"ella</w>":7411,"Darüber</w>":7412,"amendment</w>":7413,"setting</w>":7414,"General</w>":7415,"humanit":7416,"sustainable</w>":7417,"Hum":7418,"häufi":7419,"verfügen</w>":7420,"gers</w>":7421,"ID":7422,"Industrie</w>":7423,"video</w>":7424,"reviews</w>":7425,"considered</w>":7426,"fonds</w>":7427,"Män":7428,"kann":7429,"possibility</w>":7430,"später</w>":7431,"disku":7432,"schutz":7433,"entlich</w>":7434,"travel</w>":7435,"Familie</w>":7436,"gül":7437,"perhaps</w>":7438,"choose</w>":7439,"complex</w>":7440,"ball</w>":7441,"nuclear</w>":7442,"emis":7443,"union</w>":7444,"ended</w>":7445,"commitment</w>":7446,"Zeitpunkt</w>":7447,"zieren</w>":7448,"Gipf":7449,"sical</w>":7450,"gal</w>":7451,"spezif":7452,"feld</w>":7453,"lige</w>":7454,"geo":7455,"materials</w>":7456,"Energie":7457,"bour":7458,"ching</w>":7459,"bestehen</w>":7460,"conduc":7461,"meinem</w>":7462,"Some</w>":7463,"fünf</w>":7464,"clas":7465,"Article</w>":7466,"nie":7467,"Überein":7468,"astrop":7469,"01</w>":7470,"maßnahmen</w>":7471,"gehend</w>":7472,"uß</w>":7473,"irgend":7474,"dienen</w>":7475,"Bewer":7476,"folge</w>":7477,"Änderungen</w>":7478,"zunächst</w>":7479,"effects</w>":7480,"Arbeitsplätz":7481,"Wasser</w>":7482,"Therefore</w>":7483,"Ital":7484,"vehic":7485,"mann</w>":7486,"Frankreich</w>":7487,"matters</w>":7488,"Person</w>":7489,"xis</w>":7490,"Fa":7491,"Wahr":7492,"Unternehmen":7493,"shown</w>":7494,"verfüg":7495,"Organisation</w>":7496,"cro":7497,"First</w>":7498,"Gemeinschafts":7499,"aspects</w>":7500,"thanks</w>":7501,"oom</w>":7502,"geeig":7503,"Mai</w>":7504,"Develop":7505,"wählen</w>":7506,"MP":7507,"plant</w>":7508,"32</w>":7509,"Gesundheit</w>":7510,"post":7511,"status</w>":7512,"unk":7513,"innovative</w>":7514,"dient</w>":7515,"Regierungen</w>":7516,"cket</w>":7517,"angenommen</w>":7518,"testen</w>":7519,"verse</w>":7520,"Wert</w>":7521,"gerung</w>":7522,"promote</w>":7523,"übri":7524,"EC</w>":7525,"nie</w>":7526,"joint</w>":7527,"Werk":7528,"diglich</w>":7529,"shop</w>":7530,"rought</w>":7531,"Spain</w>":7532,"Koso":7533,"Volks":7534,"tatsächlich</w>":7535,"freien</w>":7536,"came</w>":7537,"exchange</w>":7538,"Now</w>":7539,"geleg":7540,"terien</w>":7541,"Juni</w>":7542,"former</w>":7543,"Sum":7544,"ner":7545,"placed</w>":7546,"samm":7547,"Of</w>":7548,"Erfahrung</w>":7549,"eindeu":7550,"schriftlich</w>":7551,"syn":7552,"Linux</w>":7553,"fik":7554,"sal":7555,"Konfli":7556,"mobi":7557,"Behand":7558,"Internet":7559,"RA":7560,"speak</w>":7561,"latest</w>":7562,"tiveness</w>":7563,"Debian</w>":7564,"ON":7565,"behind</w>":7566,"details</w>":7567,"creation</w>":7568,"Ratsprä":7569,"deten</w>":7570,"Auswahl</w>":7571,"opportunities</w>":7572,"Metho":7573,"exhi":7574,"anner</w>":7575,"sound</w>":7576,"previous</w>":7577,"capacity</w>":7578,"ologies</w>":7579,"schätz":7580,"dischen</w>":7581,"Einführung</w>":7582,"pressure</w>":7583,"procedu":7584,"Herzen</w>":7585,"determin":7586,"Kommunik":7587,"increasing</w>":7588,"Umgebung</w>":7589,"Up":7590,"rali":7591,"ffet</w>":7592,"Gäste":7593,"Italy</w>":7594,"Mitglied</w>":7595,"tenen</w>":7596,"angebo":7597,"aling</w>":7598,"Museum</w>":7599,"internation":7600,"Vertrau":7601,"bauen</w>":7602,"Analy":7603,"spruch</w>":7604,"terin</w>":7605,"oil</w>":7606,"Verb":7607,"etary</w>":7608,"Blo":7609,"compet":7610,"draw</w>":7611,"popular</w>":7612,"Fle":7613,"Während</w>":7614,"prim":7615,"providing</w>":7616,"prepared</w>":7617,"Autom":7618,"Anfang</w>":7619,"Terror":7620,"verstehen</w>":7621,"öffnet</w>":7622,"response</w>":7623,"Dabei</w>":7624,"teria</w>":7625,"reached</w>":7626,"accommodation</w>":7627,"Frank":7628,"Vereinbar":7629,"stag</w>":7630,"gefunden</w>":7631,"parli":7632,"easily</w>":7633,"ena</w>":7634,"sions":7635,"atmosphere</w>":7636,"explo":7637,"wenden</w>":7638,"uen</w>":7639,"äußerst</w>":7640,"mark</w>":7641,"krä":7642,"Staats":7643,"tically</w>":7644,"die":7645,"Bl":7646,"1998</w>":7647,"Meer</w>":7648,"scri":7649,"Prozess</w>":7650,"zeit":7651,"taining</w>":7652,"industrial</w>":7653,"Öffent":7654,"Eigen":7655,"bestimmte</w>":7656,"gessen</w>":7657,"commercial</w>":7658,"func":7659,"Kampf</w>":7660,"undes":7661,"arily</w>":7662,"wider":7663,"Natur</w>":7664,"Solidar":7665,"bisher</w>":7666,"WTO</w>":7667,"class</w>":7668,"Africa</w>":7669,"reduce</w>":7670,"schaftlichen</w>":7671,"erous</w>":7672,"external</w>":7673,"Sie":7674,"publik</w>":7675,"Systems</w>":7676,"TH":7677,"hohen</w>":7678,"gesamte</w>":7679,"produced</w>":7680,"repe":7681,"Swi":7682,"Hotel":7683,"adap":7684,"somit</w>":7685,"bür":7686,"beschäf":7687,"Ori":7688,"dens</w>":7689,"lediglich</w>":7690,"Gest":7691,"charge</w>":7692,"Tit":7693,"stark</w>":7694,"wers</w>":7695,"Sprache</w>":7696,"Aktivitäten</w>":7697,"zusetzen</w>":7698,"gewährleisten</w>":7699,"entde":7700,"ga</w>":7701,"Amsterdam</w>":7702,"summer</w>":7703,"Energie</w>":7704,"DI":7705,"link</w>":7706,"thy</w>":7707,"SA":7708,"Haus":7709,"Anzahl</w>":7710,"Micro":7711,"infra":7712,"verkehr</w>":7713,"supply</w>":7714,"Stern":7715,"bringt</w>":7716,"British</w>":7717,"neigh":7718,"compre":7719,"Verkehrs":7720,"Hand</w>":7721,"Raum</w>":7722,"submitted</w>":7723,"gliche</w>":7724,"mäßig</w>":7725,"Hinter":7726,"assess":7727,"wünschen</w>":7728,"Bekämp":7729,"einhei":7730,"Convention</w>":7731,"sla":7732,"Gäste</w>":7733,"Integration</w>":7734,"ically</w>":7735,"efficient</w>":7736,"Hom":7737,"ques</w>":7738,"civil</w>":7739,"ery</w>":7740,"obwohl</w>":7741,"gives</w>":7742,"decided</w>":7743,"gender</w>":7744,"Ukraine</w>":7745,"hung</w>":7746,"aring</w>":7747,"December</w>":7748,"versuchen</w>":7749,"bio":7750,"Kommissarin</w>":7751,"essi":7752,"property</w>":7753,"ühm":7754,"besitz":7755,"aum</w>":7756,"announ":7757,"Wahl</w>":7758,"hervorra":7759,"bewus":7760,"cia</w>":7761,"protect</w>":7762,"genheiten</w>":7763,"enlargement</w>":7764,"priority</w>":7765,"bestimmten</w>":7766,"anti</w>":7767,"Business</w>":7768,"round</w>":7769,"Eing":7770,"employe":7771,"reading</w>":7772,"remains</w>":7773,"ahlen</w>":7774,"ourcen</w>":7775,"bert</w>":7776,"Bekämpfung</w>":7777,"hold</w>":7778,"ichten</w>":7779,"funding</w>":7780,"rus</w>":7781,"sätze</w>":7782,"Also</w>":7783,"tiv":7784,"Dez":7785,"erenden</w>":7786,"Kop":7787,"cause</w>":7788,"big":7789,"ile</w>":7790,"Produktion</w>":7791,"einschließlich</w>":7792,"fän":7793,"appoin":7794,"ungsp":7795,"ished</w>":7796,"Services</w>":7797,"Gesundheits":7798,"speed</w>":7799,"selbst":7800,"sibilities</w>":7801,"island</w>":7802,"alist</w>":7803,"tili":7804,"supported</w>":7805,"erkennen</w>":7806,"character":7807,"Hy":7808,"interess":7809,"leave</w>":7810,"accord":7811,"setzungen</w>":7812,"Erach":7813,"mbo":7814,"Erachtens</w>":7815,"Jav":7816,"meines</w>":7817,"Dinge</w>":7818,"thermore</w>":7819,"Zentr":7820,"günsti":7821,"independent</w>":7822,"liert</w>":7823,"ania</w>":7824,"zweite</w>":7825,"onnen</w>":7826,"Party</w>":7827,"franzö":7828,"gewöh":7829,"kli":7830,"krimin":7831,"zehn</w>":7832,"mobile</w>":7833,"betro":7834,"verl":7835,"Dor":7836,"York</w>":7837,"Sto":7838,"Insel</w>":7839,"Kosovo</w>":7840,"Zahl</w>":7841,"restaurants</w>":7842,"Reser":7843,"zahlreiche</w>":7844,"Christ":7845,"instrument</w>":7846,"My":7847,"consumer</w>":7848,"produce</w>":7849,"billion</w>":7850,"assistance</w>":7851,"Spiel</w>":7852,"Ress":7853,"movement</w>":7854,"Transpar":7855,"terranean</w>":7856,"Dom":7857,"Bestimmungen</w>":7858,"cker</w>":7859,"comprehen":7860,"Pap":7861,"ror</w>":7862,"prob":7863,"presents</w>":7864,"nö":7865,"Booking</w>":7866,"demonstr":7867,"zip</w>":7868,"aries</w>":7869,"letter</w>":7870,"prepar":7871,"impres":7872,"gem</w>":7873,"Informations":7874,"purpose</w>":7875,"Demo":7876,"acceptable</w>":7877,"Trans":7878,"dete</w>":7879,"Fortschritte</w>":7880,"van</w>":7881,"zeuge</w>":7882,"quare</w>":7883,"gewis":7884,"ney</w>":7885,"Western</w>":7886,"erweiter":7887,"Voraus":7888,"plom":7889,"elte</w>":7890,"rea</w>":7891,"konzent":7892,"erster</w>":7893,"reib":7894,"sagte</w>":7895,"addres":7896,"lös":7897,"Cu":7898,"wander":7899,"tenden</w>":7900,"LE":7901,"schütz":7902,"Handels":7903,"fr":7904,"sprün":7905,"creating</w>":7906,"icht":7907,"Sonn":7908,"similar</w>":7909,"gebaut</w>":7910,"ah</w>":7911,"Kredi":7912,"möglichkeiten</w>":7913,"rule</w>":7914,"SE</w>":7915,"gesell":7916,"source</w>":7917,"activity</w>":7918,"apartment</w>":7919,"Les":7920,"conv":7921,"Cro":7922,"Jahrhundert</w>":7923,"Oper":7924,"Preise</w>":7925,"brought</w>":7926,"Dezember</w>":7927,"Luft":7928,"icial</w>":7929,"relation</w>":7930,"pul":7931,"laun":7932,"option</w>":7933,"March</w>":7934,"äuß":7935,"Position</w>":7936,"exec":7937,"ourselves</w>":7938,"regulations</w>":7939,"illed</w>":7940,"hes</w>":7941,"systeme</w>":7942,"largest</w>":7943,"legung</w>":7944,"minister</w>":7945,"written</w>":7946,"ices</w>":7947,"außerdem</w>":7948,"immer":7949,"hoben</w>":7950,"ausgestattet</w>":7951,"Funktion</w>":7952,"kin":7953,"Erklärung</w>":7954,"rieben</w>":7955,"steps</w>":7956,"frequ":7957,"January</w>":7958,"solidar":7959,"ondly</w>":7960,"solchen</w>":7961,"Stelle</w>":7962,"mein</w>":7963,"Gerä":7964,"erzeu":7965,"Dr</w>":7966,"Dialog</w>":7967,"emand</w>":7968,"airport</w>":7969,"Prü":7970,"ere":7971,"vollen</w>":7972,"ele</w>":7973,"leicht</w>":7974,"Lauf":7975,"six</w>":7976,"präsen":7977,"schau":7978,"wurf</w>":7979,"ce":7980,"dadurch</w>":7981,"stände</w>":7982,"instruments</w>":7983,"Gei":7984,"stung</w>":7985,"mine</w>":7986,"pleased</w>":7987,"versity</w>":7988,"ships</w>":7989,"Wachstum</w>":7990,"acts</w>":7991,"categories</w>":7992,"construc":7993,"zweiten</w>":7994,"berühm":7995,"expla":7996,"Republic</w>":7997,"North</w>":7998,"hohe</w>":7999,"Mehrheit</w>":8000,"fishing</w>":8001,"October</w>":8002,"variety</w>":8003,"lossen":8004,"Bild":8005,"insgesamt</w>":8006,"Club</w>":8007,"wid":8008,"hafen</w>":8009,"credit</w>":8010,"sides</w>":8011,"Site</w>":8012,"Punkte</w>":8013,"interpre":8014,"radi":8015,"conference</w>":8016,"relation":8017,"lten</w>":8018,"Handel</w>":8019,"paid</w>":8020,"größten</w>":8021,"ilom":8022,"gesellschaft</w>":8023,"12":8024,"instead</w>":8025,"message</w>":8026,"mers</w>":8027,"Cha":8028,"medium</w>":8029,"ope</w>":8030,"leider</w>":8031,"rein":8032,"Aufmerk":8033,"discussion</w>":8034,"jün":8035,"ssel</w>":8036,"intensi":8037,"document</w>":8038,"ete</w>":8039,"eher</w>":8040,"Strand</w>":8041,"aufgenommen</w>":8042,"einzige</w>":8043,"Vorschriften</w>":8044,"types</w>":8045,"stellten</w>":8046,"post</w>":8047,"pati":8048,"thous":8049,"became</w>":8050,"Gewalt</w>":8051,"Bas":8052,"Musik</w>":8053,"sth":8054,"Erzeu":8055,"Mediterranean</w>":8056,"voc":8057,"fisher":8058,"regards</w>":8059,"reover</w>":8060,"aren</w>":8061,"Det":8062,"stability</w>":8063,"extra</w>":8064,"study</w>":8065,"section</w>":8066,"arran":8067,"ategorien</w>":8068,"gelan":8069,"started</w>":8070,"gnisse</w>":8071,"Entscheidungen</w>":8072,"Ameri":8073,"distance</w>":8074,"event":8075,"item</w>":8076,"vergangenen</w>":8077,"giving</w>":8078,"cross</w>":8079,"Italian</w>":8080,"Swe":8081,"sa</w>":8082,"abge":8083,"fla":8084,"tell</w>":8085,"sau":8086,"Anforderungen</w>":8087,"Install":8088,"Bundes":8089,"Nur</w>":8090,"distribution</w>":8091,"cast":8092,"März</w>":8093,"Küche</w>":8094,"Kün":8095,"alism</w>":8096,"Feder":8097,"ai":8098,"werk":8099,"opping</w>":8100,"sels</w>":8101,"oben</w>":8102,"legislative</w>":8103,"eph":8104,"folgt</w>":8105,"Hi":8106,"Fak":8107,"Balk":8108,"haus</w>":8109,"interesting</w>":8110,"MS</w>":8111,"Pho":8112,"Tor":8113,"porate</w>":8114,"bewertungen</w>":8115,"aging</w>":8116,"ordini":8117,"pass</w>":8118,"Bud":8119,"kosten</w>":8120,"ills</w>":8121,"allowed</w>":8122,"einzigar":8123,"Aufmerksamkeit</w>":8124,"Hung":8125,"signed</w>":8126,"sters</w>":8127,"yond</w>":8128,"ault</w>":8129,"Masch":8130,"Today</w>":8131,"gste</w>":8132,"dig</w>":8133,"click</w>":8134,"procedures</w>":8135,"partner":8136,"genießen</w>":8137,"concept</w>":8138,"PS</w>":8139,"chtung</w>":8140,"Spanish</w>":8141,"conveni":8142,"base</w>":8143,"Inde":8144,"stration</w>":8145,"shops</w>":8146,"Freiheit</w>":8147,"eck":8148,"Agr":8149,"ai</w>":8150,"reibung</w>":8151,"Gefahr</w>":8152,"statement</w>":8153,"ange</w>":8154,"ule</w>":8155,"school</w>":8156,"architec":8157,"compon":8158,"tert</w>":8159,"Lehr":8160,"Rights</w>":8161,"relax":8162,"etz</w>":8163,"payment</w>":8164,"kein":8165,"konzentri":8166,"tool</w>":8167,"mming</w>":8168,"äst":8169,"West</w>":8170,"Städ":8171,"Sim":8172,"Center</w>":8173,"compromise</w>":8174,"even":8175,"nissen</w>":8176,"Projekte</w>":8177,"ologien</w>":8178,"vier":8179,"electri":8180,"Standpunkt</w>":8181,"quar":8182,"lege</w>":8183,"Stär":8184,"Macht</w>":8185,"damage</w>":8186,"Villa</w>":8187,"Beschäftigung</w>":8188,"Wirk":8189,"letzt</w>":8190,"contribution</w>":8191,"liegenden</w>":8192,"teien</w>":8193,"evalu":8194,"Grenzen</w>":8195,"historical</w>":8196,"agenda</w>":8197,"provisions</w>":8198,"Aller":8199,"verty</w>":8200,"kurz</w>":8201,"stands</w>":8202,"Gal":8203,"pursu":8204,"Bereiche</w>":8205,"Bon":8206,"village</w>":8207,"Empfeh":8208,"abri":8209,"Stadt":8210,"1997</w>":8211,"dow</w>":8212,"übersch":8213,"IL":8214,"Goo":8215,"Gästebewertungen</w>":8216,"gelten</w>":8217,"weg":8218,"fassen</w>":8219,"Development</w>":8220,"Mus":8221,"ros</w>":8222,"ollar</w>":8223,"Landwirtschaft</w>":8224,"violence</w>":8225,"July</w>":8226,"min</w>":8227,"Sup":8228,"sports</w>":8229,"eigentlich</w>":8230,"dimen":8231,"box</w>":8232,"poses</w>":8233,"dise":8234,"effort</w>":8235,"Lab":8236,"build</w>":8237,"uli</w>":8238,"quiet</w>":8239,"vin":8240,"Tab":8241,"konnten</w>":8242,"Exper":8243,"During</w>":8244,"neuer</w>":8245,"bevor</w>":8246,"electron":8247,"Wider":8248,"kontrol":8249,"Rahmen":8250,"wine</w>":8251,"weis":8252,"temporary</w>":8253,"enced</w>":8254,"fahrt</w>":8255,"lauf":8256,"shor":8257,"drive</w>":8258,"Rooms</w>":8259,"Nr</w>":8260,"Portugal</w>":8261,"trit":8262,"seln</w>":8263,"Belgi":8264,"eingesetzt</w>":8265,"gewöhn":8266,"UR":8267,"nor</w>":8268,"labour</w>":8269,"task</w>":8270,"Em":8271,"Opf":8272,"Bad</w>":8273,"üb":8274,"Reform</w>":8275,"Beru":8276,"documents</w>":8277,"engen</w>":8278,"Anfrage</w>":8279,"criteria</w>":8280,"istischen</w>":8281,"Wettbewerb</w>":8282,"ließ":8283,"iete</w>":8284,"75</w>":8285,"Sil":8286,"Ere":8287,"sus":8288,"operating</w>":8289,"craft</w>":8290,"estival</w>":8291,"Pres":8292,"Kraft</w>":8293,"express</w>":8294,"Investitionen</w>":8295,"fangen</w>":8296,"Afgh":8297,"late</w>":8298,"download</w>":8299,"Konferenz</w>":8300,"europäischer</w>":8301,"Vis":8302,"vements</w>":8303,"falt</w>":8304,"wenige</w>":8305,"ktiven</w>":8306,"rene":8307,"Regeln</w>":8308,"justi":8309,"Benutzer</w>":8310,"niedri":8311,"Nationen</w>":8312,"Folgen</w>":8313,"Untersuch":8314,"lo</w>":8315,"Fischerei":8316,"const":8317,"utting</w>":8318,"integrated</w>":8319,"Oktober</w>":8320,"lief":8321,"finally</w>":8322,"mensch":8323,"draft</w>":8324,"Bildung</w>":8325,"ap</w>":8326,"tools</w>":8327,"benefits</w>":8328,"PH":8329,"Nation":8330,"unmittel":8331,"durchgeführt</w>":8332,"Christi":8333,"klassi":8334,"rat</w>":8335,"Pas":8336,"growing</w>":8337,"equal</w>":8338,"Eig":8339,"Meine</w>":8340,"Frühstück</w>":8341,"Januar</w>":8342,"wonder":8343,"digital</w>":8344,"elements</w>":8345,"ont</w>":8346,"stable</w>":8347,"Diskussion</w>":8348,"Firma</w>":8349,"Star</w>":8350,"aktuellen</w>":8351,"Bor":8352,"MA":8353,"größte</w>":8354,"Linie</w>":8355,"las</w>":8356,"tau":8357,"conom":8358,"Many</w>":8359,"schwer":8360,"University</w>":8361,"happy</w>":8362,"Transparenz</w>":8363,"gerä":8364,"stes</w>":8365,"require</w>":8366,"val":8367,"conver":8368,"con</w>":8369,"Sinne</w>":8370,"asse</w>":8371,"Centre</w>":8372,"benötigen</w>":8373,"Berichts</w>":8374,"masch":8375,"alternative</w>":8376,"ebs":8377,"wichtiger</w>":8378,"immediately</w>":8379,"Telef":8380,"Personal</w>":8381,"beziehen</w>":8382,"specific":8383,"highest</w>":8384,"got</w>":8385,"See</w>":8386,"Kinder":8387,"Tu":8388,"Verän":8389,"mut</w>":8390,"kat":8391,"lia</w>":8392,"rat":8393,"Gründen</w>":8394,"tigungs":8395,"by":8396,"Präsidenten</w>":8397,"apartments</w>":8398,"forces</w>":8399,"transparency</w>":8400,"unsch</w>":8401,"Although</w>":8402,"changed</w>":8403,"hed</w>":8404,"Zun":8405,"einfa":8406,"Zur</w>":8407,"Enterprise</w>":8408,"Terra":8409,"inen":8410,"König":8411,"instal":8412,"official</w>":8413,"angesichts</w>":8414,"Höhe</w>":8415,"Studi":8416,"hören</w>":8417,"Schwier":8418,"goes</w>":8419,"Du</w>":8420,"astern</w>":8421,"chi":8422,"Ev":8423,"veau</w>":8424,"Hig":8425,"schutz</w>":8426,"sub</w>":8427,"folgenden</w>":8428,"getan</w>":8429,"Kern":8430,"allein</w>":8431,"ausdrück":8432,"danke</w>":8433,"orrow</w>":8434,"ahnhof</w>":8435,"Ferien":8436,"erwarten</w>":8437,"veröffent":8438,"Econom":8439,"parking</w>":8440,"fine</w>":8441,"kannst</w>":8442,"Tr":8443,"Your</w>":8444,"busin":8445,"abschie":8446,"employees</w>":8447,"195":8448,"Saf":8449,"wiesen</w>":8450,"Sho":8451,"Kunst":8452,"ursprün":8453,"friends</w>":8454,"Fehler</w>":8455,"Eis":8456,"mous</w>":8457,"ihres</w>":8458,"Präsidentschaft</w>":8459,"oppel":8460,"Atmosp":8461,"death</w>":8462,"applied</w>":8463,"elections</w>":8464,"Agrar":8465,"train</w>":8466,"reality</w>":8467,"Bedürf":8468,"contrac":8469,"New":8470,"astic</w>":8471,"Loc":8472,"Bemüh":8473,"ized</w>":8474,"Park":8475,"ace":8476,"gens</w>":8477,"Vertei":8478,"helpful</w>":8479,"Flu":8480,"Bulg":8481,"Auffassung</w>":8482,"numerous</w>":8483,"gelö":8484,"hinter</w>":8485,"iten</w>":8486,"photo":8487,"transpor":8488,"substan":8489,"analysis</w>":8490,"gewäh":8491,"sofort</w>":8492,"cent</w>":8493,"annual</w>":8494,"avoid</w>":8495,"challenges</w>":8496,"volution</w>":8497,"ständige</w>":8498,"tac":8499,"Sache</w>":8500,"lösen</w>":8501,"advantage</w>":8502,"Öffentlichkeit</w>":8503,"EL</w>":8504,"poverty</w>":8505,"clu":8506,"daily</w>":8507,"traum</w>":8508,"keits":8509,"processes</w>":8510,"institution":8511,"Flughafen</w>":8512,"ätze</w>":8513,"gation</w>":8514,"Privat":8515,"persons</w>":8516,"Furthermore</w>":8517,"perman":8518,"titu":8519,"ktiv</w>":8520,"DVD</w>":8521,"bru":8522,"Ereig":8523,"offizi":8524,"discrimin":8525,"gic</w>":8526,"vali":8527,"Betei":8528,"solidarity</w>":8529,"Druck</w>":8530,"alisiert</w>":8531,"wiederhol":8532,"raten</w>":8533,"erfolgreich":8534,"zeug</w>":8535,"review</w>":8536,"nungen</w>":8537,"fair":8538,"effe":8539,"demokratischen</w>":8540,"talk</w>":8541,"Völ":8542,"urg":8543,"timate</w>":8544,"Heute</w>":8545,"behör":8546,"Kör":8547,"ader</w>":8548,"egation</w>":8549,"occa":8550,"23":8551,"alte</w>":8552,"Wahl":8553,"wortern</w>":8554,"erneut</w>":8555,"ausreich":8556,"Pau":8557,"consequences</w>":8558,"eingesch":8559,"bathroom</w>":8560,"sil":8561,"saying</w>":8562,"host":8563,"Kompromis":8564,"offering</w>":8565,"elles</w>":8566,"zeichnung</w>":8567,"diejenigen</w>":8568,"pun":8569,"legt</w>":8570,"fasst</w>":8571,"earch</w>":8572,"Cal":8573,"SP":8574,"jähr":8575,"ght":8576,"ober":8577,"Palest":8578,"begrüße</w>":8579,"schönen</w>":8580,"beyond</w>":8581,"öffentliche</w>":8582,"Sou":8583,"aged</w>":8584,"Tagesordnung</w>":8585,"Bilder</w>":8586,"digt</w>":8587,"historic</w>":8588,"Datei</w>":8589,"sely</w>":8590,"berechti":8591,"ßer</w>":8592,"conflict</w>":8593,"haupt</w>":8594,"geworden</w>":8595,"adequ":8596,"Kapit":8597,"mess":8598,"head</w>":8599,"entsprechenden</w>":8600,"stark":8601,"seas":8602,"morgen</w>":8603,"Änderung</w>":8604,"nahe</w>":8605,"therwise</w>":8606,"Ci":8607,"efficiency</w>":8608,"Ost":8609,"High</w>":8610,"lives</w>":8611,"plus</w>":8612,"ester</w>":8613,"curren":8614,"wirken</w>":8615,"Kommission":8616,"zunehmen":8617,"recommend":8618,"98</w>":8619,"Urlaub</w>":8620,"buffet</w>":8621,"ecken</w>":8622,"ldwide</w>":8623,"Archit":8624,"Ren":8625,"beitragen</w>":8626,"scap":8627,"ize</w>":8628,"rative</w>":8629,"colleagues</w>":8630,"offered</w>":8631,"Camp":8632,"minimum</w>":8633,"Fällen</w>":8634,"Juli</w>":8635,"satz":8636,"erter</w>":8637,"gyp":8638,"sent":8639,"Bemühungen</w>":8640,"getro":8641,"RO</w>":8642,"Austria</w>":8643,"Ange":8644,"options</w>":8645,"timmung</w>":8646,"Tou":8647,"great":8648,"kehr":8649,"gkeiten</w>":8650,"werte</w>":8651,"bereit":8652,"Do</w>":8653,"carry</w>":8654,"Restaurants</w>":8655,"bran":8656,"emphasi":8657,"Schlusselwortern</w>":8658,"fail":8659,"langfris":8660,"scho":8661,"igran":8662,"illegal</w>":8663,"ense</w>":8664,"lernen</w>":8665,"Monaten</w>":8666,"wanted</w>":8667,"modified</w>":8668,"terrorism</w>":8669,"ki":8670,"starting</w>":8671,"behandelt</w>":8672,"Well":8673,"ideas</w>":8674,"lec":8675,"published</w>":8676,"practical</w>":8677,"Basis</w>":8678,"Ansatz</w>":8679,"beschrän":8680,"Star":8681,"requires</w>":8682,"Room</w>":8683,"balan":8684,"chtet</w>":8685,"ef</w>":8686,"establish</w>":8687,"sinn":8688,"Phi":8689,"wahrschein":8690,"utely</w>":8691,"beträ":8692,"hou":8693,"bedingt</w>":8694,"bekämp":8695,"Leg":8696,"news</w>":8697,"transfer</w>":8698,"bir":8699,"zufrie":8700,"poor</w>":8701,"player</w>":8702,"phone</w>":8703,"verhindern</w>":8704,"Bürgern</w>":8705,"industrie</w>":8706,"bia</w>":8707,"zin":8708,"dt</w>":8709,"verstanden</w>":8710,"Kam":8711,"implemented</w>":8712,"shopping</w>":8713,"useful</w>":8714,"Mau":8715,"einfach":8716,"Directive</w>":8717,"trei":8718,"Republik</w>":8719,"reference</w>":8720,"divi":8721,"Hel":8722,"Grö":8723,"Microsoft</w>":8724,"ling":8725,"Politik":8726,"Liefer":8727,"organisations</w>":8728,"Dateien</w>":8729,"berücksichtigt</w>":8730,"eg</w>":8731,"Standard</w>":8732,"sieren</w>":8733,"expect</w>":8734,"1996</w>":8735,"griffen</w>":8736,"zügi":8737,"weeks</w>":8738,"entsprechend</w>":8739,"machine</w>":8740,"Tagen</w>":8741,"monitoring</w>":8742,"proje":8743,"cities</w>":8744,"Italien</w>":8745,"hätten</w>":8746,"wäl":8747,"ior</w>":8748,"Ansch":8749,"kommens</w>":8750,"protec":8751,"behalten</w>":8752,"turned</w>":8753,"Behandlung</w>":8754,"rechts</w>":8755,"sufficient</w>":8756,"alien</w>":8757,"thought</w>":8758,"tomorrow</w>":8759,"erfolgt</w>":8760,"vergessen</w>":8761,"dnis</w>":8762,"congratulate</w>":8763,"losen</w>":8764,"zip":8765,"circum":8766,"paar</w>":8767,"Technologie</w>":8768,"sektor</w>":8769,"maximum</w>":8770,"crucial</w>":8771,"clients</w>":8772,"sales</w>":8773,"anderem</w>":8774,"Wa":8775,"gence</w>":8776,"learn</w>":8777,"secure</w>":8778,"Milliar":8779,"lle</w>":8780,"dner</w>":8781,"Unter</w>":8782,"trotz</w>":8783,"Bürgerinnen</w>":8784,"relating</w>":8785,"foo":8786,"NAT":8787,"lam":8788,"Spei":8789,"Mün":8790,"labor":8791,"cut</w>":8792,"wser</w>":8793,"anlage</w>":8794,"zt</w>":8795,"minute</w>":8796,"sorg":8797,"weist</w>":8798,"technischen</w>":8799,"ba</w>":8800,"rele":8801,"reduction</w>":8802,"wert":8803,"marks</w>":8804,"Brü":8805,"Mc":8806,"Schlü":8807,"Tat</w>":8808,"vertreten</w>":8809,"IN</w>":8810,"zuführen</w>":8811,"technologies</w>":8812,"kurz":8813,"Atmosphäre</w>":8814,"ara</w>":8815,"sometimes</w>":8816,"lesen</w>":8817,"sien</w>":8818,"morning</w>":8819,"Maß":8820,"sü":8821,"versucht</w>":8822,"druck":8823,"Schließ":8824,"Vergan":8825,"ologischen</w>":8826,"Amendment</w>":8827,"Nachbar":8828,"epage</w>":8829,"elds</w>":8830,"street</w>":8831,"mountain</w>":8832,"anders</w>":8833,"richtige</w>":8834,"month</w>":8835,"claim":8836,"comprehensive</w>":8837,"Soci":8838,"caused</w>":8839,"getary</w>":8840,"sichern</w>":8841,"sation</w>":8842,"email</w>":8843,"serves</w>":8844,"deutschen</w>":8845,"natür":8846,"sigkeit</w>":8847,"voting</w>":8848,"games</w>":8849,"usw</w>":8850,"laub":8851,"Le</w>":8852,"child</w>":8853,"struktur</w>":8854,"hoch</w>":8855,"campa":8856,"Erfahrungen</w>":8857,"48</w>":8858,"Mag":8859,"Verhäl":8860,"Den</w>":8861,"folgen</w>":8862,"Imp":8863,"ehem":8864,"Cam":8865,"degre":8866,"bemü":8867,"Even</w>":8868,"reason":8869,"therap":8870,"While</w>":8871,"band</w>":8872,"PD":8873,"Pen":8874,"profi":8875,"Sicht</w>":8876,"gements</w>":8877,"Get":8878,"session</w>":8879,"modernen</w>":8880,"theless</w>":8881,"verwal":8882,"ffenen</w>":8883,"Berat":8884,"kro":8885,"accordance</w>":8886,"stör":8887,"vertheless</w>":8888,"Natürlich</w>":8889,"thin":8890,"fügen</w>":8891,"Blu":8892,"FR</w>":8893,"kers</w>":8894,"anything</w>":8895,"perfe":8896,"Rechtsvorschriften</w>":8897,"Nicht</w>":8898,"trägt</w>":8899,"freih":8900,"nungs":8901,"überhaupt</w>":8902,"ki</w>":8903,"waste</w>":8904,"institutional</w>":8905,"ony":8906,"Menschenrechts":8907,"Fähi":8908,"exac":8909,"warum</w>":8910,"Begin":8911,"alone</w>":8912,"historischen</w>":8913,"Gruppen</w>":8914,"Spanien</w>":8915,"ktive</w>":8916,"disa":8917,"bring":8918,"norm":8919,"plans</w>":8920,"sorgung</w>":8921,"lower</w>":8922,"Protokol":8923,"begin</w>":8924,"nehm":8925,"Meer":8926,"ley</w>":8927,"probably</w>":8928,"ists</w>":8929,"candi":8930,"players</w>":8931,"erklärt</w>":8932,"Altern":8933,"languages</w>":8934,"fit":8935,"aving</w>":8936,"Forschungs":8937,"Mom":8938,"ied</w>":8939,"zahlreichen</w>":8940,"verantwortlich</w>":8941,"interested</w>":8942,"Beginn</w>":8943,"Is</w>":8944,"method</w>":8945,"Wochen</w>":8946,"rück":8947,"Schutz":8948,"Computer</w>":8949,"eping</w>":8950,"Ressourcen</w>":8951,"orie</w>":8952,"chs":8953,"umen</w>":8954,"Lassen</w>":8955,"bition</w>":8956,"dule</w>":8957,"brechen</w>":8958,"säm":8959,"certi":8960,"Aufenthalt</w>":8961,"Prote":8962,"welches</w>":8963,"betreff":8964,"Finanzierung</w>":8965,"ca":8966,"Dritt":8967,"Frankfur":8968,"Afghan":8969,"offen</w>":8970,"graf":8971,"Airport</w>":8972,"concent":8973,"likely</w>":8974,"accession</w>":8975,"Conference</w>":8976,"Fron":8977,"Aspekte</w>":8978,"farmers</w>":8979,"images</w>":8980,"kap":8981,"extent</w>":8982,"scientific</w>":8983,"PE</w>":8984,"tari":8985,"menu</w>":8986,"lauf</w>":8987,"tisch</w>":8988,"worldwide</w>":8989,"worked</w>":8990,"release</w>":8991,"Dol":8992,"gewesen</w>":8993,"scale</w>":8994,"Cli":8995,"Mand":8996,"tori":8997,"tnisse</w>":8998,"erfüllen</w>":8999,"sus</w>":9000,"beste</w>":9001,"Swis":9002,"garden</w>":9003,"igkeit</w>":9004,"green</w>":9005,"toren</w>":9006,"chter</w>":9007,"vollständig</w>":9008,"methods</w>":9009,"Fel":9010,"issen</w>":9011,"mention</w>":9012,"Vergangenheit</w>":9013,"chance</w>":9014,"Ku":9015,"Kal":9016,"Mac":9017,"motion</w>":9018,"Agent":9019,"führte</w>":9020,"angemessen":9021,"zeiten</w>":9022,"swimming</w>":9023,"häufig</w>":9024,"Dro":9025,"challenge</w>":9026,"Ander":9027,"Qualitä":9028,"zumin":9029,"Security</w>":9030,"geschaffen</w>":9031,"stellte</w>":9032,"Inhalt</w>":9033,"fish</w>":9034,"Alt":9035,"erfolgreich</w>":9036,"strength":9037,"adverti":9038,"gruppe</w>":9039,"endlich</w>":9040,"Google</w>":9041,"neues</w>":9042,"prozess</w>":9043,"tritts":9044,"count</w>":9045,"Fac":9046,"bes</w>":9047,"sectors</w>":9048,"Chinese</w>":9049,"jeweiligen</w>":9050,"ckets</w>":9051,"Video</w>":9052,"Dre":9053,"és</w>":9054,"zumindest</w>":9055,"Public</w>":9056,"occup":9057,"Mei":9058,"sun":9059,"cin":9060,"tiges</w>":9061,"processing</w>":9062,"IF":9063,"99</w>":9064,"zig</w>":9065,"Sonder":9066,"appear</w>":9067,"Adresse</w>":9068,"verpflichtet</w>":9069,"Anti":9070,"wood</w>":9071,"asp":9072,"bedau":9073,"gewiesen</w>":9074,"Fund</w>":9075,"powers</w>":9076,"fts":9077,"Zweitens</w>":9078,"attra":9079,"pain":9080,"stets</w>":9081,"befür":9082,"Sterne</w>":9083,"enze</w>":9084,"reland</w>":9085,"Free</w>":9086,"uner":9087,"Werte</w>":9088,"zahlt</w>":9089,"fields</w>":9090,"unten</w>":9091,"Lit":9092,"lost</w>":9093,"ero</w>":9094,"verage</w>":9095,"Viele</w>":9096,"erende</w>":9097,"außerhalb</w>":9098,"justice</w>":9099,"businesses</w>":9100,"kam</w>":9101,"selection</w>":9102,"walking</w>":9103,"passen":9104,"erwartet</w>":9105,"400</w>":9106,"Minder":9107,"Wohl":9108,"ode</w>":9109,"Besonder":9110,"genutzt</w>":9111,"accepted</w>":9112,"appreci":9113,"Schritte</w>":9114,"schützen</w>":9115,"fläche</w>":9116,"despite</w>":9117,"09</w>":9118,"argum":9119,"strategic</w>":9120,"ang":9121,"comfort</w>":9122,"teren</w>":9123,"ica</w>":9124,"incor":9125,"System":9126,"sensi":9127,"vertrau":9128,"kennen</w>":9129,"Berichterstatterin</w>":9130,"ails</w>":9131,"exerc":9132,"empfeh":9133,"fying</w>":9134,"Grand</w>":9135,"uty</w>":9136,"fluss</w>":9137,"Arbeitnehmer</w>":9138,"Not</w>":9139,"Thank</w>":9140,"fres":9141,"ausgezeich":9142,"map</w>":9143,"Pl":9144,"viert</w>":9145,"Wol":9146,"Öster":9147,"Ireland</w>":9148,"stab":9149,"eil</w>":9150,"seines</w>":9151,"braucht</w>":9152,"raised</w>":9153,"blu":9154,"achtet</w>":9155,"gnis</w>":9156,"leistet</w>":9157,"Vertrauen</w>":9158,"08</w>":9159,"Angelegenheiten</w>":9160,"persönlichen</w>":9161,"Russian</w>":9162,"Angelegenheit</w>":9163,"ester":9164,"statisti":9165,"well":9166,"sprü":9167,"ty":9168,"visitors</w>":9169,"influence</w>":9170,"innovation</w>":9171,"sprech":9172,"amentary</w>":9173,"separate</w>":9174,"El</w>":9175,"barer</w>":9176,"genug</w>":9177,"Gebäude</w>":9178,"wahrscheinlich</w>":9179,"heutigen</w>":9180,"heben</w>":9181,"contract</w>":9182,"Zentral":9183,"trying</w>":9184,"letzte</w>":9185,"doubt</w>":9186,"awar":9187,"150</w>":9188,"Dazu</w>":9189,"wr":9190,"öri":9191,"Infra":9192,"absolutely</w>":9193,"Gesprä":9194,"implement</w>":9195,"Schwierigkeiten</w>":9196,"losigkeit</w>":9197,"AT</w>":9198,"Berg":9199,"flexible</w>":9200,"Herausforderungen</w>":9201,"scope</w>":9202,"ourable</w>":9203,"heraus":9204,"Wein":9205,"schaft":9206,"erlaubt</w>":9207,"operate</w>":9208,"ado</w>":9209,"cohe":9210,"Distri":9211,"sle":9212,"amerikanischen</w>":9213,"Praxis</w>":9214,"mand":9215,"Vertreter</w>":9216,"Bade":9217,"bessere</w>":9218,"ausschließlich</w>":9219,"Entschließungs":9220,"Preis":9221,"Künst":9222,"isation</w>":9223,"Spieler</w>":9224,"Station</w>":9225,"Foto":9226,"join</w>":9227,"ID</w>":9228,"Parteien</w>":9229,"less":9230,"ativ":9231,"tour</w>":9232,"UK</w>":9233,"fällt</w>":9234,"leaders</w>":9235,"bilden</w>":9236,"Premi":9237,"Allerdings</w>":9238,"sechs</w>":9239,"cript</w>":9240,"Produkt</w>":9241,"demands</w>":9242,"Ale":9243,"erkennung</w>":9244,"your":9245,"gehöri":9246,"geschütz":9247,"elektron":9248,"Einrichtung</w>":9249,"tations</w>":9250,"nü":9251,"utive</w>":9252,"namely</w>":9253,"prises</w>":9254,"Neben</w>":9255,"ark</w>":9256,"Only</w>":9257,"love</w>":9258,"Betrie":9259,"studi":9260,"Ima":9261,"Angebo":9262,"ure":9263,"affected</w>":9264,"borders</w>":9265,"dische</w>":9266,"Einige</w>":9267,"critical</w>":9268,"ruption</w>":9269,"Schwer":9270,"Hinsicht</w>":9271,"gerungen</w>":9272,"opening</w>":9273,"brie":9274,"zeichnen</w>":9275,"Klas":9276,"Region":9277,"Eigent":9278,"intended</w>":9279,"gst</w>":9280,"33</w>":9281,"getting</w>":9282,"Secondly</w>":9283,"Folge</w>":9284,"hour</w>":9285,"Denn</w>":9286,"Constitu":9287,"calls</w>":9288,"privaten</w>":9289,"Moreover</w>":9290,"heard</w>":9291,"Dra":9292,"rid</w>":9293,"erinnern</w>":9294,"geschi":9295,"geln</w>":9296,"Wunsch</w>":9297,"stoffe</w>":9298,"klu":9299,"krise</w>":9300,"weiten</w>":9301,"staaten</w>":9302,"regime</w>":9303,"overall</w>":9304,"afft</w>":9305,"selben</w>":9306,"Falls</w>":9307,"ET":9308,"Staat</w>":9309,"diplom":9310,"bitten</w>":9311,"Dim":9312,"warm</w>":9313,"Spec":9314,"Instrument</w>":9315,"MO":9316,"Agre":9317,"HT":9318,"negative</w>":9319,"Ihres</w>":9320,"winn":9321,"adopt</w>":9322,"anda</w>":9323,"Opfer</w>":9324,"vorgeschla":9325,"Sport":9326,"says</w>":9327,"Vil":9328,"gelt</w>":9329,"allgemeinen</w>":9330,"italien":9331,"store</w>":9332,"insi":9333,"mption</w>":9334,"expec":9335,"orienti":9336,"tere</w>":9337,"Solidarität</w>":9338,"SQ":9339,"Annahme</w>":9340,"fälle</w>":9341,"representatives</w>":9342,"ML</w>":9343,"htt":9344,"zukünf":9345,"yourself</w>":9346,"Hoff":9347,"Aufgaben</w>":9348,"Nachfol":9349,"NATO</w>":9350,"forced</w>":9351,"lien</w>":9352,"gekommen</w>":9353,"übernehmen</w>":9354,"Super":9355,"Pati":9356,"Regierungs":9357,"schung</w>":9358,"relationship</w>":9359,"95</w>":9360,"Dann</w>":9361,"Red</w>":9362,"Struktur":9363,"moderne</w>":9364,"Lam":9365,"laufen</w>":9366,"ehemali":9367,"banks</w>":9368,"running</w>":9369,"Wer</w>":9370,"Cz":9371,"Seh":9372,"Frieden</w>":9373,"AK":9374,"initiatives</w>":9375,"Arbeitsplätze</w>":9376,"istic</w>":9377,"lass</w>":9378,"Som":9379,"GN":9380,"Krieg</w>":9381,"Mer":9382,"traffic</w>":9383,"stress</w>":9384,"Mex":9385,"strengungen</w>":9386,"usually</w>":9387,"ausch</w>":9388,"entscheiden</w>":9389,"Mittelme":9390,"gebiet</w>":9391,"tre</w>":9392,"begrenz":9393,"expressed</w>":9394,"People</w>":9395,"suitable</w>":9396,"cen":9397,"Afghanistan</w>":9398,"schwer</w>":9399,"evening</w>":9400,"datab":9401,"jahr</w>":9402,"klein":9403,"peace":9404,"see":9405,"konom":9406,"prüft</w>":9407,"0s</w>":9408,"ständen</w>":9409,"target</w>":9410,"Rel":9411,"Syn":9412,"vent":9413,"ren</w>":9414,"born</w>":9415,"collec":9416,"Kultur":9417,"bewusst</w>":9418,"Hä":9419,"expected</w>":9420,"beide</w>":9421,"generation</w>":9422,"ha</w>":9423,"darstellt</w>":9424,"SO":9425,"committed</w>":9426,"Organisationen</w>":9427,"97</w>":9428,"More</w>":9429,"ünf":9430,"zudem</w>":9431,"hilfen</w>":9432,"begrüßen</w>":9433,"Obwohl</w>":9434,"mainly</w>":9435,"freie</w>":9436,"compar":9437,"proper</w>":9438,"Voll":9439,"fant":9440,"automatisch</w>":9441,"administration</w>":9442,"0er</w>":9443,"dated</w>":9444,"rup":9445,"si</w>":9446,"Dire":9447,"lern</w>":9448,"sitting</w>":9449,"Gesamt":9450,"ee":9451,"fel</w>":9452,"rail":9453,"ethn":9454,"Its</w>":9455,"approved</w>":9456,"win</w>":9457,"talking</w>":9458,"maintain</w>":9459,"Produkt":9460,"Systeme</w>":9461,"änder":9462,"DA":9463,"forderung</w>":9464,"gelegen</w>":9465,"Kunden":9466,"Hu":9467,"chec":9468,"Erstens</w>":9469,"karte</w>":9470,"Obje":9471,"Verfassung</w>":9472,"terrace</w>":9473,"etings</w>":9474,"Nord":9475,"Leute</w>":9476,"vermei":9477,"buch</w>":9478,"fördert</w>":9479,"musi":9480,"fangre":9481,"planning</w>":9482,"illeg":9483,"nachten</w>":9484,"installation</w>":9485,"Doppel":9486,"Verpflichtungen</w>":9487,"sagt</w>":9488,"vital</w>":9489,"SS</w>":9490,"destens</w>":9491,"deine</w>":9492,"extra":9493,"vorgeschlagen</w>":9494,"nä":9495,"inger</w>":9496,"Ern":9497,"ature</w>":9498,"EM":9499,"kürz":9500,"acious</w>":9501,"ator":9502,"mini":9503,"normal</w>":9504,"tourist</w>":9505,"ligung</w>":9506,"currency</w>":9507,"Armut</w>":9508,"stehende</w>":9509,"Überwach":9510,"confidence</w>":9511,"einger":9512,"families</w>":9513,"Rats":9514,"thin</w>":9515,"Agenda</w>":9516,"Tsch":9517,"parte":9518,"she":9519,"34</w>":9520,"Falle</w>":9521,"ri</w>":9522,"mär":9523,"cohesion</w>":9524,"Kunst</w>":9525,"Roma</w>":9526,"De</w>":9527,"Bio":9528,"public":9529,"improved</w>":9530,"stein</w>":9531,"delines</w>":9532,"freuen</w>":9533,"eindeutig</w>":9534,"kü":9535,"bul":9536,"collection</w>":9537,"spann":9538,"endes</w>":9539,"losoph":9540,"kam":9541,"65</w>":9542,"heb":9543,"practic":9544,"Milliarden</w>":9545,"Grie":9546,"structures</w>":9547,"uten</w>":9548,"militär":9549,"nern</w>":9550,"correct</w>":9551,"controll":9552,"Immobili":9553,"lic</w>":9554,"Elek":9555,"Sign":9556,"führten</w>":9557,"photo</w>":9558,"audi":9559,"lymp":9560,"Costa</w>":9561,"administrative</w>":9562,"Kriterien</w>":9563,"Sitzung</w>":9564,"Bec":9565,"goal</w>":9566,"größere</w>":9567,"Partei</w>":9568,"students</w>":9569,"Code</w>":9570,"Zustimmung</w>":9571,"fei":9572,"entschie":9573,"Anstrengungen</w>":9574,"Reak":9575,"Invest":9576,"Sant":9577,"tious</w>":9578,"64</w>":9579,"kaum</w>":9580,"reforms</w>":9581,"lichung</w>":9582,"guli":9583,"sper":9584,"screen</w>":9585,"Nun</w>":9586,"ag</w>":9587,"benutzt</w>":9588,"structural</w>":9589,"Spa":9590,"west</w>":9591,"haft</w>":9592,"feature</w>":9593,"Karte</w>":9594,"Hause</w>":9595,"delivery</w>":9596,"Charak":9597,"white</w>":9598,"comments</w>":9599,"07</w>":9600,"ologische</w>":9601,"excep":9602,"bon":9603,"increasingly</w>":9604,"ergän":9605,"conclusion</w>":9606,"Film</w>":9607,"whom</w>":9608,"stieg</w>":9609,"pping</w>":9610,"nationale</w>":9611,"tims</w>":9612,"decide</w>":9613,"Ty":9614,"competitive</w>":9615,"engine":9616,"buted</w>":9617,"circumstances</w>":9618,"sachen</w>":9619,"Prozent</w>":9620,"Tem":9621,"temperat":9622,"äden</w>":9623,"Anerkennung</w>":9624,"alisten</w>":9625,"spricht</w>":9626,"reduced</w>":9627,"zusätzliche</w>":9628,"protected</w>":9629,"schaftliche</w>":9630,"erland</w>":9631,"Protokoll</w>":9632,"umfangre":9633,"ücke</w>":9634,"Süd":9635,"36</w>":9636,"automatically</w>":9637,"bum</w>":9638,"critic":9639,"lla</w>":9640,"vereinbar":9641,"genannt</w>":9642,"Idee</w>":9643,"Che":9644,"Nations</w>":9645,"ay":9646,"entspricht</w>":9647,"Gast":9648,"unbedingt</w>":9649,"1995</w>":9650,"Funktionen</w>":9651,"reagi":9652,"crime</w>":9653,"Vereinbarung</w>":9654,"gruppen</w>":9655,"laws</w>":9656,"Sing":9657,"teach":9658,"Binnenmarkt</w>":9659,"Wahlen</w>":9660,"Terrorismus</w>":9661,"Verwaltung</w>":9662,"alley</w>":9663,"electronic</w>":9664,"voice</w>":9665,"else</w>":9666,"ton":9667,"sources</w>":9668,"Iraq</w>":9669,"pes</w>":9670,"2020</w>":9671,"celeb":9672,"ico</w>":9673,"Erd":9674,"mitten</w>":9675,"titude</w>":9676,"began</w>":9677,"defined</w>":9678,"residen":9679,"Fuß":9680,"priorities</w>":9681,"PL</w>":9682,"Sommer</w>":9683,"96</w>":9684,"beginnen</w>":9685,"vertre":9686,"sofern</w>":9687,"format</w>":9688,"decor":9689,"überzeugt</w>":9690,"gg":9691,"unemployment</w>":9692,"oo</w>":9693,"estic</w>":9694,"anci":9695,"Palestini":9696,"Ist</w>":9697,"schöne</w>":9698,"powerful</w>":9699,"selbstverständlich</w>":9700,"eries</w>":9701,"zlich</w>":9702,"supports</w>":9703,"ik":9704,"gleiche</w>":9705,"played</w>":9706,"uss":9707,"extensive</w>":9708,"infrastructure</w>":9709,"Mach":9710,"contribute</w>":9711,"vorgelegt</w>":9712,"founded</w>":9713,"speaking</w>":9714,"ato</w>":9715,"stärker</w>":9716,"coff":9717,"participation</w>":9718,"Enga":9719,"ensuring</w>":9720,"Gipfel</w>":9721,"isely</w>":9722,"getragen</w>":9723,"mindestens</w>":9724,"erreich":9725,"worth</w>":9726,"pay":9727,"Nah":9728,"Stellung":9729,"55</w>":9730,"yal</w>":9731,"introduced</w>":9732,"tabled</w>":9733,"cked</w>":9734,"Hor":9735,"ken":9736,"ported</w>":9737,"emissions</w>":9738,"OR</w>":9739,"Identi":9740,"spie":9741,"Volk</w>":9742,"functions</w>":9743,"http</w>":9744,"positions</w>":9745,"plants</w>":9746,"chern</w>":9747,"lement</w>":9748,"Ausschuß</w>":9749,"perspec":9750,"kategorien</w>":9751,"ping</w>":9752,"tzdem</w>":9753,"understanding</w>":9754,"enty</w>":9755,"hund":9756,"vac":9757,"stone</w>":9758,"exist</w>":9759,"Inhalte</w>":9760,"victims</w>":9761,"specifically</w>":9762,"Medien</w>":9763,"unterschiedlichen</w>":9764,"Swiss</w>":9765,"ries</w>":9766,"erwähnt</w>":9767,"deliver":9768,"erlei</w>":9769,"verabschie":9770,"encourage</w>":9771,"effectively</w>":9772,"verlässi":9773,"south</w>":9774,"regre":9775,"Asia</w>":9776,"tter</w>":9777,"there":9778,"SQL</w>":9779,"bü":9780,"beha":9781,"head":9782,"pleasant</w>":9783,"record</w>":9784,"schnitt</w>":9785,"bequ":9786,"gency</w>":9787,"financing</w>":9788,"Produkten</w>":9789,"glauben</w>":9790,"lad":9791,"gerecht</w>":9792,"Flor":9793,"gezeigt</w>":9794,"Reise":9795,"track</w>":9796,"stattung</w>":9797,"anische</w>":9798,"Wäh":9799,"kts</w>":9800,"Durchführung</w>":9801,"assu":9802,"Soll":9803,"fizierung</w>":9804,"fellow</w>":9805,"Frankfurt</w>":9806,"Indeed</w>":9807,"49</w>":9808,"Osten</w>":9809,"stated</w>":9810,"Straße</w>":9811,"India</w>":9812,"abkommen</w>":9813,"Haushalt</w>":9814,"Bestand":9815,"berücksichtigen</w>":9816,"früh":9817,"acces":9818,"gründet</w>":9819,"teleph":9820,"Just</w>":9821,"37</w>":9822,"bab":9823,"emo":9824,"ritann":9825,"EG</w>":9826,"van":9827,"vorher":9828,"aktuelle</w>":9829,"Associ":9830,"symbo":9831,"seiten</w>":9832,"agriculture</w>":9833,"Wann</w>":9834,"derzei":9835,"manner</w>":9836,"hilfe</w>":9837,"furnis":9838,"Mitteilung</w>":9839,"liefert</w>":9840,"mehreren</w>":9841,"ums":9842,"paper</w>":9843,"purposes</w>":9844,"erkannt</w>":9845,"zing</w>":9846,"wesentlich</w>":9847,"sively</w>":9848,"sichten</w>":9849,"nachdem</w>":9850,"lash</w>":9851,"dringend</w>":9852,"War</w>":9853,"Nutzen</w>":9854,"hinweisen</w>":9855,"hochwer":9856,"Agreement</w>":9857,"entry</w>":9858,"asks</w>":9859,"ligt</w>":9860,"entsprechende</w>":9861,"Bemerk":9862,"opened</w>":9863,"John</w>":9864,"glie":9865,"larger</w>":9866,"SE":9867,"managed</w>":9868,"Each</w>":9869,"parag":9870,"Vorteile</w>":9871,"amb":9872,"later":9873,"Sektor</w>":9874,"Mel":9875,"partment</w>":9876,"referred</w>":9877,"detailed</w>":9878,"wonderful</w>":9879,"sit</w>":9880,"heal":9881,"animals</w>":9882,"Fore":9883,"Vari":9884,"Stabilität</w>":9885,"42</w>":9886,"xes</w>":9887,"kungen</w>":9888,"member":9889,"Spa</w>":9890,"rechten</w>":9891,"verfügbar</w>":9892,"Besuch</w>":9893,"Social</w>":9894,"SM":9895,"ony</w>":9896,"listed</w>":9897,"Green</w>":9898,"aimed</w>":9899,"marketing</w>":9900,"Technologien</w>":9901,"discuss</w>":9902,"gain</w>":9903,"Olymp":9904,"spiele</w>":9905,"linked</w>":9906,"Christian</w>":9907,"globalen</w>":9908,"assungs":9909,"gert</w>":9910,"dedic":9911,"contin":9912,"pre</w>":9913,"regular</w>":9914,"artige</w>":9915,"Reformen</w>":9916,"deter":9917,"bilater":9918,"erfahren</w>":9919,"entwicklung</w>":9920,"immern</w>":9921,"rent</w>":9922,"acci":9923,"arge</w>":9924,"hoffen</w>":9925,"partnership</w>":9926,"Über</w>":9927,"euch</w>":9928,"stent</w>":9929,"rural</w>":9930,"limit</w>":9931,"passen</w>":9932,"beds</w>":9933,"klicken</w>":9934,"atively</w>":9935,"Augen</w>":9936,"Homepage</w>":9937,"camera</w>":9938,"Policy</w>":9939,"stechn":9940,"troll":9941,"Board</w>":9942,"exactly</w>":9943,"Nahr":9944,"stärk":9945,"existi":9946,"transparent</w>":9947,"wrong</w>":9948,"besonderen</w>":9949,"nehmer</w>":9950,"Funktion":9951,"02</w>":9952,"aufs":9953,"Mio</w>":9954,"Plan</w>":9955,"police</w>":9956,"adequate</w>":9957,"05</w>":9958,"won</w>":9959,"Sea</w>":9960,"becoming</w>":9961,"February</w>":9962,"Dig":9963,"assessment</w>":9964,"bestimmt</w>":9965,"attle</w>":9966,"suite</w>":9967,"risks</w>":9968,"otherwise</w>":9969,"39</w>":9970,"precisely</w>":9971,"Kredit":9972,"landscap":9973,"went</w>":9974,"technische</w>":9975,"Schwe":9976,"discussed</w>":9977,"Sport</w>":9978,"Brus":9979,"zeichen</w>":9980,"rejec":9981,"bestehenden</w>":9982,"akzeptieren</w>":9983,"sicherzustellen</w>":9984,"client</w>":9985,"kommenden</w>":9986,"vel</w>":9987,"represents</w>":9988,"Dollar</w>":9989,"luxuri":9990,"sized</w>":9991,"budgetary</w>":9992,"III</w>":9993,"SI":9994,"gor":9995,"enheit</w>":9996,"satisfac":9997,"Nu":9998,"gangs":9999,"Switz":10000,"Bran":10001,"dware</w>":10002,"enswür":10003,"umfangreich":10004,"Kontakt</w>":10005,"tend</w>":10006,"wants</w>":10007,"sidiar":10008,"selected</w>":10009,"operations</w>":10010,"metres</w>":10011,"benutzen</w>":10012,"programs</w>":10013,"Jahres":10014,"eb</w>":10015,"weap":10016,"Pun":10017,"measure</w>":10018,"Human</w>":10019,"chmal</w>":10020,"shof</w>":10021,"zentrum</w>":10022,"aktiv</w>":10023,"siehe</w>":10024,"developments</w>":10025,"getroffen</w>":10026,"stro":10027,"introduction</w>":10028,"discussions</w>":10029,"jene</w>":10030,"arischen</w>":10031,"ener</w>":10032,"Proc":10033,"wagen</w>":10034,"werke</w>":10035,"Familien</w>":10036,"tages</w>":10037,"Then</w>":10038,"Zy":10039,"Why</w>":10040,"Versch":10041,"techni":10042,"ingdom</w>":10043,"Garanti":10044,"verlei":10045,"Schließlich</w>":10046,"erzielt</w>":10047,"crats</w>":10048,"ial</w>":10049,"Liz":10050,"ero":10051,"votes</w>":10052,"Austra":10053,"pil":10054,"Akti":10055,"Fr":10056,"ph</w>":10057,"Zudem</w>":10058,"Suche</w>":10059,"Zunächst</w>":10060,"gelöst</w>":10061,"hren</w>":10062,"möglicherweise</w>":10063,"domin":10064,"fresh</w>":10065,"Cat":10066,"itation</w>":10067,"Anwendungen</w>":10068,"enterprises</w>":10069,"openha":10070,"fühl</w>":10071,"läuft</w>":10072,"inside</w>":10073,"alter</w>":10074,"lio</w>":10075,"Haltung</w>":10076,"medical</w>":10077,"thousands</w>":10078,"Auto</w>":10079,"Open</w>":10080,"kitchen</w>":10081,"Pr":10082,"notwendigen</w>":10083,"Best</w>":10084,"möglichen</w>":10085,"erti":10086,"istics</w>":10087,"clean":10088,"ny</w>":10089,"isine</w>":10090,"buy</w>":10091,"Einrichtungen</w>":10092,"Chance</w>":10093,"chter":10094,"44</w>":10095,"Sun":10096,"refu":10097,"Switzerland</w>":10098,"arm":10099,"respond</w>":10100,"houses</w>":10101,"graphic</w>":10102,"Vertrags</w>":10103,"kop":10104,"ye</w>":10105,"chron":10106,"eten</w>":10107,"facilit":10108,"Apartments</w>":10109,"dienst":10110,"Tau":10111,"dum</w>":10112,"stered</w>":10113,"IV</w>":10114,"zuletzt</w>":10115,"finanziellen</w>":10116,"psy":10117,"gebenen</w>":10118,"geändert</w>":10119,"Zeichen</w>":10120,"wegung</w>":10121,"Emis":10122,"Flexi":10123,"amen":10124,"Turk":10125,"Minister":10126,"erfüllt</w>":10127,"guidelines</w>":10128,"Wettbewerbsfähigkeit</w>":10129,"Est":10130,"warten</w>":10131,"playing</w>":10132,"Transport</w>":10133,"sur</w>":10134,"CO2</w>":10135,"tured</w>":10136,"exclusive</w>":10137,"earlier</w>":10138,"PT</w>":10139,"buildings</w>":10140,"surance</w>":10141,"Middle</w>":10142,"represent</w>":10143,"winter</w>":10144,"Belar":10145,"followed</w>":10146,"cians</w>":10147,"festgelegt</w>":10148,"propor":10149,"umgesetzt</w>":10150,"eng</w>":10151,"broad</w>":10152,"anderes</w>":10153,"03</w>":10154,"Lat":10155,"nütz":10156,"liefer":10157,"passi":10158,"weite</w>":10159,"verbun":10160,"Mini":10161,"gelegten</w>":10162,"hood</w>":10163,"gewal":10164,"schreiben</w>":10165,"enna</w>":10166,"Währungs":10167,"ehrte</w>":10168,"National":10169,"Mol":10170,"stimme</w>":10171,"dia</w>":10172,"ype</w>":10173,"geber</w>":10174,"spacious</w>":10175,"cement</w>":10176,"bedarf</w>":10177,"spend</w>":10178,"closely</w>":10179,"Standards</w>":10180,"convinc":10181,"din":10182,"connected</w>":10183,"atur</w>":10184,"breiten</w>":10185,"Vier":10186,"She</w>":10187,"aming</w>":10188,"Zimmer":10189,"ergreifen</w>":10190,"Unterkategorien</w>":10191,"alt":10192,"core</w>":10193,"gemü":10194,"Stand</w>":10195,"Ausbildung</w>":10196,"discrimination</w>":10197,"tourism</w>":10198,"gradu":10199,"Monate</w>":10200,"Economic</w>":10201,"income</w>":10202,"sli":10203,"Break":10204,"Anspruch</w>":10205,"Vir":10206,"networks</w>":10207,"bereitet</w>":10208,"supporting</w>":10209,"weit":10210,"compens":10211,"degree</w>":10212,"Lag":10213,"shower</w>":10214,"God</w>":10215,"elegant</w>":10216,"season</w>":10217,"Mut":10218,"strengthen</w>":10219,"mischen</w>":10220,"Meter</w>":10221,"him":10222,"facing</w>":10223,"Fla":10224,"stock</w>":10225,"quanti":10226,"science</w>":10227,"britann":10228,"voller</w>":10229,"38</w>":10230,"spit":10231,"immigration</w>":10232,"eingerichtet</w>":10233,"gesund":10234,"fun</w>":10235,"tot":10236,"enster</w>":10237,"stausch</w>":10238,"popul":10239,"istische</w>":10240,"improving</w>":10241,"fand</w>":10242,"sum</w>":10243,"haften</w>":10244,"Vorberei":10245,"recht":10246,"Barro":10247,"bezo":10248,"06</w>":10249,"path</w>":10250,"Czech</w>":10251,"maß":10252,"select</w>":10253,"vermeiden</w>":10254,"roman":10255,"vieren</w>":10256,"Sem":10257,"Greece</w>":10258,"Name</w>":10259,"tele":10260,"rah":10261,"save</w>":10262,"worten</w>":10263,"Kindern</w>":10264,"telephone</w>":10265,"lichem</w>":10266,"remember</w>":10267,"Air</w>":10268,"greif":10269,"auer</w>":10270,"duty</w>":10271,"berich":10272,"Vielfalt</w>":10273,"aces</w>":10274,"außer</w>":10275,"chine":10276,"anding</w>":10277,"proto":10278,"considerable</w>":10279,"zy":10280,"Tier":10281,"obach":10282,"kraft":10283,"happen</w>":10284,"Krieg":10285,"jederzeit</w>":10286,"booking</w>":10287,"lichst</w>":10288,"Research</w>":10289,"Moder":10290,"esten</w>":10291,"endet</w>":10292,"Georgi":10293,"ierten</w>":10294,"ffer</w>":10295,"Golf</w>":10296,"richtet</w>":10297,"wand</w>":10298,"welcher</w>":10299,"owned</w>":10300,"adju":10301,"Spit":10302,"Qualitäts":10303,"digit":10304,"ead</w>":10305,"pen</w>":10306,"speech</w>":10307,"geeignet</w>":10308,"pris":10309,"Atlan":10310,"Konzept</w>":10311,"Found":10312,"purchase</w>":10313,"enb":10314,"hear</w>":10315,"His</w>":10316,"Stimme</w>":10317,"darunter</w>":10318,"freiheit</w>":10319,"luß</w>":10320,"tief":10321,"tled</w>":10322,"Schweiz</w>":10323,"typical</w>":10324,"grade</w>":10325,"Irak</w>":10326,"stärken</w>":10327,"provision</w>":10328,"Pic":10329,"jeweils</w>":10330,"expl":10331,"verfolgen</w>":10332,"eingeschrän":10333,"deck":10334,"oriz":10335,"Cle":10336,"spirit</w>":10337,"wall</w>":10338,"destro":10339,"mani":10340,"sicherlich</w>":10341,"drawn</w>":10342,"Klein":10343,"pap":10344,"utili":10345,"entweder</w>":10346,"tainment</w>":10347,"25":10348,"presence</w>":10349,"prior</w>":10350,"diversity</w>":10351,"2011</w>":10352,"Innovation</w>":10353,"thinking</w>":10354,"Frem":10355,"Betriebs":10356,"Einfluss</w>":10357,"mas</w>":10358,"windi":10359,"gave</w>":10360,"debt</w>":10361,"Download</w>":10362,"Frieden":10363,"sicht":10364,"Tätigkeit</w>":10365,"Wege</w>":10366,"Kenntnis</w>":10367,"Most</w>":10368,"cards</w>":10369,"dé":10370,"entschieden</w>":10371,"components</w>":10372,"hot</w>":10373,"Webseite</w>":10374,"mechanis":10375,"gewün":10376,"billi":10377,"bodies</w>":10378,"reception</w>":10379,"AB":10380,"Menge</w>":10381,"IA</w>":10382,"listen</w>":10383,"rufen</w>":10384,"Mess":10385,"Leistungen</w>":10386,"Sci":10387,"teilweise</w>":10388,"schlä":10389,"veran":10390,"dorf</w>":10391,"cuisine</w>":10392,"Sprachen</w>":10393,"staatlichen</w>":10394,"Ever":10395,"experts</w>":10396,"Garten</w>":10397,"Mitte</w>":10398,"gelangen</w>":10399,"nation</w>":10400,"OT":10401,"schlagen</w>":10402,"Krä":10403,"Geld":10404,"politischer</w>":10405,"animal</w>":10406,"properly</w>":10407,"break</w>":10408,"tinu":10409,"ADS</w>":10410,"saw</w>":10411,"character</w>":10412,"Street</w>":10413,"Verwaltungs":10414,"Februar</w>":10415,"Großbritann":10416,"bet</w>":10417,"Aktion":10418,"IR":10419,"tivity</w>":10420,"wollte</w>":10421,"anspru":10422,"lian</w>":10423,"Produc":10424,"element</w>":10425,"dish</w>":10426,"Environ":10427,"items</w>":10428,"ill</w>":10429,"broad":10430,"Abschluss</w>":10431,"besuchen</w>":10432,"refer</w>":10433,"erzielen</w>":10434,"Modell</w>":10435,"Instrumente</w>":10436,"spielt</w>":10437,"ordinary</w>":10438,"angezeigt</w>":10439,"Griechen":10440,"Salz":10441,"Forderung</w>":10442,"auff":10443,"fisheries</w>":10444,"ull</w>":10445,"ari</w>":10446,"änden</w>":10447,"ald</w>":10448,"coordination</w>":10449,"Arbeiten</w>":10450,"Vereinten</w>":10451,"Ins":10452,"zustimmen</w>":10453,"stischen</w>":10454,"Brussels</w>":10455,"konferenz</w>":10456,"verbessert</w>":10457,"generally</w>":10458,"ame":10459,"perfec":10460,"phra":10461,"klare</w>":10462,"Poland</w>":10463,"ades</w>":10464,"dramati":10465,"entirely</w>":10466,"Installation</w>":10467,"atischen</w>":10468,"coffee</w>":10469,"Forum</w>":10470,"Allgem":10471,"zweifel":10472,"Berichte</w>":10473,"competitiveness</w>":10474,"Moun":10475,"Bru":10476,"ael</w>":10477,"tradition</w>":10478,"erleben</w>":10479,"brand</w>":10480,"vorgesehen</w>":10481,"authority</w>":10482,"erhöhen</w>":10483,"Rezep":10484,"leng":10485,"agno":10486,"übernachten</w>":10487,"tlinie</w>":10488,"41</w>":10489,"plätze</w>":10490,"Abschließend</w>":10491,"Sitz":10492,"tter":10493,"atin</w>":10494,"trust</w>":10495,"jud":10496,"Europe":10497,"Initiativen</w>":10498,"funktioniert</w>":10499,"average</w>":10500,"presidency</w>":10501,"unbe":10502,"tially</w>":10503,"dealing</w>":10504,"ausdrücklich</w>":10505,"überschreit":10506,"fach</w>":10507,"wären</w>":10508,"suggest</w>":10509,"tigkeiten</w>":10510,"tis</w>":10511,"sand":10512,"down":10513,"schä":10514,"Design":10515,"Grenz":10516,"zählen</w>":10517,"actual</w>":10518,"Regelung</w>":10519,"Plen":10520,"aufmerk":10521,"relate</w>":10522,"xe</w>":10523,"stored</w>":10524,"stit":10525,"handen</w>":10526,"elimin":10527,"display</w>":10528,"ISO</w>":10529,"after":10530,"difficulties</w>":10531,"hafte</w>":10532,"Vorsitz":10533,"Mitgliedstaat</w>":10534,"43</w>":10535,"crete</w>":10536,"difference</w>":10537,"Because</w>":10538,"summit</w>":10539,"reasonable</w>":10540,"Ul":10541,"dol":10542,"600</w>":10543,"Abgeordnete</w>":10544,"ulieren</w>":10545,"Fit":10546,"informed</w>":10547,"richtigen</w>":10548,"leistung</w>":10549,"ington</w>":10550,"enhan":10551,"parliamentary</w>":10552,"lie</w>":10553,"Verbin":10554,"raph</w>":10555,"flexibility</w>":10556,"jet":10557,"riesi":10558,"told</w>":10559,"altung</w>":10560,"alists</w>":10561,"betonen</w>":10562,"ude</w>":10563,"Schlaf":10564,"pper</w>":10565,"tise</w>":10566,"meetings</w>":10567,"NE":10568,"modern":10569,"Schön":10570,"speziell</w>":10571,"condition</w>":10572,"Refer":10573,"tto</w>":10574,"recor":10575,"Jetzt</w>":10576,"ells</w>":10577,"machines</w>":10578,"ka":10579,"liter":10580,"abilities</w>":10581,"seem</w>":10582,"ktieren</w>":10583,"habit":10584,"endor":10585,"Dienste</w>":10586,"Unabhängi":10587,"Click</w>":10588,"Num":10589,"gehalten</w>":10590,"beschlossen</w>":10591,"verring":10592,"fixed</w>":10593,"schrän":10594,"vehicles</w>":10595,"Veränderungen</w>":10596,"Mechan":10597,"ances</w>":10598,"asses</w>":10599,"consideration</w>":10600,"informieren</w>":10601,"Asy":10602,"judi":10603,"origin</w>":10604,"Sach":10605,"essor</w>":10606,"mel</w>":10607,"hands</w>":10608,"orial</w>":10609,"natur":10610,"toler":10611,"IB":10612,"erstellt</w>":10613,"möglichst</w>":10614,"flow</w>":10615,"righ":10616,"counter":10617,"district</w>":10618,"Besucher</w>":10619,"reise</w>":10620,"Shi":10621,"eling</w>":10622,"wom":10623,"NG":10624,"fire</w>":10625,"Teile</w>":10626,"Ski":10627,"Gri":10628,"print</w>":10629,"gungen</w>":10630,"Unfortunately</w>":10631,"politics</w>":10632,"Gran":10633,"Leider</w>":10634,"fa</w>":10635,"ökonom":10636,"Status</w>":10637,"EADS</w>":10638,"fly</w>":10639,"800</w>":10640,"Zeiten</w>":10641,"appar":10642,"Great</w>":10643,"bing</w>":10644,"appears</w>":10645,"alismus</w>":10646,"formed</w>":10647,"Strategi":10648,"Jugend":10649,"Engagement</w>":10650,"won":10651,"Ausgaben</w>":10652,"offici":10653,"Währung</w>":10654,"gefordert</w>":10655,"numbers</w>":10656,"lokalen</w>":10657,"peaceful</w>":10658,"Casino</w>":10659,"compati":10660,"Fonds</w>":10661,"Script</w>":10662,"applies</w>":10663,"flation</w>":10664,"Warum</w>":10665,"vul":10666,"kulturellen</w>":10667,"Einwander":10668,"Vergleich</w>":10669,"permanent</w>":10670,"47</w>":10671,"Rou":10672,"Familien":10673,"club</w>":10674,"establishment</w>":10675,"ints</w>":10676,"estim":10677,"Komfort</w>":10678,"weak":10679,"schw":10680,"Angaben</w>":10681,"genü":10682,"Dimen":10683,"becomes</w>":10684,"tlinien</w>":10685,"gie":10686,"digkeiten</w>":10687,"Harmon":10688,"simpli":10689,"dank</w>":10690,"täglich</w>":10691,"week":10692,"klar":10693,"combat</w>":10694,"3D</w>":10695,"Prop":10696,"vorhanden</w>":10697,"resort</w>":10698,"lisch</w>":10699,"experienced</w>":10700,"bilität</w>":10701,"Sau":10702,"Gebieten</w>":10703,"Zeitraum</w>":10704,"Hier":10705,"Leistungs":10706,"estate</w>":10707,"Vielen</w>":10708,"practices</w>":10709,"konkrete</w>":10710,"stim":10711,"Ratsvor":10712,"Madrid</w>":10713,"Once</w>":10714,"hne</w>":10715,"dagegen</w>":10716,"picture</w>":10717,"openhagen</w>":10718,"Vie":10719,"durchaus</w>":10720,"wenigen</w>":10721,"Beschäftigungs":10722,"Origin":10723,"gang":10724,"duce</w>":10725,"LAN</w>":10726,"sthaf":10727,"Ker":10728,"adul":10729,"erleich":10730,"prüfung</w>":10731,"database</w>":10732,"Stil</w>":10733,"wait</w>":10734,"Post":10735,"attempt</w>":10736,"courses</w>":10737,"Breakfast</w>":10738,"Kirche</w>":10739,"secre":10740,"Log":10741,"PC":10742,"zeugen</w>":10743,"Tour</w>":10744,"embly</w>":10745,"advanced</w>":10746,"DP</w>":10747,"iling</w>":10748,"Hauses</w>":10749,"mögliche</w>":10750,"domestic</w>":10751,"versal</w>":10752,"zentrale</w>":10753,"auft</w>":10754,"ligten</w>":10755,"himself</w>":10756,"stabili":10757,"Pass":10758,"gewinnen</w>":10759,"Österreich</w>":10760,"welt</w>":10761,"öst":10762,"weight</w>":10763,"danger":10764,"aims</w>":10765,"ferred</w>":10766,"Analyse</w>":10767,"gewährleistet</w>":10768,"ünen</w>":10769,"1994</w>":10770,"maßen</w>":10771,"trip</w>":10772,"ffs</w>":10773,"Santa</w>":10774,"Sur":10775,"führer</w>":10776,"promoting</w>":10777,"ufen</w>":10778,"ktoren</w>":10779,"Out":10780,"propose</w>":10781,"Beitritt</w>":10782,"According</w>":10783,"tzent":10784,"Posi":10785,"Programms</w>":10786,"etten</w>":10787,"myself</w>":10788,"Rein":10789,"Saint</w>":10790,"aspect</w>":10791,"forget</w>":10792,"atta":10793,"election</w>":10794,"translation</w>":10795,"Wissen</w>":10796,"org</w>":10797,"darstellen</w>":10798,"Rede</w>":10799,"veröffentlicht</w>":10800,"DS":10801,"Worte</w>":10802,"tätig</w>":10803,"Herausforderung</w>":10804,"ness":10805,"ligi":10806,"erklären</w>":10807,"fund</w>":10808,"satelli":10809,"angeboten</w>":10810,"asing</w>":10811,"freue</w>":10812,"easier</w>":10813,"approxim":10814,"IG":10815,"fiz":10816,"joy</w>":10817,"Transpor":10818,"nieder":10819,"Produktions":10820,"Sehenswür":10821,"esterday</w>":10822,"erfolgen</w>":10823,"AL</w>":10824,"Fund":10825,"inci":10826,"brauch</w>":10827,"denk":10828,"failure</w>":10829,"Health</w>":10830,"Katastrop":10831,"Association</w>":10832,"ierte</w>":10833,"near":10834,"middle</w>":10835,"pension</w>":10836,"Lebensmittel":10837,"deep":10838,"Ps</w>":10839,"entstehen</w>":10840,"stronom":10841,"fig":10842,"Zweck</w>":10843,"Jahrhunderts</w>":10844,"ackno":10845,"medic":10846,"defence</w>":10847,"models</w>":10848,"ameter</w>":10849,"seeing</w>":10850,"finanzielle</w>":10851,"ancient</w>":10852,"fro":10853,"kn":10854,"rish</w>":10855,"Antrag</w>":10856,"folgende</w>":10857,"leistungen</w>":10858,"Aufnahme</w>":10859,"Stellungnahme</w>":10860,"dacht</w>":10861,"Klicken</w>":10862,"Achtung</w>":10863,"adem":10864,"Innen</w>":10865,"Cast":10866,"erscheint</w>":10867,"sugge":10868,"museum</w>":10869,"Rum":10870,"unabhängig</w>":10871,"north</w>":10872,"associated</w>":10873,"liebe</w>":10874,"04</w>":10875,"tie":10876,"Herstellung</w>":10877,"seriously</w>":10878,"46</w>":10879,"Mun":10880,"Forderungen</w>":10881,"Komple":10882,"hous":10883,"Trade</w>":10884,"benötigt</w>":10885,"continued</w>":10886,"tionally</w>":10887,"geschrieben</w>":10888,"frau":10889,"beauf":10890,"etzung</w>":10891,"acqu":10892,"sun</w>":10893,"öffnen</w>":10894,"anyone</w>":10895,"dige</w>":10896,"author":10897,"Kompet":10898,"emals</w>":10899,"Terrasse</w>":10900,"avy</w>":10901,"detail</w>":10902,"dennoch</w>":10903,"Last</w>":10904,"phase</w>":10905,"illing</w>":10906,"alisieren</w>":10907,"Oli":10908,"erstellen</w>":10909,"spent</w>":10910,"contr":10911,"zählt</w>":10912,"black</w>":10913,"grounds</w>":10914,"stoff</w>":10915,"Einhaltung</w>":10916,"vielfäl":10917,"gegensei":10918,"erie</w>":10919,"Kingdom</w>":10920,"article</w>":10921,"Zweifel</w>":10922,"Ja</w>":10923,"relax</w>":10924,"safe":10925,"jur":10926,"leader</w>":10927,"konzentrieren</w>":10928,"führenden</w>":10929,"thi":10930,"sets</w>":10931,"nächste</w>":10932,"fers</w>":10933,"ore":10934,"Effe":10935,"cer</w>":10936,"studies</w>":10937,"threat</w>":10938,"starke</w>":10939,"books</w>":10940,"sprach":10941,"bericht</w>":10942,"Dennoch</w>":10943,"ée</w>":10944,"Ord":10945,"uted</w>":10946,"names</w>":10947,"differences</w>":10948,"Parlament":10949,"Private</w>":10950,"Beitritts":10951,"AM":10952,"nom":10953,"ecke</w>":10954,"verurs":10955,"atz":10956,"Einigung</w>":10957,"combination</w>":10958,"Belarus</w>":10959,"Test":10960,"aut":10961,"cos":10962,"wachsen":10963,"Wich":10964,"charged</w>":10965,"instance</w>":10966,"journ":10967,"qualität</w>":10968,"waiting</w>":10969,"lieben</w>":10970,"implementing</w>":10971,"architecture</w>":10972,"wohner</w>":10973,"Universität</w>":10974,"PHP</w>":10975,"Defin":10976,"Afrika</w>":10977,"Termin":10978,"adoption</w>":10979,"renew":10980,"calcul":10981,"GB</w>":10982,"unterschiedliche</w>":10983,"criminal</w>":10984,"downlo":10985,"archi":10986,"reservation</w>":10987,"einiger</w>":10988,"sichts":10989,"Landwir":10990,"humanitarian</w>":10991,"aded</w>":10992,"fügt</w>":10993,"sicherung</w>":10994,"happened</w>":10995,"ließen</w>":10996,"released</w>":10997,"Irish</w>":10998,"Kompon":10999,"statements</w>":11000,"venue</w>":11001,"eingehen</w>":11002,"Milit":11003,"Cham":11004,"reducing</w>":11005,"beaches</w>":11006,"opposition</w>":11007,"absolut</w>":11008,"gestalten</w>":11009,"Mari":11010,"concrete</w>":11011,"isierung</w>":11012,"Paket</w>":11013,"sammlung</w>":11014,"alization</w>":11015,"Gemeinsamen</w>":11016,"graphy</w>":11017,"attractive</w>":11018,"producers</w>":11019,"Mann</w>":11020,"river</w>":11021,"ahead</w>":11022,"Lesung</w>":11023,"Nachfolgend</w>":11024,"brary</w>":11025,"hängt</w>":11026,"beglei":11027,"fare</w>":11028,"tun":11029,"geleitet</w>":11030,"Pro</w>":11031,"Bush</w>":11032,"television</w>":11033,"diskutieren</w>":11034,"condem":11035,"Regel</w>":11036,"balanced</w>":11037,"eht</w>":11038,"impossible</w>":11039,"endgül":11040,"shared</w>":11041,"collabor":11042,"Check</w>":11043,"Gesell":11044,"carefully</w>":11045,"Abend</w>":11046,"geleistet</w>":11047,"Sco":11048,"tch</w>":11049,"magn":11050,"freut</w>":11051,"exhibition</w>":11052,"räume</w>":11053,"changing</w>":11054,"cars</w>":11055,"arrival</w>":11056,"Firstly</w>":11057,"umfasst</w>":11058,"Stock":11059,"Innen":11060,"bekann":11061,"antworten</w>":11062,"betrachtet</w>":11063,"availability</w>":11064,"declar":11065,"immediate</w>":11066,"announced</w>":11067,"geschehen</w>":11068,"regionalen</w>":11069,"learning</w>":11070,"Sehr</w>":11071,"85</w>":11072,"recognition</w>":11073,"gegründet</w>":11074,"wirkt</w>":11075,"konstru":11076,"agencies</w>":11077,"behavi":11078,"sletter</w>":11079,"schwierig</w>":11080,"keeping</w>":11081,"Argum":11082,"Großbritannien</w>":11083,"inform</w>":11084,"leben":11085,"nar":11086,"fiziert</w>":11087,"terra":11088,"Justice</w>":11089,"dad</w>":11090,"described</w>":11091,"sor</w>":11092,"behaup":11093,"ausschuss</w>":11094,"calling</w>":11095,"evidence</w>":11096,"dered</w>":11097,"unge":11098,"herunter":11099,"qualit":11100,"kaufen</w>":11101,"Schengen</w>":11102,"Texte</w>":11103,"Sehenswürdigkeiten</w>":11104,"Fuß</w>":11105,"feder":11106,"Kommunikation</w>":11107,"vierung</w>":11108,"gewicht</w>":11109,"bien</w>":11110,"truly</w>":11111,"pol</w>":11112,"Feu":11113,"menten</w>":11114,"African</w>":11115,"verei":11116,"guarantees</w>":11117,"Hintergrund</w>":11118,"monetary</w>":11119,"clari":11120,"England</w>":11121,"Links</w>":11122,"color</w>":11123,"began":11124,"gla":11125,"Prioritäten</w>":11126,"vernünf":11127,"Stellen</w>":11128,"bild</w>":11129,"introduce</w>":11130,"leiten</w>":11131,"yright</w>":11132,"elected</w>":11133,"sale</w>":11134,"Dokument</w>":11135,"trading</w>":11136,"Augen":11137,"ernsthaf":11138,"dangerous</w>":11139,"genuine</w>":11140,"jährigen</w>":11141,"tür":11142,"lets</w>":11143,"PDF</w>":11144,"Stärkung</w>":11145,"ested</w>":11146,"tende</w>":11147,"taus":11148,"noti":11149,"ela</w>":11150,"Jahrzeh":11151,"CE":11152,"Nacht</w>":11153,"Home</w>":11154,"Wün":11155,"Klim":11156,"ourn":11157,"steigen</w>":11158,"pictures</w>":11159,"finance</w>":11160,"improvement</w>":11161,"lösung</w>":11162,"Hersteller</w>":11163,"Sorge</w>":11164,"feststellen</w>":11165,"advance</w>":11166,"meters</w>":11167,"Aspekt</w>":11168,"verfolgt</w>":11169,"Michael</w>":11170,"USB</w>":11171,"PO":11172,"registered</w>":11173,"korre":11174,"Zivil":11175,"Cul":11176,"Architek":11177,"Tan":11178,"ertes</w>":11179,"correspon":11180,"consumption</w>":11181,"sort</w>":11182,"col</w>":11183,"Ambi":11184,"territory</w>":11185,"schlag</w>":11186,"fil</w>":11187,"Hü":11188,"hinter":11189,"Fernseh":11190,"passed</w>":11191,"General":11192,"Formen</w>":11193,"Pakistan</w>":11194,"Rechnung</w>":11195,"Prime</w>":11196,"Eli":11197,"passt</w>":11198,"Vielzahl</w>":11199,"preis</w>":11200,"nia</w>":11201,"bat":11202,"ala</w>":11203,"Polen</w>":11204,"configu":11205,"sn":11206,"possibilities</w>":11207,"turi":11208,"alty</w>":11209,"übrigen</w>":11210,"governmental</w>":11211,"garantiert</w>":11212,"Gleichzeitig</w>":11213,"Guest</w>":11214,"wishes</w>":11215,"Festival</w>":11216,"lischen</w>":11217,"button</w>":11218,"Arten</w>":11219,"ization</w>":11220,"Gesetz</w>":11221,"Wech":11222,"eß</w>":11223,"Cust":11224,"dit</w>":11225,"Ann":11226,"ausgewäh":11227,"court</w>":11228,"Hamburg</w>":11229,"Muse":11230,"Seine</w>":11231,"unless</w>":11232,"activ":11233,"Foundation</w>":11234,"ured</w>":11235,"recommend</w>":11236,"Titel</w>":11237,"Due</w>":11238,"überprüfen</w>":11239,"phrase</w>":11240,"Europeans</w>":11241,"haltet</w>":11242,"ski":11243,"Entwicklungen</w>":11244,"schied</w>":11245,"Frühstück":11246,"relaxing</w>":11247,"entran":11248,"trägen</w>":11249,"ys":11250,"kräfte</w>":11251,"unacceptable</w>":11252,"suche</w>":11253,"intenance</w>":11254,"load</w>":11255,"persönlich</w>":11256,"gerech":11257,"nearby</w>":11258,"LO":11259,"skills</w>":11260,"artic":11261,"lights</w>":11262,"Finn":11263,"les":11264,"raise</w>":11265,"hingewiesen</w>":11266,"obtain</w>":11267,"gosla":11268,"odi":11269,"Turkish</w>":11270,"figures</w>":11271,"nutz":11272,"religious</w>":11273,"noon</w>":11274,"Arbeitslosigkeit</w>":11275,"felt</w>":11276,"ischen":11277,"Moment</w>":11278,"seek</w>":11279,"Druck":11280,"strong":11281,"Barroso</w>":11282,"definition</w>":11283,"neh":11284,"Partnerschaft</w>":11285,"Every</w>":11286,"miteinander</w>":11287,"participate</w>":11288,"Don":11289,"packages</w>":11290,"bezeichnet</w>":11291,"firm</w>":11292,"continues</w>":11293,"sensitive</w>":11294,"completed</w>":11295,"cts</w>":11296,"installed</w>":11297,"desire</w>":11298,"membership</w>":11299,"Cur":11300,"Wes":11301,"Tun":11302,"kunfts":11303,"combined</w>":11304,"tasks</w>":11305,"gegenwärtig</w>":11306,"ped</w>":11307,"figh":11308,"devices</w>":11309,"Democrats</w>":11310,"respective</w>":11311,"unfortunately</w>":11312,"verkehr":11313,"deep</w>":11314,"Manager</w>":11315,"roo":11316,"illu":11317,"Diskrimin":11318,"französischen</w>":11319,"greatest</w>":11320,"ök":11321,"posite</w>":11322,"breite</w>":11323,"Sha":11324,"Gericht":11325,"Elemente</w>":11326,"reibt</w>":11327,"foot</w>":11328,"Gott</w>":11329,"Richtlinien</w>":11330,"orders</w>":11331,"Gan":11332,"kept</w>":11333,"ita</w>":11334,"Ano":11335,"surface</w>":11336,"gegenwärtigen</w>":11337,"punkte</w>":11338,"sco":11339,"Problemen</w>":11340,"reliable</w>":11341,"Kraft":11342,"Sinn</w>":11343,"insurance</w>":11344,"AP":11345,"ausgewo":11346,"allowing</w>":11347,"Gas":11348,"cm</w>":11349,"Rh":11350,"angesprochen</w>":11351,"eist":11352,"Pflan":11353,"nd</w>":11354,"Deutsche</w>":11355,"strongly</w>":11356,"führungen</w>":11357,"verlassen</w>":11358,"ía</w>":11359,"1st</w>":11360,"Bus</w>":11361,"etic</w>":11362,"Davi":11363,"ästinen":11364,"Verstän":11365,"dap":11366,"cam":11367,"arten</w>":11368,"Hab":11369,"gutes</w>":11370,"export</w>":11371,"profitieren</w>":11372,"thor":11373,"Very</w>":11374,"demokratische</w>":11375,"empfehlen</w>":11376,"Ki":11377,"wesen</w>":11378,"mag":11379,"volun":11380,"Tradition</w>":11381,"Vienna</w>":11382,"Cop":11383,"kilom":11384,"behin":11385,"bewahr":11386,"ane</w>":11387,"bars</w>":11388,"behand":11389,"ppe</w>":11390,"Bedürfnisse</w>":11391,"gate</w>":11392,"Start</w>":11393,"zerstör":11394,"sexu":11395,"weiterer</w>":11396,"write</w>":11397,"campaign</w>":11398,"Ideen</w>":11399,"surrounding</w>":11400,"Hist":11401,"entitled</w>":11402,"Betrieb</w>":11403,"square</w>":11404,"eingeführt</w>":11405,"End":11406,"annen</w>":11407,"Koordini":11408,"zufrieden</w>":11409,"ado":11410,"Musik":11411,"Überwachung</w>":11412,"Will":11413,"ständigkeit</w>":11414,"absolute</w>":11415,"positiv</w>":11416,"coast</w>":11417,"rol</w>":11418,"Schau":11419,"tierung</w>":11420,"bus":11421,"guide</w>":11422,"pus":11423,"enables</w>":11424,"Player</w>":11425,"window</w>":11426,"kum":11427,"Kritik</w>":11428,"Leistung</w>":11429,"Irland</w>":11430,"erhält</w>":11431,"unto</w>":11432,"Wür":11433,"lood</w>":11434,"attractions</w>":11435,"geseh":11436,"Nahrungs":11437,"lap":11438,"beauty</w>":11439,"piece</w>":11440,"closer</w>":11441,"establishing</w>":11442,"Bewertung</w>":11443,"trenn":11444,"economies</w>":11445,"Contro":11446,"Bou":11447,"Nether":11448,"kanischen</w>":11449,"where":11450,"anlagen</w>":11451,"acking</w>":11452,"contain</w>":11453,"signal</w>":11454,"prospec":11455,"rob":11456,"Beschreibung</w>":11457,"refuge":11458,"Technik</w>":11459,"kompli":11460,"bear</w>":11461,"institution</w>":11462,"claims</w>":11463,"aufmerksam</w>":11464,"manage</w>":11465,"ausschusses</w>":11466,"danach</w>":11467,"holidays</w>":11468,"Multi":11469,"platform</w>":11470,"Jac":11471,"tene</w>":11472,"Entwurf</w>":11473,"dedicated</w>":11474,"asyl":11475,"belieb":11476,"shes</w>":11477,"erforderlichen</w>":11478,"beginnt</w>":11479,"marked</w>":11480,"Regelungen</w>":11481,"vertei":11482,"einsetzen</w>":11483,"Geschäftsordnung</w>":11484,"Angesichts</w>":11485,"ensu":11486,"appointed</w>":11487,"lem</w>":11488,"mali":11489,"ingu":11490,"Cub":11491,"Brüssel</w>":11492,"groß</w>":11493,"überall</w>":11494,"deser":11495,"wind</w>":11496,"Stor":11497,"fear</w>":11498,"vorliegenden</w>":11499,"Verpflichtung</w>":11500,"dispos":11501,"usi":11502,"PPE</w>":11503,"enswert</w>":11504,"exercise</w>":11505,"2013</w>":11506,"sämtliche</w>":11507,"stood</w>":11508,"geschützt</w>":11509,"utt":11510,"Verhältnis</w>":11511,"Griechenland</w>":11512,"Caf":11513,"Studio</w>":11514,"akt</w>":11515,"1990</w>":11516,"unterstütze</w>":11517,"asylum</w>":11518,"Verkehr</w>":11519,"voraus":11520,"initial</w>":11521,"Priorität</w>":11522,"Ehr":11523,"AP</w>":11524,"Bab":11525,"Peter</w>":11526,"Ten":11527,"Unterschie":11528,"Regulation</w>":11529,"bestätigt</w>":11530,"Roh":11531,"sin":11532,"route</w>":11533,"Company</w>":11534,"besitzt</w>":11535,"church</w>":11536,"Reise</w>":11537,"individuals</w>":11538,"nennen</w>":11539,"Such</w>":11540,"usual</w>":11541,"plying</w>":11542,"keinerlei</w>":11543,"beteiligt</w>":11544,"TR":11545,"ham</w>":11546,"advertising</w>":11547,"dan</w>":11548,"conditioning</w>":11549,"mächti":11550,"allery</w>":11551,"storage</w>":11552,"alter":11553,"großes</w>":11554,"interface</w>":11555,"haupts":11556,"verhäl":11557,"Herz":11558,"ec</w>":11559,"einander":11560,"comment</w>":11561,"asts</w>":11562,"renov":11563,"Wander":11564,"enormous</w>":11565,"perspective</w>":11566,"eness</w>":11567,"Media</w>":11568,"haus":11569,"Data</w>":11570,"host</w>":11571,"gan</w>":11572,"perc":11573,"subsi":11574,"expendi":11575,"BM":11576,"zigen</w>":11577,"accessible</w>":11578,"mag</w>":11579,"para</w>":11580,"gezogen</w>":11581,"Sonnen":11582,"compared</w>":11583,"bieter</w>":11584,"komplett</w>":11585,"spending</w>":11586,"title</w>":11587,"moving</w>":11588,"Agentur</w>":11589,"Absatz</w>":11590,"Mobili":11591,"atever</w>":11592,"memory</w>":11593,"veget":11594,"umfassende</w>":11595,"Federal</w>":11596,"totally</w>":11597,"story</w>":11598,"privi":11599,"ata</w>":11600,"bath</w>":11601,"onto</w>":11602,"device</w>":11603,"extended</w>":11604,"Champ":11605,"luxury</w>":11606,"gä":11607,"Kommissions":11608,"Indien</w>":11609,"THE</w>":11610,"fts</w>":11611,"ausreichend</w>":11612,"sonst</w>":11613,"Prinzip</w>":11614,"Vertri":11615,"bruch</w>":11616,"Meiner</w>":11617,"USS</w>":11618,"einfache</w>":11619,"shing</w>":11620,"spezielle</w>":11621,"railway</w>":11622,"mittels</w>":11623,"bahn</w>":11624,"Another</w>":11625,"bern</w>":11626,"compla":11627,"Austrian</w>":11628,"Mitteln</w>":11629,"grundsätz":11630,"Eastern</w>":11631,"oram":11632,"urgent</w>":11633,"corporate</w>":11634,"grie":11635,"erer</w>":11636,"Gü":11637,"Control</w>":11638,"Can</w>":11639,"größeren</w>":11640,"genannte</w>":11641,"Erhö":11642,"mittl":11643,"Fortschritt</w>":11644,"High":11645,"Zü":11646,"Kandi":11647,"convinced</w>":11648,"install</w>":11649,"Miss":11650,"failed</w>":11651,"Globalisierung</w>":11652,"Rad":11653,"straße</w>":11654,"hielt</w>":11655,"contex":11656,"rying</w>":11657,"ando</w>":11658,"granted</w>":11659,"Worten</w>":11660,"een</w>":11661,"umb":11662,"peti":11663,"organised</w>":11664,"Jeder</w>":11665,"flight</w>":11666,"fashi":11667,"tests</w>":11668,"Kris":11669,"counter</w>":11670,"Netherlands</w>":11671,"Journ":11672,"unch</w>":11673,"now":11674,"lug</w>":11675,"Banken</w>":11676,"zugän":11677,"biggest</w>":11678,"tan</w>":11679,"mo</w>":11680,"Bos":11681,"Nevertheless</w>":11682,"Größe</w>":11683,"preise</w>":11684,"existence</w>":11685,"tabel</w>":11686,"stron":11687,"läss":11688,"dienst</w>":11689,"Foreign</w>":11690,"Beteiligung</w>":11691,"eds</w>":11692,"sugges":11693,"Lake</w>":11694,"Inn</w>":11695,"Lim":11696,"reless</w>":11697,"rated</w>":11698,"Märkte</w>":11699,"engine</w>":11700,"Stadtzent":11701,"Photo":11702,"acqui":11703,"zierung</w>":11704,"sorgt</w>":11705,"Mes":11706,"reisen</w>":11707,"garantieren</w>":11708,"organization</w>":11709,"zahlung</w>":11710,"agen</w>":11711,"SC":11712,"Maße</w>":11713,"verbundenen</w>":11714,"hergestellt</w>":11715,"mentary</w>":11716,"ague</w>":11717,"fill</w>":11718,"mass</w>":11719,"gendes</w>":11720,"bekannten</w>":11721,"laid</w>":11722,"Institute</w>":11723,"größer":11724,"wesentlichen</w>":11725,"internationaler</w>":11726,"controls</w>":11727,"conclusions</w>":11728,"paragraph</w>":11729,"AV":11730,"discover</w>":11731,"ide</w>":11732,"bereiten</w>":11733,"tom</w>":11734,"länger</w>":11735,"Flo":11736,"Latin</w>":11737,"ktors</w>":11738,"woo":11739,"dete":11740,"Croati":11741,"cau":11742,"factors</w>":11743,"kostenlos</w>":11744,"mögen</w>":11745,"Apparte":11746,"vorhand":11747,"symp":11748,"Sar":11749,"Schri":11750,"bas":11751,"motor":11752,"ook</w>":11753,"chosen</w>":11754,"zy</w>":11755,"ear</w>":11756,"stattfinden</w>":11757,"itage</w>":11758,"update</w>":11759,"offensichtlich</w>":11760,"tried</w>":11761,"weapons</w>":11762,"Bahnhof</w>":11763,"250</w>":11764,"übertragen</w>":11765,"beinhaltet</w>":11766,"Paul</w>":11767,"rechen</w>":11768,"kraft</w>":11769,"Support</w>":11770,"advice</w>":11771,"Greek</w>":11772,"Generation</w>":11773,"lüsse</w>":11774,"attack</w>":11775,"Anteil</w>":11776,"unable</w>":11777,"Constitution</w>":11778,"contrary</w>":11779,"maintenance</w>":11780,"rises</w>":11781,"Gewi":11782,"Option</w>":11783,"alem</w>":11784,"Altstadt</w>":11785,"eim":11786,"scen":11787,"artists</w>":11788,"Aktionen</w>":11789,"Treffen</w>":11790,"räger</w>":11791,"disease</w>":11792,"ze":11793,"gebil":11794,"fiscal</w>":11795,"nötig</w>":11796,"Sand":11797,"mid</w>":11798,"lake</w>":11799,"Sc":11800,"sell</w>":11801,"physi":11802,"perfectly</w>":11803,"onia</w>":11804,"üben</w>":11805,"conci":11806,"Palestinian</w>":11807,"Rob":11808,"niture</w>":11809,"medizin":11810,"Tal":11811,"Bahn</w>":11812,"Verletz":11813,"expensive</w>":11814,"promotion</w>":11815,"Palace</w>":11816,"starken</w>":11817,"flus":11818,"limits</w>":11819,"wettbewer":11820,"Religi":11821,"Erde</w>":11822,"160</w>":11823,"Lou":11824,"solcher</w>":11825,"Gründe</w>":11826,"Kro":11827,"mountains</w>":11828,"Fi</w>":11829,"oned</w>":11830,"Fotos</w>":11831,"Ear":11832,"1992</w>":11833,"Unterkunft</w>":11834,"beglück":11835,"milli":11836,"anded</w>":11837,"payments</w>":11838,"drän":11839,"agency</w>":11840,"background</w>":11841,"SD":11842,"TI":11843,"fit</w>":11844,"Kohä":11845,"utch</w>":11846,"commitments</w>":11847,"wak":11848,"enni":11849,"Kontin":11850,"wäch":11851,"Erklärungen</w>":11852,"Entschließungsantrag</w>":11853,"igrants</w>":11854,"cious</w>":11855,"faces</w>":11856,"dden</w>":11857,"neither</w>":11858,"zusätzlich</w>":11859,"asking</w>":11860,"verletz":11861,"lägen</w>":11862,"ING</w>":11863,"decken</w>":11864,"entsprechen</w>":11865,"Jer":11866,"arm</w>":11867,"fassung</w>":11868,"lah</w>":11869,"wendet</w>":11870,"deutsche</w>":11871,"touch</w>":11872,"candidate</w>":11873,"Patienten</w>":11874,"rightly</w>":11875,"dul":11876,"remind</w>":11877,"accompan":11878,"schir":11879,"fi</w>":11880,"Umfang</w>":11881,"Kombin":11882,"fem":11883,"Resort</w>":11884,"expression</w>":11885,"rt</w>":11886,"gelungen</w>":11887,"täten</w>":11888,"AN</w>":11889,"schla":11890,"valid</w>":11891,"Kaff":11892,"tedly</w>":11893,"claim</w>":11894,"zuvor</w>":11895,"geschn":11896,"Netzwerk</w>":11897,"gbarkeit</w>":11898,"ves":11899,"eckt</w>":11900,"register</w>":11901,"wünsche</w>":11902,"leistungs":11903,"ambitious</w>":11904,"finde</w>":11905,"honourable</w>":11906,"vehicle</w>":11907,"Eri":11908,"entsch":11909,"multi</w>":11910,"Bay</w>":11911,"Card</w>":11912,"furnished</w>":11913,"category</w>":11914,"Dep":11915,"dance</w>":11916,"verbreit":11917,"Kompromiss</w>":11918,"achieving</w>":11919,"Ds</w>":11920,"Niveau</w>":11921,"obligations</w>":11922,"Methode</w>":11923,"seven</w>":11924,"seg":11925,"Begriff</w>":11926,"qualifizi":11927,"ardi":11928,"Erhol":11929,"lit</w>":11930,"Market</w>":11931,"Temp":11932,"echn":11933,"Monat</w>":11934,"outcome</w>":11935,"Räum":11936,"Aufbau</w>":11937,"successfully</w>":11938,"Gebiete</w>":11939,"Europäer</w>":11940,"rechtlichen</w>":11941,"neighbour":11942,"mittelt</w>":11943,"convenient</w>":11944,"enting</w>":11945,"stische</w>":11946,"Ereignisse</w>":11947,"gener</w>":11948,"m2</w>":11949,"Eindruck</w>":11950,"Flexibilität</w>":11951,"dene</w>":11952,"betrachten</w>":11953,"Thus</w>":11954,"Mitgliedern</w>":11955,"obviously</w>":11956,"künst":11957,"omas</w>":11958,"species</w>":11959,"stö":11960,"rad</w>":11961,"older</w>":11962,"speziellen</w>":11963,"affec":11964,"fähig</w>":11965,"Alex":11966,"kas</w>":11967,"benach":11968,"Gegensatz</w>":11969,"äft</w>":11970,"intervention</w>":11971,"Note</w>":11972,"posit</w>":11973,"allel</w>":11974,"verloren</w>":11975,"contained</w>":11976,"rangi":11977,"CO</w>":11978,"wan</w>":11979,"doc":11980,"monitor</w>":11981,"Time</w>":11982,"sensus</w>":11983,"Hon":11984,"ather</w>":11985,"continuing</w>":11986,"Empfehlungen</w>":11987,"bett</w>":11988,"politisch</w>":11989,"abgel":11990,"ielt</w>":11991,"constantly</w>":11992,"dos</w>":11993,"Alban":11994,"sequently</w>":11995,"zufolge</w>":11996,"Energy</w>":11997,"tionary</w>":11998,"Are</w>":11999,"Friedens":12000,"Ass":12001,"Yet</w>":12002,"britischen</w>":12003,"volu":12004,"abgeschlossen</w>":12005,"jah":12006,"interven":12007,"eria</w>":12008,"approximately</w>":12009,"gegangen</w>":12010,"colleague</w>":12011,"ausführ":12012,"someone</w>":12013,"Straßen":12014,"Gaz":12015,"AS</w>":12016,"Schwar":12017,"Haushaltsp":12018,"glass</w>":12019,"Beach</w>":12020,"stations</w>":12021,"ray</w>":12022,"daraus</w>":12023,"equality</w>":12024,"trop":12025,"unit</w>":12026,"exklu":12027,"defic":12028,"contents</w>":12029,"informiert</w>":12030,"EF":12031,"koh":12032,"surrounded</w>":12033,"Motor":12034,"sibly</w>":12035,"virtu":12036,"türk":12037,"Residen":12038,"nommen</w>":12039,"compli":12040,"Nachdem</w>":12041,"Verständnis</w>":12042,"instruc":12043,"Islam":12044,"Phase</w>":12045,"Rezeption</w>":12046,"SS":12047,"Anlagen</w>":12048,"vous</w>":12049,"thers</w>":12050,"älfte</w>":12051,"sequent</w>":12052,"Winter</w>":12053,"experim":12054,"produktion</w>":12055,"Weitere</w>":12056,"Botschaft</w>":12057,"ischem</w>":12058,"Binnenmark":12059,"Unternehmens":12060,"satellite</w>":12061,"reiber</w>":12062,"Aussicht</w>":12063,"Grundsatz</w>":12064,"capable</w>":12065,"physical</w>":12066,"vit":12067,"Firmen</w>":12068,"Rome</w>":12069,"cast</w>":12070,"situations</w>":12071,"Nutzer</w>":12072,"Atom":12073,"Stein":12074,"yesterday</w>":12075,"Kr":12076,"Inseln</w>":12077,"tigten</w>":12078,"ECU</w>":12079,"Struktur</w>":12080,"best":12081,"foot":12082,"Samm":12083,"outstanding</w>":12084,"strukturi":12085,"distinc":12086,"massive</w>":12087,"Agency</w>":12088,"tner</w>":12089,"zieht</w>":12090,"Risiko</w>":12091,"aircraft</w>":12092,"deliver</w>":12093,"erhäl":12094,"angeneh":12095,"gesellschaften</w>":12096,"AG":12097,"Mak":12098,"inspec":12099,"reden</w>":12100,"Realität</w>":12101,"Beihilfen</w>":12102,"Martin</w>":12103,"sichert</w>":12104,"Wirkung</w>":12105,"employed</w>":12106,"esth":12107,"manchmal</w>":12108,"öder":12109,"este</w>":12110,"independence</w>":12111,"sky</w>":12112,"survi":12113,"wachst":12114,"fif":12115,"dynamic</w>":12116,"nationaler</w>":12117,"object</w>":12118,"trags</w>":12119,"überra":12120,"risten</w>":12121,"geöffnet</w>":12122,"guter</w>":12123,"dimension</w>":12124,"Bli":12125,"qualified</w>":12126,"essions</w>":12127,"Fraktionen</w>":12128,"Kab":12129,"filled</w>":12130,"planned</w>":12131,"86</w>":12132,"wider</w>":12133,"langt</w>":12134,"A5</w>":12135,"goals</w>":12136,"griffe</w>":12137,"Wiederauf":12138,"DA</w>":12139,"Wat":12140,"hauptsächlich</w>":12141,"Basi":12142,"named</w>":12143,"theit</w>":12144,"elem":12145,"bringing</w>":12146,"Geg":12147,"einerseits</w>":12148,"pel":12149,"disch":12150,"Lau":12151,"gical</w>":12152,"sers</w>":12153,"expenditure</w>":12154,"mly</w>":12155,"pak":12156,"strö":12157,"Located</w>":12158,"Beim</w>":12159,"factor</w>":12160,"berühmten</w>":12161,"multilater":12162,"recommendations</w>":12163,"kla":12164,"erung":12165,"allgemeine</w>":12166,"sorgfäl":12167,"formation</w>":12168,"Schlüssel":12169,"relativ</w>":12170,"reno":12171,"irs</w>":12172,"prevention</w>":12173,"ktivität</w>":12174,"Ret":12175,"ordnungs":12176,"advantages</w>":12177,"jungen</w>":12178,"Alliance</w>":12179,"unterschei":12180,"mün":12181,"Grunde</w>":12182,"wasser":12183,"bezogen</w>":12184,"gun":12185,"agne</w>":12186,"gir":12187,"sied":12188,"photos</w>":12189,"Japan":12190,"präsentiert</w>":12191,"registri":12192,"Java":12193,"Environment</w>":12194,"auslän":12195,"putting</w>":12196,"reck":12197,"binding</w>":12198,"Hoffnung</w>":12199,"arms</w>":12200,"radio</w>":12201,"enteil</w>":12202,"Ve":12203,"Voraussetzungen</w>":12204,"einverstanden</w>":12205,"GU":12206,"swe":12207,"barri":12208,"Dimension</w>":12209,"pers</w>":12210,"oc":12211,"reis":12212,"gestellten</w>":12213,"spa</w>":12214,"Live</w>":12215,"laut</w>":12216,"erhöht</w>":12217,"sm</w>":12218,"ware":12219,"eres</w>":12220,"ideale</w>":12221,"Bis</w>":12222,"gangs</w>":12223,"Erwar":12224,"fühlen</w>":12225,"merely</w>":12226,"targets</w>":12227,"log</w>":12228,"außerord":12229,"dus</w>":12230,"balcon":12231,"seeking</w>":12232,"Vermitt":12233,"geschieht</w>":12234,"Risiken</w>":12235,"testing</w>":12236,"handel</w>":12237,"ehrt</w>":12238,"Hinweis</w>":12239,"beachten</w>":12240,"festi":12241,"expan":12242,"Platt":12243,"meaning</w>":12244,"leitung</w>":12245,"Ratspräsident</w>":12246,"communities</w>":12247,"PL":12248,"eding</w>":12249,"Exc":12250,"meist</w>":12251,"Summit</w>":12252,"pointed</w>":12253,"consists</w>":12254,"Effizi":12255,"müs":12256,"Archi":12257,"Poten":12258,"contemporary</w>":12259,"obvious</w>":12260,"Chem":12261,"festgestellt</w>":12262,"äufer</w>":12263,"passung</w>":12264,"Buch</w>":12265,"Umweltsch":12266,"Unternehmens</w>":12267,"bre</w>":12268,"einzigen</w>":12269,"porting</w>":12270,"Peti":12271,"sobald</w>":12272,"Waren</w>":12273,"täu":12274,"Those</w>":12275,"landscape</w>":12276,"Jes":12277,"damals</w>":12278,"persönliche</w>":12279,"ühren</w>":12280,"Kno":12281,"Square</w>":12282,"Gewähr":12283,"jüngsten</w>":12284,"eras</w>":12285,"Ag":12286,"Trek</w>":12287,"participants</w>":12288,"Meeres":12289,"err":12290,"digungs":12291,"fein":12292,"Royal</w>":12293,"doub":12294,"worfen</w>":12295,"looks</w>":12296,"bridge</w>":12297,"sidenten</w>":12298,"Dienst</w>":12299,"disposal</w>":12300,"smaller</w>":12301,"reve":12302,"mode</w>":12303,"vorgeschlagenen</w>":12304,"Licht</w>":12305,"wandel</w>":12306,"guaranteed</w>":12307,"stake</w>":12308,"Prüfung</w>":12309,"Pool</w>":12310,"1993</w>":12311,"fications</w>":12312,"registration</w>":12313,"beruf":12314,"51</w>":12315,"entgegen":12316,"compliance</w>":12317,"intensive</w>":12318,"regelmäßig</w>":12319,"Other</w>":12320,"Beobach":12321,"Material</w>":12322,"substantial</w>":12323,"ez</w>":12324,"soverei":12325,"trifft</w>":12326,"Soft":12327,"mechanism</w>":12328,"roll":12329,"dership</w>":12330,"Vom</w>":12331,"erfordert</w>":12332,"leads</w>":12333,"nahm</w>":12334,"Teilen</w>":12335,"72</w>":12336,"subscri":12337,"EG":12338,"oral</w>":12339,"alised</w>":12340,"mar</w>":12341,"xen</w>":12342,"deri":12343,"Poker</w>":12344,"Rules</w>":12345,"wichtigste</w>":12346,"consistent</w>":12347,"Island</w>":12348,"Hauptstadt</w>":12349,"Überzeu":12350,"mol":12351,"ays</w>":12352,"extend</w>":12353,"ategorie</w>":12354,"Todes":12355,"Arbeit":12356,"Farben</w>":12357,"gelassen</w>":12358,"browser</w>":12359,"gaz":12360,"fach":12361,"betroffen</w>":12362,"Niederlan":12363,"iss":12364,"Cy":12365,"höh":12366,"Gegenteil</w>":12367,"rul":12368,"access":12369,"Telefon</w>":12370,"psych":12371,"täts":12372,"gering":12373,"68</w>":12374,"resulting</w>":12375,"gewünsch":12376,"golf</w>":12377,"betroffenen</w>":12378,"Städte</w>":12379,"endum</w>":12380,"spunkt</w>":12381,"03":12382,"forest</w>":12383,"legitim":12384,"Vertrags":12385,"Gent":12386,"Korea</w>":12387,"Maria</w>":12388,"Sprach":12389,"Both</w>":12390,"Vit":12391,"Prakti":12392,"strengthening</w>":12393,"nachhaltige</w>":12394,"Bedarf</w>":12395,"regeln</w>":12396,"Schnit":12397,"Straf":12398,"erin</w>":12399,"Nichtrau":12400,"governance</w>":12401,"ré":12402,"zipien</w>":12403,"premi":12404,"responsibilities</w>":12405,"tab":12406,"voran":12407,"Ruhe</w>":12408,"Landschaft</w>":12409,"determined</w>":12410,"Mü":12411,"Zahlungs":12412,"nations</w>":12413,"liability</w>":12414,"causes</w>":12415,"manufacturing</w>":12416,"guard</w>":12417,"alitäten</w>":12418,"iniert</w>":12419,"mari":12420,"Auto":12421,"pleasure</w>":12422,"verz":12423,"wodurch</w>":12424,"Veranstaltungen</w>":12425,"02":12426,"tag":12427,"strah":12428,"Tai":12429,"organisationen</w>":12430,"identity</w>":12431,"Merk":12432,"Tari":12433,"nearly</w>":12434,"zugleich</w>":12435,"examples</w>":12436,"versions</w>":12437,"Lebens</w>":12438,"ora</w>":12439,"bewegen</w>":12440,"copy</w>":12441,"öse</w>":12442,"Vorteil</w>":12443,"association</w>":12444,"praktisch</w>":12445,"Format</w>":12446,"rapid</w>":12447,"Bestandteil</w>":12448,"andererseits</w>":12449,"Rechts</w>":12450,"Sweden</w>":12451,"echte</w>":12452,"sern</w>":12453,"mitglie":12454,"Mitglieds":12455,"block</w>":12456,"vals</w>":12457,"Compu":12458,"conclude</w>":12459,"Musli":12460,"rations</w>":12461,"Industrie":12462,"120</w>":12463,"Any</w>":12464,"recovery</w>":12465,"brings</w>":12466,"spread</w>":12467,"Charakter</w>":12468,"geladen</w>":12469,"Klimaanlage</w>":12470,"Andre":12471,"technological</w>":12472,"ED":12473,"fuel</w>":12474,"Liberalisierung</w>":12475,"Link</w>":12476,"sole</w>":12477,"vie</w>":12478,"Gesetzgebung</w>":12479,"eed</w>":12480,"Auth":12481,"anbieten</w>":12482,"Global</w>":12483,"chmals</w>":12484,"gely</w>":12485,"JavaScript</w>":12486,"ösen</w>":12487,"Work":12488,"Day</w>":12489,"Welche</w>":12490,"Infrastruktur</w>":12491,"fabri":12492,"male</w>":12493,"Last":12494,"Golf":12495,"Aktu":12496,"beschäftigt</w>":12497,"pet":12498,"bure":12499,"Internationalen</w>":12500,"Erhöhung</w>":12501,"multiple</w>":12502,"urban</w>":12503,"fragt</w>":12504,"winden</w>":12505,"villa</w>":12506,"begri":12507,"welchen</w>":12508,"driving</w>":12509,"spaces</w>":12510,"smoking</w>":12511,"Politiker</w>":12512,"vorschlagen</w>":12513,"traditionellen</w>":12514,"52</w>":12515,"Nice</w>":12516,"treated</w>":12517,"liste</w>":12518,"Zahlen</w>":12519,"Führung</w>":12520,"Serie</w>":12521,"Cri":12522,"PR":12523,"ais</w>":12524,"vollkommen</w>":12525,"Syri":12526,"Ferienwoh":12527,"incorpor":12528,"gewählt</w>":12529,"notice</w>":12530,"dauer":12531,"spezifischen</w>":12532,"quick</w>":12533,"explain</w>":12534,"Angebote</w>":12535,"herzlich</w>":12536,"liegende</w>":12537,"700</w>":12538,"Hälfte</w>":12539,"tail</w>":12540,"Unabhängigkeit</w>":12541,"oked</w>":12542,"stol":12543,"Veröffent":12544,"fällen</w>":12545,"Vic":12546,"li</w>":12547,"Ebenso</w>":12548,"patients</w>":12549,"dium</w>":12550,"ons":12551,"freundliche</w>":12552,"pine</w>":12553,"66</w>":12554,"attacks</w>":12555,"ohn</w>":12556,"Adri":12557,"Überprüfung</w>":12558,"verw":12559,"serving</w>":12560,"wann</w>":12561,"Ausland</w>":12562,"Frühstücks":12563,"bedroom</w>":12564,"consensus</w>":12565,"gerufen</w>":12566,"technik</w>":12567,"requested</w>":12568,"Männer</w>":12569,"explan":12570,"Il":12571,"gas":12572,"läufi":12573,"decades</w>":12574,"Dutch</w>":12575,"var":12576,"Thanks</w>":12577,"besseren</w>":12578,"primary</w>":12579,"addressed</w>":12580,"evaluation</w>":12581,"grammati":12582,"Winter":12583,"previously</w>":12584,"vent</w>":12585,"Details</w>":12586,"Koordinierung</w>":12587,"tile</w>":12588,"yes</w>":12589,"zurückzu":12590,"fahrens</w>":12591,"representative</w>":12592,"Fut":12593,"schwe":12594,"hol</w>":12595,"User</w>":12596,"anne</w>":12597,"ppen</w>":12598,"consoli":12599,"strategie</w>":12600,"primarily</w>":12601,"schneller</w>":12602,"rom":12603,"taste</w>":12604,"Flash</w>":12605,"Liebe</w>":12606,"eventu":12607,"mono":12608,"tas</w>":12609,"tier":12610,"ador</w>":12611,"ttable</w>":12612,"junge</w>":12613,"Publik":12614,"kel</w>":12615,"Romania</w>":12616,"Diskriminierung</w>":12617,"wäs":12618,"griech":12619,"Der":12620,"kehr</w>":12621,"telef":12622,"Rumän":12623,"zuverlässi":12624,"miss":12625,"Express</w>":12626,"Zimmern</w>":12627,"oni</w>":12628,"steel</w>":12629,"arium</w>":12630,"wirtschafts":12631,"vulner":12632,"ão</w>":12633,"atische</w>":12634,"bezieht</w>":12635,"thereby</w>":12636,"respe":12637,"delay</w>":12638,"Financial</w>":12639,"remove</w>":12640,"jährlich</w>":12641,"dlicher</w>":12642,"früher</w>":12643,"Imm":12644,"schools</w>":12645,"fting</w>":12646,"Two</w>":12647,"ud</w>":12648,"kontex":12649,"eva</w>":12650,"Methoden</w>":12651,"EM</w>":12652,"gere</w>":12653,"lags</w>":12654,"rail</w>":12655,"entered</w>":12656,"nden</w>":12657,"diskutiert</w>":12658,"audio</w>":12659,"gal":12660,"discussing</w>":12661,"grenzüberschreit":12662,"ema</w>":12663,"parl":12664,"örper":12665,"aves</w>":12666,"weiteres</w>":12667,"kinds</w>":12668,"sprüche</w>":12669,"Ram":12670,"Bewegung</w>":12671,"simul":12672,"OM":12673,"eman":12674,"fertigt</w>":12675,"seitens</w>":12676,"Königreich</w>":12677,"ED</w>":12678,"Schu":12679,"optimal</w>":12680,"Laufe</w>":12681,"industries</w>":12682,"stoffen</w>":12683,"wns</w>":12684,"Provin":12685,"cancell":12686,"info</w>":12687,"Es":12688,"Klar":12689,"dler</w>":12690,"stellungs":12691,"fruit</w>":12692,"Cho":12693,"Bla":12694,"ola</w>":12695,"forum</w>":12696,"Shop</w>":12697,"schön</w>":12698,"Bau</w>":12699,"author</w>":12700,"talks</w>":12701,"butions</w>":12702,"rigi":12703,"Aufgrund</w>":12704,"deh":12705,"extreme</w>":12706,"werten</w>":12707,"pour</w>":12708,"lehnen</w>":12709,"urs":12710,"samer</w>":12711,"globale</w>":12712,"Mindest":12713,"Jean</w>":12714,"conduct</w>":12715,"Teilnehmer</w>":12716,"FT":12717,"liefern</w>":12718,"Obama</w>":12719,"Trotz</w>":12720,"Roman</w>":12721,"Gold</w>":12722,"trags":12723,"kürzlich</w>":12724,"begann</w>":12725,"geschlossen":12726,"skin</w>":12727,"Mehr</w>":12728,"umini":12729,"Berücksichti":12730,"deckt</w>":12731,"ferences</w>":12732,"Körper</w>":12733,"Franc":12734,"liation</w>":12735,"Fire":12736,"non":12737,"Anpassung</w>":12738,"Grenze</w>":12739,"Gästen</w>":12740,"treiben</w>":12741,"ac</w>":12742,"gone</w>":12743,"bereiche</w>":12744,"Luft</w>":12745,"Handel":12746,"ax":12747,"holen</w>":12748,"Brazi":12749,"Satelli":12750,"reagieren</w>":12751,"Aktionsp":12752,"Stadtzentrum</w>":12753,"Ques":12754,"Gebur":12755,"Via</w>":12756,"ultim":12757,"stimmt</w>":12758,"servations</w>":12759,"tique</w>":12760,"lots</w>":12761,"Statisti":12762,"wegs</w>":12763,"length</w>":12764,"AU":12765,"eins</w>":12766,"nahe":12767,"default</w>":12768,"angeht</w>":12769,"lichten</w>":12770,"betont</w>":12771,"feeling</w>":12772,"profit</w>":12773,"Dokumente</w>":12774,"positiven</w>":12775,"Rotary</w>":12776,"holding</w>":12777,"Eisenb":12778,"delivered</w>":12779,"71</w>":12780,"ennung</w>":12781,"dict":12782,"strai":12783,"gespeich":12784,"akzeptiert</w>":12785,"Fälle</w>":12786,"competence</w>":12787,"opposite</w>":12788,"einzelne</w>":12789,"White</w>":12790,"red":12791,"kunden</w>":12792,"eli</w>":12793,"law":12794,"dealt</w>":12795,"visible</w>":12796,"Farb":12797,"ghted</w>":12798,"Kyo":12799,"Kilom":12800,"bildet</w>":12801,"Suite</w>":12802,"schauen</w>":12803,"Enjoy</w>":12804,"mung</w>":12805,"Willen</w>":12806,"kali":12807,"represented</w>":12808,"intelli":12809,"bürger":12810,"prepare</w>":12811,"Fähigkeit</w>":12812,"haber</w>":12813,"ländlichen</w>":12814,"essive</w>":12815,"southern</w>":12816,"controlled</w>":12817,"aush":12818,"accounts</w>":12819,"Fas":12820,"spezifische</w>":12821,"yle</w>":12822,"Ordnung</w>":12823,"among":12824,"Freunde</w>":12825,"tment</w>":12826,"Test</w>":12827,"Spiele</w>":12828,"iner</w>":12829,"wealth</w>":12830,"läne</w>":12831,"Tiere</w>":12832,"noise</w>":12833,"Holz":12834,"WC</w>":12835,"orca</w>":12836,"Schn":12837,"potenzi":12838,"Prodi</w>":12839,"Vorbereitung</w>":12840,"amongst</w>":12841,"Wien</w>":12842,"bene":12843,"ür</w>":12844,"gearbeitet</w>":12845,"unger</w>":12846,"Konfer":12847,"urge</w>":12848,"aux</w>":12849,"investments</w>":12850,"Schluss":12851,"dritten</w>":12852,"willing</w>":12853,"bom":12854,"magaz":12855,"speakers</w>":12856,"kontextu":12857,"Stunde</w>":12858,"abhängig</w>":12859,"bequem</w>":12860,"Perspe":12861,"Flä":12862,"pair</w>":12863,"Aqu":12864,"unanim":12865,"complic":12866,"horiz":12867,"ergeben</w>":12868,"approval</w>":12869,"Delegation</w>":12870,"tionality</w>":12871,"turning</w>":12872,"Java</w>":12873,"arta</w>":12874,"richtlinie</w>":12875,"wachen</w>":12876,"regionale</w>":12877,"tiz</w>":12878,"nochmals</w>":12879,"Audi":12880,"stren":12881,"schwar":12882,"städ":12883,"compatible</w>":12884,"Despite</w>":12885,"amente</w>":12886,"Gefühl</w>":12887,"Post</w>":12888,"presentation</w>":12889,"affect</w>":12890,"Wur":12891,"Teilnahme</w>":12892,"rokrati":12893,"quote</w>":12894,"Geist</w>":12895,"Gesetze</w>":12896,"hebung</w>":12897,"mechanisms</w>":12898,"Architektur</w>":12899,"rö":12900,"verm":12901,"Bibli":12902,"jahr":12903,"Einkaufs":12904,"Munich</w>":12905,"ziem":12906,"Autob":12907,"67</w>":12908,"übernommen</w>":12909,"manufacturers</w>":12910,"Einklang</w>":12911,"Quali":12912,"pren":12913,"diverse</w>":12914,"unzu":12915,"Versuch</w>":12916,"inspi":12917,"cling</w>":12918,"ktop</w>":12919,"ura</w>":12920,"moved</w>":12921,"Argent":12922,"statten</w>":12923,"Egyp":12924,"Schiff":12925,"arien</w>":12926,"kompet":12927,"Höh":12928,"speich":12929,"Verbrauch":12930,"sisch</w>":12931,"Anliegen</w>":12932,"destination</w>":12933,"runs</w>":12934,"consultation</w>":12935,"Bat":12936,"sicherstellen</w>":12937,"except</w>":12938,"turing</w>":12939,"shape</w>":12940,"nun":12941,"Konzep":12942,"highlight</w>":12943,"gewisse</w>":12944,"vielmehr</w>":12945,"Unterschiede</w>":12946,"mt</w>":12947,"soweit</w>":12948,"Zustand</w>":12949,"Reaktion</w>":12950,"Grundrechte</w>":12951,"western</w>":12952,"Parti":12953,"eye</w>":12954,"Open":12955,"mutual</w>":12956,"Lord</w>":12957,"dir</w>":12958,"Bildungs":12959,"Umständen</w>":12960,"Minutes</w>":12961,"Süden</w>":12962,"jährige</w>":12963,"fes</w>":12964,"sav":12965,"entlichen</w>":12966,"gestern</w>":12967,"Berücksichtigung</w>":12968,"absch":12969,"grundlage</w>":12970,"Angel":12971,"iges</w>":12972,"leiden</w>":12973,"ford</w>":12974,"konta":12975,"phen":12976,"1000</w>":12977,"mi</w>":12978,"Every":12979,"covers</w>":12980,"boat</w>":12981,"verlieren</w>":12982,"Projekt":12983,"Kyoto</w>":12984,"ello</w>":12985,"Anlage</w>":12986,"leadership</w>":12987,"Klima</w>":12988,"ktes</w>":12989,"Reguli":12990,"iry</w>":12991,"Elec":12992,"KM":12993,"Wan":12994,"strength</w>":12995,"veranstal":12996,"Glaub":12997,"ran</w>":12998,"Tod</w>":12999,"ario</w>":13000,"Kontroll":13001,"delegation</w>":13002,"verlangen</w>":13003,"digkeit</w>":13004,"beu":13005,"gressive</w>":13006,"NO":13007,"acting</w>":13008,"basiert</w>":13009,"Book</w>":13010,"David</w>":13011,"Diskussionen</w>":13012,"attitude</w>":13013,"Eigenschaften</w>":13014,"ehemaligen</w>":13015,"Ster":13016,"Übernach":13017,"Bis":13018,"eces</w>":13019,"recommended</w>":13020,"Kunde</w>":13021,"hängen</w>":13022,"derzeitigen</w>":13023,"Before</w>":13024,"Wegen</w>":13025,"AND</w>":13026,"Kollege</w>":13027,"Jose":13028,"umwelt":13029,"pression</w>":13030,"Kombination</w>":13031,"mittag</w>":13032,"Wirtschafts</w>":13033,"rejected</w>":13034,"sold</w>":13035,"Raum":13036,"folio</w>":13037,"folgerungen</w>":13038,"ium</w>":13039,"Bedro":13040,"reply</w>":13041,"error</w>":13042,"höchste</w>":13043,"hing</w>":13044,"knows</w>":13045,"gü":13046,"verstärkt</w>":13047,"Brenn":13048,"beeinflus":13049,"einrichtungen</w>":13050,"interes":13051,"latter</w>":13052,"uries</w>":13053,"expertise</w>":13054,"helping</w>":13055,"elled</w>":13056,"ahme</w>":13057,"locations</w>":13058,"Freude</w>":13059,"Klimawandel</w>":13060,"begrün":13061,"wechsel":13062,"serviert</w>":13063,"improvements</w>":13064,"trees</w>":13065,"privacy</w>":13066,"significantly</w>":13067,"Fischerei</w>":13068,"obligation</w>":13069,"Definition</w>":13070,"Tie":13071,"adly</w>":13072,"Schäden</w>":13073,"requests</w>":13074,"engineering</w>":13075,"Mein</w>":13076,"OL":13077,"ress":13078,"done":13079,"Dadurch</w>":13080,"experiences</w>":13081,"replace</w>":13082,"leisch</w>":13083,"Foto</w>":13084,"Amerika</w>":13085,"articles</w>":13086,"ublin</w>":13087,"drugs</w>":13088,"Leu":13089,"streichen</w>":13090,"launched</w>":13091,"lst</w>":13092,"wiederum</w>":13093,"Gali":13094,"Bedenken</w>":13095,"Find</w>":13096,"heavy</w>":13097,"seien</w>":13098,"Fenster</w>":13099,"tzei":13100,"Studie</w>":13101,"compensation</w>":13102,"websites</w>":13103,"Press</w>":13104,"rank</w>":13105,"Scho":13106,"master</w>":13107,"befassen</w>":13108,"charming</w>":13109,"unternommen</w>":13110,"keiner</w>":13111,"sens</w>":13112,"cription</w>":13113,"philosoph":13114,"mur":13115,"Back":13116,"finding</w>":13117,"meldung</w>":13118,"Datenbank</w>":13119,"anerkannt</w>":13120,"concep":13121,"bedrooms</w>":13122,"Schule</w>":13123,"lay</w>":13124,"streets</w>":13125,"konkreten</w>":13126,"sonsti":13127,"regelmäß":13128,"inary</w>":13129,"Hän":13130,"ffer":13131,"appeared</w>":13132,"Schü":13133,"Ga":13134,"erei</w>":13135,"Strategien</w>":13136,"zielt</w>":13137,"River</w>":13138,"Gep":13139,"texts</w>":13140,"Komment":13141,"Temperat":13142,"discovered</w>":13143,"centres</w>":13144,"emed</w>":13145,"flüge</w>":13146,"rote</w>":13147,"eight</w>":13148,"karten</w>":13149,"oples</w>":13150,"aktive</w>":13151,"sieben</w>":13152,"kir":13153,"Marketing</w>":13154,"Waff":13155,"units</w>":13156,"Grundsätze</w>":13157,"dokum":13158,"Sitz</w>":13159,"na":13160,"rauch</w>":13161,"Redu":13162,"zwan":13163,"Übereinkommen</w>":13164,
[...]
